[PAD]
[UNK]
[START]
[END]
!
,
.
?
a
b
c
d
e
f
g
h
i
j
k
l
m
n
o
p
q
r
s
t
u
v
w
x
y
z
che
la
il
di
non
in
per
si
un
come
con
da
ha
le
mi
cosi
se
piu
una
sono
questo
ho
del
ma
suo
loro
sua
quando
al
della
era
gli
mio
lo
perche
nel
cui
ora
io
mia
essere
dove
alla
me
qui
dal
poi
ci
lui
##no
tu
ti
prima
##re
questa
altro
solo
quello
nella
uno
stato
occhi
ancora
li
anche
visto
tutti
amore
verso
dell
dei
dalla
chi
##ta
fatto
su
ogni
tua
stesso
##ndo
senza
##va
##to
disse
all
tutto
ne
cielo
quella
##ti
luce
modo
puo
##te
suoi
allora
grande
mai
sulla
tuo
quel
aveva
noi
hanno
dio
cio
te
tempo
attraverso
terra
due
lei
sotto
sue
colui
uomo
vedere
bene
altri
parte
alto
cosa
miei
mondo
fino
parole
volta
hai
sole
ad
quanto
tra
erano
sia
delle
fa
detto
egli
anima
desiderio
queste
sei
mentre
dopo
sempre
dall
questi
vita
quale
ai
tale
##ra
altra
piedi
gia
nell
deve
lungo
primo
sul
sembrava
nostra
siamo
cose
spirito
##rsi
##i
natura
molto
punto
mente
sopra
vicino
nostro
ero
##ro
luogo
proprio
quelli
alle
nuovo
meno
##nte
appena
vista
strada
cuore
fare
sguardo
dire
esso
potere
pi
tutte
tre
davanti
voi
contro
cerchio
quindi
ed
sarebbe
nome
vi
posto
guarda
dolce
cos
secondo
tanto
guida
giorno
parlare
forza
##rlo
fuoco
##ni
##nti
quelle
##le
##mente
##e
##rmi
volte
##a
parola
##ri
##vo
figlio
fu
##ne
morte
momento
padre
corpo
##li
##si
intorno
troppo
maestro
nelle
testa
degli
##o
causa
possa
volonta
verita
dice
lontano
signora
tuoi
po
##rono
aria
stata
perch
basso
quell
dolore
volto
##s
dato
##rti
stessa
fosse
mie
voce
male
abbiamo
anime
dico
sara
fine
via
coloro
porta
sembra
avanti
donna
stati
##sse
dai
##t
##n
grazia
dietro
##vano
mezzo
##zione
fuori
acqua
sentito
rispose
persone
indietro
nessuno
presto
##r
andare
nei
ombra
tutta
paura
pu
viene
forma
mare
vede
faccia
nessun
##mi
signore
##so
gioia
sangue
dentro
##lo
passi
mano
occhio
beatrice
fronte
dalle
mani
altre
vero
##na
ragione
discorso
notte
vidi
vedi
aspetto
finche
forte
##vi
spiriti
splendore
citta
padrone
venuto
uomini
inferno
bisogno
nobile
quest
va
piacere
puoi
##mo
chiaro
dovrebbe
lasciato
aver
avrebbe
fiamma
giusto
meglio
entrambi
nulla
buon
stelle
petto
qualcuno
sapere
fede
##ci
fece
gente
##la
ali
trova
cristo
raggi
spesso
preso
destra
insieme
molti
sta
##se
regno
dissi
eterno
santo
speranza
chiaramente
portato
##ssi
avevo
giu
persona
quei
bella
forse
##amo
virtu
nostri
sull
poco
##sa
grido
inizio
lato
posso
##mento
alta
eterna
allo
montagna
sentiero
fondo
vostra
colore
essa
ecco
subito
vuole
interno
qualcosa
capo
vedo
roccia
valle
##ca
riva
stava
qualche
gloria
tue
##zza
##nza
pace
sola
stessi
canzone
qualsiasi
##zioni
guardare
messo
pensiero
perso
fiume
##bile
lingua
sai
immagine
oltre
quattro
vuoi
ciascuno
stella
poiche
tanta
bocca
passo
umana
fanno
pieno
quasi
colpa
giustizia
seguito
ben
senso
vento
molte
poich
potrebbe
sulle
parla
misura
risposta
silenzio
visione
parlato
sinistra
##do
buona
dare
fretta
spalle
lacrime
arte
##ce
lascia
popolo
agli
vera
completamente
ultimo
quali
viso
grandi
possono
anni
dimmi
seno
felice
oro
##tto
credo
vivo
breve
devo
tuttavia
arco
carne
fiamme
andato
capelli
mostrato
sa
sentire
sete
onde
##de
##gli
motivo
nobilt
ognuno
paradiso
peccato
stai
trovato
caso
fonte
rende
tornare
##da
abbastanza
dello
madre
vecchio
vostro
alcuni
comincio
corso
sette
piccola
##rli
muove
pensa
seconda
venire
vide
arrivati
bianco
casa
re
##co
bellezza
canto
poteva
profondo
quegli
veloce
bordo
reso
chiamato
divina
attenzione
avevano
base
passare
segno
cieli
grado
movimento
nascosto
conoscenza
intelletto
##us
albero
##l
##rci
dicendo
memoria
nostre
suono
avere
raggiungere
##tta
alzato
giro
poeta
raggio
salire
seme
aiuto
##mmo
lunga
oh
vergogna
voglio
terzo
avuto
dubbio
mille
peso
so
fratello
pianta
segue
fai
girato
lassu
trovare
##d
##rai
braccia
finito
nuova
parlo
sento
vive
##llo
##rla
cerca
fiori
improvviso
tali
eravamo
piede
##tti
compagnia
legge
resto
##di
ardente
conoscere
libero
ombre
pensieri
apparve
cerchi
mostra
acque
atto
errore
lasciate
vieni
chiesto
cominciato
desideri
diventa
girare
piccolo
portare
propria
volo
capito
caro
dovuto
siete
abisso
angeli
dunque
folla
nessuna
potuto
sui
vedrai
alcun
centro
chiunque
cura
raggiunto
sorriso
accanto
bestia
diversi
fatta
luci
santa
triste
##sce
amico
devi
monte
##che
##nze
onore
parti
prendere
rimane
saggio
##ga
certo
difficile
piena
sicuro
##ma
caduto
colpi
diventato
significato
##lla
##lli
niente
prova
scende
segni
##bbe
##rio
abbia
cibo
guardando
profonda
riguarda
rispetto
pieta
qualunque
roma
sfera
vai
affinche
andati
mostrare
specchio
erba
materia
prende
rabbia
venne
cade
donne
tenuto
virt
ama
aperto
fiore
mortale
perfezione
##ndosi
crudele
fatti
numero
ordine
pensi
virgilio
bonta
essi
fossi
nato
rivolto
spazio
stretto
##y
cima
conto
figlia
polo
ruota
simile
##ia
##nta
avrei
collo
fermo
malapena
marcia
mortali
morto
risposto
scendere
state
unico
##gna
denti
dolcemente
giudizio
ritorno
tiene
tormento
divino
gentile
guardato
ira
pietro
##sta
##ste
dici
esseri
foglie
migliore
profondita
universo
##rvi
cadde
fui
maria
saranno
sensi
sente
##tevi
favore
guerra
paese
passaggio
pianura
pioggia
vendetta
##me
##nto
##rato
##tte
guance
oscuro
ponte
ricordo
tenere
##ato
##ranno
ah
fama
morti
nebbia
nello
no
primi
sonno
viaggio
voltai
capire
divenne
lavoro
pesante
piuttosto
ultima
valore
##tore
chiesa
cinque
frutto
inoltre
luna
saggezza
##rebbe
##uta
ascolta
colpito
freddo
lasciare
possiamo
consiglio
creato
croce
entrare
finalmente
meraviglia
percio
rapidamente
sale
vivente
##io
corona
entrambe
eppure
figli
piangere
spinto
splendente
sto
tardi
voleva
##one
##tura
amaro
cadere
condizione
degno
devono
duro
facile
luminosita
pura
rosso
velo
visti
voluto
appare
bello
concesso
felicita
oggetto
piace
porto
razza
viva
vostri
dono
dura
facendo
fame
fortuna
furono
leggi
merito
passato
pianto
ruscello
##nno
attivit
carro
celeste
letto
nuovi
richiesta
salita
soddisfatto
vedete
virgil
##chi
##sca
angelo
follia
invidia
opere
orizzonte
pastore
riposo
salvezza
spinge
##go
##menti
alzi
chiedi
fedele
libro
mandato
mettere
necessario
oscurita
presenza
##lato
creatura
intelligenza
peccatore
pietra
potenza
rimasto
sguardi
umano
##ggio
##m
##ve
avessi
benedetto
chiedere
effetto
fiducia
gira
grazie
iniziato
laggiu
lentamente
potevo
regione
stare
testo
##rare
##rdo
avesse
bel
camminare
chiama
dolcezza
dov
malvagio
miserabili
oggi
orgoglio
presente
santi
vorrei
##scono
##uti
allontana
arrivo
diverso
muro
possibile
povero
sante
scala
scritto
spada
volti
##nda
chiese
coda
corpi
ebbe
flusso
gola
invano
luminoso
nave
opera
veramente
##ere
##ssero
barba
basta
cammino
cresce
discesa
giusta
illuminato
nasconde
nonostante
rimanere
siano
alzo
ascoltando
buono
guardo
intenzione
latino
passa
pelle
ricevuto
segui
sfere
sorge
umani
##cca
##rto
##sti
benvenuto
braccio
conosciuto
liberazione
maggiore
negli
opinione
##glia
##lle
##pe
attirato
bambino
cambiato
compagni
esempio
famiglia
fango
giovane
parlava
pendio
pensato
puro
soli
sopportare
tanti
tenebre
tranquillo
umile
verde
vostre
##nde
##zio
apparire
bont
colpisce
corte
est
foresta
fossero
infatti
penso
poesia
prese
tipo
vanno
##glio
##nato
##oni
accordo
alcuna
alza
aspetta
conseguenza
diceva
esterno
eterni
pensare
potente
scale
volare
##cchi
condotto
far
fianco
imperatore
improvvisamente
lati
risposi
riverenza
rotto
sarai
##zia
antico
ascendere
azione
campo
degna
dovrei
facilmente
filosofo
frutti
italia
limite
lontana
maggior
mette
orribile
ovunque
ricchezze
riceve
serpente
supplico
##ndi
##rne
altezza
avete
calore
castigo
creatore
distanza
firenze
inizia
rami
sabbia
sarebbero
sembravano
unica
##gi
##sci
##u
##uto
ando
angoscia
cantare
cercato
colpo
dirige
lascio
liberta
mostro
piangendo
schiena
siccome
torna
tornato
animale
aquila
avendo
diventare
dona
fumo
giardino
perfetto
preghiere
prego
prigione
pronto
prossimo
qual
sembrano
semplicemente
tirato
uccello
uso
vecchia
##ng
##rati
##ssa
##tato
altrimenti
amici
cento
continuo
coraggio
davvero
dirlo
dobbiamo
dolci
domanda
evidente
ferite
lasciando
lettore
permesso
superato
violenza
##nt
##on
affetto
alzai
chiarezza
colpevole
diro
fuggito
gambe
meta
naturale
nemico
nord
parlando
pianeta
sar
scendendo
selvaggia
vernacolare
##bi
##cco
arrivare
arti
avvicina
coro
corsa
costa
creature
credi
degni
notato
piaceva
rugiada
sembrato
soggetto
udito
vale
vedova
##gge
##ria
##sto
##zzo
ardore
cesare
continua
corteccia
delizia
freccia
lega
piange
san
venuti
vivere
##bili
##sso
abito
anello
caldo
cattivo
destino
diverse
essenza
farlo
filosofia
misericordia
modi
punta
radice
ramo
ricchezza
scopo
spiaggia
spiegato
tomba
vedono
aiuta
brilla
castello
cercare
chiavi
fate
ferma
ghiaccio
labbra
leader
lode
minos
muse
nascosta
palude
peccati
perdono
scelto
tormenti
##era
##voli
avrai
banca
chiamata
chiara
desidera
dieci
disegnato
dritto
fossa
fuggire
fulmine
nuove
possiate
punti
resa
scorre
sembrare
servire
significa
soffrire
sorridente
sospiri
terreno
terza
vestito
voci
##lmente
##rata
##rsa
canzoni
chiuso
cominciai
guidato
impossibile
liberato
lucentezza
nido
obiettivo
pena
piegato
resistenza
sogno
vedendo
vela
vicini
##ati
##remo
amare
argomento
attento
attraversato
bagnato
cancello
cattiva
cieco
dito
esperienza
falso
giorni
gran
inganno
invece
isola
lento
quinto
rosa
ruote
scintille
seguire
sposa
uscire
vederlo
vederti
vediamo
venti
verit
voltato
vuoto
##are
##vole
addosso
argento
arriva
arrivato
buio
circonda
com
coperto
esistenza
essendo
faccio
felici
ferro
figura
gentilezza
intende
muoversi
nemici
pane
perfetta
pesci
pienamente
regina
rive
sacro
seguendo
ufficio
##ccia
##ute
altrove
amato
assicurati
conosce
contrario
diede
fermato
mattino
orlo
perdere
poteri
potrei
ricorda
ripida
sapienza
stanco
stupore
sufficiente
supremo
treno
##ccio
##ggi
ce
collina
corre
coscienza
decreto
dica
guardate
mento
mise
oscura
regni
respiro
ricevere
sacre
seduto
siate
sigillo
stanno
tramonto
vedeva
vengono
visibile
##gia
##lare
##rei
##rta
amicizia
audace
azioni
beatitudine
cera
certa
colori
contiene
costellazione
dagli
durante
effetti
fara
nero
neve
nobili
picco
scomparve
somiglianza
sorgente
spiegare
tante
teneva
tracce
velocemente
##er
##ngono
##rra
##rso
##sco
##sione
accende
agnello
alberi
alzare
amante
ascoltare
buone
buoni
cane
debole
direzione
forme
governa
limiti
malvagia
menzionato
miserabile
nuvola
oggetti
ossa
perfettamente
presa
qualit
scoperto
serve
tal
vinto
##gato
##lta
##pa
##usa
abita
bruciato
cittadini
cuori
danno
dritta
fratelli
gregge
guido
particolare
rimase
selvaggio
senti
soffio
solitaria
tempi
unisce
venite
vuota
##dio
##ero
##gno
##ppo
##rgli
##rie
andiamo
avarizia
cantando
commento
crede
danza
diavolo
formano
immediatamente
libera
marte
moglie
peccatori
permette
pieni
raggiunge
riconoscere
trovano
vetro
##cio
##dia
##fica
##ge
##lti
##nare
##nia
##th
accordi
alba
alcune
alti
bassa
beni
caduta
comune
confine
corno
cortese
disprezzo
implora
ingresso
lago
lamenti
luoghi
mantello
morire
muovermi
mura
opportuno
orecchio
pochi
ricco
ricompensa
rispondere
scrittura
sii
solito
sostanza
suprema
tremante
tremare
trionfo
vedrete
##oso
##pi
afflitto
arrampicarsi
avevamo
battuto
beati
cintura
comincia
compagno
compiaciuto
conduce
confini
deriva
deserto
diluvio
discussione
fargli
felicit
fissando
fossato
lamento
lancia
mantenere
moto
nasce
peggio
pericolo
piano
posta
raccolto
scelta
serrature
sofferenza
sovrano
torre
##cato
##cci
##ggia
##nge
##nse
##rate
##samente
##ura
ala
anno
apri
avvicinandosi
bestie
cancellare
circondato
conforto
contento
doveva
entrato
evitare
fatica
ginocchio
gioire
grida
lanterna
legato
menti
orientale
pensavo
preghiera
produce
rendere
ritorna
salvato
semplice
sopracciglia
terrore
vado
vivi
voglia
zaffiro
##ata
##nna
acceso
allontanato
animali
barca
bisogna
cambia
dannazione
dimostrato
dovresti
entra
faro
finale
inverno
leone
linea
miseria
mosso
piccoli
possiede
poveri
principi
racconto
riconosciuto
riposare
risplende
rocce
sentirti
serpenti
siede
sorella
stavo
tema
vapore
##ente
##gare
##gni
##mato
##ndomi
##ntato
##tro
##zze
alte
aristotele
attesa
cambiamento
carico
certamente
chiamo
compassione
continuare
data
dichiaro
dovere
eccellenza
esce
ferita
folle
frecce
girando
guardava
ministro
morbido
pancia
pecore
pensando
potesse
sera
tempesta
terribile
teste
unito
utile
##lto
##nce
##ppi
##ure
abbandonato
accompagnare
adamo
adornava
arrampica
aspettare
battaglia
beh
borsa
brucia
calmo
casti
costretto
diritto
domande
feroce
fili
fuggirono
giove
gradini
intero
muoveva
nuvole
orgoglioso
portarlo
profondamente
protetto
riposa
rivelera
rotti
sorrise
strappata
supera
superiore
tranne
trono
venere
##enti
##ue
andando
avrebbero
benedetta
brezza
cantero
contenta
credere
dimora
eccesso
esiste
fardello
gelosia
genere
liscia
manca
membri
nemmeno
ordinato
ordini
oscurato
pendici
percorso
potete
riempie
rivelato
saro
sentiva
servizio
servo
sesto
stesse
terre
uguale
vengo
vittoria
##b
##eri
##llato
##zi
adulazione
afferrato
almeno
belle
bianca
buco
compito
contemplare
contenuto
dallo
doloroso
eri
eterne
fecero
fin
fissato
fosso
futuro
grembo
gridare
immobile
importa
lupo
macchiate
membra
minore
nascita
nient
pentimento
piante
portano
prenderlo
prestato
purificata
ragioni
ricerca
riesco
ritardo
scelse
scuotendo
spalanca
spostato
suolo
suona
suoni
trafitto
unita
usato
utica
venga
venuta
verdi
##ate
##ba
##dito
##rse
##tare
adorna
arrabbiato
calliope
cambiare
canne
carita
chiarire
condurvi
conosco
cresta
descritto
dicono
dubbi
fontana
giovanni
impero
lamenta
livello
luminosa
mancanza
negata
orecchie
papa
partire
pianeggianti
portava
possano
possesso
pozzo
ranghi
rumore
sarei
scogliere
sgorga
silenzioso
soddisfare
sofferto
soglia
suonava
termine
torno
velando
##ch
##k
##tori
##zzare
adatto
agire
antenati
antichi
aperta
apparso
armonia
attraversa
avvicino
bosco
brillante
cammina
carlo
celesti
cinse
considerato
direttamente
doni
editti
falsa
farmi
fase
formato
gioioso
gridavano
guardano
infrante
lenti
necessita
neghi
nodo
nomi
nudi
offerto
ore
origine
oscurati
portata
provvidenza
punizione
purificano
quarto
resta
riflette
rivela
rompe
sbagliato
scienza
sconfitto
sentieri
soccombere
sopportato
spalla
splendera
storia
temere
torrente
tratta
trattato
tristezza
urto
vissuto
##bo
##es
##h
##mare
##ngo
##nni
##po
##rd
##rda
##sioni
adatta
attira
avidita
bambini
brillare
canna
canta
cantava
capitolo
causato
chiedo
comprensione
coppia
diffonde
distrutto
doppi
esilio
estende
falco
falesia
figliolo
gelo
guardavo
imparare
incoraggia
intervenente
legno
linguaggio
luccichio
magpie
meraviglioso
meritevole
metterei
navigato
nota
opposto
ottenere
percepito
perde
permettici
piombo
porti
prime
responsabilita
restaurato
riferiro
risultato
sacco
sembro
sicuramente
splendere
tesoro
trasformato
tristi
vie
volont
##ale
##ggiare
##gio
##glie
##ntare
##rano
##rle
##tiva
##ture
##um
aleggiando
anzi
armi
beato
bianchi
brutto
caccia
chiede
cingerlo
conobbi
considera
contaminazione
contattato
correre
dawn
de
desiderare
difetto
dite
emisfero
farti
fogliare
giusti
guai
indurire
merita
miglia
morbosa
naso
nudo
ormai
piume
plaiant
potevano
potrebbero
prove
ricordare
rimasti
seduti
sorpassando
sperimento
splendori
strappato
striata
tebe
tempio
trasforma
venerate
vizio
voltiamoci
##bilmente
##ccato
##cia
##ggono
##lico
##nd
##rno
##stro
##tivo
##uro
##vato
accade
antica
attentamente
avvicinarsi
avvolge
brevi
cause
cercando
circa
comando
confuso
dovete
eccetto
entro
eta
festa
fogliame
fuochi
giace
greci
gruppo
immaginazione
indicato
intendo
letterale
lotta
mantiene
mattina
musica
orrore
parli
preda
prezzo
primordiale
principale
quanti
riflesso
sacra
saggi
salito
sappiate
secoli
simili
soddisfazione
soggiorno
soldi
sollevato
sorte
successo
tagliato
toro
troia
tuono
versi
##ali
##cata
##ele
##ggiato
##gne
##osa
##p
##razione
##rce
##rt
##tamente
##tus
##vento
##via
##zzi
aggiunto
ansioso
bagna
cani
cantato
caratteristiche
cattivi
cavallo
copre
cristiani
discende
distinguere
dovrebbero
forti
frode
immagini
mostrano
porte
procedere
quinta
riuscivo
romani
sappia
scintilla
seguente
sentii
servito
sfuggire
sorridendo
sostanze
sveglia
tieni
tocca
traccia
tratto
troverai
veloci
veniva
videro
vince
vola
##c
##dire
##en
##gliato
##in
##mette
##mita
##rdi
##rete
##ttato
##ulo
anch
beatrix
cara
cavalieri
chiamare
ciechi
compreso
consegue
cresciuto
destro
disposto
fianchi
fisica
fisso
gioco
giudice
giustamente
gridarono
infinita
liberamente
lingue
muore
muovono
ovest
padri
parvenza
piacevole
pietre
precedente
presso
raccontare
regna
reputazione
ritmo
sapeva
scorta
sinistro
sospiro
specie
stretta
tronco
veste
volete
##care
##cche
##duto
##ghi
##lita
##ll
##nata
##nati
##nga
##vare
aiutato
appaiono
arno
artigli
avvicinava
biasimo
brillava
bruciare
consapevole
corda
correva
demone
discernere
diversa
eternamente
eternita
etica
facce
ferito
finisce
foglia
girati
gradi
grano
gridando
guardi
incendio
indica
interamente
ladro
lodare
moltitudine
mostrando
perse
piega
prendi
preoccupazione
prezioso
promesso
qua
questione
rapido
richiede
risponde
rivolse
sana
sceso
soprattutto
splende
trema
trovo
ucciso
uniti
uscito
vecchi
vele
vergine
vincere
vogliono
##bbero
##ck
##f
##llata
##nate
##ndono
##ntemente
##ppa
##simo
##vera
##zzato
ampio
andata
apertura
avvicinato
cavaliere
condotta
dappertutto
dignita
esattamente
fedeli
fermati
filo
fissi
formare
fuggi
generato
illumina
ingannato
insegna
insegnato
istante
lasci
latte
leggero
maledetto
melodia
molta
morso
mostri
nera
odio
opinioni
pensate
perdita
posizione
prodotto
quaggiu
radici
rapito
rovina
sezione
sposo
stanza
strano
tradimento
vapori
ventre
verra
vivono
volume
voti
##ana
##dita
##lati
##lito
##lte
##nera
##ssato
##st
##stra
##vita
abitudine
afferma
alzati
andate
appetito
ascoltato
aumentare
auto
autore
avvicinano
campi
chiave
colei
colpire
cortesia
diga
dimostrare
diretto
dita
diviso
esercito
glorioso
guidare
impronta
intento
leggere
lodi
manifesta
mantenuto
moda
mouth
naturalmente
occasione
partito
platone
potra
poverta
preparato
primavera
promessa
reale
respira
rifugio
rotondo
sappi
saputo
seguono
sembrerebbe
studio
tacere
uni
vattene
vino
volentieri
volere
zona
##an
##cciato
##cita
##dere
##eto
##g
##lza
##mia
##rando
##ui
##vio
affligge
alzano
angelica
aprire
cadono
camminando
comprende
considerare
considerazione
corde
cristiano
demoni
denso
dia
ebrei
er
errori
fantasma
gigante
gioiosa
gusto
illustre
impulso
lasciata
marito
maturit
mezzi
movimenti
penitenza
pero
piaciuto
poche
poeti
privato
provato
puzza
quarta
ragionamento
regola
scoprire
segreto
sentivo
sforzo
siena
soffia
sorpresa
spinta
temo
timore
traditore
uccelli
universale
vaso
viventi
volse
voto
##ano
##cano
##dizione
##ficato
##gnato
##ico
##late
##mina
##mpi
##rita
##rna
##uale
##usto
##w
achille
afferrare
ahime
allontanati
angolo
anticipo
apre
autorit
avresti
bere
cenere
cliente
cordone
crea
creati
definizione
densa
desideroso
dicci
dipende
distinzione
dovesse
enea
facolta
fiammeggiante
filosofi
fortezza
francia
gettato
giganti
ginocchia
grandezza
impedisce
liberi
lontani
migliaia
minaccia
morta
mose
nature
note
nutrito
passione
pastori
penetrare
percepire
pesa
principio
proposito
raramente
rendono
riguardo
scudo
sereno
sordello
sorgere
sparse
spezzato
standard
stavano
stupito
toscana
tutt
umilta
vanita
volevo
##curato
##ggiando
##ghe
##ino
##lit
##pia
##rico
##riti
##rito
##rte
##rum
##tata
##telo
##uca
##utato
##x
affrontare
ago
amo
arroganza
ascesa
assegnato
atti
attimo
attraversare
avermi
avra
cantavano
chiamava
chiesi
chiostro
creduto
dannati
dara
discorsi
doppio
faceva
fra
furia
gentili
grave
gridato
guadagnare
guadagnato
imparato
impedito
infine
intelligenze
lamentele
liberati
lupi
manifesto
muso
nascondere
necessaria
obbedire
offrire
partenza
polvere
posti
pregare
profumo
quante
rendeva
rete
ripido
sembri
separato
settimo
spaventato
spezza
stabilito
stagione
tace
teme
toglie
tornando
trascinato
usci
vari
vasto
veda
vedevo
vicina
##cce
##cente
##cento
##dico
##disce
##ed
##el
##fa
##lano
##ldo
##pro
##rre
##sizione
##tica
##uri
##usi
##vide
abbandona
abbiate
altissimo
avanzare
avido
becco
brevemente
brillano
bruto
chiamati
chiude
ciascuna
conosci
consiste
contemplazione
corse
costringe
debito
desiderato
devoto
discese
doppia
dottrina
espande
febbre
fissa
francesco
fugge
genera
gesu
gi
giovani
giovinezza
giuda
guardia
interiore
jetzo
mal
mantova
menzogna
miracolo
moneta
muovevano
nobilta
pagare
pallido
parere
passando
patria
pene
pesi
poter
prato
pronti
rango
retta
ricchi
riempito
rispondo
sanno
sciolto
semi
sottile
specchi
spirituale
stretti
the
tonalita
torri
toscano
unghie
usare
volsero
##alla
##am
##be
##dente
##dica
##et
##gione
##gliati
##lata
##lse
##nale
##nne
##nuta
##os
##pita
##ppe
##stito
##tando
amori
apparenza
appropriato
aspetti
audacia
battesimo
bottino
capace
chiamano
circondano
combattere
conclusione
conoscevo
continuato
costruito
credendo
crosta
cure
deboli
digli
dipinto
diventano
elementi
fallo
fatte
gesto
ghirlanda
girava
gonfia
governo
greco
guadagno
idea
incontro
influenza
inutile
ladri
lamentarsi
lampo
lutto
malvagita
marmo
martirio
migliori
morale
mucchio
nati
notare
notizia
nove
onda
oriente
osservare
ostacolo
palazzo
penna
pesanti
pezzo
piegati
poli
portera
potessi
prendendo
prepara
riconosco
ricordi
rimasta
salendo
sapevo
saresti
sesta
sfumature
sicurezza
sofferenze
spegne
sugli
superare
superficie
supplica
termini
tirare
tono
torto
tratti
tribu
trovava
umilmente
usanza
verme
vite
volle
zelo
##cura
##fano
##ffa
##fo
##ggiante
##gnati
##lda
##llare
##lt
##messo
##minato
##nali
##niamo
##pri
##rava
##resti
##riamente
##rnato
##rni
##roso
##ssimo
##tazione
##ua
##uso
##uzione
##za
abbassa
abilita
amorevole
avvicinati
ballo
camminato
capisci
chirone
chiudere
cinge
cominciarono
commesso
compiuto
completo
condurre
consolazione
cristallo
devotamente
dimostra
drago
ella
et
feci
fuga
gigli
gioiello
giurato
gloriosa
gradino
incinta
infinito
inno
insegnante
lamentano
lussuria
meravigliosa
mescolato
messa
metti
mostrava
nascoste
obbediente
organi
parete
pellegrino
pensano
pensava
pertanto
piaghe
piccarda
pratica
privilegio
pronta
riesce
ripreso
saliva
sappiamo
scappare
scorrere
seduta
solleva
sorpreso
spagna
spessa
sporcizia
testimonianza
torcia
trasparente
truppa
twixt
varie
vedra
vestiti
vile
##ad
##bra
##duce
##eni
##ficazione
##ing
##ldi
##letto
##lgono
##lve
##metto
##mila
##nio
##ns
##nus
##pero
##plo
##presso
##rea
##reste
##rge
##rs
##tano
##una
##uo
##vere
##vocato
abbassato
affatto
ami
attuale
aumenta
avessero
avevi
avranno
azzurro
bastone
batte
bordi
briglia
brillanti
centauro
certezza
cieca
compimento
concepito
condizioni
consenso
copertura
correndo
crescere
crimine
dannato
dargli
destinatario
dissero
distinto
dolori
dominio
enorme
fair
false
falsi
farebbe
finora
frattempo
generale
giaceva
gioielli
godere
gravi
gridava
guarito
imperfezione
indicare
indossare
infiammato
inganna
lethe
liberalit
malizia
membro
messaggero
misericordioso
modesta
mori
nata
neri
nutre
offesa
osserva
ottavo
patto
peggiore
periodo
pezzi
porre
prendono
profondi
propriet
qualcun
ragazzo
reader
remi
richiesto
ricordati
riesci
riflessa
rimangono
riposato
riprese
robusto
ruscelli
ruvida
saliti
scesi
scritti
sentimento
sforza
silenziosa
sostenere
spettacolo
stile
tommaso
troviamo
udii
vederla
veleno
vene
versato
vetta
viveva
zampe
##ante
##anti
##as
##bia
##bito
##ciato
##dono
##eli
##fatto
##gano
##gliata
##iare
##ie
##is
##itto
##lisce
##mettere
##ngere
##nsione
##osi
##pra
##rn
##ssima
##stri
##tudine
##ualmente
##uita
##viato
adesso
afferra
affretta
aiuti
altezze
alzarsi
amara
ampia
anelli
appartiene
arbitrio
arrivando
attenti
ave
banda
benedetti
beneficio
bollente
camminavano
candela
capacit
charles
combattuto
commosso
completa
conte
contenti
continuamente
costante
costanza
creata
culla
desiderate
destinato
devozione
difesa
difficolta
disceso
discusso
duri
eredi
fuhrer
fulmini
genio
girano
giudicare
glutine
gratitudine
grigio
guardai
immaginare
incandescente
intenti
manda
mangiare
maturo
meriti
minosse
mite
nascere
necessariamente
ninfe
nipote
oceano
orribili
orsi
osservando
pagine
palo
pari
perduto
piangeva
portati
possedere
potrai
prenda
presi
priva
pronunciato
ride
ridere
rifiuto
riusciva
rossa
sapore
scegliere
sede
seguimi
sensibile
separati
sogni
sostenuto
sostiene
spera
stese
stiamo
sublime
toccare
toccato
tombe
trarre
tromba
trovera
turno
umanita
usa
vecchiaia
vere
vesti
zanne
##ccata
##cciare
##cciati
##ciso
##dare
##die
##ene
##este
##ette
##ficare
##ggiano
##glione
##gue
##iato
##isce
##ito
##llati
##llito
##luto
##ly
##mene
##mma
##ndere
##nerlo
##nire
##pone
##rale
##rante
##rdito
##rgo
##tico
##trice
##ttare
##uito
##ur
##usta
##vedere
abbi
abbondanza
aggiungere
allah
allontano
alzarono
alzata
aperte
arca
argomenti
ascolto
aspettato
avversario
cantano
cantante
capisco
catene
certi
chiuse
cicerone
codardia
comanda
comprendere
contadino
corrente
corretto
custodisce
dando
darmi
desidero
differenza
digiuno
dimenticato
dirmi
disposizione
diventata
don
dovevo
eh
entrati
esaltato
esprimere
europa
fabbro
fascino
fermarono
fermarsi
fila
fornito
forze
fresco
genitori
getta
girone
guancia
ieri
immenso
impara
importante
improvvisa
incontrare
inferiore
ingannare
iniziare
intera
lampada
largo
leggera
lunghezza
magro
maledetti
malvagi
malvagie
mangiato
messaggeri
mostrera
nascosti
noto
orme
ornamento
ottiene
parlate
pascolo
passati
perla
piaceri
piangevano
piene
possibilita
potresti
pregato
principe
prossima
protezione
qualita
questioni
raccoglie
redini
ricordato
riferimento
riflettere
rimasero
romano
rotta
saluto
sbaglia
scintillante
scuola
scuro
sebbene
sentimenti
sepolcro
serviva
sforzi
soffre
sorrideva
spinse
spogliato
stanchi
steso
stupido
taglia
tagliata
tavola
tende
tolto
tregua
tremava
vada
vangelo
vantaggio
venivano
vennero
visibili
vivevo
volendo
volgare
vorrebbe
##ang
##ard
##bbie
##ccare
##dicare
##ende
##eta
##ff
##ficio
##fico
##gati
##idi
##iera
##ina
##iti
##lia
##lio
##logio
##lone
##lvo
##mati
##ncia
##ndolo
##neva
##nso
##nziale
##nzione
##portato
##posta
##rba
##rco
##reo
##roni
##rosi
##scina
##solato
##ss
##ssare
##stero
##tezza
##tre
##uco
##uoso
##urito
##vata
##vido
##visione
##volo
abbassati
abiti
accolto
addolorato
affilato
aggiunge
agisce
agonia
agostino
antiche
aperti
artigiano
astinenza
astro
attende
aumento
autorita
belli
bersaglio
caduti
cambio
canti
capra
catturato
cerbero
chiamavano
chiare
chiari
chiedendo
cioe
citt
colline
conosceva
creazione
dammi
diavoli
diminuisce
disgrazia
distante
divisa
dovessi
eletti
espressione
facciamo
facevano
fammi
fedelta
federico
fermi
fini
finire
fiorisce
fissare
fornire
generoso
germoglio
gerusalemme
giallo
goccia
grotta
imperiale
incontra
innocente
insegnamento
jason
larghezza
legami
lucca
lunghi
malato
malattia
margine
massa
montagne
mossi
motivi
muto
nuda
occupa
offre
ottava
ottenuto
paga
paglia
parenti
pareti
parlavo
passava
piaccia
piove
piumaggio
pone
popoli
posato
povera
prigioniero
problema
procede
prudenza
relazione
rimaneva
ruotando
salvare
sano
sapessi
sardegna
sconosciuta
scusa
seguirono
seminato
sentendo
sicuri
sincerita
soddisfa
sostegno
spine
sud
suole
suonare
temperato
timido
togliere
tornate
trovi
ulteriori
urla
usciva
valli
verifica
vicine
##and
##ando
##ar
##ara
##asse
##azioni
##brare
##brio
##cati
##cchetto
##ciare
##citato
##dato
##denti
##diato
##durre
##esti
##etti
##ficenza
##fici
##forme
##gata
##gente
##ger
##ggianti
##igurato
##lmo
##lus
##mentare
##mettono
##minare
##mini
##nava
##ncio
##ngeli
##nica
##ntire
##pisce
##plica
##rarono
##rbita
##rera
##resca
##rma
##rro
##rus
##scia
##scio
##scritto
##seguire
##stato
##teso
##tua
##ucci
##ude
##uisce
##ul
##unta
##unto
##ut
##utti
##venire
##vero
##z
##ze
##zie
abate
abbassando
abilit
accesa
addice
agita
ansiosi
anziani
apparira
arrivata
aspettando
assoluta
augusto
avanza
bagliore
banchetto
bassi
cacciato
cambiando
carica
caverna
centrale
certe
cespuglio
chiusi
circolare
circondava
compassionevole
conoscono
consapevoli
consigli
consumato
convinzione
coraggioso
curiosita
deciso
delizie
descrivere
devoti
dicevano
difetti
dirci
disgustoso
eclissi
emblema
ercole
esausto
esplorare
estate
eva
fantasia
fiera
fissava
flagello
formata
frase
frate
fuggendo
fummo
generazione
giunti
grasso
guado
guardavano
guidi
incontrato
infamia
iniquita
innocenza
intensamente
intenso
lacrima
legame
lenta
lucia
mali
massima
mese
messi
migliaio
modesto
montato
mosca
mostrargli
mostrata
negato
notizie
nutrimento
obbedienza
odore
ordina
organo
otto
palma
pavimento
pece
pentirsi
perdona
pericoli
pesato
piegare
poppa
portando
portavano
produrre
profitto
profonde
pronunciare
purezza
qualcos
rabbrividire
racconta
rapida
razionale
realt
rese
riferisce
riparo
risata
risorto
risuona
risveglio
rivoluzione
roccioso
saggia
scaturisce
scogliera
scopre
scorreva
sedile
sepolcri
serva
sfuggita
situazione
smarrito
spara
stavamo
succo
sultano
tenne
terrazza
terrena
tormenta
trenta
trovavo
uffici
uguali
ultimi
umane
uniscono
vascello
viola
visse
vizi
##asi
##atti
##azione
##cate
##cchia
##cchiato
##cciate
##chio
##colare
##colo
##cro
##dicato
##diva
##doro
##eno
##ferisce
##ffo
##gili
##gliere
##gnata
##gra
##iano
##lazione
##lera
##mata
##messa
##metro
##mise
##moto
##ndoli
##ngi
##niera
##niere
##nieri
##niva
##ntri
##onale
##onato
##ose
##pesse
##piti
##pla
##pose
##ppone
##prende
##ranti
##rde
##rena
##rgono
##riamo
##rigo
##rino
##riva
##scende
##sio
##ssus
##stinato
##strato
##teli
##tolato
##tuito
##uncia
##uni
##venti
adige
affrontato
allegro
allontanano
altrettanto
apparsa
appello
appoggia
archi
assicuratevi
assume
astuzia
atteggiamento
attiva
avro
avvicinarono
avviene
banche
band
benefici
benevolenza
brama
camminava
campagna
capi
catturare
cervello
circuito
cittadino
compie
comunque
condusse
conserva
continuava
coperti
correttamente
cosce
credete
crinale
descrive
desiderosi
dichiara
dipinge
diretta
dirgli
dis
disegna
disgraziato
disprezzato
diventando
divide
dote
effettivamente
esistono
fedelmente
fiato
finita
fiocchi
fiumi
futura
generosita
gerarchia
giuste
gridano
guaritore
guglielmo
hosanna
immerso
implorare
incantesimo
inclinato
ingiustamente
intellettuale
inventato
irradia
istruzione
lasciarlo
latini
leggermente
lettera
macchina
magno
manna
margini
mari
metafisica
natale
nere
occidente
offende
osanna
ostile
paolo
paragonato
peccare
pegno
penetra
perdendo
pesce
piacevoli
piangono
piccole
piegata
pio
poema
portale
portate
potenti
prendete
previsto
problemi
promesse
propri
pur
puttana
raccogliere
raccolti
rana
regioni
resi
resistere
rimedio
riscaldato
rivolta
ruolo
salomone
salta
salutare
sang
scendeva
sciame
scrive
secca
segnale
seguivano
separa
sepolto
sfuggito
silenziosamente
sogna
sol
sollevare
sommita
sordo
sorprendente
sorridere
sospirando
speciale
spiego
spina
splendido
stima
strappa
taciuto
terrene
tornati
torniamo
trasgressione
trattare
trincee
troni
troverete
turbato
vana
vedevano
vertice
vigore
voler
volge
voltare
welcome
##buisce
##cava
##ccessivo
##cisione
##clude
##cone
##data
##diare
##dici
##duta
##eda
##ello
##elo
##etto
##eus
##fie
##fitta
##gen
##gga
##ggere
##ggiava
##giato
##gile
##gina
##gnare
##gono
##ion
##ira
##ita
##itti
##liati
##llio
##loni
##naio
##nca
##nche
##neri
##nete
##nita
##nsa
##ntati
##ntero
##nuto
##nzo
##pide
##pidi
##pina
##posto
##prime
##rchi
##rdia
##reta
##retato
##reti
##rica
##rmente
##rminato
##rrendo
##rrono
##rvo
##sure
##tate
##tati
##tente
##tola
##tra
##tt
##ttile
##ttima
##ttito
##tu
##udi
##ugh
##ulgenza
##uli
##ulta
##umi
##unciato
##uno
##use
##vede
##vidi
##volmente
##ziose
##zioso
abbandono
accese
accompagna
accusa
acquisire
aiutarmi
alloro
amano
anchise
andavamo
andavano
ansia
apollo
applica
ariete
armato
arrogante
artista
assunto
attaccato
attorno
bandito
battere
bellissimi
brace
bruciano
buia
camminavamo
capisce
catena
cede
chiamate
comandato
concede
condividere
condiviso
confessare
confusione
conquistare
conquistato
considerata
conti
continuate
cori
corna
corone
cupidigia
date
denaro
desiderava
direi
direttore
disegno
dispiace
dispiaciuto
distese
distingue
divennero
dorso
drob
dubitare
duramente
esistere
esperto
esposizione
essersi
esterna
fallisce
farsi
fiaccole
fissati
fitta
forchetta
formando
fortemente
forzato
francesi
freno
frusta
furore
gange
germogli
giacciono
giogo
gioie
giudica
globo
griffin
grotte
guadagna
guadagni
ignoranza
impostato
incline
indossava
indugio
infelice
infiamma
innamorato
inseguimento
ispira
labbro
lasciati
lavinia
lavorare
lettura
libri
lodevole
lombardo
macchia
macchiato
malebolge
marchio
mascelle
meravigliarsi
meridiano
mestiere
metto
mezzanotte
mezzogiorno
minimo
mira
modellato
monti
morali
mosse
mostrarti
mostrati
muovere
nacque
nude
obbedito
on
onesta
onorevole
ovile
palpebre
parlano
patriarca
pazzo
pennacchi
permettere
persa
peter
pistoia
piuma
prega
pregate
presenta
preziosa
primale
provare
prua
pugni
punisce
pure
puri
purificato
radiosita
recinto
reno
ribelle
riconosce
rinnova
risorgere
risplendeva
risuonava
risveglia
rodano
rubato
ruggito
sacrificio
salmo
saltare
saprai
sbagliata
scendiamo
scherzo
scienze
sconcertato
scosse
sdraiato
segnalato
segnato
seguirla
sentirai
sicura
smesso
soddisfatta
solitario
sopporta
sorride
specificamente
spiegazione
spiegher
statius
storie
strappo
suonano
sveglio
svolta
taci
tagliare
tengono
teso
tira
tiranni
tondo
torce
tornarono
trae
trafisse
trasmettere
trecce
tremo
troiani
trovati
ugualmente
vedermi
veglia
veli
vena
vendicato
veri
versa
versare
versetto
viaggiare
viaggiato
volano
volessi
volpe
vortice
##amera
##astro
##bert
##bire
##cando
##cciano
##cciata
##certo
##chia
##cifico
##ciuta
##cluso
##coso
##dera
##discono
##dori
##dotto
##eso
##ete
##eti
##ferito
##fichi
##gando
##gnazzo
##gore
##hn
##ire
##iso
##lando
##lazioni
##ld
##lin
##ling
##loccare
##melo
##merso
##mine
##missione
##mito
##nazione
##ndria
##ngia
##nzioni
##ole
##ono
##pidita
##pito
##porta
##portati
##posti
##ppato
##rabile
##ramento
##rcio
##rello
##reme
##rezza
##rgia
##riero
##rina
##riormente
##risce
##rutta
##sare
##sero
##sie
##sitare
##spira
##thon
##timo
##ttata
##uardo
##uba
##uci
##uiti
##usti
##utare
##vale
##vaso
##vate
##ziosi
abbiano
abitanti
abituato
adatti
affonda
aggiungo
aggiunta
aiutare
aiutarlo
alzando
alzate
amarezza
ammenda
angelico
antenato
appeso
arde
ardentemente
ardenti
argilla
armati
assolutamente
assomiglia
attacca
aumentato
averlo
avvicinai
bacco
bagno
bellissimo
bloccato
boschi
bruciava
bruti
burrone
cantico
cappello
carbone
cari
cattura
cavo
cercate
chiarito
cinghiale
circoli
circondata
circonferenza
collera
completato
compongono
composto
condanna
confessione
conforme
confronti
confronto
confusa
contare
contenuti
correvano
corrisponde
costantemente
costituisce
costoso
creda
credono
dame
densi
dettaglio
dichiarato
diretti
discendente
disprezza
disprezzare
distesa
divine
divinita
do
dormire
dotato
dovette
dovevano
duca
eccellente
emisferi
entrata
entrate
equilibrio
eretto
estraneo
estremita
fallimento
fatiche
favola
feltro
feroci
fessura
fiesole
fiorentini
fiorentino
forese
formavano
fossati
geryon
giochi
giravano
governare
greggi
guarisce
illuminata
incantesimi
inclina
incredibile
infernale
iniziai
iniziarono
intrecciati
lady
lasciano
latona
lettere
loda
macina
maledetta
mancano
manto
maremma
maschi
materiale
mela
meravigliare
miracoli
miseri
misurare
modello
monta
mormorio
nascondeva
navata
nilo
novita
nuca
oblio
offerta
offri
opposti
osserviamo
pare
partiti
pazienza
pentito
percepisce
perverso
pilota
pose
pote
precipizio
presenti
probabilmente
processo
proclama
punito
raggiunse
ramoscello
rapporto
rari
regale
restano
ricca
riconobbe
riempire
rimani
rime
rimosso
rimprovero
riportare
risplendere
ritiro
riuniti
riuscito
rivelata
rivelazione
rivolge
rivolgo
rivolti
rocciosa
rotolare
saldamente
salite
sapendo
sapete
scaccia
scambio
scappato
sceglie
scendi
scese
schiacciato
scoperta
scritture
scrivere
seguiro
seguo
sella
selvaggi
sembrera
sentono
ser
serafini
serena
sfortuna
singola
soddisfatti
sodoma
sopracciglio
sorelle
sorgenti
sosta
sostengono
spade
spingendo
spingere
sporca
sposta
spregevole
stirpe
stolti
successore
suspense
svanisce
temendo
tengo
tenuta
testimone
tevere
tipi
tormentato
tornata
torni
trasformati
truppe
ulteriore
unione
vacante
vallone
valoroso
vederli
venendo
venerabile
vicenda
violentemente
virtuoso
##almente
##amoci
##atto
##bbia
##bilit
##bio
##bro
##cezione
##chiera
##chino
##cito
##ctor
##cuso
##dette
##deva
##diamo
##dirmi
##dro
##ds
##ducono
##duo
##ento
##est
##fatti
##feo
##ferisco
##ffare
##fida
##fido
##fonde
##ggente
##ggiata
##gie
##gnano
##golare
##gressione
##gri
##gro
##guito
##illa
##lina
##llini
##lva
##lzo
##mandato
##mendo
##menza
##minente
##nano
##nchi
##nciato
##ndeva
##nerla
##nerli
##nfa
##ngente
##ntano
##ntra
##nture
##nute
##olo
##ori
##orsi
##pana
##perata
##petto
##piamo
##pino
##presa
##presi
##pressa
##ravano
##rebbero
##res
##ridi
##riosi
##rire
##ritta
##rpa
##ruzione
##ry
##rzi
##sh
##sia
##sito
##sola
##stanti
##stenza
##tivi
##tri
##tria
##ttando
##ttura
##turi
##tuzione
##uato
##ucchi
##udono
##ula
##ulare
##ulto
##un
##uncio
##unt
##uono
##urro
##urus
##utta
##utto
##uzzo
##vamo
##vertito
##volge
aar
abbandonare
abbatte
abbondantemente
abituale
accoglienza
accorsi
acquisita
addolora
adornano
affamato
affermato
affondare
agitava
alberto
allontanarsi
amabile
amanti
amava
amen
ammirevole
ampiamente
andava
animato
api
apparvero
arrossire
ascoltate
asse
aurora
avanzando
avvolto
ballare
beata
benaco
bolle
branco
bruciando
brunetto
calci
calma
camminavo
cancellato
cancelli
capocchio
cappotto
capre
casi
cherubini
chiedete
coltello
cominciare
compiere
concluso
considerando
contenere
conviene
coperchi
coprono
cornicione
corruzione
corti
corto
costantino
credeva
credevo
crescono
crimini
crocifisso
crudelmente
custodire
definito
detiene
dido
difficilmente
dimensioni
dimenticare
dipingere
disegnare
distinta
diversamente
donato
doth
dovremmo
dritti
ebbi
eccelso
effigie
erbe
eretta
esaminare
escort
esposto
espresso
facciano
famosa
fantasmi
fermata
fiaccola
file
fredda
fuso
garanzia
gemme
giacobbe
gioiosi
giuro
gliel
gonfio
governante
graziosa
guidati
illustri
impedire
infastidisce
infiammati
iniziano
intatto
intelligente
larga
lascero
leggiamo
lodato
lungimiranza
macchie
madri
mancava
mando
manifestare
mantenendo
mantenimento
marchese
marinai
mendicante
mentire
meritare
mesi
mettendo
misurato
monastero
mordere
mulino
muovendo
nascondiglio
nascondono
negare
nimrod
noe
nono
nutrono
obiezione
onorato
onori
opposta
osato
pagina
palme
parente
parigi
parlami
parlarmi
parlarne
parliamo
particolari
paterno
pazza
pendenza
petali
piacimento
piantato
pier
pignoni
pista
posseduto
potremmo
precede
prestito
promette
proteggere
provengono
puniti
pupilla
racchiuso
rane
realta
recente
rendi
resti
rilasciato
rimanendo
rimanga
rimorso
risuonare
ritornando
rivelare
rose
rubino
saluti
salvatore
saperne
scendete
schiere
scritta
seguite
semina
semplici
sentiti
servi
servitori
sesso
sicilia
soldati
soldato
sorta
sospeso
sospira
sottomesso
spento
sperano
sperare
spesa
speso
spoglia
spostare
sprona
stanca
stanchezza
stazio
strade
strinse
superava
taceva
territorio
tessuto
testamento
timbro
timone
titolo
tolse
tornerai
totalmente
tribunale
triplice
trombe
unirsi
urlava
uscirono
uscita
val
vecchie
velocita
veritiero
vermi
verranno
visivo
vorresti
ward
##ain
##ave
##battuto
##bbiare
##bella
##bilire
##bina
##bine
##cante
##ccano
##ccera
##ccessiva
##ccheria
##cchezza
##cchio
##ccolta
##cendono
##cilio
##con
##condi
##cono
##correre
##cure
##curi
##damente
##dendo
##dii
##dine
##dino
##dirono
##dra
##ella
##emo
##ena
##entato
##eranno
##erenza
##eriti
##esi
##estri
##etta
##ffatto
##ficante
##ficiale
##formato
##gate
##gazione
##ges
##ggiati
##gnante
##gnera
##gura
##gus
##hon
##idato
##ilata
##isico
##jo
##lenza
##ler
##lerare
##lica
##lici
##lievo
##lino
##llano
##llate
##ls
##lvere
##mas
##menta
##mera
##mere
##merge
##merse
##midi
##mone
##moni
##mpa
##mpare
##mpio
##muove
##nando
##nco
##ndato
##ndiamo
##nente
##nere
##nero
##ness
##nico
##nsato
##nsibile
##nunciare
##nz
##ofano
##olfo
##perato
##pesi
##pida
##pinti
##polo
##ppiato
##preso
##priva
##qua
##quenza
##quit
##rad
##ram
##ravo
##rero
##revole
##rgere
##ris
##rizza
##rme
##rmo
##rnare
##rona
##rzione
##scritti
##scrivo
##scrizione
##sizioni
##ssime
##ssita
##ster
##stico
##tela
##tenza
##tesi
##tile
##tin
##tione
##tive
##ttenere
##ttero
##ttiva
##ttrae
##tudini
##tui
##turo
##ty
##uata
##ucco
##uire
##ule
##une
##unga
##unita
##unti
##uole
##utazione
##vade
##venta
##veri
##verte
##vini
##vitato
##voca
##voco
##volto
##vventura
##ziente
##zo
##zzata
abbandonando
abbondante
accadere
accaduto
accendere
acheron
acquisisce
alessandro
alleviare
alzava
amaramente
amata
amavo
andro
angosciato
ansieta
apparsi
appassionato
appennino
appetiti
argine
arrabbiati
arrivi
ascoltarmi
assassino
assicurazione
avanzava
avida
avvicinando
avvicinatevi
avvicinavano
basa
bei
bellezze
benessere
benigno
bianche
bolgia
bolognese
brenta
brillavano
brucio
buttato
caino
calpestare
cambiati
camminate
canale
cappotti
castelli
cattive
cessato
chiamarono
chiami
chiedersi
chiodi
ciacco
cime
circondavano
cleopatra
cominciando
commovente
concedo
condannato
condotti
congelato
conosciamo
conquista
consuma
contemporaneamente
controllo
conversazione
conversione
convinto
coprire
coscia
coste
costume
crescita
creta
custode
custodia
danubio
dava
decimo
desideriamo
dette
dev
differisce
dirai
discepoli
disdegna
distende
diventera
domani
dotati
dottore
dovrai
dubiti
elemosina
enrico
esaltata
esca
esercizio
esortato
fallire
famoso
fanciulla
farisei
fermamente
figlie
fischio
fondamento
fonti
fornisce
forzata
fossimo
frati
frederick
funziona
gaeta
galassia
generosa
giglio
girarsi
giri
giudei
giunto
gode
gradito
grandine
gridai
grigi
gru
guardami
guardiano
guarire
guidava
guide
imperfetto
implorato
importanza
imposto
inclinazione
ineffabile
inganni
interezza
invito
lasciai
legati
libia
limbo
limpido
lira
liuto
luni
macchiata
magra
magri
maiali
martello
medicina
mercurio
merda
michael
modalita
monaco
museruola
nascondersi
navi
nesso
nettuno
nona
numeri
numerosi
onora
originale
ostacoli
ovidio
palato
panno
parlero
pascoli
passavano
pazzi
pellegrini
perdonato
perplesso
persi
perugia
piacciono
piegando
pigrizia
pisa
pittore
pompeo
possiedono
precedenza
premio
prendeva
preoccupa
preoccupato
preoccupazioni
presta
presuntuoso
primitiva
profeta
progenie
pronunciate
provenza
pungiglione
purgatorio
quanta
quartiere
quercia
racchiude
raccomando
racconti
rachele
radioso
rallegra
ram
rappresentare
raro
ravenna
rendo
ricevono
ridotto
riescono
riflessi
riserva
risiede
rispondi
ritirato
rivolgersi
romagna
romeo
rotonda
rovescio
rovinato
ruba
rubare
rusticucci
salmi
saltato
salute
saremo
sarto
sazia
scappa
schiavo
schiuma
scioglie
scipio
scivolare
scomparso
sconfitti
scrivo
sdraiati
secolo
semicerchio
sensazione
sentenza
sepolta
sezioni
sinon
soggetti
sollevo
sordell
sottostante
sparato
sparsi
spiegami
splendeva
sport
stia
stolto
strana
striscione
strofa
subisce
sufficienti
superbia
superbo
superiori
suppliche
svegliato
sventura
temono
tenendo
tentativo
tirano
torbida
tornano
tortura
traditori
trascinati
traslocatori
triangolo
trincea
uccidere
ugolino
unite
urlare
usura
utilizzato
vagare
vani
vedendomi
vedremo
vergini
verona
volando
you
##ada
##adi
##aglio
##aina
##allo
##ance
##ani
##azza
##bale
##bano
##bba
##bilita
##bre
##buire
##caldare
##canti
##cario
##ccede
##cchiere
##cciola
##cciose
##cciosi
##ccorre
##cenda
##cepisco
##cepite
##cero
##cessa
##cessi
##cina
##cino
##cludere
##condo
##cque
##crivi
##curo
##cuse
##deo
##diano
##dimenti
##diti
##dosso
##ega
##endere
##endo
##erato
##eriori
##ermo
##ese
##eve
##fanti
##fazione
##fetta
##ffatti
##fficiente
##ffro
##ffusione
##ficata
##finiti
##formi
##galo
##ggiavano
##gico
##gida
##gimento
##gito
##gliano
##gnolo
##gnori
##gui
##gustazione
##he
##iamo
##icia
##ile
##inato
##iore
##ite
##iutare
##lamo
##lea
##legyas
##letta
##liare
##liti
##lizia
##lizione
##lletti
##llidi
##llino
##lorosa
##lpare
##lsi
##luisce
##mate
##mbe
##mero
##messi
##minando
##minata
##monia
##mpo
##mpono
##navano
##ndare
##ndicare
##ndola
##ndoti
##neo
##ngeva
##nimo
##nito
##ntaneamente
##ntarsi
##nteria
##ol
##onda
##osse
##otte
##otto
##pato
##pendo
##pera
##petta
##piaccia
##pido
##pimento
##pire
##pisci
##polazione
##porre
##poste
##ppia
##ppiare
##prendo
##pressi
##prono
##pure
##quilla
##quisito
##rabili
##ramente
##ranei
##ratta
##ratto
##rbata
##rbi
##rdano
##rdare
##rendo
##retamente
##rezione
##rezzo
##rgendo
##rgi
##riosa
##rioso
##ritte
##rnata
##rost
##rranno
##rrato
##rrieri
##rrita
##rsene
##rtare
##scano
##scenza
##schi
##segno
##sita
##sole
##ssibilit
##ssione
##stare
##stati
##stia
##stita
##stre
##tan
##tere
##terrotto
##tibile
##tici
##trici
##trimonio
##trugge
##ts
##ttuto
##tuiscono
##tuta
##tuto
##ucati
##ucca
##uccio
##udente
##uino
##uiscono
##uite
##uma
##ume
##uoti
##uppa
##urlo
##usse
##utano
##utus
##ux
##varsi
##vertiti
##verto
##vise
##visi
##vola
##zionale
##zionato
##zzati
abbagliato
abbellisce
abbraccia
abbracciare
abituati
acuto
affaccia
affermazione
affettuoso
afflitti
affollato
aggiunse
agio
aiutami
alcuno
alimento
ambizione
ammirazione
amor
andai
anguilla
ansiosa
anziano
appuntita
aquile
ardeva
aretina
arrivammo
arto
assalto
associazione
atene
athwart
attenta
attraente
avanzato
averti
bagnata
bande
barbariccia
barriera
battaglie
battezzato
battista
bernardo
bevuto
bilancia
bologna
brillantemente
brillato
bruciati
cacciatore
caldi
calmare
camini
capaci
carattere
cardinali
carichi
carta
cassio
castighi
casto
catalano
cercano
cerco
cessa
chiamarlo
chiusa
cinquanta
club
colpiti
colto
combatte
comporre
condividono
conosciuta
consacrato
conservare
considerate
convento
coperta
coperte
cornelia
cornice
cortile
costituita
costo
costruire
costui
courtesy
create
dacci
danni
dar
daro
declino
dente
deserta
determinare
deus
devote
diamante
diciamo
difeso
diffuso
dighe
diglielo
dimenticando
dipinta
dira
diranno
dirtelo
discordia
discriminazione
discutere
disdegno
disperazione
disposizioni
distintamente
dodici
dolente
dolorosi
dormiva
durano
durata
durera
eccitato
emozione
eneide
entusiasta
erede
esclamando
esclamo
esemplare
espressamente
esteriore
estremamente
faenza
fain
famiglie
fano
farai
farci
farinata
farli
fatale
fida
fidarmi
fidato
filosofica
fingere
fioritura
frutta
fuggiti
gemma
germania
giacomo
giordano
giovanna
guardalo
guardarla
guardarmi
guardie
guidano
idee
immagino
immensa
imperatrice
imploro
impostare
impresa
impressione
imprigionato
incapace
incenso
inchiodato
incontrano
incoronato
indossa
infermiera
inizi
innata
innocenti
insegue
interesse
interrompe
istinto
italiano
jacopo
laici
lamentela
lasciatelo
lavora
lavorato
legata
legate
lezione
liberare
linee
livido
lontane
lunghe
magnifico
maiale
maledizione
maligno
mamma
manifestato
manti
mar
marco
marrone
matura
medico
mentito
menzogne
meravigliosamente
mercato
meritano
mescola
mettete
metteva
minerva
ministri
mogli
monaci
montare
mostraci
mostrarmi
mostrate
mozione
muovo
nascono
noti
nube
oltraggio
oncia
onesto
opprime
osa
oscuri
ospite
osso
padova
pagato
pallida
panchina
partendo
partimmo
perdo
perfetti
phaeton
piacerebbe
pianeti
piango
pirro
placato
poca
poesie
possente
potenziale
pregano
premuto
prendiamo
prenditi
preparando
prete
principali
principalmente
privo
proprieta
proseguendo
prospera
puglia
pugno
pulpito
puntato
quantit
rachel
ragazza
ragionevole
rallegrati
rancore
rapina
realizzato
red
redenzione
regali
rendendo
respirare
restate
ricevette
richiamo
riconoscendo
riflessione
riflettendo
rinnovato
ripetere
risplendente
ritornano
ritratto
rivoluzioni
robert
ruvido
sacerdote
sacri
saldo
sali
saziato
scalata
scelti
schermo
schiava
scintillanti
scomparsa
sconfigge
sconvolto
scosso
scure
seguaci
seguivo
semele
senesi
sentirono
separano
serenita
serratura
severa
sgorgava
sicheo
silenziosi
sirene
siviglia
slancio
socrate
sordi
sottili
sparso
specifica
spese
spiega
splendenti
squallida
strane
strappare
stupiti
sullo
svegliatevi
tebani
templi
tenevo
tenuti
terribili
teseo
testimonia
tette
tito
tocco
tolomeo
topo
totale
tow
tracciato
trasformata
trasformo
trattenuto
traversata
travolto
tuffa
tumulto
uguaglianza
ulisse
uragano
urlando
vaga
vano
velato
venezia
verbo
vigna
violenta
volesse
vorra
vuote
will
zitto
##!
##,
##.
##?
##j
##q
##v
