[PAD]
[UNK]
[START]
[END]
!
$
%
&
'
+
,
.
0
1
2
3
4
5
6
7
8
9
;
<
?
@
_
a
b
c
d
e
f
g
h
i
j
k
l
m
n
o
p
q
r
s
t
u
v
w
x
y
z
£
°
æ
ø
ı
ł
ɔ
ə
ɪ
ʁ
ʊ
ʒ
ˈ
ˌ
ː
π
а
—
₤
€
→
♗
♘
《
》
あ
明
non
di
che
la
il
tom
un
in
ha
per
sono
io
una
si
mi
ho
le
con
lei
da
lui
piu
mary
del
questo
molto
loro
era
al
se
lo
gli
mio
sua
mia
come
suo
hanno
questa
tu
della
ci
alla
cosa
noi
ti
essere
ma
me
quando
voi
mai
perche
fare
casa
hai
dei
detto
fatto
nel
sei
ch
delle
sta
tutto
ne
ancora
voglio
sia
tutti
vero
qui
andare
piace
cosi
quello
stato
abbiamo
tempo
nella
vi
avete
su
troppo
prima
te
due
solo
sempre
all
penso
chi
anni
libro
fa
ora
dell
posso
puo
boston
so
siamo
qualcosa
francese
dove
vuole
ad
##no
parlare
tua
ogni
erano
suoi
gia
oggi
giorno
lavoro
scuola
po
quel
vita
dal
tre
inglese
tuo
##te
cui
senza
ieri
niente
bisogno
uno
nulla
bene
quella
visto
no
domani
grande
persone
dalla
volta
padre
stata
##re
sto
aveva
alle
siete
altro
quanto
sa
ben
molti
anche
degli
dire
parte
cio
mondo
marie
soldi
madre
li
sul
disse
ero
uomo
paura
pero
##ta
##i
citta
sara
cose
lingua
problema
qual
miei
deve
sembra
farlo
va
nessuno
avere
anno
fosse
ched
stanno
amico
devo
letto
fu
molte
macchina
davvero
vorrei
##to
settimana
dopo
ai
nuovo
mangiare
tra
sulla
vedere
gran
festa
amici
cane
##ti
volte
bambini
ella
libri
finestra
acqua
##va
aver
imparare
favore
caffe
abbia
nostra
parla
genitori
voleva
qualche
##a
dice
sorella
tanto
meglio
andato
notte
vostro
lettera
spesso
dio
pensa
felice
difficile
comprato
##r
tutte
adesso
stati
sue
presto
piano
natale
nome
dato
paese
ragione
australia
ed
prendere
studiare
##ndo
vostra
buon
qualcuno
fratello
perso
stava
piacere
leggere
vuoi
appena
insegnante
avuto
frase
tatoeba
porta
fuori
ragazza
buona
nostro
altra
##vo
donna
bella
mattina
sapere
persona
puoi
sera
dall
##vi
questi
domanda
treno
frasi
film
mie
sarebbe
modo
##mo
giovane
dov
figli
fino
##e
sicuro
studenti
lavorare
abbastanza
riesco
##o
state
aiuto
stanza
storia
vivere
son
successo
veramente
comprare
grado
queste
fine
nuova
auto
denaro
amo
##ro
famiglia
viene
giorni
giappone
devi
far
momento
nell
venire
de
quale
camera
forte
quasi
altri
avevo
stai
biblioteca
tutta
figlio
pensavo
male
computer
amore
importante
dovuto
lingue
vive
piacciono
sai
dobbiamo
trovato
##n
gente
parole
dovrebbe
verita
gatto
mangiato
chiesto
preso
lor
mentre
musica
parola
strada
primo
credo
quanti
migliore
pensi
scritto
ragazzo
dieci
posto
morto
via
sentito
##ra
john
sotto
meno
trovare
telefono
##le
ttu
problemi
terra
idea
moglie
quindi
stessa
##ne
cos
ritardo
faccia
scrivere
quand
or
giocare
amica
facendo
vicino
##sse
qua
siano
stesso
andata
cercando
esperanto
cena
cinque
scorso
ristorante
##mi
com
grazie
possono
giapponese
vo
aeroporto
dissero
fara
##rono
potrebbe
foto
amor
possibile
intenzione
bere
nei
ore
facile
vado
autobus
aiutare
incidente
sole
tedesco
dormire
odio
freddo
##la
egli
stasera
conosco
tuoi
fame
parlo
soltanto
mese
possiamo
proprio
quest
durante
vino
pane
##li
prossimo
voglia
figlia
occhi
sola
poi
stazione
volete
solamente
dan
interessante
tardi
mano
poco
quante
avrebbe
automobile
riesce
que
prossima
finito
nuotare
stiamo
##ni
##nte
bambino
pomeriggio
chiama
quell
passato
morte
tipo
contro
scorsa
spero
ultima
accordo
imparato
##ri
risposta
italia
punto
diventare
piedi
aereo
guerra
piacerebbe
deciso
capire
tavolo
cibo
sapevo
##lo
quattro
caso
estate
francia
lungo
tradurre
consiglio
##mente
capisco
preferito
##si
errore
riguardo
ufficio
probabilmente
viaggio
polizia
verso
##zione
faro
domande
numero
sicura
##rmi
attenzione
testa
parlando
parlato
sami
##na
compiti
compleanno
lavora
vista
bisogna
piccolo
dicono
domenica
uniti
amiche
cani
cinese
mente
bello
pensate
signor
tennis
esame
sento
alcun
avevano
avra
chiamato
venuto
vivo
##nno
##rsi
alto
lasciato
dottore
fumare
regalo
avea
secondo
nostri
fai
uomini
##amo
germania
vestiti
dovete
volevo
gioco
suonare
vogliono
vecchio
donne
mal
stanco
uscire
errori
giardino
molta
parigi
abita
fiume
negozio
chiave
minuti
legge
vedo
guarda
nessun
ospedale
unico
faccio
guardare
arrivato
saro
lla
dovresti
genere
andate
eta
tokyo
dai
morire
sembrava
sapete
ama
avrei
mani
piuttosto
alcune
bravo
potete
##rti
capelli
rotto
ancor
gatti
pisolino
usare
allo
dollari
pensare
ricevuto
colazione
latte
##co
cuore
alcuni
classe
stamattina
altre
mare
messo
andiamo
birra
conosce
##ci
albero
allor
buono
canzone
eravamo
stare
ando
negli
sull
fanno
eri
situazione
##nti
pesce
sarei
scarpe
america
vanno
mangia
bianco
iniziato
davanti
riunione
forse
partita
sapeva
carne
vostri
dare
dispiace
stavo
stia
universita
chiuso
grandi
vai
chiedo
italiano
dica
fiori
londra
aspettare
unica
zio
televisione
nonn
permesso
assieme
caldo
marika
##l
##mmo
aperto
occhiali
parco
##ssi
allora
quelle
lontano
naso
piatti
tue
bicicletta
finta
lunedi
ombrello
salute
cinema
completamente
dalle
nelle
orologio
professore
nato
##sa
cucina
trova
alcuna
bocca
dovrei
circa
insieme
rispondere
saranno
uon
rosso
andati
luogo
possa
##vano
calcio
causa
conto
tal
sanno
sentire
partire
senso
venne
pensava
zucchero
credere
perdere
provato
vada
##s
##se
dizionario
fece
sopra
new
chiamo
futuro
qualsiasi
##rlo
studio
denti
solito
cominciato
doccia
fossi
##ca
europa
fratelli
sbagliato
verra
alberi
dietro
fior
interessato
animali
crede
potesse
andra
chiesa
chiese
dimenticato
inizio
giusto
mangio
vivono
devono
portare
diverse
regali
##tto
preferisco
sogno
paesi
bel
giornata
ognie
portato
##nza
##so
dentro
libero
prezzo
sette
studente
risolvere
col
eravate
intelligente
spagnolo
cina
dico
poveri
soli
bevuto
impossibile
passare
pizza
studiato
##rla
andro
lettere
marito
progetto
convien
potuto
sed
sie
##t
visitato
##sta
appartamento
costa
dicendo
linda
giornale
nello
trovo
abito
chitarra
serve
mettere
prese
capito
incontrato
luna
piccola
ricco
giovani
almeno
segreto
cantare
re
agli
co
facebook
luce
york
concerto
conosciuto
quali
mise
nero
vuol
avesse
faceva
fortuna
realta
veloce
corso
natura
nessuna
strano
vede
##zioni
aiutato
carta
ecco
neve
maggior
mesi
finire
##mento
esattamente
felici
piangere
pronto
dello
fra
opinione
schifo
tv
vengo
##de
##ste
rapporto
scacchi
##bile
pioggia
ragazzi
roma
san
sete
tosto
bici
estero
forza
lle
mele
parlano
sanza
pena
questione
restare
montagna
scatola
arte
cambiare
diversi
rimanere
passo
rumore
arrivare
immediatamente
medico
orecchie
aspettando
cielo
entrare
ll
stavano
arrivo
bagno
divertente
nonna
pericoloso
pubblico
tuttor
comune
occupato
potrei
provare
##sti
albergo
chiedere
parli
hotel
vinto
andando
famoso
matematica
romanzo
sposato
comincio
##ria
belle
pochi
presidente
aperta
giente
mezzo
aprire
informazioni
partito
traduzione
velocemente
attraverso
beve
importa
cavallo
poter
sonno
tornare
vorrebbe
blu
guidare
mela
nostre
stanca
tale
vacanze
##tta
aria
dormito
vestito
bellacoglienza
capisce
gielosia
ricordo
tazza
vecchia
vieni
voce
sappiamo
torto
##da
banca
internet
lasciare
maria
nonno
prestito
squadra
dovremmo
volevano
##rvi
colore
guida
ascoltare
speranza
##gli
corpo
seconda
ciaschedun
rubato
semplice
ver
##tti
vacanza
baseball
invitati
prigione
pronta
quelli
semplicemente
edificio
neanche
peso
alta
candele
capitale
ciascun
fidanzata
lunga
verde
fate
radio
studiando
vicina
avvocato
fuoco
significa
societa
torta
arriva
fotografica
layla
pieno
ragazze
smettere
spiaggia
bicchiere
differenza
fecie
lavorato
pagare
pensando
uova
venuta
ami
messaggio
potresti
aspetto
bottiglia
entrambi
fossero
governo
medicina
ritorno
vostre
diritto
suona
##zza
fatta
lezione
mercato
oro
piena
popolare
smesso
sorelle
triste
avessi
entro
finche
halloween
qualunque
sorpresa
decisione
dovreste
otto
scrive
volere
zoo
capo
conoscenza
inverno
costruire
cuor
lavorando
nemmeno
chicago
rapidamente
rispetto
ultimo
viaggiare
duramente
esempio
memoria
pace
pensato
riuscito
stesse
farai
regole
visitare
ucciso
villaggio
cattivo
ce
diede
dolore
incubi
parti
vogliamo
##gio
correre
fiore
lago
utilizzare
vengono
voluto
nuove
peccato
riso
russo
sappia
settimane
vera
arabo
centro
chiamare
coltelli
pagato
sito
sport
vale
ballare
coraggio
inghilterra
matrimonio
pianoforte
porto
sulle
nata
sorpreso
##ga
##tte
30
arrabbiato
avro
cambiato
certo
esperienza
intorno
paio
risultati
stupido
aspettato
leggendo
morta
##ate
facciamo
faranno
liberta
malato
minuto
possibilita
sabato
cucinare
giro
nausea
piaceva
sui
terribile
##lla
assolutamente
diro
fede
guardato
lascio
ponte
pranzo
bevo
finalmente
morti
animale
kyoto
sacco
fronte
poteva
buoni
letti
necessario
percio
invitato
muro
preferita
vidi
weekend
brava
cappello
cercato
die
difficolta
gioca
indirizzo
politica
scale
##y
cura
invece
ken
mille
morosa
odia
##ce
campagna
migliori
riparare
spagna
testo
vertigini
##ato
biglietto
costoso
gentile
propria
ridere
saremo
trascorso
abbandonato
abituato
accettato
adoro
castello
parlate
preparare
roba
russia
subito
lascia
maggiore
mamma
risposto
sarai
tornato
visita
camminare
notizia
raramente
venga
colpa
conosci
diventato
finlandese
giapponesi
innamorato
sangue
##che
continuo
dissi
legno
orario
papa
pensano
spiegare
suono
tti
golf
##rci
anima
argomento
basta
cantante
forma
malattia
mangiando
perfetto
promesso
venduto
bambina
chiunque
duro
sale
vide
cento
fidanzato
maniera
pur
scrivania
seduto
uccello
accanto
coltello
corano
cortesia
discorso
invito
lentamente
manca
oltre
studia
prova
vento
buone
case
compro
giocato
gioia
impegnato
mangi
vorresti
colui
contra
mercante
mette
perch
temo
vechia
vergognia
##ma
aggiungere
amicizia
basso
chiamata
farmi
mandato
cerca
colpo
paziente
scoperto
straniere
venti
avanti
dovrebbero
fatti
meta
nave
potere
sposata
##bili
dimenticare
proposta
solitamente
vissuto
##u
##za
borsa
conoscere
occupata
piove
seguire
sembrano
##do
arrivata
gruppo
interessata
poesia
presente
quartiere
##di
##me
americano
facilmente
rimasto
affari
contrario
guardi
impiego
importanti
mala
pericolo
sistema
dir
funziona
idee
imparando
isola
prende
programma
scopo
usato
azienda
cravatta
faremo
professoressa
silenzio
uso
accusato
articolo
braccia
esser
insegnanti
sposati
##llo
##tura
avrai
frutta
mori
preferirei
prezzi
teoria
canada
credi
dira
nove
occhio
spaghetti
##d
diverso
ricca
scelta
trenta
autunno
destra
leggi
pesci
ricorda
sicuramente
web
##remo
appuntamento
dici
dipinto
fia
fretta
guardando
llui
salario
scrivendo
star
folle
notizie
pezzo
significato
idiota
minimo
oh
taxi
universo
entrata
fermo
nemico
piovere
siate
##rio
amare
canadese
comincia
coronavirus
ubriaco
##menti
chiavi
doveva
offerta
osaka
prendi
pronti
riusciva
tranne
vediamo
##chi
cerco
continuare
felicita
giocatore
guardo
lezioni
piaccia
posta
sedia
sogni
##ata
americani
arrabbiata
bellezza
chiusa
museo
provando
##tato
dagli
diciendo
fuor
giusta
mentito
mondiale
passa
piacie
ssi
uccelli
##smo
epoca
esiste
fotografia
importanza
macchine
nemici
nuovi
pagina
penna
##glia
dev
energia
provo
sembrare
##bbe
divento
forno
indossando
innamorata
quei
risultato
tempesta
torno
venite
brasile
breve
comportamento
fiero
povero
sala
soluzione
straniera
vincere
##ggio
giocando
intelligenza
passeggiata
recente
ricordi
risposte
rossa
sandwich
sol
uscito
andava
anziano
internazionale
ottobre
stelle
tempi
vicini
##go
accettare
chu
dia
fo
frigorifero
pescare
piovera
preferisce
raggiungere
relazione
scienza
stessi
volare
avresti
caro
chiudere
femina
figluola
finestre
insin
llei
pulire
ragion
religione
sagio
scegliere
sentimenti
sse
stanotte
supermercato
yen
attorno
battaglia
dirmi
formaggio
superiori
##are
farla
figlie
follia
innocente
leggo
nonostante
promessa
stupida
trent
vorra
##ssa
abitudine
aiutera
avremo
danzare
farei
generale
opportunita
probabile
resto
##ve
20
attraversare
bianca
gambe
lavato
omicidio
ottenere
ricerca
scelto
tetto
tredici
vecchi
vedi
ascensore
canzoni
cellulare
chiaro
ciao
malata
piaciuto
senti
simile
spazio
##rai
algeria
avevamo
cercare
dimmi
estremamente
iniziare
parlava
rende
scordato
stranieri
tante
tenere
tradotto
umano
venerdi
apri
avranno
difficili
mangiano
pianeta
succedendo
utile
##0
bar
burro
ccio
contatto
daro
ebe
entrambe
falsenbiante
fe
francheza
insegnato
metti
naturale
nazionalita
perdita
pure
ricordare
sarebe
dammi
faresti
miglior
succede
vorreste
##ranno
alibi
avevi
carte
data
furono
giochi
lato
partecipare
preoccupato
regina
responsabile
studi
ve
##gi
##rle
africa
dubbio
idoli
indietro
piacera
posizione
primavera
viso
appartiene
conversazione
giornali
lasci
libera
madrelingua
moroso
pietra
rotta
temperatura
trascorrere
andar
caduto
cominciare
dite
economia
famosa
ferito
piani
posti
resta
valigia
zia
astinenza
cattiva
diavolo
manda
neppure
nord
perse
servizio
signora
arrivati
berbero
compagnia
condizioni
dritto
dura
fermata
metta
nascosto
romanzi
spiegazione
##gia
##tore
abitano
aiutarmi
aiuti
amante
decidere
ell
feci
fiera
lavori
par
poliziotto
senbiante
sente
serio
timido
uscita
aiutarti
assente
dormendo
ebi
fatica
lista
nomi
normale
pare
qualita
spazzatura
tratta
##ere
##io
abitare
acceso
anzi
canta
capacita
conoscete
continua
india
mezza
motivo
ordinato
patente
peggio
pezzi
poche
potreste
rosa
soddisfatto
sud
teatro
vederla
##m
arrestato
buio
contento
do
foresta
impegnata
incendio
infelice
linguaggio
pelle
personale
popolazione
portoghese
razzista
sinistra
sugli
tener
##vamo
consigliato
fabbrica
ghiaccio
occasione
passaporto
potevo
prendo
saputo
tanti
ziri
##era
abbiate
babbo
biglietti
dentista
dirlo
grave
insegnare
lava
madonna
nascondendo
regola
sarete
speciale
tipi
valore
vederti
##lle
##rli
aiutarla
alzato
arrivera
bob
braccio
capace
consigli
dipende
distinguere
fiducia
fumo
gelato
gola
inglesi
odore
periodo
politico
segreti
seriamente
##glio
##rie
abbiano
assomiglia
automobili
coloro
dolente
fin
giu
mancanza
mantenere
mostrato
orgoglioso
pazzo
piscina
pronte
sarebbero
sicurezza
signore
vergogna
##ia
##sco
abbattuto
aiutarci
campo
carina
ciascuna
ciertana
convinto
cresciuto
cultura
dettagli
fianco
guai
inizia
interessati
jackson
lavorano
patate
preparato
richeza
rompere
usa
viva
viviamo
##be
aiuta
autore
bill
cambia
enorme
fredda
jane
ognuno
popolo
proposito
saggio
sapevi
stanchi
sveglio
terremoto
tuttavia
##cci
andai
ascoltando
compra
costruito
crimine
dodici
farsi
farti
messa
pesante
pieta
sospetto
umani
##ale
##p
bebe
conoscono
contiene
costo
europea
facevano
fermato
geloso
indossare
italiana
lavare
lavo
lontana
mezzogiorno
nera
obiettivo
palla
parliamo
riesci
riuscita
succedera
ultimi
##tt
alti
commesso
conferenza
frigo
incontro
moda
mostro
onesta
piccoli
prodotti
tanta
vederlo
##ati
##er
affamato
ascolta
berlino
contare
correttamente
farete
informazione
insegna
milioni
prego
riuscite
scrisse
sembri
talento
torre
volesse
##ando
##sce
economico
grosso
secolo
svizzera
torna
10
man
matita
nuotando
ordine
proteggere
spada
unione
vedete
##nata
aggiunto
barca
contratto
gamba
giardin
guardar
idio
merita
porte
pratica
prigionieri
tte
volea
##trice
000
amano
bacio
capitano
creare
dovra
ebbe
falso
gatta
impara
monte
pensiero
portafoglio
poverta
propri
raccontato
rivista
sentenza
trovata
##on
##zzato
americana
ascoltato
cancro
controllare
corretta
costosa
danno
darmi
diventata
diversa
euro
italiani
ragni
ricchi
superare
accompagnato
adorano
affitto
andarci
apprezzo
avrete
calda
cervello
discutere
fadil
latino
lupo
mentendo
mike
pausa
telefonato
##bo
##nze
alzo
conoscevo
dati
dirai
divertito
documenti
ex
fallito
frutto
google
indossa
ingresso
jack
lasciate
mattino
metri
miele
mostri
nazionale
nipote
piccole
prodotto
salvare
sembravano
sposarsi
straniero
##zzo
aspetta
averlo
benzina
chiuse
comunque
costretta
crisi
eccellente
febbre
finita
gentilezza
immagino
kobe
membro
metter
moschea
opera
originale
piaciuta
rischio
saresti
scrittore
scusa
sorriso
##ar
##cchi
##lare
##zzare
altr
ambiente
andarono
arancia
brutto
camicia
cioccolato
cortese
dirti
diventa
elezioni
furto
metto
onesto
opinioni
ovunque
palestinesi
passi
sicuri
turno
##ggi
andremo
aspetti
avrebbero
belli
buongiorno
cairo
cavalli
cinquanta
diventando
erba
evitare
foglie
ladro
password
prenotare
preoccupata
raffreddore
rima
riuscire
soprattutto
tavola
venisse
zuppa
##nto
##sso
abituata
arrabbiati
artista
biro
canadesi
cieco
controllo
copia
corre
eser
faciea
george
gienti
grecia
locale
pantaloni
perfettamente
poca
principale
quindici
rifiutato
vedro
voler
##lato
##rei
continuato
dita
farebbe
ferma
ferro
fidare
fumato
gelosa
grasso
guardava
improvvisamente
lunghi
quarto
responsabilita
riconosciuto
scusi
tagliato
umana
utilizzato
vendere
vien
vittoria
##ggia
##zia
agio
dorme
fuma
intera
intero
mail
nuvole
presenti
rimane
seguito
stomaco
taninna
uovo
velocita
##nato
##rebbe
##rete
##uto
##zo
affilato
apposta
attacco
avendo
avevate
cade
canto
cara
colpito
contribuire
dar
distanza
dog
fisica
fondo
forti
hot
incontrare
interesse
interno
nuotato
onore
purtroppo
svegliato
tenuto
turco
utilizzo
vedervi
##tate
angolo
basket
benvenuto
clienti
coppia
credito
cuoco
direzione
guari
indossava
mostra
negozi
ottenuto
passaggio
quantita
riparato
ritornare
schiena
storie
svedese
terzo
##ccio
##ssimo
accetto
alza
ammalato
avermi
azioni
bandiera
base
camino
ciascuno
cima
corte
dovesse
esercito
estive
festival
giugno
guardia
interessa
membri
odiano
prenda
pulsante
realizzato
sapevate
seria
sposare
stagno
strana
succo
vivi
##3
##ng
aiutarlo
ammesso
annullato
clima
comanda
completo
conosciamo
corse
desiderio
disposto
domattina
genio
immagine
ministro
occupati
profondo
regione
rifiuto
scritta
smith
soldati
staro
svezia
taglio
tecnologia
venuti
verdure
##ano
##g
##sto
accumulato
amar
anziana
carote
castel
classica
comunicare
direttore
dirle
dovere
fargli
gesu
giallo
infanzia
lacrime
media
nervoso
premio
presenza
prestato
riusciamo
rosse
sapore
specchio
tedesca
undici
##ccia
##tica
##v
arrivando
asciugamano
attivita
bevendo
bevi
cotal
deluso
dicie
esistono
essendo
faciesse
fur
giamai
gientil
guisa
huon
iera
intelligenti
istanbul
largheza
llor
merze
metropolitana
nuota
oste
piatto
principessa
risolto
risparmiare
sapea
scoprire
seduta
spesa
termine
tiro
tornera
traffico
trattato
vantaggio
##h
allergico
ascolto
banana
certamente
costume
disponibile
dono
gruppi
guadagna
guidato
indipendente
influenza
migliorare
moderna
od
pianto
pulito
pura
riuscivo
santo
tizio
vestita
viaggi
##8
##lli
accelerato
affare
amata
austria
bianchi
capitato
chiami
cinesi
colori
compagni
corto
dallo
decise
dovuta
esercizio
generalmente
immaginare
improvviso
insegno
inventato
laggiu
mezzanotte
mostrare
ovviamente
partira
passeggeri
pietre
pronuncia
sognato
spalle
stella
studentessa
sufficientemente
sviluppo
thomas
traduzioni
##4
##tico
##tivo
boschi
cambiamento
chiaramente
coperto
debole
democrazia
dieta
divorzio
effetto
fallimento
ferita
finale
forze
gradi
jim
livello
minaccia
musicista
pranzato
preferisci
riescono
riguarda
sapesse
solare
spento
spirito
stanze
zona
##an
##ghi
accesso
addormentato
attraversato
bugia
cattive
discussione
fortunato
giovedi
mangiamo
passati
perde
pollo
portera
potessi
prendero
presta
richiede
rimasta
stagione
stradale
test
trovai
umorismo
volto
##rto
##ss
##tevi
##z
abbassato
abiti
accento
catturare
coda
colpevole
comunita
creduto
divertita
francesi
imparo
incinta
lasagne
morendo
neri
online
orgogliosa
parlarne
porti
sfortunatamente
stile
strade
strumento
treni
twitter
usci
vedermi
##pia
##rgli
andarsene
anticipo
aspettavo
attore
avremmo
bei
creato
criminali
diritti
dolci
dubbi
economica
esami
lento
leone
maiale
ospiti
parea
pensieri
postale
rendere
sesso
smettila
sopportare
speriamo
spiacente
troppi
uccise
umore
vende
##9
##in
##ko
##resti
affatto
caduta
cassetta
color
criminale
cugino
dovro
giocatori
impressione
ivi
ketchup
merda
motel
motore
pensione
preoccupare
preoccupate
progetti
proprieta
uccidere
venendo
vent
virus
viveva
##c
##po
adoravano
affrontare
agie
attentamente
banane
be
camion
continuamente
cor
coragio
datemi
dubito
elefante
eroe
esso
fecero
fie
fila
indosso
intendimento
interessanti
lamentele
letteratura
luci
lunghe
malabocca
merzede
minestra
molt
napoleone
negato
notato
odi
ogi
pazienza
poria
profondamente
quadro
rispuose
sanz
seduti
senbianti
serpenti
smetta
specie
ssia
studentesse
tenpo
trar
trovar
trovarmi
unquanche
vedono
venus
versione
vicenda
violenza
##1
##ono
##sca
artificiale
condividere
costruzione
dava
dirgli
dolce
firmato
messaggi
poker
raggiunto
sigaretta
sposate
sveglia
timida
tony
vecchie
vendita
vetro
volo
##2
##cco
##nta
##tiva
aiutarvi
arrivi
autorita
bottiglie
caccia
cioccolata
convincere
esseri
fotografie
illegale
incredibile
innocenza
interessi
inutile
marco
minore
parlamento
partecipato
particolare
pinocchio
piovendo
preferiti
prete
raccolto
ragioni
regno
ristoranti
sicure
spedito
sufficiente
suggerito
suonato
suonava
tormento
turchia
vedra
##k
##uti
##vole
amate
aprile
cambio
condizione
credono
curiosa
discusso
doni
evento
fantasmi
finlandia
gennaio
messico
mosca
nazione
olio
paradiso
passata
pasti
permette
pigro
pistola
scala
sentiva
trovi
vaso
##fico
##us
##vate
album
altrui
arrabbiate
banjo
cd
centinaia
collina
collo
destino
donare
elettricita
entrato
fuji
giacca
libreria
maestro
mancano
mangiate
martedi
metodo
organizzazione
origine
perfetta
privato
promozione
ragno
scrivi
segno
semaforo
simili
taglia
tolto
utilizzando
visti
wikipedia
zero
##nda
##rra
##ura
##zzata
affrontato
alcol
ammalata
ammettere
angeles
arrivate
aspettava
baciato
ballo
brillante
capiscono
causato
credete
dunque
gioie
greco
insetti
lavagna
los
mentire
oggetti
ormai
paga
perduto
pericolosa
prender
progressi
sensazione
stiano
termini
verro
vietato
vodka
##ba
##gione
##nt
100
adorato
andranno
apre
articoli
battuta
bucato
calmo
credenza
dama
differenti
elenco
essa
fatte
guardate
improbabile
largo
lavoratori
lettura
mappa
nebbia
noioso
osservare
poesie
racconto
rovinato
sociale
soffre
spera
topo
trasferito
##6
##7
##stico
adora
andrai
antica
anziani
aspettero
attualmente
bambola
bibbia
cittadino
commerciale
core
dispiacerebbe
divertendo
esistenza
essi
facevo
firenze
giocava
insalata
istruzione
lavando
materia
ovvio
pacco
pecora
poeta
presi
rio
rispose
russa
saltato
santi
servire
sovente
spiegato
stavi
tenga
tiene
titolo
troppe
ubriaca
verranno
##cato
##gnia
##ze
addosso
alfabeto
alor
avreste
chettu
chui
ciertano
cierto
club
comunicazione
considerazione
crudel
crudele
delizioso
difese
diletto
dimora
dolze
eran
imantenente
infermiera
iniziando
mahjong
mando
oltragio
panda
previsto
prudente
pulita
puote
saramento
sbagliata
servono
soddisfatta
tema
usata
valetto
veduta
vie
violino
visagio
visito
vuota
##ali
##nare
18
abbassare
aeroplano
amato
amava
bastone
chiedi
dappertutto
divenne
efficace
esserci
falli
fedele
istruzioni
microonde
miglia
oceano
pasta
popolari
portata
preoccuparsi
rabbia
ritornato
sposa
suonando
superato
tende
usando
volentieri
zanzare
agosto
averla
cantato
cazzo
collezione
conosceva
detesto
dimensioni
dimentico
dona
farfalla
file
foste
francobolli
fuggire
fui
garage
giornalista
individuo
invitata
lanciato
lascera
lasciami
nagoya
nudo
obama
ombrelli
piacevole
preoccupati
preparando
principalmente
produce
profumo
punito
risorse
seguente
sforzi
stupide
uguali
vendetta
video
##cio
##gato
##lti
##ttato
25
ambasciata
bicchieri
cartolina
circostanze
crescita
curioso
dara
divertiti
edifici
fastidioso
febbraio
gas
immagini
lasciarlo
madrid
parenti
partiti
pavimento
pene
preoccuparti
produzione
rimase
rubata
serie
situata
stanche
tornata
trecento
trovate
umanita
utilizza
##dere
##lata
##lia
##rata
##rdo
##tori
account
armi
azione
barzelletta
barzellette
cognome
confuso
corta
cugina
dargli
divano
espressione
fiamma
grato
guardie
hawaii
identita
immaginazione
lavi
licenziato
migliaia
mobili
movimento
musicisti
nacque
numerosi
pensiamo
pianista
piante
prendera
presentato
proibito
punti
qualcun
ride
scienziato
scrivo
scuole
sentita
televisore
tommaso
troverai
ufficiale
##care
##en
##enti
##ka
##pi
##scono
##tata
aerei
anello
appetito
aspettera
attrice
bevono
busta
chiamano
chiara
condizionata
conta
corea
correndo
credeva
critiche
darti
dirvi
doppio
esce
esperto
fluentemente
grammatica
hobby
irlandese
nascita
nonni
ossigeno
permettere
politici
presa
primi
principio
ragazzino
scoperta
simbolo
spese
spinto
volevi
yanni
##fica
##giato
##ore
##rato
##rne
##stica
50
amanti
amiamo
andarmene
ascolti
attuale
bevete
camminato
campione
cappotto
chiesi
corrente
costi
decisioni
dimissioni
gelosi
infelici
larga
maglione
milione
napoli
ombra
pechino
piangendo
preferite
prendete
principi
privata
protezione
pulizia
quanta
religioso
ruolo
sabbia
saltare
scrittura
scudo
software
superiore
tasca
tien
verdura
veste
##5
##pe
##stri
##zzazione
addio
applaudito
assai
aula
beh
bravi
bugiardo
cadere
camminava
certe
champagne
cipolle
considerato
contato
coreano
corretto
cristo
fornita
gay
gemelli
ignoranza
impegnati
lavorava
liberi
linea
malati
onde
paul
pona
potra
pover
prove
pubblicato
rose
sceso
sciare
scrivete
shopping
stavamo
stavate
svegliarmi
tagliare
tappeto
tassista
toki
tornero
ubriachi
##agio
##enza
##ggiare
##gna
##tici
##um
##vita
500
abia
agia
ammiro
apella
assa
benedica
bordon
calma
carattere
cenato
chef
chiedendo
ciertan
compito
conosciuta
conpagnia
consiste
cresciuta
cugini
database
elle
entra
fallato
famiglie
fan
forteza
gir
gonna
grossa
impaziente
jean
llo
lotta
mandare
mantenente
massimo
mastro
men
mestiere
muiriel
ned
nesun
nostalgia
ochi
parere
passate
piaciere
piaque
pregione
promesse
ritorna
schiacciato
scuse
sedie
senpre
sii
sorprese
speso
tieni
tradigione
traduco
uscendo
vantagio
venusso
volontier
##gni
##rale
##rita
##zi
##zzati
abitudini
accendere
allergica
arance
babysitter
bambine
beni
betty
condannato
conosca
corpus
credevo
detesta
diavol
direbbe
direttamente
dopodomani
fermare
fresca
frutti
giocano
gira
incrocio
interessate
lamenta
lettore
luglio
mensa
milano
nati
noto
nuoto
oggetto
okinawa
orribile
orso
palestra
parcheggio
pasto
peggiore
portava
potro
prendiamo
pubblica
ragionevole
riconoscere
sedici
sindaco
stampa
steso
succedere
troppa
turisti
ultimamente
vite
vuoto
##bi
##logo
##nde
##oni
##tare
accolto
andasse
apprendimento
argomenti
arrivano
assenza
bosco
britannico
cameriere
capisci
cavo
chiede
cittadini
coinvolto
colonialista
complicato
comprendere
comprera
coperta
creda
dente
diceva
disperato
disposta
diventati
dormo
entrate
farne
farvi
fattoria
giornate
giustizia
hokkaido
indicarmi
maggio
misura
morira
moto
occhiata
pagine
perdono
piantato
repubblica
richiesta
rifiutare
rimanga
rispettare
rovina
sapevano
scena
scoiattolo
segretaria
seguendo
sposo
taro
tengo
totalmente
##ava
##bra
##fo
##nia
##ute
ali
allenatore
anch
arco
area
atmosfera
aumento
avversario
bassi
biscotti
chilometri
chiusi
compri
condotto
coniglio
costera
danza
debbano
distrutto
documento
dormiva
egitto
est
fallire
filosofia
finisce
generazione
gentili
gialla
giudicare
inviato
mattinata
memorizzare
miracolo
modi
motto
naoko
nient
pallacanestro
possano
potremmo
prestare
pubblicita
saggezza
salvato
sanguinato
spegnere
sporco
stupito
sullo
usate
venute
volume
vomitato
##cche
##fa
##lino
##lita
##oso
##rare
##rino
##rre
##voli
attesa
attivo
cammina
camminando
centrale
chiudi
convinta
deserto
dimentica
ditemi
diventi
dovremo
educazione
fammi
fortemente
gioventu
giurato
grano
innamoro
lancia
lasciata
lotteria
lungi
meravigliosa
nevica
opere
ovest
partenza
partite
pesa
petrolio
piaccio
promise
proprie
reso
resti
riscaldamento
robot
scolastico
segni
smettetela
soddisfatti
sorpresi
studiero
sushi
tedeschi
tentativo
tirato
traduttore
trascorre
trovera
viaggiano
##cia
##dato
##lmente
##nale
##ose
##sci
##temi
##ua
##usa
##x
adottato
assegno
attento
cadavere
considera
corsa
creo
danni
deliziosa
delusa
distrutta
diventera
divertenti
esperantisti
esprimere
feriti
fonte
giochiamo
giuro
grassa
grata
harvard
hiroshima
impresa
inferno
leggero
leggete
linee
luoghi
marrone
metro
naturali
ottimo
particolarmente
passanti
pianta
plastica
portarmi
restera
restero
ricchezza
salsa
sentendo
singapore
stivali
tali
totale
tramonto
unito
utili
vienna
volonta
voto
##cha
##ge
##simo
##ssero
##ton
adatto
affamati
aprite
asciugamani
aspettiamo
avversari
baciare
baratto
cadde
carino
collega
comando
commettere
comporta
comprero
considero
contesto
continente
credera
credette
croce
dessert
dichiarato
disagio
dna
dritta
duemila
emergenza
fuggito
gratis
incontrati
matto
miller
mistero
nipoti
olandese
ordini
over
parlar
patria
pilota
povera
prigioniero
quinto
relazioni
responsabili
ridurre
saperlo
scienziati
soggetto
sovrappeso
stretto
termometro
tuttora
uccisi
uscite
##glie
##nga
##ntata
##tano
##vera
accettera
accetterebbe
assassino
attaccato
biancheria
capitare
colpevoli
costruita
debito
dizionari
egoista
esistere
europei
facevi
firmare
forbici
frastornato
fresco
funzionare
gemello
giochera
globale
gratuito
hamburger
interprete
invitare
lavava
mettete
musicale
nascosta
nascosti
offerto
prenotazione
regalato
ricordate
risponde
salto
sbaglio
segui
sforzo
sian
sigarette
spiego
stipendio
struttura
tasse
tesoro
torni
ungherese
vasca
zampe
##cca
##dono
##erai
##ficato
##ito
##rava
##rebe
##tera
##tra
adulti
affidabile
agire
almen
antico
ardimento
argento
arrestare
aspettate
baronia
bisognia
brandone
brutta
calore
cassa
certa
chiamero
chiude
cierta
comeco
commenti
conforto
consapevole
contenta
copie
corridoio
costosi
cota
creder
curry
danari
difesa
dimentichero
distreza
dottanza
eletto
esempi
esto
evidente
fazone
finira
folla
fugire
giesocristo
gisse
grana
grigi
gusto
indicare
infin
inmantenente
intender
irlanda
istante
jazz
lasso
lavorio
leader
malatia
martello
matite
morale
nazioni
nervosi
noce
nverso
ov
paolo
parlarti
parve
persi
piaciesse
picnic
pittura
podere
polacco
poliziotti
portano
potente
realizzare
riprovare
riuscira
riviste
rossi
sano
saper
sareste
schizofrenia
scolastica
scusami
sicurta
signior
skura
sodo
soggiorno
solea
sottile
spieghera
stea
succeda
tenni
toccare
tornate
trasse
trovano
truova
tt
ultime
uscio
valletto
villan
vittime
vuo
zelanda
##gando
##gno
##nate
##ser
##son
##ture
##ui
##uno
##zzate
antichi
assicuro
caldi
catturato
codardo
colombo
concentrarmi
contanti
contraria
creativo
danimarca
diario
dito
diventano
divorziato
dovette
droga
falsamente
famosi
farle
ferite
incontrata
indossano
kate
lavati
macellaio
monaco
municipio
nascondere
obiettivi
orgoglio
orlo
parlarmi
pedoni
petto
picasso
pittore
poiche
pranzare
prenotato
pressione
prometto
raccontare
recentemente
ricetta
rischi
scorciatoia
scrivero
sermone
settembre
sordo
spam
speciali
stavolta
suoni
terribilmente
terza
trovava
visione
wang
##al
##amente
##b
##ch
##dito
##ico
##tro
##w
abbandonare
aiutata
andiate
atto
bellissima
bordo
brown
bush
cambiata
carro
celsius
chiamando
chiamarmi
cominciamo
complicata
conclusione
conseguenza
corda
costato
decisamente
desideri
dovevo
eccezione
esterno
fallo
fondata
fratellastro
frego
getto
gliel
glielo
guadagnare
impariamo
incubo
inizi
inquinamento
invento
marzo
migliorato
mossa
musulmani
parto
pazienti
pazza
pepe
pesca
pessimista
positivo
preparera
pronunciare
pubblici
rendera
ricevere
rifiuta
rimasti
segue
seguenti
sembrate
sentenze
sentivano
tigre
tocca
tornado
traduce
tramite
tratto
uccisa
vincera
vivendo
yacht
##amoci
##der
##ian
##line
##niamo
##rando
##tutto
##zio
15
abbandono
accompagnera
alice
andrete
arachidi
armadio
attiva
attraente
bassa
batteria
bell
brucia
cambiano
chiamate
cinquecento
completa
crescono
dipinti
dista
divertirsi
emozioni
favorevole
forchetta
funerale
go
grazia
impero
infermiere
ingannato
inviare
lenta
limone
materna
mezz
moneta
occupate
on
oppure
orientale
ottimista
paia
pecore
pensavano
pericolosi
personaggio
piovuto
principali
pro
punita
qualcos
ruppe
salito
sanguina
scozia
scusato
serpente
smette
soffrire
sposarmi
strumenti
tarda
tastiera
tenne
ulteriori
urlare
utilizzate
vegetariana
vendono
verdi
vicine
votato
##ero
##f
##ie
##logia
##mia
##nica
##nne
##reste
##tati
##terai
##tero
##ure
2013
adulterio
alimentari
alzata
amati
balia
barba
bloccato
california
capita
carcere
cari
carriera
chimica
colei
confessato
connessione
corona
corrette
culturale
dichiarazione
elettrica
esperti
facilita
ferire
feste
fidarsi
foglio
gelose
idrogeno
industria
interrotto
lamentarsi
lavera
mercoledi
messe
mezzi
mocio
modello
multa
nervi
ove
piede
processo
provera
provero
provi
religiosa
religiosi
riconoscente
riempito
rimanente
rimangono
ritorni
salvo
santa
saremmo
shanghai
spettacolo
spieghi
statua
strane
strani
stupidita
svegliare
tesi
testi
torturato
urlato
vantaggi
vegetariano
venir
veri
villano
viola
vittima
volano
##bre
##eri
##ing
##rda
##sioni
##tri
##via
##zie
##zze
12
abitato
abitiamo
accetta
acquistare
allusione
ascoltate
assistente
cancellarla
cerimonia
coi
colpi
comitato
commento
continui
correggere
crescere
dicembre
dormono
dottori
ebraico
esigente
fenomeno
football
fornisce
frate
funzionera
imbecille
incolpare
innamorati
insopportabile
islanda
leggermente
liberare
linguistica
logica
lojban
lunghezza
matsuyama
menti
mettera
mura
occupa
odiava
orrore
ortografia
palazzo
park
parlavo
partiremo
personalmente
polonia
possiede
praticamente
preferiscono
proprietario
puttana
rendono
roger
rugby
sapendo
sbrigati
scandalo
scopri
sguardo
sorprendente
sostegno
spaventato
spegni
telefonata
tirare
torte
ungheria
voci
##armi
##ck
##detto
##ello
##gica
##gliato
##gono
##ll
##mato
##nea
##ngo
##rta
##tre
##zionale
abilita
accada
affascinante
ah
ala
ansia
apra
arrivarono
averti
avviso
bibliotecario
binario
bionde
cambiate
camere
cattedrale
cenare
chino
cieca
cominciando
coscienza
curiosita
diecimila
dimenticata
dimenticate
discorsi
distretto
don
effetti
elementari
erra
et
ferie
fidi
gemella
giocavo
gratuitamente
guardano
lanciare
leggera
maggioranza
malapena
marocco
materiali
metallo
mostrar
naturalmente
nervosa
nota
numerose
orologi
ottavo
ottiene
pagati
palle
piccioni
precedente
prendendo
prendersi
preparati
preparo
rapida
razza
restituire
ribello
rispetta
riunioni
sali
scambiato
scritti
scusatemi
secondi
selvatici
serata
shakespeare
shibuya
successivo
tradimento
trovarlo
urgente
villa
vivete
##eremo
##lone
##man
##mila
##mita
##ndi
##rro
##tamente
##tiche
##ue
aiutando
aiutate
alzare
ammalarsi
ammise
angelo
assenti
attimo
belgio
bibliotecaria
bruciato
cadute
calciatore
caratteri
casi
certi
chieda
compositore
composta
comprai
confermare
confine
considerare
critica
croazia
date
david
decorato
desidero
dettaglio
difendere
divorziare
dormi
dovrai
educato
esperimento
eventi
famose
farci
ideologia
ignora
immaginato
imparera
incaricato
ingannare
insegni
inteso
inutili
isole
lavandino
lavatrice
liberamente
mar
marte
nancy
noia
nucleare
orchestra
ordino
paghero
perdendo
personalita
pien
pioveva
portero
potevano
preoccupazioni
prime
probabilita
proposto
prudenti
questioni
refettorio
rico
riparo
rispondi
riuscirci
sapessi
scacco
scene
sconfitta
senape
senta
smise
stara
studiamo
tecnica
tempio
tocchi
tradito
trang
uccide
vesti
volle
volute
washington
##ante
##cando
##cho
##ea
##el
##eno
##ghe
##giendo
##ke
##nati
##osi
##rico
##rito
##ry
##sione
##sita
##ssime
##ssione
##stici
##un
acquisti
adolescenti
adulto
aferra
aiutano
alba
altrimenti
aporto
appoggiato
arditamente
atender
aventura
balestriera
balla
battute
benvenuta
benvenuti
bilanza
brasiliano
bruciare
cagione
cambiera
camin
cerchera
chiedero
chiedete
ciaschun
cielare
ciera
cliente
commissione
compagno
composto
conducente
congratulazioni
coraggioso
coverta
dando
debba
decorare
delusi
descrivere
dilettanza
disaccordo
dolor
donar
dotta
dottava
dovessi
eiffel
entri
essenziale
facessi
falla
fecier
fedel
fida
figluol
fragole
funzioni
gelosia
girare
guar
humile
ignorato
inn
intendi
ipad
islam
israele
judy
lasciamo
lasciatemi
lassa
lavorate
leal
leggeva
leggono
limiti
litigare
lli
lucy
magia
magior
magnifico
malabocha
malgrado
mastri
meraviglioso
minacciato
nascoso
nn
noleggiare
novelle
ntenza
ok
ond
palese
pallida
parcheggiato
parer
pari
perdera
persino
pez
picchiato
pilaf
pizzeria
porre
portogallo
poss
potea
pratico
pregheria
prenderebe
preoccupa
priego
professori
profonda
provarlo
provedenza
quegli
ricche
ripetere
rock
romore
roosevelt
rubare
saccia
sagia
salutare
saramenta
saria
scalato
scarsella
scherzando
scimmia
sciopero
scuro
scusarmi
sedette
sentono
sepe
ser
siccome
sofrire
sorrise
sporca
terribili
topi
tornati
traditore
tristi
tropo
tropp
truovi
uom
venezia
vennero
veracie
veritate
vinse
vogliate
vorremmo
voti
yokohama
##bilita
##dire
##dita
##ete
##ficare
##lta
##mare
##nsione
##or
##pie
##pio
##rse
##st
##telo
##ttata
##uri
abbraccio
abitanti
addormentata
alain
albania
alzati
amavo
asia
assicurazione
assunto
astronomia
bevanda
blog
cerchi
cerchio
chili
cola
colto
cominci
conigli
controllato
costano
costituzione
creazione
diedi
dimostrare
diretta
disposizione
divertimento
donato
dovute
eliminare
entrati
esco
facevamo
facevate
fatemi
fieri
fisico
fortunata
gentiluomo
guanti
immenso
intendo
intervista
invenzione
jones
lang
lavarsi
legga
litri
lupi
magra
nobile
olanda
org
ostello
panni
parete
parlasse
pelo
permettermi
pomodori
preoccupi
prepara
professionista
ramo
reale
reputazione
rimarra
ringrazio
scatole
sconosciuto
situazioni
sociali
sostenere
stadio
stupidi
superficie
svegliata
tenuta
terro
time
troverete
ucraina
usi
valuta
vederci
veleno
venni
verificare
viaggia
volante
volpe
##ado
##ana
##data
##gliare
##lto
##mica
##otto
##rati
##rd
##rire
##ssimi
##uro
##vero
accorto
aiutero
alito
alzarsi
anime
aperti
arma
arriveranno
aspettano
atti
attivi
autista
avervi
bianche
biologico
bomba
calligrafia
cammino
capi
capitolo
cassetto
chiamava
combattere
comprarlo
confronto
convinti
copio
crebbe
crema
dedicato
desse
diciotto
differente
digli
disperata
diverto
dolori
durata
fareste
fini
finora
forme
fratellino
gialli
gigante
giocattolo
impatto
impedito
incidenti
lavoriamo
malate
maledizione
maleducato
mandero
medici
momenti
mostrero
musulmano
necessita
noci
null
odiavo
ogne
operazione
padrone
partiro
pasqua
patto
pedone
peggior
pigra
praticare
pregando
punta
quaranta
quotidianamente
racchetta
raro
recuperare
ricevette
richiesto
righe
risponda
rivoluzione
roccia
romantico
salita
scelte
scomparso
scriva
scuso
sedere
sensibile
situato
sopravvivere
spendere
sprecare
stagioni
stessero
studiate
suicidato
svenire
tanaka
teme
translate
trombone
tsunami
umilta
unici
unita
usciti
utilizzata
varie
vigilia
##00
##almente
##bia
##ccare
##cento
##cinque
##dare
##ggiato
##ha
##ica
##lazione
##metto
##pata
##que
##rano
##sero
abitate
accende
adorava
aggiunga
alcuno
alunni
analisi
andammo
andrebbe
anna
arrivederci
arrogante
assoluto
attribuito
bagagli
bevande
biologia
buco
bugie
camicie
capiamo
capirlo
cattolica
chiamami
chiamiamo
civilta
cominciano
contenuto
conti
crudo
dea
dialetto
dirci
divino
dover
dure
elegante
emily
equilibrio
esercitarsi
esse
farmacia
fi
fumi
funzione
gangster
gemelle
guardavo
hong
incontrarla
infinito
iniziamo
insegnarmi
inversione
iran
kong
malattie
malinconia
mangiava
maniche
marciapiede
materiale
moltissimo
morirono
nascoste
necessariamente
novembre
numeri
omelette
paghera
passando
pensassi
persa
pienamente
pranzando
precisione
preciso
preoccupatevi
presento
preziosa
progettato
puntuale
quarant
racconta
rete
richiamo
ricordato
ridicolo
ritmo
ritornata
riusci
sacro
sana
scendere
scienze
scoppio
sedersi
sentii
severo
sfida
sigari
singola
sopporto
spiega
sporchi
ss
suicidarsi
tofu
umile
vedeva
videogiochi
vince
vinceranno
visitai
viste
vola
##avo
##cce
##cciata
##endo
##gava
##ggono
##ire
##letta
##messi
##mette
##nni
##poli
##ppi
##razione
##rina
##tive
##uta
##volto
##zzi
abbaiare
abitava
accompagno
amasse
approvo
arrabbiare
assomigliano
assumere
atene
aveste
bolle
bretagna
cambiamenti
chiuda
ciechi
cocaina
compere
comprarla
comprende
comprensione
conflitto
corsi
costante
costantemente
darvi
darwin
desidera
dicessi
difendo
dille
diretto
disegnare
ditta
diventate
dovevano
effettuare
esci
esplosione
farfalle
ferroviaria
fotografo
fuggita
gestire
gettato
ginocchio
grand
guadagnato
guadagno
impari
insegnando
interlingua
linux
lituania
menta
montagne
nasconde
pacifico
parlarle
part
partiamo
passera
pelare
piccante
pirata
polli
pregato
prendono
puro
quant
reato
ricordati
ringraziato
riva
salata
schioppo
sentiti
sentivo
somma
spiace
suicidio
tatuaggio
titanic
tradizionali
trasporto
trovarla
trovati
unghie
usano
usiamo
van
verbi
volevate
##amento
##ciata
##ente
##fono
##ham
##ina
##iti
##lero
##lico
##llata
##miche
##nsi
##nzione
##pa
##rica
##rno
##tela
##ttava
##tu
##ziali
##zionata
##zzano
13
accaduto
aerea
altrove
annullare
aprendo
atomica
azzurri
benissimo
boccone
buddismo
cadono
calcolato
candela
candidato
catena
charlie
chiamati
chirurgo
circondato
coma
cominciarono
commercio
compassione
confermato
connesso
conseguenze
contemporanea
coprire
coro
cotta
cuffia
darai
davano
deboli
dipendente
dipingere
elefanti
esatta
facesse
fantastica
fax
fiato
finiate
fiumi
fortunati
francobollo
giudice
giura
grida
guardera
gusti
helen
immigrati
iniziano
joe
leggerlo
limite
medicine
meriti
microscopio
migliorando
morso
mozart
mucca
musei
noiosa
norvegese
pappagallo
parente
perderai
peter
piazza
polmoni
portate
preavviso
provengono
racconti
rapina
ratto
respirare
restituito
robert
rompe
rubinetto
saggia
salire
salta
scacchiera
scegli
sceglierne
scivolato
sede
semplici
sorda
sporche
storico
svegli
tagliata
the
trasferi
ubriacone
ulteriore
varra
vasta
veloci
vere
vivevano
##ai
##bilmente
##ciare
##dio
##ene
##fici
##iche
##lmi
##preso
##samente
##ssima
##stre
##ttare
##ttate
11
40
abbatte
acciaio
aiuteremo
altezza
amaro
architetto
aree
asma
assurdita
attraversa
battere
bisognerebbe
borse
cancello
cartello
coca
collaborazione
comprate
condiviso
confusione
conoscerti
costretto
cravatte
crescendo
cristianesimo
crude
darle
decisero
detta
dichiarazioni
dirtelo
disastro
disprezzo
distruzione
divertite
el
entusiasmo
esperienze
essenza
falsa
fantasia
farmaco
finestrino
finisca
francamente
francisco
funzionano
generoso
giudizio
grigio
guidi
imbarazzato
imparano
infranto
insegnamento
intese
johnson
ladri
legale
lesse
libere
magazzino
manco
mangiar
manto
massaggio
meteo
militare
minacce
mostrami
mucche
nara
navetta
nego
occidentale
occupazione
offre
opzioni
osa
pagata
paglia
palestina
pallido
permettendo
personaggi
pianificando
pilastri
polvere
portiera
pozzo
preferirebbe
pregiudizi
prendermi
presumo
provava
reazione
rese
rimandare
rimarro
romania
sante
sapone
schiavi
scommetto
scusare
scusarsi
sebbene
sentirmi
serranda
servita
settore
sexy
sfortuna
sig
signorina
siria
siti
soldato
sparato
spende
spiegheranno
stante
stirato
suocera
sydney
tartarughe
tendenza
topolini
trattamento
tremila
uccidermi
uscira
vari
vendo
vene
verbo
zhuangzi
##bbi
##cciato
##cente
##duta
##etti
##ferenza
##fiche
##ggiata
##ggiate
##gico
##gne
##gro
##ici
##ini
##ino
##ista
##ki
##lati
##menta
##metro
##minare
##nando
##nava
##nello
##nghe
##nico
##ntato
##ora
##ori
##pare
##per
##ppa
##risce
##scie
##stata
##tando
##ttiamo
##ualmente
##uso
##vio
##zero
300
abbandona
abbatteva
accogliente
affamata
affittato
aggiungi
agi
alzi
amavano
andavano
api
apparentemente
apriva
avvicino
band
barack
belleza
brutte
capite
causando
chiedesse
codice
colla
comandamento
comprava
concerti
condivido
confessare
confronti
conosciuti
contadino
continuate
corri
coste
crediamo
cresce
cuscino
depresso
destinazione
dibattito
dignita
disegnato
disegno
dispone
disponibili
duecento
edison
enormi
evoluzione
facili
fase
fermarsi
fidarti
filo
fondamentale
fonti
fornito
fossimo
fumatori
fumava
gioielli
gioiosa
giustificare
gravemente
gravi
grossi
guidava
impegno
impronte
ininterrottamente
insulto
intende
ira
islandese
lana
lasciar
lavano
mago
mangero
mangiata
manuale
mari
mark
matrimoni
meg
miliardi
misteriosa
motivi
necessaria
nimes
normalmente
obbedire
osso
ottenne
paesaggio
pagano
pellegrino
pensarci
perdonato
piacero
pianeti
piange
piantare
pomodoro
popoli
possedere
prezioso
principe
profitto
provate
riconosce
riesca
rifugiati
ringraziamento
ringraziarti
risolverlo
riusciti
rotte
ruota
russi
saliti
saluto
sbrigatevi
scaffale
scambio
sconforto
scorre
secca
seno
sentirsi
servizi
sgradevole
sognare
sott
stando
stretta
studioso
sviluppato
tant
tasche
telefonare
tenesse
tenete
tigri
toccate
traduci
trascorse
troviamo
uccidera
vaglia
valido
vedova
vedremo
ventura
vocabolario
votare
##arlo
##azo
##bando
##bbero
##cano
##cava
##ccie
##cita
##cto
##dera
##dor
##ele
##elo
##erete
##eria
##esa
##eza
##gl
##idi
##iro
##ku
##llato
##mpo
##nd
##rir
##rso
##ssato
##stato
##tade
##tazione
##teza
##ur
##ver
##ya
abbandonera
abian
accadendo
acorto
aggiungo
alfiere
amanza
analizzato
annaffiare
annullata
anz
apprezzato
arivata
armadure
armenia
arresto
ascoltarmi
ascoltava
atendo
audio
auguro
autostrada
autovelox
avante
avisata
avrebe
avria
badminton
bando
basci
bascio
bielta
bilingue
bocha
brandon
buccia
butto
cambiati
canbiato
casuale
chastita
chieder
chiedermi
chiederti
china
chitarre
chopin
ciascheduna
ciercando
colu
conosciente
consideri
contadini
contattare
contenere
contero
continuano
conversazioni
convertito
conviene
cred
crederanno
credetti
cristoforo
crucciato
crucciosa
damagio
degniasse
delusione
dentr
diamante
dilettar
diletti
dimentichi
domandasse
domando
donata
dottare
dovuti
dritt
dubita
ehi
entrar
erlique
estraneo
faccian
fallacie
fante
fera
fil
fingendo
fondar
fora
fosser
funzionato
ghirlanda
gialle
gieloso
giovaneza
gittato
gl
gline
gonella
grosse
guernimento
idioti
impazzire
inanzi
incontrarlo
incontri
incoraggiare
incrociate
indagato
indispensabile
inevitabile
influenzato
infuriava
iniziarono
inpresso
intermedi
interpretazione
investimento
invisibile
invitate
ita
jerry
jiro
karate
klingon
lavate
legie
leopardo
lezion
limosine
lodando
lottare
lusso
manchi
manzo
marijuana
maschera
medaglia
mercie
mesprigione
mettersi
michael
morbido
morselli
motti
muoversi
musarda
nate
ngannata
novella
nuziale
orto
ottanta
pacienza
padroneggiare
paghi
pago
parlarvi
parra
passeggiando
passeggiato
passione
paternostri
pazzi
peccati
peggiori
pegnio
pensier
percorso
pesanza
piaci
piaciea
piaciente
pillole
porebe
posson
potrebbero
povertate
preghera
pregio
premuto
presso
previsioni
prociessione
prode
promessione
provede
pulite
puntuali
puose
puzza
rapido
rappresenta
realizzo
rendo
riciever
rifusante
riman
ringraziare
riposare
rivelato
saette
salutato
sare
savia
scimmie
sedermi
segnior
sembro
semenza
sentore
sepolto
sermonato
severamente
siccita
signiore
sire
sistemi
skype
sms
socorso
sogiorno
sospezone
spechio
spettatori
spiaccia
stima
suolo
susan
suso
tasso
temere
territorio
togliere
tornar
tosse
traducete
tranquilla
trasferirsi
tro
trovarono
trovasse
tutt
ubidente
udendo
udio
udire
udita
universale
usciro
vad
vadano
valea
vedranno
vengianza
veno
vermiglio
veterinario
viaggiato
villania
vivanda
##arsi
##cata
##etta
##fficiente
##gare
##iamo
##ja
##lai
##lano
##letto
##lio
##ly
##melo
##minato
##nano
##narmi
##nghi
##nnato
##one
##pato
##perare
##pongono
##sato
##stare
##stra
##tarli
##trici
##venne
##viti
##zzava
abbaiato
acquisto
addormentarmi
aglio
allineato
alzate
ammetto
apertura
appoggio
argentina
asilo
assistito
attori
avanzato
avessimo
avvenuto
bagnati
banco
brave
bulgaria
candidati
cantando
cardiaco
cattura
cellule
ceno
centinaio
cioe
ciotola
coincidenza
colleghi
competizione
concorso
confesso
consegnare
consuma
cucchiaio
culo
desiderare
direi
dirmelo
distruggere
diversamente
dottor
dovevamo
dovranno
elicottero
esibizione
esposizione
essersi
falsi
fama
fantastico
farcela
fermamente
fiamme
formale
fornire
gabbie
gallina
giovanni
giri
governa
gravita
guardai
ignoro
imam
impegnate
impiegato
impressionato
indossato
inoltre
intenzioni
invano
janeiro
kebab
lavata
lavorero
lieto
lincoln
maggiori
magnifica
mario
messicano
metterai
mostrera
muoio
nascose
nativa
necessarie
nevichera
newton
norvegia
operai
opposto
orfano
organizzato
orsi
osteoporosi
parlavano
parta
passami
passeggio
passero
percento
portando
portatile
possesso
potabile
privacy
professionale
progresso
promuovere
regolarmente
restano
restate
rimani
ripreso
rispettato
saluta
sappiano
scalare
scontato
scuri
segnale
sentirti
serbia
servi
settentrionale
spostare
starnutito
statunitense
straordinario
studiano
stupita
successiva
sugo
supporto
svenuta
terreno
testimone
texas
tortura
trasferita
tratti
trucco
turista
usarlo
utenti
valentino
venticinque
virtu
volato
volevamo
waterloo
www
zombie
##arono
##cchia
##ciamo
##dente
##disco
##eroe
##eto
##ferendo
##fi
##ficata
##gata
##giata
##ita
##ller
##ncia
##nsa
##ppo
##rate
##ravano
##rma
##rni
##schi
##strazione
##uendo
##umi
##vere
accusata
affamate
aggiunse
aggravato
aiutati
aiuterai
alberto
ananas
andassi
ann
applicazione
armata
arpa
aspetteranno
assurdo
avvicina
ballato
basato
begli
benvenute
bionda
broccoli
bus
cabina
cacciatore
calcolo
cameriera
campi
capisca
carico
cercano
cerchiamo
chiedervi
chiedeva
chiudo
compiuto
complessa
comprendo
consente
consultare
continuera
contribuito
copiato
corro
corti
critico
cucinando
danneggiato
decollo
demolire
dichiaro
difendeva
difetti
dimensione
dimenticarti
disoccupazione
disonesto
dormivano
economici
elementi
emozionante
esatto
esca
espresso
fantasma
favorevoli
femminile
fette
fidava
fido
frega
furioso
giovinezza
goccia
grassi
gridava
guardati
indiana
innamorarmi
interrompere
interrompermi
invidio
lavavano
limitato
maltese
mantenuto
matura
mazzetta
mediocre
memorizzato
menzogna
mettiamo
misurato
mostrarti
navi
nere
nervose
nevicando
nevicare
nevicato
normali
nuotava
nuvoloso
obbligato
onesti
oscurita
pancia
parcheggiare
pattume
permettersi
piacendo
piegato
pietroburgo
pirati
possibili
prato
precisamente
preghiere
preparata
preparate
preziosi
programmi
quattordici
raccogliere
resa
restato
riconobbe
riconosco
ringraziarla
ripari
riposo
ristrutturato
salite
salotto
sasso
sbarazzarsi
scappare
scappato
scomparsa
scriveva
sedeva
shirt
smetti
soccorso
soddisfare
sorellina
spiegartelo
spieghero
sposarti
spugna
street
successe
suppongo
tacchino
tango
tentazione
tolse
traducono
tranquillo
traslocato
triangolo
ubriache
utilizzi
vedrai
venditore
versato
vietata
visitatori
vivesse
vocali
voluti
vomito
windows
##atori
##betto
##ble
##bro
##burgo
##caccia
##cani
##cati
##centi
##ciato
##cini
##dizione
##dro
##ei
##fera
##gazione
##gie
##gina
##ir
##isa
##land
##late
##lini
##more
##ngono
##olo
##riva
##stino
##trato
##ude
##uo
##use
##vento
##visione
##vre
##wa
##ziono
##zzando
19
abbandonata
abbasso
accompagna
accordato
addormentati
affollato
alcool
ambizione
amichevole
annoiato
anziane
applica
arriveremo
assaggiato
assistenza
aumentando
averne
avvocati
battuto
berbera
buonasera
calcolare
calze
canti
capitera
capricci
carini
carlsen
cartina
cassaforte
cavalieri
cavare
cercava
cesta
cintura
combattuto
combinazione
comprando
comprata
concetto
conoscevano
contrari
cooperazione
cortile
costumi
curiosi
decollato
dimenticano
dimostrato
diplomatico
disciplina
disperati
disposti
diventerai
dovetti
dozzina
duole
esercizi
esigenti
esserne
estonia
estrema
eternita
fango
fondato
franco
galera
giuria
greca
guerre
hey
ideale
imitare
imparava
include
incontrai
indifferente
iniziata
innervosirsi
laurea
lavorai
marca
margarina
mayuko
medea
mentiva
merci
messi
metodi
mettendo
metterlo
mettesse
misi
moderni
mosse
motivato
muore
muovere
nono
nuvola
oboe
odiavano
of
oneste
orgogliosi
pakistan
pallavolo
passava
pensero
pieni
pote
pregare
prenderne
presentazione
presti
privilegio
proviamo
putin
quaderno
ranch
religiose
riceve
ricominciare
riflettere
ripete
riprovarlo
romano
rompicoglioni
sacrificio
salvatore
sanguinava
sapporo
scaccoli
scese
scientifica
sconto
scrivera
siede
sognando
sorte
sperando
sportiva
sposarvi
sprecando
stese
sviluppare
taccia
tagliate
tahiti
talenti
teso
testamento
toglierli
trappola
trasferire
trasformato
tunnel
uccidero
umido
uniche
uniforme
uniformi
vendendo
vengano
vietnam
vincitore
whisky
wi
##anti
##arla
##crete
##diamo
##disce
##ento
##esimo
##esta
##esti
##etto
##gate
##ggiano
##gramma
##ili
##las
##lina
##mine
##nder
##nimo
##ns
##nso
##perata
##porta
##rali
##ravo
##rvo
##sche
##sh
##spira
##tente
##tesse
##uda
##usse
##utto
##vare
##venuto
##volse
##zata
##zionate
##zzera
##°
24
26
accettabile
accettate
accetteranno
aderito
aiuteranno
altamente
annunciato
appartengono
applicare
arancione
artisti
aspettassi
aspettata
aspettavamo
assomigli
ateo
attendere
attenta
attenti
aumentare
autori
avocado
aziendale
bada
bagaglio
baule
bevette
biciclette
bisogni
bloccata
bricolage
cancellato
cantava
capiva
capodanno
cariati
certezza
cetriolo
chiamarla
chiusura
cognato
composizione
comprerei
condividono
confusa
conoscenze
continuazione
convegno
corde
corpi
correntemente
correte
corrono
decisa
decollano
delfini
deriva
difendersi
dimenticai
dimentichiamo
dischi
disney
disneyland
disturbare
disturbo
diverti
durato
durera
emigrare
familiare
farli
femminismo
filosofo
fortunatamente
frequente
frontiera
gabbia
garantire
gesticolato
giocattoli
giove
governare
harry
ignorare
incontrano
incontrate
incoraggio
ingrandito
innamorate
installare
intenzionalmente
interamente
interiore
istituto
lampadina
lasceranno
lascero
lasciai
lasciano
lassu
laureato
lavarmi
legna
lenti
lisa
macelleria
magari
magro
mancava
maschio
meritano
miracoli
missione
missioni
monete
mostrando
natalizio
nuda
nudi
nullo
nuotano
operaio
orfanotrofio
organizzare
origini
oso
ostaggi
pagate
parata
pareti
passaporti
passarono
passeggiare
pensai
personali
pharamp
piacesse
polacca
portami
poteri
potevamo
precedenti
preoccupo
produrre
pulizie
registrato
ridare
rimasi
rischiare
risparmiera
rispondete
rubo
ruttato
saggi
salone
salvi
sbagliate
sbrighi
scesa
schiaccera
sci
sconfitto
scoppiata
sdraiato
segretario
seguiro
separate
servito
soddisfacente
soffrendo
sorge
sorprendentemente
sospettato
sovietica
sovrano
spaventata
spaventati
spiegazioni
sposarla
sposarlo
sposera
sposi
standard
stiate
strangolato
strizzato
suggerimenti
sumo
tangente
tazze
telefonica
tentato
terremoti
tessuto
toccato
tradusse
tragedia
tristezza
ucciderti
unire
uva
valigie
vanta
veda
veniva
vergine
verrai
vestiva
vini
volessi
zamenhof
##cate
##ccato
##cella
##chio
##cuto
##ducono
##eni
##es
##gati
##genti
##gge
##gici
##gnato
##ide
##isce
##ldo
##lgono
##lire
##lva
##mentare
##mito
##moto
##mpa
##nali
##nche
##nente
##neremo
##nio
##nna
##ntira
##pre
##rdi
##rgo
##rian
##tivi
##tudine
##tuiti
##turo
##uco
##ul
##ut
##verso
##zare
14
1988
200
2010
abituerai
accade
affidabili
agente
aiutava
algebra
allertato
altrettanto
alzarmi
ambasciatore
amera
amero
amicizie
ammirato
ammisero
andrea
anguilla
annuncio
armonia
arrestata
aspettarti
aspirina
atleti
atmosferico
atomi
attacchi
atteso
avessero
azoto
bambole
bangladesh
beato
beva
britannici
brutti
calendario
calvo
cambiando
cantanti
capra
carbone
casino
catalano
cattivi
cavaliere
cercate
cerchero
cile
cogli
comprano
compromesso
concentrato
connesse
consultato
copiano
copione
correggo
crea
crimini
cristiano
cure
dado
danzato
debiti
decisi
dedico
deluse
dentifricio
detestano
disco
discoteca
disperate
divertiva
divise
domestico
eccesso
eclissi
elemento
en
estinzione
fagioli
fermate
fidanzamento
fissando
fondi
fontana
formare
fornello
franklin
fuggi
fuggite
fulmine
giocate
giocavano
giuste
gridare
grido
guancia
hitler
imperatore
impiegati
improvvisa
incolpato
indovina
infatti
ingiusta
innocenti
james
justin
lancio
liceo
litigato
locali
mammifero
mandi
marcia
melodia
merito
moderno
moschee
muoveva
nausee
nobili
nonne
notti
novelli
occorre
pagamento
panico
perdeva
perdo
pesantemente
piccione
pino
pollice
pranza
prepararsi
presentare
preside
prestarmi
prometta
proposte
proteggersi
prudenza
raccontero
reali
reame
ricardo
riconosci
ricordera
ricordero
rimpiangere
rimprovero
ringraziarvi
riposata
rissa
ritenere
romeo
rompipalle
rumeno
salutarmi
scelga
scesi
scherzi
scherzo
schiavo
scosso
seri
sessanta
sfide
sinceramente
single
soddisfatte
sospetti
spagnola
spari
sparo
spaventoso
sputato
stabile
suggerimento
suggerisco
suicido
sussurrato
tastiere
tenendo
terrestre
tifone
tocco
topolino
tradizionale
trasportare
trasporti
troveremo
tubercolosi
usanza
utente
val
varia
varieta
vigili
vitelli
vivevo
volerlo
yamada
##bil
##cie
##colo
##cro
##dette
##dico
##ena
##ese
##fatto
##gh
##gue
##lava
##lera
##lgo
##lito
##lpa
##lse
##matico
##nie
##ntare
##nziale
##pello
##presa
##rdato
##riate
##rrato
##scritto
##stan
##tava
##tenza
##trica
##uale
##uali
##udi
##venti
##vista
22
accesa
accese
accompagnarla
accompagneranno
accuse
adorera
afferma
aggiunta
aiutami
allarme
alternativa
ammalare
ammette
arabi
ascoltata
asino
atlantico
avide
avvertimento
bambu
batterie
bellissimo
biblioteche
biografia
bisbigliando
bloccati
bocciato
bottone
brilla
bustarella
cacciare
cacciato
calmi
cambi
campeggio
canale
capira
chiamarono
chiederle
cittadina
colibri
collana
college
commentare
complimenti
confessarlo
connessa
conoscessi
consapevoli
considerano
consigliamo
contemporaneamente
copiero
coppa
cornici
cristiani
cugine
degna
destinata
dialetti
diamo
discriminazione
dispiaciuto
disposte
distante
diventava
dotto
dottoressa
dozzine
emisfero
esigo
fermati
fico
filippine
firefox
folli
fort
fumetti
giornalisti
giunto
gliele
governatore
gratuita
guido
ignorano
incapace
incontrarvi
incredibilmente
indiano
insistito
insolito
interessano
inventore
investigatori
iraq
italiane
ito
kylie
laboratorio
laghi
laurie
legata
leggenda
lessi
limoni
link
louis
lusinghe
madri
mali
maniere
marina
massa
mattine
melo
mentono
mettiti
miglio
minacciata
montone
morse
naomi
nascondersi
nativi
negare
negativa
note
obbligati
osservazione
pandemia
parlata
partner
passatempo
passeranno
patatine
perdero
perduta
pericolose
pessimo
piacque
piana
piene
pigliare
pitturato
pizzicare
pony
portar
positivi
possedeva
possiedo
preferiresti
prendesse
prendila
principiante
priorita
prodotta
pubblicare
pugno
pupazzo
raddoppiare
radice
rasoio
realmente
reddito
resistere
ricordarmi
rimaste
rinunciato
riportato
riposarmi
rivolta
rovinera
saldo
salvati
sapro
secoli
segreta
semestre
serra
server
settimo
sincero
smettera
sorride
sottotitoli
spense
sprecato
stancato
statue
strangolarlo
svantaggi
taci
talvolta
telefona
temi
tenda
teneva
territori
tracce
trarre
trovarci
uffici
unirsi
uscisse
valse
vedessi
vedrete
vele
vicinanze
vivente
volesti
voli
vollero
vorrebbero
white
##12
##anza
##atto
##avi
##bare
##bert
##cciati
##colare
##colari
##dendo
##dina
##dira
##ella
##ent
##fia
##gha
##gone
##iato
##ile
##ite
##itta
##lenza
##llare
##lmo
##mbo
##mie
##mina
##moni
##ndere
##nduto
##nese
##nire
##nismo
##nse
##ntati
##nuta
##osa
##pito
##porto
##poste
##rabile
##rmene
##ron
##rt
##smi
##ster
##stiche
##tali
##toi
##uchi
##uita
##ulo
##une
##usto
##utta
##venire
##ventura
##ziere
##zon
16
2011
28
accelero
accendeva
accendino
accendo
accettiamo
accoglie
accompagnarvi
accompagnata
acconsentito
acido
acquisire
affila
affondo
agatha
aggiornato
aiutavano
aiuterete
alt
ambulanza
annoia
annoiata
appare
applaudiva
approvato
araba
arbitro
architettura
arriviamo
ascia
assonnati
astrologia
atteggiamento
avventura
bacchette
baci
bagnato
balena
ballano
basata
berberi
berretto
bevevo
bilancia
bollire
bonaparte
cambieranno
camminavano
campionato
cancellare
cantina
capaci
capitoli
capolavoro
carbonio
carica
carni
casalinga
catalogo
centimetri
charles
chiamera
christie
cocco
comportano
comprarmi
compreremo
conoscerla
consenso
considerata
considerati
contengono
contenti
convincerlo
coraggiosa
corrispondono
country
creativa
culture
daranno
depressione
desiderate
determinato
dicesse
diciamo
discussioni
divisa
diviso
dollaro
dottrina
dovemmo
dovevi
duri
eco
economicamente
effettuato
ellen
entrai
eroi
esperta
europeo
fabbricato
facci
fallimenti
fallita
fidarci
formiche
guidera
imbarazzante
imbarazzati
immigrazione
inchino
inchiostro
incolpo
incoraggiano
indipendenza
infantile
infastiditi
inferiore
iniziera
inserire
ipocrisia
ipod
ipotesi
ispirazione
jeanne
kazakistan
killer
leoni
mancato
manchera
mangiavo
manovrare
mantieni
marroni
maschile
medio
melanie
mennad
messagio
metteranno
mettero
mettono
minogue
minori
mobile
mogli
muova
muri
muta
nasce
nega
nobel
norme
notevole
onda
ordinare
oriente
parecchi
parlante
partecipo
patata
pellegrini
perda
pesanti
pescatori
piacimento
piantina
pietanza
ponti
popolarita
postino
potter
povere
preda
preferireste
pregi
prenderai
preoccupazione
prestando
provai
provano
psichiatrico
raccomandato
raccomando
rami
razzismo
recata
regolamento
rei
relativamente
reno
restiamo
ricevuta
richard
richiamero
ricordarsi
riempi
riempie
riflette
riparata
ritornero
rivela
rivelo
rovesciata
salve
sanguigna
sapevamo
sbagliare
scaricato
scarpa
scegliete
scelgo
scenica
sciarpa
scientifico
scivolata
scoiattoli
scrittori
seguira
sentiamo
senz
separati
servira
sessuale
simpatica
simpatico
socrate
sofferto
sognavo
somigliante
sorta
sosta
sostanza
sostengo
sparare
sperano
spietata
spina
sposano
steccato
strega
stufo
suonano
suv
svenuto
svizzero
tagli
tappo
tele
telefonero
torneo
toro
tradotta
trasforma
trattare
udi
unite
utilizziamo
veder
vedesse
veduto
veniamo
venivano
vergogno
visitano
visitera
viver
volando
xilofono
zie
##ade
##agia
##ani
##areza
##aria
##atore
##batte
##buisce
##camente
##car
##cchiare
##cciatoi
##chava
##chiamo
##chie
##cino
##cola
##contar
##dero
##dicava
##duto
##em
##fami
##far
##ferno
##fese
##fobia
##gasse
##genza
##ggere
##ggiamo
##ggiava
##giasse
##gniar
##gniare
##gniata
##gnio
##gnione
##he
##ic
##ick
##id
##lante
##lari
##lette
##lga
##mando
##menata
##menbrata
##mettono
##milia
##nai
##nar
##ncie
##ndosi
##neccio
##nenza
##nero
##netto
##ngho
##nista
##nove
##ny
##nziata
##ochi
##pagna
##pea
##peri
##pogna
##portare
##ppone
##prendea
##puose
##ran
##reggiare
##renare
##renza
##ressa
##rieve
##rini
##rite
##rivo
##rme
##rnita
##scia
##segue
##sia
##simava
##siva
##ssata
##ssera
##taggio
##tale
##tana
##tende
##tene
##tezza
##torna
##ttica
##ttrice
##tture
##tute
##uffa
##uni
##usi
##van
##versa
##ville
##volta
##yama
##zionali
##zionato
1000
1945
90
abandonare
abandonato
abate
abatte
abatter
abbassa
abbattera
abiamo
abie
accendera
accettava
accetti
accogliera
accoglieva
acconsentire
accontentare
accoppato
accusa
acomando
acontanza
acordanza
acquario
adamo
addormento
adolescente
adosso
adottare
adreza
affama
affamava
affamera
affanno
afondo
aggiunge
aggiungete
aggressivo
agiata
agiate
aina
alquanti
alternative
altru
ambidestro
amendue
ameria
americane
an
andavan
andavo
angielicanza
annoio
ano
anoiato
antenati
antidoto
apellava
apertamente
aportaro
apparecchio
appendeva
apprezzerei
appuntamenti
arda
ardire
aresta
argiento
armadura
arrestati
arrivasse
asiatici
asise
assicuratevi
assicurati
astronauta
atenda
attraversando
aumenta
avegnia
avenante
aviso
avviene
bacia
baldo
barbiere
basciar
basilico
beleza
beneficio
benvoglienza
beveva
bieber
bieltate
bisanti
bisogniava
bolognia
bona
bordone
borghesi
brieve
brigata
bug
caduti
cagnione
cambiero
canaglia
canbiando
canpar
capitata
cappelli
caratteristica
cartoline
casco
castella
castelli
castitate
cci
chaccia
chastel
chegia
chell
cheta
chiacchierare
chiamar
chiari
chiedera
chiesta
chilo
chol
cielar
ciento
ciliegio
citazioni
cittadinanza
civir
clitoride
coccodrillo
colonbi
coltivo
comincero
cominciamento
cominciate
commettesse
comoda
compagna
comportarsi
compreranno
comuni
concentrarsi
conobe
contegnia
controllata
converebe
coperte
corregga
corrotto
cortesemente
costor
cotali
cotanto
cotesta
creature
credea
credendo
criatura
crio
cuopr
damigiella
danaio
danar
danese
darebe
dee
degie
delitto
deo
deposizione
derate
descritto
desdir
dick
difensione
dillo
dimentichera
dimoranza
dimostra
dinosauri
dipendenza
discacciato
discuterne
disire
disleale
dispiaccia
disputa
disser
disson
disturbi
dittatura
divieto
divini
doglio
dolcie
dolea
dolenti
doman
domandar
donasse
dormia
dottosa
dovea
dovess
dovevate
dovrete
dovria
egl
ela
eo
episodio
equipaggio
eredita
eseguita
esitazione
faccie
faciean
fallava
falleria
falta
fascino
fastidio
fastidiosa
fatt
fec
fedire
fele
fello
ferm
ffai
fiede
fier
fina
finava
fingere
fiorini
fioriscie
fisicamente
folgore
follemente
fondatore
frastorna
frastornera
fredo
frequentemente
fresche
frigoriferi
fuggiti
fugo
funerali
gaggio
gastigar
gastigato
gaza
gerusalemme
ghigniate
gi
giacie
giama
gienaio
giermano
gietti
ginochione
giochero
gioelli
gito
gittar
giuraro
giva
grava
gridar
guardaroba
guardisi
guarire
guerito
guise
haiti
hollywood
humana
humane
humano
imagine
impazienti
incluso
incontanente
indica
indicazioni
industriale
infastidire
infastidito
infine
ingegnere
inginochiato
inizialmente
insegnano
insultava
intra
intrametter
iphone
ipocristo
istran
km
ladron
lagrime
lamentarmi
lampada
languire
lascierei
lati
lavorar
lavoravo
lealtate
leghato
limosina
lina
lisciarsi
lontani
macchie
magio
maldiciente
malenanza
malia
malvagio
managio
manera
mangeranno
manghanelli
mangiarne
mante
mantiene
maraviglio
marinaio
marmo
martire
materasso
maza
meco
mediterraneo
mena
menar
menare
mendicante
mendicato
mento
meo
meridionale
mess
messagi
messer
metteremo
michel
micianza
milionario
minacciando
minaccio
misfatto
mobilio
molecola
monroe
monti
monton
morir
mostran
mostrav
move
movimenti
mucchio
muoiono
muor
murare
musa
musulmana
muto
narita
natur
nesuna
nimistade
nmantenente
nobilta
nocte
nodrire
normandia
normando
nostr
novanta
ntendimento
ntenzione
ntorno
odiate
ogn
oltragioso
orecchio
organismo
orizzonte
oscuro
ossessione
ostel
oxford
oziosa
pacie
papalardia
parcheggiata
parlarono
parlavamo
parteciparono
partono
parzialmente
passagio
passar
pattinare
pavese
pe
pelar
pellegrinagio
pen
penitenza
penone
pensamento
pentola
perdimento
pergiurato
permettono
perta
pezi
piacier
piangier
piatitori
piaza
pietade
pietate
pietosa
piglio
pigrizia
portal
portatura
portier
potte
poveruon
predicando
predicar
preferiamo
pregiar
pregiava
prelato
premere
premi
presenta
presentarti
presentate
priega
primiera
private
privati
prochacciato
professor
promettermi
prometti
proprietari
prosciutto
prossime
protetto
proveduto
pruova
puliva
punt
puot
quantistica
quatro
quistione
racomanda
rapporti
rappresentano
recare
religion
renduta
ribalderia
ribaldo
riccore
richa
richi
richieste
riconfortando
riconoscete
ricontare
ricoverare
ridottava
ringiovaniva
rinunciare
ripognia
riposarsi
riscaldato
risolve
risparmiando
robe
rota
routine
rovinava
sacciate
sagiamente
salamone
sally
salvaggia
salvagio
sanguinera
santuaro
sapiamo
saver
scende
scettica
schiacciava
sciocco
scondir
scoraggiava
segnio
selezione
semi
senn
sentimento
sentite
servagio
servir
sesta
settu
sicilia
socrato
soffera
sofferire
soia
sollevato
soluzioni
sopravvissuto
sorridendo
souvenir
sovr
specialmente
spontanea
sposeranno
ssai
straneza
strappato
strategia
stufa
successivamente
sudamerica
sufficienza
ta
tabella
tartaruga
tatami
temporale
tenerlo
tenghi
tenperato
tenza
testardo
togliersi
tormentando
trabochi
tradigion
tradiscie
tradizioni
tradotte
traduca
tranobile
trapassante
trascorsi
trasportato
trattata
trattenere
tratutta
travaglia
travaglio
treccie
tremando
trepidazione
trieva
trista
tristo
truante
truovo
twilight
uccidersi
udendomi
universitaria
unque
unto
uragano
usarla
usciamo
utilizzano
vacca
vampiro
varria
vechieza
vedea
vedendo
vedevo
vegio
vego
vender
vengha
venia
venian
veritade
vernaut
verrete
vid
vilmente
virgola
viventi
vogl
voglenza
voglienza
voglion
volli
volonteroso
vulcano
vuogli
vuote
##14
##99
##aldo
##arl
##asi
##atte
##azze
##canti
##cciare
##chia
##clusa
##cluse
##coraggiato
##corta
##cri
##denza
##deremo
##dia
##diva
##dotto
##dy
##emo
##fe
##fermo
##ffo
##gawa
##gola
##grafico
##ine
##letti
##liato
##ming
##nella
##nera
##nita
##nite
##nizione
##nsioni
##olente
##otta
##passare
##pendo
##pro
##quista
##ramento
##rero
##rici
##rs
##rte
##sata
##shima
##ssia
##stante
##state
##stero
##strato
##tame
##tendo
##terebbe
##tivamente
##tole
##ttamente
##ttivo
##uffe
##uggire
##unque
##uttivo
##versi
##ziata
00
60
abbaia
abituati
abituera
abituerete
accompagnava
accompagni
adatta
addormentate
adorando
adori
agenzia
aggiornare
aiutiamo
akira
alzarti
andy
anne
annegato
anniversario
antiche
aperte
appassionato
approfittare
apriranno
arcobaleno
arrabbio
ascoltera
ascoltiamo
aspettative
assassinato
assicurare
assicurarmi
assicurata
assicuri
assonnato
aumentato
autentico
azzurro
balliamo
bancario
banche
bandiere
bistecca
bizzarro
borsetta
buttare
calde
camionista
canali
cantavano
causare
cause
cenando
chiusero
cibi
civile
competenza
compriamo
conoscesse
conservatori
consumatori
continuava
costose
creatore
cristiana
cucciolo
dannazione
davante
definizione
denunciare
descrive
descrizione
determinazione
diciassette
digitali
dipendenti
distratto
donate
dormiro
dormisse
ebbi
ebrei
elettronica
eppure
esaminare
essenzialmente
evita
fascio
fattori
festeggiare
fetta
fidarmi
finali
finite
firma
flauto
fritte
fucile
fumate
funzionava
galassie
gara
gestione
gioioso
giovanile
girando
golfo
guardarono
haiku
helsinki
ichiro
ignori
illusioni
imbattuto
immobile
impallidi
imparate
incomprensione
incontrarci
indonesia
indossi
infastidite
infedele
infezione
informatica
iniziero
inondazione
inquietante
insegnera
insetto
insultato
investito
inviti
isolata
jeff
jersey
labbra
lasciarmi
laura
laveranno
leadership
limitata
lituano
lussemburgo
mammiferi
mancavo
mangiarono
manifestazione
marshmallow
massachusetts
megl
meritarmi
minimamente
morali
morirai
mostrarmi
motivazione
musicali
nascondo
nemiche
nido
notevolmente
nude
occasioni
occupero
odiare
omaggio
ospedali
ospitalita
ottima
pacchetto
parabrezza
passeggiate
passeggiava
pensaci
pera
perfezione
persero
piangeva
picchiava
pierre
ping
politiche
pong
pop
popcorn
portati
potenza
preservativo
profilo
promettere
promisero
puerto
quercia
quotidiana
quotidiano
raccolta
rappresentante
razionale
realizzazione
regolare
reparto
respiro
richiamarti
riconosciuta
ricordata
rifiutata
ripetuto
riscaldata
riserva
romney
sam
sappiate
sapra
sapranno
scarico
schiavitu
sconfiggere
scozzese
scrivono
seguo
seminario
sieda
sigaro
social
soffrono
sorridere
sostengono
sostiene
spalla
specializzato
spinaci
splendido
sposero
stallone
svenne
takahashi
televisivo
tesori
tira
tornano
torturata
trascorri
trasparenza
ufo
universitario
urgenza
urlo
utilizzati
valle
valori
veranda
versailles
vile
villaggi
vinca
violento
vizi
yuan
zanzara
##aio
##berg
##bica
##bolita
##bri
##chera
##cherete
##cole
##coli
##colla
##cotti
##creto
##curata
##detti
##dicesimo
##duco
##edi
##entale
##eranno
##eti
##ft
##ggibile
##ghera
##ghero
##gliamo
##glianze
##gnare
##hi
##ido
##ismo
##ji
##lando
##lerie
##leto
##lismo
##logici
##ltate
##mico
##minata
##mini
##molo
##namento
##nazioni
##ndicare
##ndono
##nerete
##ngare
##nnati
##nz
##oli
##pera
##pinse
##posti
##quisizione
##rante
##rebbero
##rge
##riera
##rieri
##riti
##rmo
##rnata
##sai
##sati
##scha
##scienza
##sei
##shi
##sito
##spa
##ssuta
##stava
##stere
##stia
##teri
##tola
##ttati
##ugo
##uncia
##unse
##urito
##usato
##usso
##vata
##venia
##viare
##vola
##zzarono
##zzazioni
1980
abbandonati
abbandonava
abbassi
abbigliamento
abbracciare
abbreviato
abitavo
aborto
accadere
accadra
accettano
accuso
affetto
affilava
affilera
aggiungero
aggressiva
alcolici
alimenti
alquanto
altezze
ammalera
ammalo
ammoniaca
analizzo
andrei
angoli
aoi
arrampicarsi
arrendersi
asociale
astronomi
attratta
automatica
autostima
averci
averle
avvertire
aziende
bach
baciata
baffi
bagnata
balcone
basi
bellissimi
bestiame
betlemme
biasimarmi
bisbigliato
bisessuale
bloccate
bordello
brasiliana
caccio
caffetteria
cammelli
cantate
carenze
carol
caviale
ceca
cercavo
check
chilli
chimico
circonda
citare
civili
clarinetto
comodo
complesso
comportato
comunista
concluso
conferenze
confondo
congresso
consegnato
consigliare
contribuenti
coperchio
copiera
copierai
copierete
copri
copro
coreana
corno
corruzione
cotone
cowboy
credenze
crederci
crescente
criticato
crudeli
cucinato
cucini
danneggiata
darei
decollare
definitiva
diamanti
difeso
difetto
differenze
dilemma
dinosauro
diranno
dirglielo
discute
discutiamo
disoccupati
distinguerla
disturbate
doloroso
domestiche
droghe
eccezioni
effettuo
egoismo
entusiasta
esperimenti
estranei
fahrenheit
falafel
false
festeggiato
fidato
fieno
filippino
finanziario
finisci
finiscono
flessibili
fluente
formazione
fragile
frattempo
frequenti
fumetto
fungo
furiosamente
gallese
gelati
giocheranno
giraffe
girato
giungla
gol
gradevole
gratitudine
guardami
hunter
illusione
imbarazzata
impedire
impedisce
impieghi
impressionata
imprudente
inclusa
incomincio
incontrarti
indagine
individui
indovino
informata
informatico
informato
ingenuo
insegnava
insiste
intellettuali
intervenire
introduzione
invernali
islamabad
italo
jimmy
jogging
juan
kenji
lacci
lamentano
laptop
lasciando
lasciarono
lavaggio
legati
lettone
lettori
licenzio
livelli
macchia
magica
maiuscole
manga
marc
materie
mazzo
mescolato
metal
migliora
misericordia
misurarti
modulo
mostrano
namibia
nascere
navigare
notturno
obbligata
omicidi
organi
ozio
palesemente
panchina
panino
paralizzato
parchi
parecchio
pareggio
partecipera
passeggero
peggiorare
peli
pennello
perdonero
pessima
piacevano
pianificato
piantagrane
piogge
pitturava
piume
poeti
posa
possiate
poterti
prenderti
profondita
programmatore
prospettiva
provavo
proverbio
pub
pubbliche
punizione
radici
ragionare
razzisti
recessione
record
regime
registro
restati
reti
riciclare
ricoperto
ridipinto
riflesso
riflettuto
rimesso
rimosso
rimpiango
rinvenuto
riordinato
ripulita
risorsa
risparmio
rispettano
rispondero
rivederla
romanziere
rovesciato
sadako
saltando
saluti
sanguinano
satana
sbaglia
sconosciuta
scoperte
scoppiato
scrivermi
secchio
sensi
sentiranno
sentitevi
settanta
sezione
shock
siediti
significati
smarrito
smartphone
smettesse
sobborghi
socialista
soffitto
soffro
sogna
sollevare
soprannome
sopravvivera
sorprende
sorridi
sospeso
sostenibile
sostenitori
sostituito
sparito
specialita
splendida
spontaneo
sposarono
stretti
studiava
succedeva
suicidata
suonate
supero
sussurro
suzuki
sviluppata
tacere
taiwan
ted
telefoni
temeva
tempura
tendono
tengono
tento
teresa
terroristi
thailandese
times
togliti
tolleranza
tomba
tori
toyota
tradizione
traduttori
trasparente
trucchi
trump
truppe
turchi
umane
universitari
utilita
valere
verifica
viaggiando
vincero
violato
visibile
volapuk
volontari
volontario
vomitare
zelda
##15
##68
##aci
##ad
##atta
##battuta
##bico
##bui
##cenza
##ciati
##cida
##cidi
##cina
##coraggiata
##cotto
##curato
##dano
##destra
##detta
##dice
##dine
##durre
##dusse
##et
##ferito
##ferte
##fesi
##fettura
##gan
##ggiavo
##grato
##gua
##ho
##ida
##ilo
##im
##it
##latore
##ld
##ler
##lin
##lizzato
##lpi
##mata
##matiche
##mentato
##mettersi
##mino
##mmelo
##mpare
##mpico
##narsi
##nce
##neo
##ngolo
##nzate
##nzo
##obo
##ok
##pagne
##parte
##pido
##piegata
##polo
##pparsi
##ppe
##pporta
##ralita
##razia
##razioni
##rbe
##rca
##rendo
##reremo
##rest
##ris
##rizione
##rtimento
##sare
##segna
##serebbe
##setto
##sino
##siti
##spiri
##sporre
##sporta
##ssante
##tch
##tenti
##tia
##ttavo
##ttere
##ttiere
##tuta
##uazione
##ugge
##uia
##uori
##vai
##ven
##vene
##vido
##volmente
##voloso
##volti
##vra
##zai
21
70
accendi
accompagneremo
accorse
aceto
acque
adattato
aeroporti
affermato
afghanistan
agisce
agricoltura
aiutarli
akiko
andavamo
angela
annunciare
antibiotici
antonio
apice
apostoli
approva
approvare
aprisse
arabia
arrivai
arrivava
arrivero
arti
asciugare
assomigliava
assumo
attirare
attrezzi
avanzata
baciando
balene
banda
barcellona
beccato
becco
benessere
bestia
biologo
blocco
bouquet
brillanti
brucio
buttato
butti
cambiava
campus
cantano
capirebbe
capiti
carrello
cartellini
caval
cellula
cercheranno
cesto
chiacchierata
chiamatemi
ciliegi
cipro
cocktail
colloquio
colpire
colti
comincera
comportando
condivise
considerando
consideravano
consiglierei
consumo
contando
contate
cookie
corna
crederebbe
credevano
cretino
cucire
culturali
deceduta
dedicare
delfino
delinquenza
dessi
destro
detective
dipendono
ditegli
ditele
divertirono
divisi
dosso
drink
drogato
eccellenti
eccezionale
einstein
elettrico
eliminato
esprime
estivo
estremo
europee
facciano
fattorie
fbi
fidati
fiere
finge
finiro
fisso
florida
fondamento
formato
fortunate
fred
galassia
gergo
ghepardo
giraffa
gonne
grattacieli
greci
groenlandia
guardiamo
identificato
idiozia
imitazione
immobili
imparerete
impedi
impressionare
incendi
incenso
indicato
indovinare
iniezione
inno
insistere
intellettuale
interpretare
interruppe
intervento
intraducibile
investire
irregolari
irritante
istinti
istruttore
jet
kato
lesbiche
limousine
lione
liquido
lodo
luis
lussemburghese
maglia
magnus
magre
maiuscola
maiuscolo
malta
maltempo
manchero
mangiavano
maratona
marilyn
matematici
medie
mentalmente
menzionato
metterti
miglioramento
miliardo
minerali
moriro
nascondono
negativo
notare
numerosa
nuotatrice
occuparmi
offri
oratore
organo
orleans
ostacoli
ottimisti
padri
paragrafo
parlanti
parlera
partecipanti
particelle
penisola
penne
pensasse
perdi
perfette
pesco
piangono
piatta
pinguino
polso
poterla
prega
pregava
prenderlo
prendeva
preparero
prestano
prestero
prevedere
privo
procedura
pronunciato
proteine
provarla
proveniente
proveranno
proverbi
provoca
puniti
punk
quadri
quesito
quinta
ragazzina
raggi
raggio
rapinato
religioni
ricordano
ridire
riduzione
riga
rimpianti
rimproverato
rinascimento
rinnovare
rinuncio
ripararlo
riparazione
ripeterlo
risposi
ritenuto
ritratto
ritrovare
rivedere
rivederti
rivelata
rompo
rovino
saltata
salvataggio
sapremo
sbagli
scaffali
scatarrato
sceglie
scendi
schermo
sconosciute
scopre
scordata
scordo
scorpione
scriviamo
sederti
sedute
segna
segua
senna
separa
seppe
serviva
sessuali
shinjuku
sincera
sintomi
soffia
soldo
solleva
sopravvissuti
sopravvivenza
sorvegliare
sospettosa
sostituto
specifico
spegnete
spenga
spogliato
spreco
squillo
stampante
statistiche
storici
stradali
straordinari
strettamente
strisce
succedono
successa
suonavano
tagalog
talmente
tassa
team
tecnico
tedesche
telefonate
telegrafo
temporanea
tenermi
tensione
terre
terreni
thailandia
timide
timidi
toglie
tollerero
tonno
tostapane
tovagliolo
trascorrete
trasferiti
traslocare
trema
trentacinque
trovassi
trovero
turistico
udito
usb
uscirne
utilizzarla
vaccino
valga
variano
variazioni
varsavia
vattene
vederle
vegetariani
venderli
venissi
ventiquattro
vergognarsi
versare
versi
viceversa
visse
vivevamo
vorranno
zaino
##ameremo
##ane
##ara
##ario
##arti
##azzi
##bali
##batti
##bio
##bite
##cchio
##cciate
##china
##cipazione
##ciso
##colai
##corando
##cratici
##cura
##cutore
##cy
##dali
##diente
##dino
##discono
##dra
##duce
##erne
##esi
##evo
##evute
##fare
##ffe
##ficate
##ganti
##ggendo
##ggiarono
##gimento
##giti
##gnate
##gnendo
##grammi
##guay
##gura
##han
##iera
##ig
##il
##is
##lele
##lm
##loso
##luogo
##mani
##mania
##mba
##mene
##messa
##mismo
##mmene
##mori
##mosso
##mula
##narlo
##nci
##ndando
##ndiamo
##nel
##nere
##nes
##nstein
##ntale
##ntava
##ntro
##nzi
##oko
##olto
##oro
##pelli
##perebbe
##pitato
##plende
##pogliando
##posi
##posto
##ppato
##ppiato
##pra
##pressione
##pulso
##ratto
##reme
##renda
##resi
##riamente
##riamo
##riano
##rira
##rmali
##rnale
##roni
##rrai
##ruzione
##sate
##scio
##screta
##sicura
##sisti
##ssie
##sticato
##strare
##stratta
##stro
##tel
##tento
##tesi
##tina
##toni
##ttico
##ttono
##ty
##uca
##udere
##uino
##ulla
##urare
##utture
##vabile
##venuta
##verto
##vite
##volgere
##volo
##volte
##zera
##ziona
##zziamo
4000
abbassava
abbattevano
abbatto
abile
abuso
accadesse
accadono
accetterebbero
accidentalmente
agricoltori
aiutai
aiutasse
alaska
alberghi
algeri
alieni
allergie
alloggia
allontano
alpi
ammirano
ammorbidito
analfabeta
andre
anelli
appello
aprira
apro
arnold
arrende
arrotolandoli
aspettavi
assoluta
assomiglio
atterrare
attico
attive
attrazioni
aumentati
avidi
aviv
avorio
bagni
ballava
basco
batteva
beatles
bersaglio
bevevano
biliardo
bistecche
branco
brevi
brian
brodo
bruciata
buca
bugiarda
bulgaro
calmati
calvino
calzini
cancellata
cantiamo
caos
capiro
caratteristiche
carezza
carlos
castro
catinelle
cavarti
caverna
celebrato
celebre
censurata
cercarlo
cercheremo
certificato
cesare
chiamarlo
chiedevo
chiedono
ciel
cileno
cipolla
circolo
circondata
climatico
clown
collegare
coloni
colorate
colpetto
coltiva
cominciata
compravano
conduce
confidarti
confortato
connessi
conoscera
conoscerlo
conquistare
consegna
consolato
conte
controlla
controllava
coperti
coprirti
coraggiosi
correggano
cosciente
costituisce
creativi
creatura
credente
cresciuti
cucchiaiate
cucinera
cuoca
cuocere
darsi
debolezza
decappottabile
democratico
depressa
destinatario
destinato
detesti
diavoli
dichiarare
diciannove
difende
dimagrire
dimesso
dipinse
dirsi
discutendo
disturbarci
disturbera
dittatore
diventerete
divide
documentario
domestici
donald
doppia
dorma
dormira
eccetto
edgar
effettivamente
elettricista
elettronico
emilia
emozionato
energetiche
entrera
esagera
esausti
esclusivamente
eseguito
esercitare
esista
esito
espressioni
everest
faccenda
falsita
farebbero
fattore
federale
figure
finendo
firmo
fiscale
fischiava
flessibile
fluenza
fondamentali
foreste
formano
fotocopiatrice
fragola
frequentarlo
furiosa
furiosi
gallo
generi
generosa
geni
giardini
ginocchia
giocata
girarci
giumenta
glutine
gomma
gotta
grammaticalmente
grate
grati
gratto
gridato
guance
guardavano
hanako
henry
ia
illumino
imbarazzate
imbattuta
imbecilli
imitano
immediato
imparai
impazzito
impermeabile
imprevedibile
incontreremo
indiani
indice
indigeni
infestata
inganna
ingrassa
insegnasse
insonnia
interesso
interna
invernale
ipocriti
jeans
keiko
lamentarti
lampeggiare
lasciala
lascialo
lasciati
lavavi
leale
leccava
legame
legend
leggevo
letteralmente
lodata
lunare
macedonia
maestra
mancia
manico
mantello
matti
mcdonald
meccanico
melbourne
miami
migliorata
minatoria
mirare
modella
modena
moriranno
mortale
mp3
multilingue
muove
muovono
nascondeva
nativo
necessari
network
nikko
nilo
normalita
nucleari
nuotatore
occuparsene
oceani
odiato
offesa
offro
olimpiadi
onestamente
opposizione
orale
orari
orribili
oscura
oslo
ossa
ostriche
pagamenti
paragonato
parlarlo
partiranno
patologico
pauroso
pelando
pento
percentuale
perdona
perdonera
perfino
permanente
piaceri
pianse
picchiavano
pigiama
piombo
piova
pipistrelli
portassimo
porvi
pranzi
predicatore
prenderanno
prenderete
prenotazioni
prepararmi
presentata
prevede
procrastinatore
programmazione
proiettili
prossimi
pulisci
punizioni
quota
raccoglie
ragionata
rara
reciproco
referendum
rendendo
rendesse
rendi
resteranno
riavviare
ricevetti
ricompensa
ricorso
ridacchiavano
ridendo
ridi
riduce
rientrato
riferimento
riguardante
rimedio
riordinare
riposa
ripugnante
risparmiato
ritengo
riusciremo
riusciro
romani
romantica
rotondo
ryck
saltate
salvarla
sanguino
sant
sapienza
sbrigativamente
scadra
scambiare
sceglieranno
scesero
scettico
schiacceranno
schiaccia
schwarzenegger
scottato
seguiranno
sentirlo
sfera
sfrecciando
sfrutto
showroom
significhi
singolo
sofferenza
sognano
solitario
sospiro
sostantivo
soste
sostenuto
sottovalutato
spasso
spenta
speranze
speravo
spezzato
spiegarlo
spiegarmi
spoglio
spuntino
stephen
straordinaria
stringevano
suicidera
superficiale
suppone
tecniche
tel
telecomando
telefonico
temevo
tentare
terminal
terrore
terrorizzati
tipico
toccherei
tolga
tollerare
tornai
tornasse
torneremo
torturate
torturati
tragico
tremano
tremava
truffatore
tuffata
turistica
ucciderla
uguale
ugualmente
unira
unitevi
urdu
urumqi
usati
usciranno
utilizzarlo
vanita
veicolo
velenoso
vendera
vendette
venditori
vestire
veterano
viaggiatore
viennese
vivace
vivra
vizio
wow
yogurt
##alo
##ang
##as
##asa
##asso
##atico
##atti
##bbedito
##belli
##bire
##bonato
##bor
##bracci
##brico
##ccate
##cenere
##cera
##cesso
##chiko
##cito
##correre
##culare
##dava
##den
##die
##dimento
##dirmi
##diti
##dizioni
##don
##doni
##drai
##dre
##erare
##ette
##ffia
##ficazione
##fitti
##foni
##forme
##gala
##galmente
##gano
##gesi
##ggine
##ggini
##giano
##gine
##gnati
##gui
##ier
##igma
##ii
##inta
##irando
##jan
##kusa
##lena
##lenti
##leremo
##lici
##lizzare
##lizzazione
##llino
##loni
##lovacchia
##mar
##messo
##mettere
##min
##minati
##minosa
##mise
##mma
##mon
##my
##natore
##navo
##nazione
##ndano
##nendo
##nersi
##nete
##nge
##niera
##niere
##nsato
##nsori
##ntali
##ntamenti
##ntento
##nuto
##olti
##ontata
##otte
##pardi
##parta
##pero
##perse
##plicate
##polare
##pose
##pp
##ppati
##ppava
##ppie
##ppy
##prensibile
##pressi
##ption
##ranio
##ravi
##rce
##rdarono
##rde
##rdera
##rista
##rtero
##ruto
##rve
##rzare
##sciare
##sette
##setti
##sima
##spirano
##sposto
##ssibile
##stanza
##stono
##tami
##tarono
##tele
##tenda
##tendi
##ter
##tesa
##tiamo
##tigo
##tin
##tine
##tr
##trico
##ttante
##ttente
##ttero
##ttiva
##tuale
##tuali
##uccio
##uce
##udo
##udu
##uito
##ula
##ulia
##ulta
##ulto
##uma
##uola
##uzioni
##valutare
##vato
##vazione
##venuti
##venzione
##verse
##versione
##vesti
##vidi
##visti
##volge
##ware
##zamento
##zerai
##ziano
##zino
##zionati
1939
1941
1950
23
35
80
95
abbandonate
abbracciato
accetterei
accorta
aeroplani
aeroportuale
affinche
affonda
affondato
aggeggio
allan
altrettante
ambizioso
ammirava
ana
app
apparire
apprendere
apprezzare
approvata
argomentazione
arrabbia
arroganti
arroganza
ascoltami
ascoltano
ascoltarlo
ascoltavo
assassini
assicurato
assonnate
assumera
atleta
attaccata
attirato
attrazione
australiana
austriaca
autorizzo
ayako
bancarotta
barbara
beethoven
benedizione
berlinese
beviamo
biondi
birre
blues
bolletta
brandy
british
bruciando
busso
cacci
caffettiera
calcolatrice
camicetta
camminano
camminata
capanna
caramelle
casetta
cavolo
celebrita
cellulari
cenera
cenerentola
central
cercai
cestino
chiamerei
chiesero
chimici
chitarrista
chiudete
ciclo
cifre
cinquant
circo
classici
colleziona
colombia
colonna
colonne
colosseo
commedia
completare
completato
complete
comprerai
compresse
condotti
conforta
conosciute
consapevolezza
considerate
contano
contenuti
conveniente
convinse
convinte
correva
corrisponde
costerebbe
costituito
cottage
creative
cricket
cuba
cucino
cuciva
cuffie
culla
curo
custodia
darli
deceduto
degas
delirio
deliziose
deliziosi
democratica
deserta
diedero
differiscono
dimenticati
direbbero
diresti
disegni
disoccupato
disordine
dispensa
disperatamente
disponiamo
distrutti
dormiamo
dormivamo
drago
dramma
ebbrezza
enigmi
erede
esausto
eseguire
esigenze
esitare
esplorare
estintore
fabbriche
fabbrichera
fantastici
farina
faroe
fatelo
fedeli
ferrovie
ficcare
finanziari
finanziaria
fissare
ford
formalita
formule
fossili
fotografiche
fratturato
freezer
funghi
funzionando
gattino
geometria
gesso
gesticolava
gesto
giulietta
giurare
gocce
gradito
guarito
guinea
hon
igienica
immerse
impararlo
imparziale
implica
importiamo
impressionante
impressioni
inaspettatamente
indispensabili
infallibile
influente
ingenua
ingrasso
insegnero
intenda
internazionali
inventata
inventate
investigatore
irrilevante
istruito
judo
kanji
koala
koko
kumamoto
lacrosse
laghetto
lattea
lavarti
lavastoviglie
legate
leggiamo
lente
lepre
letterale
libano
libbre
licenziare
lira
loda
loiseau
luigi
lumache
magnifiche
mandami
manna
mantenne
maschi
massima
medica
medievale
medioevo
memorizzazione
meravigliosi
mercurio
messaggero
miglioro
miseria
modificare
modificato
montare
monumento
morde
muoia
museum
nano
negativi
nelson
nettuno
nuotero
obbligate
obiezione
occuparsi
odiamo
olive
oltremare
omosessuale
onora
orzo
ottant
overdose
padella
padroni
panna
partendo
partirai
patti
pc
pelato
pensera
pentira
percezione
perdente
permettera
permetti
persuadere
pesare
pesche
pesi
pfirsichbaeumchen
pietro
pipa
plagio
pochino
pokemon
polacchi
polpette
pompieri
pongo
popolazioni
portale
portarle
portarlo
portarono
portavoce
porteranno
portiere
post
potenti
potervi
potranno
potuta
preferibilmente
premier
prenderemo
presentati
presentero
prigioniera
programmatori
prostituta
protagonista
protesta
provarono
provenienti
provocato
puliti
puramente
quadretti
quarta
quattrocento
raccolte
recenti
renderanno
renderla
restata
rettili
ricercatori
richiamato
richiedo
richiedono
riconoscimento
ricoperta
ricorrere
ricostruire
ridotto
rifarlo
rifatto
riferisce
rifiuti
riflessione
riforma
rilasciata
rilassata
rilevare
rimandato
rimando
rimanete
rimaniamo
rimasero
rinnovato
riporto
riposarti
risale
riscrivere
rise
risparmia
ritornasse
riuniti
rompicazzo
sake
salsiccia
salvate
salvia
samurai
sanguinando
sanitaria
saperne
saprai
satellite
sbarazzarmi
scappata
scarso
scettici
scomparire
scoprira
scrivimi
scusate
sedervi
segnali
segnato
seguite
seguono
separata
serviti
sesto
sfortunato
sin
sincere
sinceri
sinistro
smoking
soggetti
soggiornato
sondaggio
sorso
sospettoso
sovrana
spaventosa
spiegargli
spinge
spingere
sporcando
stancata
starai
stufata
suonavo
tardare
tardo
telescopio
televisori
templi
tennista
termina
terminare
testimoni
testuggine
tokio
tormentato
tornando
toronto
tovaglia
tradire
tranquilli
trascorro
trasformazione
tribu
triplo
trono
tuffato
tumore
ubriacarsi
vacche
vagina
valida
vani
vapore
venduta
ventunesimo
verremo
vice
videro
violazione
visitatore
vitale
viziata
vocale
volerle
voluta
yumi
zoppicato
zuckerberg
##63
##65
##70
##76
##92
##95
##acca
##africa
##alme
##am
##amerete
##ard
##ari
##arvi
##ase
##aso
##baglia
##bana
##bati
##beth
##biche
##bici
##bola
##braccio
##briga
##buiva
##buzione
##capito
##cassa
##casse
##cavo
##cchiato
##cchiavo
##cciando
##ccorra
##centrico
##chero
##chetti
##chiando
##ciderlo
##citare
##cora
##cript
##ct
##curando
##dad
##ddire
##dge
##dicate
##dicato
##dici
##dienti
##dista
##done
##dori
##dute
##elli
##erei
##eta
##feri
##ffiato
##ficio
##fina
##finita
##fitto
##fusi
##gara
##ger
##gga
##ggete
##ggiando
##ggiati
##ggiavano
##giche
##glianza
##gliarono
##gnarsi
##gnerete
##golo
##grammo
##gre
##guaglianza
##guardi
##hara
##hino
##hon
##hy
##iana
##ibile
##icato
##ieri
##igliato
##iglio
##ika
##illa
##imo
##inson
##into
##iore
##ise
##isi
##kura
##ky
##lda
##ldi
##lento
##leranno
##lerava
##les
##ling
##liranno
##litari
##litto
##llera
##llie
##llina
##llito
##logiche
##logico
##lor
##luto
##mandata
##mano
##mati
##men
##mentava
##mentazione
##mentero
##minari
##minciato
##mme
##mmi
##mpe
##nalmente
##navi
##nchi
##nco
##ndendo
##ndente
##ngere
##ngue
##ntesimo
##ntrati
##ntrera
##nuti
##nya
##nzialmente
##nziato
##oca
##od
##ologiche
##oroso
##oti
##parerete
##pava
##peau
##penda
##perta
##perti
##pine
##pita
##pongo
##porti
##ppata
##ppiare
##presse
##pri
##primo
##puta
##quenza
##quisto
##rabili
##rad
##rafica
##raglio
##raio
##rasse
##rativo
##rattato
##rea
##reggiata
##renze
##resca
##resia
##riale
##riana
##riere
##rin
##rine
##rivi
##rmelo
##rosamente
##rsato
##rtito
##rutto
##rzione
##saggio
##sar
##schio
##sciato
##sento
##serva
##sessuali
##sha
##sinore
##sio
##ssando
##ssico
##ssivo
##ssociato
##ssono
##ssuale
##stalli
##stente
##strando
##surato
##tari
##tarmi
##tea
##tere
##terne
##terra
##testo
##tibili
##ticamente
##tipo
##toli
##trare
##trate
##tterete
##ttibile
##ttino
##ttore
##ttose
##tturo
##tui
##turale
##turno
##uano
##uazioni
##ucca
##ucci
##ud
##uera
##ughe
##uglia
##uisce
##uite
##ulare
##ulnerabile
##ulti
##ume
##unava
##uncero
##unciato
##unte
##unti
##uoco
##uole
##uoti
##urla
##uzione
##vale
##varo
##vaso
##velo
##verni
##versita
##vertire
##vertita
##vese
##vida
##vii
##vito
##vocato
##vono
##yuki
##zionare
##zioso
120
17
1940
1975
1990
2000
27
abbaiava
abbattono
accendono
accettammo
accettarlo
accusate
accusati
acquistato
addirittura
adorabile
adottate
affondata
afrikaans
aggiungeva
aires
alfabetico
algerini
alimentata
allievi
alluvione
alte
amari
amarla
ammettendo
ammettera
amorosa
ampiamente
anda
andiamoci
anguria
annegata
annullo
appeso
apprezzamento
approccio
approfittando
appunti
aprono
arrivammo
arriverai
arrossi
aspettarlo
aspettati
aspettativa
aspetteremo
assemblato
assicura
assomigliare
attuali
auguri
autobiografia
autorizzati
autostrade
avanzi
avvisato
baciarla
bagagliaio
bagnate
banali
batta
belfast
beth
bevesse
bisognera
bjork
braccialetto
buenos
buonumore
burocrazia
cadendo
cagare
cala
calciatori
cambiarlo
cammini
campioni
canna
capitali
capivo
cartella
cascata
cascate
castani
cavi
ceramica
certificati
cestista
cheerleader
chiamavano
chiederlo
chirurgia
classi
classico
coinvolta
colpevolezza
comandi
commerciali
competenze
competizioni
compiere
comporti
comporto
comprarne
comprerete
conciliare
condizionatore
condominio
conducenti
confronta
contagioso
contatti
convento
cotte
creati
cresciute
croato
curie
curriculum
dadi
danzava
darebbe
darete
dean
defunto
delicata
derrate
derubare
descriveva
deserti
diate
dichiara
difendevano
diga
diremo
disappunto
discesa
discusse
disk
disperazione
dispetto
dispositivo
divertiremo
dividere
divisione
divora
domandare
domandato
dormivo
doveri
dovettero
drasticamente
dublino
durano
edizione
educata
eh
elfi
elisabetta
emet
enea
energie
entrasse
ergastolo
eroina
esagerare
esamino
escandescenza
escono
escursione
esistano
esploderebbe
esserlo
estetica
eterna
evidentemente
evitavano
facessero
falle
faremmo
farshad
fast
fata
fazzoletto
femmine
fenomeni
fermando
fermava
fermi
ferrovia
fesso
fidarvi
fidiamo
fili
finiti
flash
food
forum
forzato
fossato
fotografico
france
francesco
freddi
freni
frontiere
fumando
fumano
gela
generazioni
genitore
gentilmente
geografia
gestita
getta
giardinaggio
giocatrice
giornalismo
girate
gita
gomito
grammaticali
graziosa
grotta
guidatore
hockey
identiche
imbarco
immigrato
immobiliare
imparerai
imparero
impianto
impormi
impressionati
imprigionato
inaugurazione
incontriamo
inconveniente
incredibili
infastidita
influencer
informo
ingannata
ingannati
inganno
ingegneria
ingrassare
iniziativa
insegnarti
insisto
instagram
insultarmi
insulti
integrale
intendere
interruzioni
intimi
introdotto
invecchiando
inventare
investendo
invio
irresponsabile
isolato
ivy
jacques
jessie
julia
kakogawa
kansas
kashgar
kuzey
latina
lavoravano
lavorera
lealta
legato
lesbica
letta
letteraria
levo
libbra
litigano
lontananza
lontane
louvre
magri
maionese
maleducazione
malesia
manager
mandera
mangiarlo
mannaro
marketing
marx
matematico
mattoni
maturita
maturo
medesimo
mediocri
meditazione
mentali
mescolate
messicana
metterei
mettermi
miliardario
milionari
minigonna
minimarket
mira
misfatti
molle
monaca
monopolio
morbida
morisse
multe
muratore
murphy
muscoli
nacqui
nagasaki
nascono
nazionali
neonato
nizza
nodo
nutre
occasionalmente
occupare
ognuna
olandesi
oliva
oltraggio
ordinate
orecchini
orientamento
originari
originaria
ossessionato
ostinato
pagheranno
pan
panetteria
parlami
particolari
passai
passe
peggiorando
pensavi
perderanno
perdesse
perdete
perdevano
perdiamo
permettimi
permetto
personal
peste
petizione
piango
pianificazione
pietoso
pigri
pirenei
pitturare
pone
portiamo
posi
positiva
posizioni
poterlo
precisato
predicare
prepari
preposizione
presero
presumibilmente
pretendo
pretesto
prevedibile
problematica
progettando
promisi
pronuncio
protegge
proteggerli
provarci
provavano
proviene
provviste
psichiatra
psicologica
pubblicata
quadrato
quebec
raccolse
raccontando
radioamatore
ragionevoli
rammarico
rari
reagire
recuperato
regioni
regna
rendimento
residenza
resteremo
ricevono
richiamera
richiedere
ridicola
rientra
rifletti
rifugio
riguardano
riguardare
rilassante
rilassato
rimpiangera
riparerai
ripetera
riprese
riservato
ritornate
rivelare
rivolgersi
rob
roditore
romana
rubava
rumeni
saboto
sacrifici
salmoni
sanguinavano
sanita
sapeste
sasha
saudita
sbuccia
scadenza
scambiata
scappati
scappo
scarponi
scavato
scegliera
scettiche
schiacciare
schizofrenico
sciocca
sciocchezza
sciocchezze
scoppiare
scoraggio
scordare
scrivevo
scrupoli
secco
seguirei
selfie
selvaggio
senno
sequenza
settant
settantadue
sfidi
sgabello
silenzioso
simboli
smettete
sobrio
solido
solitudine
sollevo
sordi
sorvegliarti
sospesa
sospetta
sostituire
spagnoli
spengo
spia
spiegherei
spiegheremo
sportivo
sputo
squali
stagista
stereo
stiro
straordinariamente
stringo
sudore
sufficienti
suoniamo
sveglie
sysko
tabacco
talentuoso
tela
telefonera
tendiamo
teorie
terminato
terrai
testarda
toccarmi
togli
tonnellate
tossiva
traccia
tradendo
traducendo
traduttrice
trama
trascurare
trasferirmi
trasformo
trovarti
tubo
tuffo
tunisi
turca
uganda
umiliata
unirvi
up
urtare
uscirono
vaga
vampiri
vana
vano
vegani
vegano
velo
venderanno
vendeva
vergini
verrebbe
vestirsi
vestite
viaggeremo
viaggiate
viale
vigore
vincendo
violinista
visitarlo
vogliano
zitti
zitto
zola
##56
##62
##69
##77
##82
##abile
##allia
##alline
##alzata
##amole
##anno
##antera
##ao
##arrato
##avier
##ay
##azi
##baiera
##bale
##bata
##battuto
##belle
##bisce
##bito
##borato
##cale
##camera
##catenata
##ccando
##ccata
##cciano
##cer
##cere
##cero
##chen
##ciano
##cienti
##cinante
##cine
##cise
##cite
##citi
##colata
##contrarono
##coraggiamento
##creti
##cristo
##culo
##cuzione
##darlo
##davo
##ddisfazione
##dea
##desi
##dete
##dica
##dinamento
##dipendenti
##disci
##disse
##dolo
##dotta
##dotti
##duca
##due
##duttore
##enta
##erato
##erni
##erta
##esse
##evole
##fani
##fede
##fensiva
##ferava
##ferente
##ferire
##ferta
##fetti
##fezioni
##fficaci
##fficienza
##ffio
##ficati
##ficava
##fie
##fonde
##fora
##forzare
##gente
##get
##ggiavi
##gherei
##giura
##gliata
##gliava
##gliera
##gnera
##gnone
##grada
##grata
##gs
##guo
##iate
##ibita
##icamente
##idato
##imer
##ive
##ivi
##lasse
##legio
##lente
##leria
##liare
##lide
##listi
##ltare
##lustro
##lvania
##lve
##lvia
##lzi
##mai
##mali
##matica
##mbi
##mele
##metta
##miamo
##micida
##minate
##minio
##missione
##mitando
##moro
##mposto
##nacia
##naria
##ndite
##ner
##nesse
##nier
##none
##nsamente
##nsate
##ntate
##ntenta
##ntili
##ntra
##ntrata
##ntri
##nvolgente
##nziali
##onale
##onto
##osone
##otica
##ova
##pano
##parera
##patia
##patico
##perando
##peso
##pianto
##pica
##pici
##pingo
##pini
##pinta
##piscono
##plica
##plicita
##pone
##porre
##poso
##pper
##ppera
##priato
##puscolo
##quattro
##quisito
##quistarli
##radato
##rafia
##rammi
##raneo
##rarmi
##rarono
##rassi
##rcati
##rchi
##rdamento
##rella
##ren
##rer
##revole
##rgimento
##riche
##rieta
##riscono
##rismo
##rivano
##rive
##rivera
##rnera
##ropriato
##rrava
##rtita
##scrivi
##sele
##sente
##shu
##sire
##sisce
##sivi
##ssare
##ssuti
##sy
##taria
##teci
##teranno
##terei
##terminatori
##terrato
##tha
##tighi
##tili
##timo
##tino
##tire
##tismo
##tosi
##tringe
##ttar
##ttarti
##ttenga
##ttengono
##ttima
##ttine
##ttosi
##ttura
##tty
##tuita
##tuto
##uamente
##uario
##ubai
##uccia
##uiscono
##uiva
##uk
##uli
##ulu
##unciata
##unga
##unge
##unire
##unite
##unto
##uove
##urando
##uttori
##vaga
##vando
##vanti
##venute
##verra
##viluppando
##vini
##visa
##voro
##vy
##yo
##zar
##ziosa
##ziose
##zone
##zy
##zzarlo
##zzavo
##€
1971
2021
31
98
abbandonano
abbandonavano
abbassate
abbonda
abbondanza
abitando
abolire
accettata
accetteremo
accettero
accolgo
accompagnarti
accompagnero
acida
adattarsi
addestrato
addetto
adiri
affar
affermazioni
affittare
affronta
africano
agito
agnello
aids
aiutarle
aiutarsi
alcolizzato
ale
alexandre
algerina
allacciarmi
allacciati
allah
allarga
alleviare
allontanati
allontanato
allungato
alzava
amaca
amara
amerei
ammala
amministro
ammira
ammirare
ammiratore
amoroso
ampia
andatevene
andresti
ansioso
apocalisse
apollo
apparizione
apparso
apparve
apprezza
aprirlo
aquila
arato
argilla
armate
armati
armato
armonica
arrugginito
artificiali
artistica
asciugati
ascoltiate
aspettavate
assassinare
assonnata
attaccare
attaccarono
attaccati
audiolibro
autografo
avanzando
avanzate
avanzati
avanzava
avari
avverarsi
avvertito
avvisare
badare
ballando
barattare
barista
bastoni
battendo
batteri
batti
bau
best
bicchierino
bielorussia
bilancio
bisonte
bisonti
bollette
britanniche
bruxelles
buchi
bugiardi
butta
caffeina
calcolava
cambridge
cantera
capolavori
carine
carnale
carpentiere
cartoleria
castita
causano
cavalcato
caviglia
ceduto
celesti
centesimi
cereali
chiameranno
chiarezza
chiedigli
chilogrammi
chiocciola
chiodo
ciancia
cicatrici
ciliegie
collegate
collegato
collezionare
collezioni
colmo
colonizzazione
colpisce
combattevano
cominciai
compatibile
competitivi
complessi
complimento
comprarsi
comprati
comunisti
conchita
concordo
concorrenza
condotta
confido
confini
conoscevi
consegnata
consentito
consideriamo
consigliere
conteneva
contente
contrasto
contribuiscono
contributo
controversa
convincente
copi
copiare
costata
costruisce
costui
creano
credermi
credibile
criticare
critici
cronica
crucciata
cubo
cuoio
curato
daltonico
danzando
danzica
darlo
debolezze
decenza
decorazione
delhi
determinata
detestiamo
diarrea
dicevano
difenda
difficilmente
dima
dimenticarono
dipinge
direte
dirige
dispiaciuti
dispositivi
disturbato
divenuta
diverte
dj
dobiamo
dolcemente
dondolava
draconiane
drappo
duo
dureranno
ebbero
ebollizione
ebraica
eccolo
eclisse
effettivo
elba
elementare
elettronici
elevatore
eliminata
emozione
epidemia
eritrea
esaminando
esausta
esere
esplicitamente
essenziali
estende
evitando
evitato
evitava
evito
fagli
faglia
fall
falliti
fangose
fantascienza
fermai
fermera
fiasco
fidata
fig
filosofi
finirono
firmware
fissa
flusso
fluttuava
fogna
for
forniscono
fortezza
fosti
franca
free
frustrato
fumavo
funzionalita
furore
futile
galileo
galleggiava
galleria
garanzia
genera
geniale
gervaise
girasole
giudicando
goal
grattacielo
greene
guidando
guidavano
hakata
handicap
hyogo
identico
ignorante
ignorate
ignorero
imbucare
impegni
impiccato
impossibili
imprese
incirca
inclino
incolperei
indico
indiretto
infinite
ingegneri
ingorghi
iniziate
insistette
insoddisfatta
intanto
intendeva
intendevo
intendono
intrattenimento
intuizione
inversa
invia
invidioso
invincibile
invitarono
ironia
irruzione
isolamento
istinto
ivan
jamal
jason
jefferson
joseph
karima
kendo
kirghizistan
laccio
ladrone
lamentarvi
lamentato
lapidato
lasciarci
lattuga
lavatevi
lavavamo
lavoreranno
lealmente
lecca
leccare
legare
leggilo
levi
liberera
linguistiche
lisca
localita
lottando
lu
lucca
lupa
maglietta
maiali
malamente
malizioso
mangera
mangiati
manifestanti
mariti
mascarpone
maschere
maschili
matt
mediche
menopausa
mentale
meraviglie
meritiamo
merkel
mescolare
mescolo
mettilo
mica
minacciati
minigonne
minima
minoranza
minoritarie
mischiato
mista
misteri
misure
miti
modesto
molecole
montecristo
mordo
moriremo
mortali
mostrasse
mostratemi
mutuo
nani
nazisti
nepal
nette
nona
notai
novellino
nozioni
nuja
obbiettivo
occupera
offrire
oggigiorno
olfatto
orgasmi
originali
originario
ospite
osserva
osservando
ossessionati
ostile
ovvia
paella
paniere
pannolino
pappagalli
paragonata
paragonati
parecchie
paria
parlavi
parrucchiere
partecipano
partirete
passano
passarmi
passatempi
pastore
patrimonio
paula
peggiora
pellicola
penale
pensar
pensata
pensateci
pensavamo
penseresti
perdevo
perduti
pere
pericoli
perseveranza
pettini
piacermi
piane
piangi
pinze
pitturata
porle
portasse
possente
poteste
precedenza
precisa
predicazione
predire
preferibile
preoccupano
preoccuparvi
preparativi
prescindere
prestera
prevenire
problemino
procedure
professione
professionisti
propone
prospettive
proteggerle
protetta
pubblicati
puglia
punteggiatura
purche
quadrati
qualificato
quiete
raccolti
raggiungerlo
rame
rango
rapidi
rapitori
reagito
realistico
recita
recupero
repubblicani
residenti
residenziale
resistenza
restituiro
retta
ricambio
ricercare
ricevo
richiedera
ricordatevi
ricordiamo
ridotta
rientrate
righelli
riguardati
rilassati
rimango
rimosse
rimuova
rimuovere
rinchiusa
rinchiuso
ringiovanita
ringiovanito
ripararla
ripensa
riposando
riprendera
ripristinato
rischiato
rischioso
risiede
risparmi
risparmieranno
ritrovarti
ritrovato
rivisto
rivolgermi
rompermi
rosmarino
rotonda
rovinare
rutto
saitama
salame
salava
salutai
samba
sanguigno
saprei
sarcastica
savere
savio
sbadigliava
sbattuto
scambiano
scarica
scatarro
scendo
scheletro
schiacciate
schiaccio
schizzato
scialle
scientifici
scintilla
scolastiche
sconosciuti
scordai
scrissi
scritte
scrivanie
scriveranno
seguir
seguita
seller
selvaggi
sembrato
seminterrato
semplicita
sensibili
sentiero
sentira
sentirai
separare
serratura
servirlo
sessant
seta
sfigmomanometro
sforza
sforzava
sfruttare
sgrido
smetterla
sopravvissuta
sorgere
sorridono
sostanze
sovrani
spaventa
spaventate
spazi
spaziale
specifica
spedire
spiacenti
spiagge
spiegarvelo
sponda
sporgersi
sposando
starnuti
stereotipi
stesa
stoffa
stormo
struzzo
studentesco
studiavano
studiavo
stufato
stupirsi
suggeriscono
suonero
superman
supplico
supportare
surf
tamigi
tamori
tampa
targa
tatuaggi
teatrale
tecnici
temperature
tenebre
terapia
terminata
terrorismo
terrorizzata
tette
tim
tina
tipica
tollerante
tolsi
tolte
tono
tornerai
tradurro
traina
transizione
trascorsero
trasferite
trasportando
traverso
troveranno
tunisia
uccidendo
uccido
umida
umidita
unicellulare
usciremo
vancouver
varicella
vecchiaia
vederli
vena
vendero
vendessi
vendicata
venduti
ventidue
ventotto
vernice
verticale
vescica
vetrina
vicolo
vietare
vietnamita
visibili
visiteremo
vocazione
volava
voleste
vomitarono
wendy
wrestling
zezo
zone
##!
##$
##%
##&
##'
##+
##,
##.
##;
##<
##?
##@
##_
##j
##q
##£
##æ
##ø
##ı
##ł
##ɔ
##ə
##ɪ
##ʁ
##ʊ
##ʒ
##ˈ
##ˌ
##ː
##π
##а
##—
##₤
##→
##♗
##♘
##《
##》
##あ
##明
