[PAD]
[UNK]
[START]
[END]
!
$
%
&
'
+
,
.
0
1
2
3
4
5
6
7
8
9
;
<
?
@
_
a
b
c
d
e
f
g
h
i
j
k
l
m
n
o
p
q
r
s
t
u
v
w
x
y
z
£
°
æ
ø
ı
ł
ɔ
ə
ɪ
ʁ
ʊ
ʒ
ˈ
ˌ
ː
π
а
—
₤
€
→
あ
明
che
la
di
non
il
si
per
in
un
io
tom
mi
le
ha
ch
sono
con
una
piu
da
se
del
lo
come
al
ho
li
ne
ma
tu
lui
lei
era
de
sua
questo
mio
suo
me
ti
mia
quando
molto
nel
noi
mary
loro
quel
questa
cosi
perche
su
gli
mai
tutto
gia
ci
fu
hanno
voi
qui
cosa
ben
chi
quella
della
poi
fatto
fa
altro
prima
tutti
te
hai
tanto
disse
sia
alla
son
essere
fare
ad
dal
qual
vi
detto
dei
cui
casa
due
ancora
cio
lor
dove
tua
vero
tempo
pero
quello
sei
mondo
sta
tuo
occhi
sempre
quanto
or
delle
ed
ora
troppo
voglio
tra
parte
altra
suoi
vita
gran
piace
solo
andare
stato
com
ella
puo
dio
tre
uno
ancor
avete
nella
tal
abbiamo
so
terra
fosse
poco
bene
anni
pur
vidi
esser
no
va
posso
avea
nulla
padre
gente
penso
giorno
parlare
miei
all
altri
giu
ogne
sanza
elli
grande
po
libro
far
vuole
cose
dell
amor
sue
siamo
erano
questi
volta
sotto
boston
ched
fuor
qualcosa
ogni
tutte
donna
francese
onde
lavoro
mente
oggi
scuola
buon
dentro
acqua
##no
paura
nostra
ond
col
persone
visto
niente
tutta
inglese
qua
siete
dire
senza
ieri
bisogno
anche
volte
sa
aver
sara
colui
molti
madre
parole
via
sol
stata
domani
nostro
mal
lingua
ai
maestro
primo
nome
citta
sto
dalla
molte
amore
quand
sul
tosto
dietro
aveva
##te
vostro
forte
alto
dopo
vedi
alle
bella
ciel
veder
fece
quei
porta
vedere
quale
fe
fui
vostra
vista
viso
queste
amico
degli
allor
avere
alcun
quasi
faccia
uomo
stanno
notte
soldi
marie
modo
luce
anno
letto
dov
ciascun
ero
dice
ver
mie
puoi
buona
vo
pensa
quell
persona
dolce
quelle
forse
convien
loco
quivi
farlo
quindi
problema
nessuno
sole
deve
sembra
duca
verso
anima
el
##re
voglia
festa
nuovo
natura
pria
##i
##ta
stava
credo
dir
lume
poscia
punto
voce
mentre
devo
meglio
amici
sarebbe
altre
fine
figlio
ragione
macchina
vorrei
cane
davvero
cielo
settimana
parla
mangiare
secondo
abbia
morte
spesso
##ti
grado
sulla
rispuose
felice
assai
piano
sai
presto
comincio
dato
piedi
bambini
mano
sopra
libri
sovra
finestra
guarda
paese
sorella
favore
fia
men
par
ttu
voleva
piacere
imparare
sera
eran
fanno
##to
caffe
quest
male
parola
qualche
mezzo
sola
genitori
que
venire
foco
stati
lettera
andato
testa
fuori
veramente
adesso
vuoi
perch
venne
difficile
virtu
alcuna
comprato
strada
altrui
sapere
tuoi
dinanzi
famiglia
meno
beatrice
dico
pie
sicuro
natale
figli
ombra
prendere
arte
avuto
grazia
vive
monte
stesso
perso
domanda
ei
state
mattina
maggior
fratello
##va
studiare
fino
australia
corpo
qualcuno
esso
intorno
morto
quelli
leggere
insegnante
appena
color
passo
frase
occhio
lungo
viene
insieme
tatoeba
vede
sangue
ragazza
amo
consiglio
giovane
parea
quanti
uom
aiuto
egli
oh
dall
pena
nuova
treno
fara
costa
##vo
frasi
posto
dissi
allora
bocca
vivo
vuol
##o
fede
film
ove
##vi
preso
contra
verita
lavorare
co
figlia
vanno
omai
storia
tue
risposta
vien
vivere
studenti
aspetto
nessun
quante
certo
lingue
man
quattro
stanza
stessa
abbastanza
guerra
nostri
riesco
diss
indi
ultima
volto
dicendo
alta
segno
##mo
quali
successo
comprare
disio
fame
stai
camera
cinque
fossi
auto
denaro
##e
scritto
essa
parlo
santo
giorni
nell
pace
giappone
devi
cura
momento
entro
fiume
innanzi
carne
ecco
messo
colpa
oltre
pensi
mani
fior
parlar
prese
possa
avevo
forza
presso
tardi
biblioteca
parlando
trovato
##ndo
dovrebbe
voler
vicino
passi
pensavo
tanta
computer
etterno
migliore
importante
legge
vide
dovuto
bello
piacciono
aere
lla
sie
suso
vid
chiesto
andar
capo
cibo
dobbiamo
proprio
ebbe
fai
gatto
mangiato
sen
faro
freddo
grazie
cristo
fatta
sentito
venuto
petto
anime
vento
sette
musica
amica
trovare
avesse
puote
quinci
volse
fin
vostri
giusto
ragazzo
dieci
donne
italia
bel
fronte
ali
caldo
chiama
moglie
andata
cerchio
oro
vada
cercando
nol
fondo
idea
mille
retro
john
odio
telefono
scrivere
bere
uomini
fummo
intenzione
problemi
##a
conosco
fiamma
potrebbe
lunga
sicura
mosse
mise
ore
solamente
cos
ritardo
avrebbe
cena
cor
genti
nonn
avra
giocare
ciascuna
facendo
volete
pane
anzi
canto
possibile
mese
santa
credi
fatti
parti
siano
esperanto
quant
errore
fortuna
nei
scorso
vado
ristorante
sete
possono
ama
luogo
salute
senti
vecchio
giapponese
trova
##ro
aeroporto
dissero
francia
prossimo
vino
appresso
molta
parve
uon
denti
dormire
bianco
gioco
##le
viva
diverse
foto
rotto
regno
tedesco
buono
giustizia
maria
dimmi
die
riso
ov
parlato
contro
chiesa
lascia
viaggio
bisogna
facile
possiamo
sarei
atto
autobus
giro
vera
aiutare
incidente
riguardo
chiuso
##la
durante
numero
tale
basso
chiaro
fiori
vai
cotal
infino
nostre
veggio
arco
finito
stasera
conosce
mare
roma
sonno
dica
soltanto
caso
grido
giuso
stazione
avrei
forma
stelle
eravamo
memoria
vedrai
dan
aperto
##mi
passato
interessante
speranza
venir
braccia
dritto
saro
automobile
ivi
riesce
ognie
prossima
stella
potesse
re
luna
nuotare
destra
stiamo
bambino
grandi
subito
pomeriggio
ando
cani
seconda
##lo
libero
sento
tipo
cagion
deciso
facea
pensier
sed
lontano
raggio
san
scorsa
spero
piena
accordo
corso
davanti
imparato
vinto
umana
verra
dunque
giardino
diventare
frate
aereo
piacerebbe
dottore
valle
cuor
ragion
virgilio
capire
tavolo
cuore
dai
sapevo
chiamato
guida
stare
estate
legno
##ne
ombre
tradurre
partita
pioggia
crede
guardare
lascio
capisco
divina
eta
preferito
saranno
costui
cotanto
mala
vuo
##ri
amiche
qualunque
ufficio
diversi
probabilmente
schifo
chiave
lavora
polizia
capelli
andate
naso
nato
riva
latte
stanco
andando
sinistra
domande
lasciato
attenzione
dicono
ira
##ni
aperta
fora
guisa
lle
move
spirto
tuttor
ve
dicea
diro
morire
caro
porto
sami
##ra
star
compiti
principio
compleanno
dare
pensando
pensare
duro
piccolo
signor
spirito
uscire
##mente
sapete
morta
uniti
cinese
domenica
ll
poeta
soli
sanz
sommo
verde
volsi
##nte
pensate
tennis
vieni
##zione
esame
avevano
##li
albero
parigi
pieta
potete
usare
sanno
vergogna
dovresti
errori
##si
tratto
negozio
regalo
fumare
fur
meco
ripa
faccio
giente
##rono
volere
##nno
##na
dovete
germania
mar
vestiti
vendetta
volevo
ponte
suonare
vogliono
arrivato
belle
pensava
senso
abita
peccato
prende
bellacoglienza
gielosia
inver
tante
vedea
folle
minuti
morti
suono
vedo
andiamo
diede
sarai
torto
neve
pare
ultimo
##amo
canzone
ospedale
sapeva
sogno
unico
uso
coi
andava
nota
ricevuto
allo
danno
genere
sentire
tokyo
##rsi
alcuni
animali
classe
dolente
pesce
chiese
ciaschedun
diletto
ell
montagna
aspetta
dura
sembrava
veloce
virtute
fra
##n
piuttosto
alcune
bravo
chiamo
futuro
miglior
luci
spera
gatti
grave
pisolino
dollari
presente
cima
colazione
cortesia
dar
pieno
avessi
fiera
dolore
eri
lato
stamattina
fecie
letizia
mo
novo
trasse
unica
faceva
mangia
abito
birra
cantando
collo
fretta
partire
studio
pianta
seme
##ci
avanti
fermo
vivi
cantare
comincia
europa
negli
sull
corte
cento
centro
nova
situazione
aspettare
scarpe
##rmi
affetto
america
credere
esto
etterna
furon
infin
nero
omo
piacer
trista
colore
nove
raggi
permesso
temo
circa
iniziato
marito
farsi
guardando
parco
riunione
rosso
alberi
carro
muro
antica
piangere
pianto
piatti
torna
argomento
dispiace
stavo
stia
universita
dalle
antico
conto
gambe
posta
porti
chiedo
fossero
italiano
londra
orologio
peso
dolor
fue
membra
potea
prova
spalle
zio
partito
televisione
esperienza
assieme
finta
marika
andra
occhiali
pietra
rispondere
andati
universo
gloria
nave
valore
alquanto
causa
nessuna
torta
bicicletta
doccia
lunedi
ombrello
parli
percio
sale
fiore
cade
cinema
cortese
ami
completamente
core
gola
nelle
pochi
poter
professore
santi
suona
udi
aperse
colpo
dintorno
inizio
novella
perdere
quai
venuta
ciascuno
conosciuto
cucina
maraviglia
mettere
rota
trovo
cominciato
dovrei
passare
provato
portato
usci
piante
ricco
gioia
vostre
pronto
siede
calcio
terzo
lettere
spada
tener
##sse
colei
fratelli
andro
altr
cammino
dolci
mostra
sappi
cominciai
fama
tornare
zucchero
face
imagine
lasso
ritorno
segnor
serve
venimmo
poveri
torre
udir
dizionario
mostro
potuto
conoscenza
new
scala
##vano
mette
pronta
qualsiasi
mortali
portare
strano
animo
paesi
solito
croce
degno
chiavi
farai
giornata
saper
coda
fate
sbagliato
##nti
##s
basta
dritta
interessato
roba
sito
lieta
pelle
##rti
dimenticato
figliuol
mena
mori
mortal
parer
tornar
tti
veduta
compagnia
comune
frutto
mangio
semplice
vivono
devono
giovani
contrario
mira
apparve
aspettando
buoni
erba
regali
mele
piangendo
preferisco
stanca
tanti
vie
ascolta
esse
felici
nello
torno
vestito
feci
incontrato
studiato
perde
prezzo
studente
beato
nata
potrei
risolvere
specchio
volle
corse
eravate
governo
intelligente
spagnolo
cina
fo
mesi
restare
risposto
alti
avante
bevuto
fec
fosser
guardar
impossibile
intra
pizza
quanta
saria
triste
vechia
vergognia
campagna
gradi
progetto
guardi
penne
stesse
##r
pietro
propria
visitato
appartamento
carta
linda
##mmo
esce
giornale
giunto
stavano
arrivo
chitarra
rende
leva
selva
capito
piccola
vecchia
almeno
cara
divino
ordine
scacchi
sentenza
venite
altrimenti
cammin
intelletto
moto
piacque
segreto
cerchi
famoso
paradiso
rimase
simile
agli
aiutato
facebook
tien
venti
york
ahi
apri
cola
concerto
diritto
essi
inferno
pien
##co
ingegno
porte
suon
venia
volea
realta
albergo
dello
scrive
foglie
gravi
orecchie
rotta
sui
vorrebbe
caccia
castello
dimora
finire
fuoco
pubblico
entrare
esattamente
opinione
ricordo
tv
vengo
arriva
gira
onore
profondo
rapporto
bianca
lago
mezza
perfetto
ragazzi
voluto
fatica
intende
lasciare
pareva
bici
estero
medicina
parlano
tolto
umano
verace
fosti
lieto
questione
scale
ambo
amendue
avria
cagione
dee
dicer
eravam
insin
llui
om
parlava
prieghi
priego
puose
scatola
schiera
spira
spiriti
tema
##zioni
aprire
sovr
cambiare
campo
diventa
fianco
maniera
regina
rimanere
leggi
ricorda
rumore
arrivare
cieco
dipinto
immediatamente
medico
nacque
note
beve
cavallo
ferma
venendo
avrai
bagno
divertente
nonna
pericoloso
figura
occupato
penna
piove
provare
venni
volti
corto
borsa
chiedere
braccio
canta
disposto
guido
hotel
mercato
peggio
vinse
bellezza
contento
matematica
romanzo
sappia
sposato
carte
faranno
guardo
sante
silenzio
uccello
cappello
dite
fonte
presidente
ascoltare
creder
diciendo
guidare
intender
lagrime
piacie
riguardar
scoglio
seco
sembiante
sposa
ssi
tristo
uscio
##ca
destro
informazioni
pronte
ratto
sospiri
tenne
traduzione
vicina
creatura
fan
lezione
##bile
chiamata
dubbio
falso
inverno
velocemente
attraverso
importa
misura
piaccia
segue
sospetto
maggiore
mamma
primi
tornato
angeli
blu
candele
follia
mela
metti
tolse
vacanze
aria
dormito
scorta
sermone
avvocato
capisce
continuo
poca
posa
tazza
tormento
##sti
dosso
nemici
sappiamo
siate
acceso
banca
internet
manda
rosa
nonno
nuove
prender
prestito
squadra
chu
dovremmo
giace
giusta
prigione
senno
vano
volevano
accende
ciglia
latino
manca
rispetto
tira
viver
voto
anco
dovea
favella
femina
fiate
figluola
fiorenza
fuoro
llei
molt
percosse
quantunque
sagio
sasso
sorelle
spirti
sse
udire
volge
##rlo
avro
effetto
paia
poria
rio
sorpresa
breve
otto
papa
spagna
stupido
testo
##t
aiuta
buone
cattivo
leggendo
pura
rubato
vacanza
alte
baseball
cerca
dici
invitati
lavorato
liberta
semplicemente
umani
edificio
farmi
neanche
potresti
stessi
##mento
##se
capitale
chiamare
conforto
duramente
fidanzata
intero
passa
lavorando
quarto
radio
sguardo
studiando
voci
##tto
presta
sente
significa
societa
vale
animale
ce
fotografica
guardato
layla
motto
ragazze
sacco
smettere
sorpreso
spiaggia
bicchiere
correre
degna
differenza
dovreste
fori
grosso
lungi
nullo
pagare
prime
profonda
talvolta
trenta
uova
beati
guai
isola
messaggio
riguarda
usato
##rla
ascoltando
bottiglia
entrambi
roccia
##sa
amar
ferro
invito
materia
prendi
viste
volesse
avean
cadde
ccio
compagni
ebe
falsenbiante
fero
francheza
fronde
inghilterra
matrimonio
pensato
picciol
popolare
rote
salir
sarebe
smesso
trovar
entrata
finche
guardia
halloween
regole
case
contenta
convenne
decisione
paio
zoo
aspettato
belli
dito
gentile
grida
madonna
mangi
ridere
rossa
sicuramente
trascorso
costruire
diverso
nemmeno
scoperto
chicago
meta
pagato
rapidamente
spazio
terribile
viaggiare
##so
##ssi
coltelli
diversa
esempio
facciamo
incontro
mostri
novelle
opere
piede
rimane
riuscito
trovai
nuovi
od
prego
scienza
visitare
corno
frutta
ucciso
villaggio
incubi
troppa
vogliamo
andai
barca
fiero
gridando
manifesto
religione
stretto
utilizzare
vedra
vene
vengono
metter
necessario
russo
settimane
tardo
alma
arabo
astinenza
lento
mostrar
nebbia
sport
tutt
attento
caduto
chiunque
deh
ebbi
vince
accio
angel
atti
avresti
ballare
convene
coraggio
cu
discende
ebi
lettor
medesmo
nube
pastor
pianger
pianoforte
posson
senbiante
sien
sofferse
solea
sulle
teco
turba
uscir
valor
volontier
chiara
migliori
salire
seguire
tempesta
30
argento
arrabbiato
cambiato
conte
largo
risultati
##tta
aspetti
intelligenza
nemico
pesci
abbandonato
malato
minuto
possibilita
ricca
sabato
seguendo
tocca
venduto
battaglia
cucinare
mandato
nausea
piaceva
serpente
vedete
vittoria
##l
amare
benedetto
carlo
corona
fatte
innamorato
notizia
assolutamente
conosci
forti
lega
metta
mosso
parlate
pranzo
scrisse
vetro
amante
bevo
corpi
coscienza
finalmente
bestia
kyoto
tratta
##da
amaro
fosso
mossi
poteva
povero
radice
chiusa
letti
opera
##ste
aura
fallo
invitato
preferita
tenere
weekend
brava
cercato
costume
dia
difficolta
discorso
gioca
indirizzo
ir
mei
mentr
politica
potenza
resta
savio
sovente
studia
veduto
##rvi
ciertana
cominciar
davante
dimanda
dimando
drizza
duol
fei
fronda
furo
giardin
gir
invece
ken
levai
lumi
merto
morosa
nasconde
ntorno
odia
parean
queta
quinto
render
richeza
rispuos
sazia
scrittura
seder
sentir
suol
suole
tenea
termine
trar
veggendo
venga
ventre
volger
vorresti
dolenti
provedenza
riparare
spento
cesare
onesto
tuttavia
vertigini
biglietto
costoso
fredda
nati
perduto
poverta
primavera
saremo
abituato
accettato
adoro
argomenti
armi
corda
corre
credenza
fida
lasci
preparare
russia
tempi
potere
saggio
venisse
verdi
vicini
visita
camminare
faremo
onesta
proposta
raramente
canti
diventato
finlandese
giapponesi
volo
##sta
##tti
chiami
dirai
entra
lenti
orario
pensano
spiegare
timido
conobbi
golf
han
lista
marte
noto
offerta
rivolse
umile
##y
cantante
cerco
data
giunse
malattia
mangiando
promessa
promesso
ritorna
tristi
usa
vecchi
bambina
bassi
contenti
dira
minor
muta
onda
pensiero
popolo
porse
ramo
val
##tte
accorto
creda
credette
esta
fidanzato
levo
manto
muto
scrivania
velo
accanto
acquista
cenno
coltello
corano
giri
lasciar
lentamente
lontana
nido
onor
seduto
tant
tondo
##nza
avvegna
cotali
discese
disiri
elle
fier
idio
maravigliar
martiro
matera
muover
naturale
nferno
odi
odo
officio
palese
popol
ricomincio
scender
sentia
sire
somma
surge
tai
teme
torse
tte
acque
chiedi
coloro
compro
giocato
guardava
impegnato
innamorata
presi
segui
talento
tarda
vere
altezza
crudele
eletto
inizia
lancia
mercante
oscura
ossa
scelta
sicuri
aggiungere
amicizia
autunno
lupo
piange
sesto
stanchi
torni
##ono
aiuti
larga
nodo
paziente
serra
straniere
diedi
dovrebbero
foresta
inteso
nascose
nera
notizie
sposata
barba
conviene
dimenticare
fossa
intera
minimo
orto
pensieri
perse
pesa
solitamente
vissuto
condizioni
conoscere
dirmi
insegna
occupata
sembrano
volare
alzo
arrivata
attenti
diavolo
digiuno
figlie
giove
gruppo
interessata
poesia
puro
quartiere
tace
altrove
americano
ardente
coro
divento
dormendo
facilmente
nomi
pasto
pronti
rimasto
tolta
udito
vaso
accese
affari
felicita
grossa
guari
impiego
importanti
pericolo
sedia
sistema
sorrise
villa
##ato
avarizia
faresti
funziona
idee
imparando
linguaggio
programma
provando
scopo
seno
volume
accorsi
ala
azienda
comanda
corta
cravatta
ditemi
mento
professoressa
punta
scende
scudo
segni
vorra
##bili
accusato
aperte
articolo
castel
cera
disdegno
insegnanti
mostrava
pianeta
sian
soglia
sposati
volonta
andavam
basti
beata
bolgia
calle
cantar
carca
carco
carita
consigli
dagli
dimandar
diparte
doglia
drizzo
ello
eser
faciea
fenno
fer
fiata
fuggir
gelato
gienti
giva
gridar
ire
malizia
martiri
mestier
milizia
mover
ntelletto
ogn
percuote
piglio
podere
preferirei
prezzi
provo
riede
rivolsi
ruina
sapea
sembianza
semenza
siam
spiro
stea
tacer
ten
teoria
tosco
uscia
vapor
vegna
alcuno
canada
chiuse
menti
mostrato
rabbia
risponde
sarebbero
spaghetti
tesoro
##ria
manco
produce
vincere
costretta
orlo
ricordi
senta
strade
stretta
uscito
web
appuntamento
artista
creato
grato
libera
maggio
ottobre
salario
scrivendo
acquisto
cominciare
costo
dono
fiamme
pezzo
posti
significato
terza
chiudere
falla
idiota
salvo
taxi
troverai
violenza
cadere
luoghi
pene
piega
piovere
scese
tali
tiene
vederti
##remo
attenta
canadese
coronavirus
incomincio
innocente
lasciai
messa
prendo
pure
sereno
ubriaco
uscita
##ate
bonta
condotto
doveva
forno
giunti
membro
miglia
osaka
resto
riusciva
tranne
vediamo
continuare
diceva
farla
giocatore
grand
guidi
india
lezioni
mostrando
sala
sogni
tetto
##gli
americani
arrabbiata
avremo
costoro
dava
duri
farei
freno
incendio
ladro
museo
parenti
partiti
rami
tenuto
cercare
chino
creature
difese
distese
farti
intese
mentito
mondiale
portar
sedere
uccelli
##llo
avranno
dottrina
epoca
esiste
faville
fotografia
girando
gliel
importanza
lava
macchine
moneta
pagina
regola
seguir
soave
verranno
##zza
addorno
be
bontate
burro
convenia
credea
credendo
crudel
dev
diavol
dicie
diece
discerno
diserto
ebber
energia
etterne
facean
faciesse
fassi
fie
fiso
gentil
giamai
gientil
giudicio
huon
iera
igualmente
intrar
largheza
llor
mattino
merze
metto
mirava
oste
ovra
picciola
pon
pregio
proda
rena
riguardando
saetta
sembrare
smarrito
spene
splendor
sustanze
unquanche
uopo
varco
vedesti
veggia
vegno
veste
villan
visi
accorse
attorno
dammi
divenne
do
febbre
indossando
pazzo
risultato
scusa
versi
brasile
brutto
comportamento
cresciuto
daro
fattore
furono
giochi
gusto
pietre
pozzo
schiena
straniera
tieni
vergine
##di
##rci
antichi
autore
cambia
camino
cinquanta
fermata
giocando
passeggiata
recente
risposte
sandwich
soluzione
visione
anziano
chiede
comando
dubbi
intendi
internazionale
leone
pone
porre
venuti
##smo
accettare
colto
correndo
dottor
falli
fermato
frigorifero
parliamo
pescare
piaciuto
piovera
preferisce
presenza
raggiungere
relazione
sponda
sveglio
tratti
adamo
cattiva
darmi
dorme
finestre
pulire
scegliere
sentimenti
stanotte
supermercato
taglia
vederlo
yen
##ce
##che
avendo
concetto
distanza
formaggio
giovanni
nascosto
ostello
pecore
riceve
romanzi
rose
scemo
sembri
superiori
trovata
##de
aiutarmi
avviso
batte
bolle
farne
leggo
merce
nonostante
parere
perdita
presenti
sicure
stupida
trent
##ga
abitudine
aiutarti
aiutera
cerchia
danzare
fiere
generale
opportunita
probabile
qualita
quinta
sorte
20
aggiunto
attraversare
conoscete
continua
inganna
lavato
mali
omicidio
ottenere
pensai
perfetta
piene
poche
procede
ricerca
scelto
scuro
taglio
teste
tredici
vederla
ascensore
aspettava
buio
canzoni
cellulare
ciao
gioie
greco
malata
modi
mura
nasce
pelo
termini
##do
algeria
avevamo
brama
erra
estremamente
et
guardate
iniziare
muso
orizzonte
raro
ricchi
ride
scordato
stranieri
tradotto
valse
vedessi
vele
venerdi
##tura
abisso
ardore
babbo
calda
casso
conta
danni
difficili
grasso
leggero
lieve
mangiano
metro
oramai
pio
pover
rei
sarete
scema
succedendo
tacque
utile
ventura
vola
##0
##rio
agie
aguglia
aiutarla
almen
alzato
arno
bagna
bando
bar
benigno
contatto
coragio
costor
dianzi
distinto
duolo
emisperio
entrambe
er
foce
giron
glorioso
incominciai
insegnato
intendimento
malabocca
mastro
merzede
mirabil
morir
ogi
parlamento
parra
peccator
perder
pier
regi
reo
ricordare
rimaso
saver
segnore
seguitar
senbianti
ser
sesta
sogna
spesse
ssia
stazio
stremo
tenni
tenpo
truova
udendo
udirai
unghie
veggi
venus
vole
##ggio
doni
eccellente
farete
fiato
nazionalita
succede
veloci
vestita
vorreste
alibi
avevi
dirti
essenza
furto
guance
partecipare
preoccupato
responsabile
seguente
studi
van
verbo
vivace
abbandona
africa
alza
avermi
caldi
coperto
idoli
indietro
neri
ognuno
piacera
posizione
prenda
proposito
rischio
saresti
sinistro
vite
##era
amata
appartiene
bosco
conversazione
dodici
giornali
grotta
lavi
madrelingua
moroso
morse
mossa
potessi
punti
scrivo
temperatura
tommaso
trascorrere
vaga
##ma
coste
dita
economia
esperto
facevano
famosa
farebbe
ferito
minaccia
mista
piani
portava
riconosciuto
ruppe
sott
ultimi
valigia
vicine
zia
##bbe
andasse
ascolti
commesso
creata
ghiaccio
negato
neppure
nord
nuvole
principi
salita
saputo
seguito
servizio
signora
specie
##sce
avrete
berbero
credete
crudo
dirlo
governa
larghezza
seria
spiegazione
vedervi
abitano
arrivati
cantava
colori
decidere
dona
innocenza
lasciate
lavori
minore
orecchi
passaggio
poliziotto
ragioni
secolo
serio
tronco
##me
accetto
assente
balzo
bruno
cambio
certi
fedele
fuggi
gelo
lode
mensa
mosca
normale
orribile
potra
presti
rivolto
seppe
signore
spazzatura
stagno
superba
tempio
toglie
abitare
agio
alba
balia
capacita
cittadini
donare
fissi
marina
ministro
motivo
ordinato
passati
patente
pezzi
potreste
prete
scritta
soddisfatto
spense
sposo
strinse
sud
superbo
teatro
##d
accoglie
arrestato
bestie
chiusi
conforta
diviso
dovere
gialla
grembo
impara
impegnata
infelice
lupi
manifesta
noia
orgoglio
oriente
personale
popolazione
portoghese
razzista
sapore
sciolta
secca
sofferto
sugli
usanza
vedermi
verro
volando
##menti
##u
bianche
cancro
consigliato
cornice
corretta
credetti
dimostra
essendo
euro
fabbrica
fammi
fugge
mestiere
necessita
occasione
potevo
risponda
seguiva
spesa
unita
vantaggio
ziri
##ve
abbiate
angoscia
antiche
biglietti
cervello
danza
dentista
dover
dovra
fornita
insegnare
intesi
labbra
miseri
nascondendo
palla
passaporto
pausa
ricchezza
ritenne
sacro
scendere
speciale
spiega
tacendo
tipi
affanno
alor
angelica
apprende
ardito
ardor
arrivera
avem
benigna
bianchi
bob
bordon
cader
capace
cari
chettu
china
chui
ciertano
cierto
ciglio
condizion
cotai
crescer
difetto
dipende
disire
disser
distinguere
doloroso
dolze
dovria
duce
esca
faccian
fante
fatt
fecer
federigo
feo
fesse
fessi
fiducia
fore
frati
fumo
gridava
imantenente
indarno
inglesi
lagrimando
lena
lete
levar
levati
lito
lucente
minos
montar
ntesi
nverso
ode
odore
oltragio
ordini
passar
pel
periodo
piaggia
piangea
pinse
politico
poppa
poss
pregione
prode
prodotto
question
ria
riman
rispuosi
saramento
segreti
sembianti
seriamente
sicurta
sparte
stretti
subitamente
tebe
tragge
trapassar
valetto
vapori
veggion
venian
vermiglio
visagio
abbiano
assomiglia
automobili
averlo
colpi
facesse
finita
fisso
greci
inno
mancanza
mantenere
morso
orgoglioso
piscina
pro
sicurezza
sorriso
trema
zona
##lla
abbattuto
aiutarci
carina
convinto
corde
cultura
dettagli
doppia
elezioni
falsa
giurato
interessati
jackson
lavorano
mando
marco
nudo
patate
preparato
richiede
rompere
sovrano
turno
viviamo
bill
cavalli
condizione
contraria
diventando
enorme
fontana
jane
lettore
miseria
parlarmi
rima
sapesse
sapevi
segnato
suoni
terremoto
trascorse
##chi
##vamo
cala
compra
copia
costruito
crimine
diritti
foste
grecia
migliaia
pari
perfettamente
pesante
pratica
quindici
sano
stagione
##go
appetito
ballo
bebe
conoscono
contiene
dovesse
europea
geloso
indossare
intendo
italiana
lavare
lavo
maggiori
merda
mezzogiorno
obiettivo
panni
riesci
riuscita
scoperta
scusi
succedera
tenebre
undici
##m
##ranno
apre
conferenza
corti
costi
fecero
frigo
fuma
grosse
menzogna
moda
monti
palma
pazienza
piccoli
prodotti
serpenti
vicenda
##rebbe
affamato
attacco
berlino
certe
contare
correttamente
fidare
fisica
giuro
ignoranza
informazione
interno
liberi
messaggi
milioni
misero
pote
presa
prove
rete
riuscite
svegliato
tagliato
vecchie
##tore
alberto
arrivi
autorita
dati
economico
fallito
giuda
gonna
incredibile
intento
lamenti
lasciata
patto
prendendo
rade
sufficiente
svizzera
usata
10
amate
amori
arca
atteso
confine
cristiano
fresca
frutti
guancia
invidia
liberamente
matita
membri
nuotando
proposto
proteggere
sentiva
splendore
tenendo
unione
##nato
achille
aiutarlo
clima
compagno
conosciamo
contratto
desiderio
destino
disposta
distante
fonda
gamba
merita
orme
prendero
prigionieri
rifiuto
sapienza
scrivi
secoli
seguaci
simili
stuolo
taci
torce
tornate
trovammo
voti
000
amano
bacio
capitano
creare
dicesse
distrutto
dolcezza
fortunata
gatta
giallo
giova
loda
paga
parente
piaghe
portafoglio
preda
propri
raccontato
ragiona
rivista
rosse
saprai
sazio
servire
spessa
##sco
accesi
americana
animal
ascoltato
caddi
controllare
costosa
differenti
diventata
gigante
impedito
intelligenti
italiani
lati
lettura
nuota
pente
ragni
regione
rifiutato
superare
tempie
tiro
vana
vedro
accompagnato
adorano
affitto
ale
andarci
apprezzo
arresta
certamente
demonio
discutere
facci
fadil
fargli
fascia
grata
influenza
lenta
mentendo
mike
moderna
nude
palude
passata
possente
pulito
puzzo
regge
stette
telefonato
tizio
vaglia
vena
viaggi
volgendo
abia
agia
allegrezza
allotta
apella
appar
appressa
ardimento
argomenta
aspettar
assa
attender
avieno
avversari
avviva
battuta
ber
bruna
cantor
cela
chiamar
chieder
ciertan
cinse
colle
conio
conoscevo
conpagnia
coverta
coverto
cred
crucciato
dallato
decreto
dicean
dicesti
diserra
distende
divertito
documenti
essilio
etternalmente
ex
fallato
favelle
favilla
fedel
fello
fiede
figliuolo
fioco
forteza
fulgore
ghirlanda
google
gote
imagini
imo
indossa
ingresso
intenzion
jack
lasciando
lece
liti
llo
mantenente
metri
miele
mova
movendo
muse
nazionale
ned
nesun
nipote
novi
ochi
offerse
omero
orazion
osanna
parvenza
patria
pia
piaciere
piaque
piccole
piume
poeti
poggio
pregno
priega
raggia
rege
reverenza
riguardi
rimira
risponder
ristette
romore
saette
salvare
saran
sedea
sembravano
semo
senpre
sentita
soccorso
soffersi
sonar
sordello
sospeso
soverchio
sovresso
spazia
straniero
superbia
sustanza
talor
temendo
thomas
tonda
tradigione
trassi
triunfo
udita
umane
uovo
vantagio
varca
vederai
vegnon
venusso
veritate
vesta
vincer
vinta
vivanda
volgiti
affisse
amato
andavamo
becco
benzina
boschi
comunque
crisi
dieta
fera
ferita
gentilezza
immagino
kobe
moschea
offerto
originale
piaciuta
puttana
riga
riparato
sana
scrittore
sposarsi
visse
##rete
##trice
affare
amanti
ambiente
andarono
arancia
attraversato
camicia
cantato
certa
chiude
cioccolato
conduce
crude
fantasia
fuggire
guardie
interna
opinioni
ovunque
palestinesi
perdona
portera
punito
raccoglie
ridendo
sodo
soggiorno
test
ultime
##nto
andremo
avrebbero
bandiera
beni
buongiorno
cairo
creduto
evitare
orgogliosa
password
pavimento
pesi
portata
prenotare
preoccupata
raffreddore
riparo
riuscire
soprattutto
stanche
stile
tavola
tenga
trecento
zuppa
##c
##ng
##rli
##zzare
##zzato
abituata
arrabbiati
bei
biro
canadesi
controllo
dando
detta
farvi
fermi
fidi
francesco
george
locale
paglia
pantaloni
principale
rendere
sospesa
spiacente
suolo
tradimento
vende
visti
abbandono
bassa
continuato
diversamente
doppio
fumato
gelosa
gesu
improvvisamente
lunghi
parete
prestato
punita
responsabilita
sentiero
utilizzato
vendere
venute
##ale
##are
##zzo
avanza
bevendo
butto
carcere
continuamente
divieto
domando
feroce
fila
fuochi
lunghe
mail
polo
privata
processo
rimanga
riposo
risparmiare
stomaco
taninna
tasca
tirato
tremando
velocita
verdura
vittima
##p
affilato
andrai
apposta
avevate
bugiardo
colpito
conti
contribuire
dog
fango
gemelli
giganti
grazioso
hot
incontrare
interesse
nuotato
palazzo
passando
pieni
possiede
purtroppo
rispondo
sacrificio
spese
timida
turco
utilizzo
angolo
basket
benvenuto
cieca
clienti
coppia
credito
cresciuta
cuoco
dama
deriva
desse
dille
direzione
effetti
femmina
gode
indossava
intrate
leggera
misericordia
mostrare
negozi
null
ottenuto
pregando
quantita
raccolto
rimasi
ritornare
saggi
sali
selvaggia
specchi
spedito
splendori
storie
svedese
vinci
ammalato
angelo
azioni
base
buia
care
colli
colpe
conosca
dea
divise
esercito
estive
fallimento
festival
gennaio
giugno
giunta
interessa
luca
melodia
misi
nazione
novita
odiano
ordino
pasti
pistola
pulsante
realizzato
rispondi
sapevate
sposare
stampa
strana
succo
tende
trovi
##3
accolto
ammesso
annullato
arrabbiate
completo
dente
difesa
domattina
fabbro
futura
genio
immagine
malvagia
mirare
occupati
perdono
privato
rimanente
rivolta
settimo
smith
soldati
sottile
staro
svezia
tecnologia
vago
verdure
villano
voli
accumulato
anziana
briga
carote
classica
comunicare
dara
dipinta
direttore
dirle
dolorosa
gentili
image
infanzia
inganni
intenda
lacrime
lutto
media
mentire
nervoso
parlarne
premio
ringrazio
riusciamo
servo
tedesca
vani
vedova
##tato
ammenda
argine
arrivando
asciugamano
attivita
baratto
bevi
convento
coperte
deluso
differente
dispetto
don
esistono
fesso
fini
folgore
forme
istanbul
lontani
lusinghe
metropolitana
molle
more
oscuro
over
peccatori
piana
piatto
principessa
rifiuta
risolto
scoprire
seduta
setta
sorridendo
stante
topo
tornera
traffico
trattato
tuttora
vedute
vigilia
vivendo
##lli
##rle
##sso
adora
adunque
allergico
ambedue
arbitrio
ascolto
attesi
banana
cavalier
cigli
cittadino
colmo
congiunto
corsa
darti
disponibile
fallire
giogo
gruppi
guadagna
guidato
impresa
indipendente
indugio
infinito
inverso
levi
lucca
migliorare
pensar
piaga
preciso
raccolta
riuscivo
saprei
scarsi
somigliante
stavi
tempra
##8
abate
accelerato
acerbo
affezion
agnel
alber
alpe
ammirar
andavan
andranno
appaga
appunta
aprir
arme
arrigo
asseta
atene
austria
avien
avvien
baronia
battesmo
biasmo
bisognia
brandone
brigata
capitato
caritate
chiron
ciechi
cierta
cinesi
cinghio
cinto
cittadin
comeco
comporta
comprende
comprender
congiunta
contr
coperchio
corsi
costanza
costei
costrutto
cota
cotale
cotesti
cuopre
cupidigia
dallo
danari
decise
dentr
dier
diletta
dilettanza
diletti
dimandi
diserta
disiro
dissemi
disteso
distreza
divenni
domandar
dotta
dottanza
dovuta
dubbiar
dubitar
dubito
emme
entrar
error
erto
esercizio
esti
etterni
facevan
fazone
ferve
ficca
fidanza
figluol
fil
fitto
folgor
frange
fugire
generalmente
giacea
giesocristo
giocondo
gisse
gittato
gitto
grana
grava
greggia
greve
gridavan
grifon
guiglielmo
immaginare
improvviso
indosso
inmantenente
insegno
intrare
inventato
labbia
laggiu
lagrimar
lassa
lassi
lavorio
levata
levato
licito
lucenti
lucerna
lumera
malatia
mane
menar
mezzanotte
mirar
misera
moise
mosser
movea
nascere
natural
nature
nepote
ngegno
nomar
nver
offende
oggimai
ome
organi
orribil
ovviamente
parrebbe
partira
parvente
parver
passeggeri
peccar
peccata
penitenza
pertugio
piaciesse
pietade
pietate
pome
possanza
potean
prato
pregar
pregato
primaio
pronuncia
provide
pugna
pulita
radici
rai
region
rendei
ricorditi
rietro
rime
rimembrar
rimirando
rivi
sare
scanni
scocca
secol
sembiava
sensi
sepe
servigio
siena
signior
silvestro
simil
similemente
sodisfar
sognato
soma
sostener
sprona
strani
studentessa
subita
sufficientemente
surse
sviluppo
tene
testimonio
tolle
tomba
traduzioni
trovarmi
truovi
tt
turbo
uccel
umilmente
valletto
vegg
verno
vertu
vicin
vider
vocabol
volar
volgi
volli
volsimi
vos
vuoli
##4
##io
acquistar
arti
cambiamento
chiaramente
debito
debole
democrazia
divorzio
finale
forze
giudice
jim
livello
musicista
nascosta
nfino
padri
passava
pecora
pranzato
preferisci
privilegio
richiamo
riescono
rispose
ritornato
salto
schermo
sincera
solare
stanze
torte
vece
##cchi
##ggi
##rie
##tevi
accesso
addormentato
agosto
buca
bugia
cattive
conosciuta
discussione
farfalla
fortemente
fortunato
giovedi
lascera
mangiamo
matto
messe
mortale
orribili
piombo
pollo
religioso
rimasta
rossi
spenta
stradale
umorismo
vizio
##ano
##ia
##k
abbassato
abiti
accento
altrettanto
catturare
circostanze
colpevole
comunita
curiosa
divertita
fossimo
francesi
imparo
incinta
lasagne
morendo
olio
online
sfortunatamente
strumento
tagliata
tornata
treni
twitter
##nata
##ssimo
andarsene
anticipo
aspettavo
attore
avanzi
averla
avremmo
benedica
chiamando
confuso
criminali
distretto
economica
esami
femmine
legato
maiale
muoversi
ospiti
parto
passeggiando
perduta
piango
piantato
postale
raccolse
sesso
smettila
sopportare
speriamo
traccia
trarre
troppi
uccise
umore
##9
##bo
##tico
##z
affatto
amara
anello
banco
caduta
cassetta
chiarezza
cinquecento
consuma
criminale
cugino
direi
dirvi
dolcemente
donato
dovro
giocatori
impressione
ketchup
motel
motore
nobile
pastore
pensione
potro
preoccupare
preoccupate
progetti
proprieta
rimani
salito
scintilla
uccidere
vedesse
vent
vietato
virus
viveva
volpe
##cci
##stico
adoravano
affrontare
ampio
attende
attentamente
banane
bevete
camion
cent
chiesi
collegio
concetti
corrente
dargli
datemi
diffuso
elefante
eroe
feste
foglio
goccia
interessanti
lamentele
letteratura
marmo
minestra
napoleone
napoli
notato
pensiamo
potrai
prendete
profondamente
promise
quadro
riconosco
ritorni
sassi
sciolto
seduti
smetta
studentesse
vedono
veri
versione
##1
addio
artificiale
aula
chiare
cieli
condividere
corretto
costruzione
costumi
dirgli
falsi
firenze
firmato
frode
guardai
muovere
pinta
poker
raggiunto
servi
sigaretta
sposate
sveglia
tony
vendita
##2
##cato
##ccia
##er
##ko
##nze
aiutarvi
ammiro
aveste
bottiglie
cioccolata
compito
confusa
convincere
esseri
fotografie
fuga
gigli
interessi
inutile
lascero
nuda
partecipato
particolare
pinocchio
piovendo
piuma
preferiti
rado
remoto
ristoranti
scuse
secondi
sii
speso
suggerito
suonato
suonava
troia
turchia
uscendo
vela
##tica
aprile
armonia
bastone
catena
cavalieri
condannato
contato
credono
date
david
dette
direbbe
discusso
duole
eclissi
evento
fantasmi
finlandia
franco
gridavano
illegale
lamenta
luglio
merito
messico
mettete
molli
on
orso
peggiore
permette
pigro
potei
riconoscere
taccia
tocchi
toscana
tosta
tremo
ultimamente
usando
vogliate
##bi
##fico
##sca
##ssa
##zzata
accorte
accorti
album
bada
banjo
cd
centinaia
collina
cristiani
cruda
disperato
dovessi
elettricita
entrato
eva
facce
figure
fuji
giacca
girare
innamora
innocenti
libreria
lieti
mancano
mangiate
martedi
metodo
morsi
organizzazione
origine
poste
promesse
promozione
ragno
rugiada
saliva
semaforo
sospiro
utilizzando
vennero
vieta
wikipedia
zero
##nt
##tivo
##ttato
affrontato
alcol
ammalata
ammettere
angeles
arrivate
attese
avversario
baciato
brano
brillante
bruto
capiscono
causato
diretta
dispensa
egitto
eletti
est
filo
filosofia
fornito
giura
grossi
insetti
lavagna
los
lucia
magno
magra
mercede
minori
mobile
nozze
oggetti
onora
ormai
osso
portai
possano
prenderai
priva
progressi
quarta
raccomando
reame
reno
rotte
ruote
scorte
sensazione
serena
sospesi
stiano
tenete
vodka
##glia
##lato
##sci
100
accusa
adorato
alito
aperti
articoli
artigli
assicura
attivo
ave
batter
bucato
calmo
cammina
capi
compagna
crebbe
cristallo
cugina
degni
elenco
enea
entri
gialli
improbabile
lavoratori
lussuria
maligno
malvagio
mangiar
mappa
maturo
michel
miro
nate
noioso
obietto
occidente
oltraggio
operare
osservare
ottava
pan
passammo
peggior
pericolosa
piglia
pigliare
pii
poesie
porsi
preme
proprie
quieto
racconto
rendo
reni
ribello
rovinato
sani
scheggia
scriva
sensibile
sociale
soffre
sorpresi
stolti
tedeschi
tengo
traditore
traendo
trasferito
usciro
vota
##6
##7
##ghi
##lare
##lle
##resti
agi
amoroso
anziani
aspettero
assegno
attendi
attualmente
bambola
bibbia
carni
centauro
comandamento
commerciale
corea
creo
degne
delusa
dispiacerebbe
distrutta
divertendo
ebrei
esistenza
facevo
feriti
fuggendo
ghiaccia
giocava
gloriosa
impressa
infamia
insalata
istruzione
lavando
nona
ovvio
pacco
pece
pende
perduti
pienamente
pomo
porco
punte
remi
russa
saltato
savere
sentendo
sgrido
spade
spalla
spiegato
tenesse
tenuta
titolo
torti
traverso
troppe
ubriaca
unito
uscisse
vedeva
visito
##h
accora
accors
acume
addorna
addosso
aferra
agogna
aguta
alfabeto
amanza
ambascia
ammirazion
anchise
andaro
apersi
aporto
ardire
arditamente
ardo
arsi
ascoltar
ascose
aspro
atender
avaccio
aventura
avesser
avreste
balestriera
barattier
barbariccia
bascio
batista
bellezze
bernardo
bilanza
bollor
bona
branche
caggia
calor
camin
castella
celi
cener
cenni
cerbero
cheggio
chiostro
ciaschun
cielare
ciera
cinta
club
cocito
collega
compunto
comunicazione
concilio
confessa
conforti
conoscer
consente
considerazione
consorte
consorti
contesto
contrada
conviensi
coperse
correr
cotanta
cotesta
cupido
currado
delizioso
demon
deo
dichina
dilettar
dimandare
dimostraro
dipigne
diretto
disagio
discerne
discerni
discesi
disii
disira
dispiaccia
distilla
ditta
divin
divini
divota
divoto
donar
dormia
dottava
dritti
drizzai
duci
empie
empio
essempro
essercito
este
faccendo
facieno
falcon
farem
fecier
fedire
feruto
fiammeggiar
fiammelle
fioretti
foci
foga
fren
fuggito
fummi
ghiotto
gi
giacque
gio
girar
girone
gitta
giudei
giudicar
giusti
gradita
grano
guar
humile
iacopo
ier
imprenta
inanzi
incontr
infermiera
infiamma
infiora
ingombra
iniziando
inn
intrammo
intrava
iscorta
ita
laco
ladron
latona
leal
leon
lli
lombardo
magior
mahjong
malabocha
maladetta
maladetto
malebolge
malebranche
martira
marzia
mastri
medesma
menare
menava
messer
miran
mirando
molesta
mora
motti
mutato
nascosa
nascoso
nimica
ninfe
nn
noma
nomato
nostr
nsieme
ntenza
occulto
odor
opra
pancia
panda
paresse
parnaso
partir
parton
parturir
parvemi
passion
pastura
perdei
peregrin
periglio
pez
piagne
pianti
piccarda
pistoia
poetando
povera
preghera
pregheria
prenderebe
previsto
prim
prora
provede
proveder
prudente
puossi
puot
purga
ragionando
ragionar
rea
rede
resplende
restaro
ricolto
rider
riedi
rimasa
ripe
ritrassi
riveder
rivera
romagna
roman
saccia
sagia
sappiendo
saramenta
savi
savia
sbagliata
scarsella
schianta
sciolte
sconcia
secreto
segnata
seguette
seguitando
sem
sentiti
sermoni
servono
sfavillar
sieno
simigliante
soddisfatta
sofrire
soggiunse
soglio
soletta
sostenea
sostenne
sozza
spanda
spenti
spere
spiace
spoglie
stende
sterpi
stipa
strazio
stupor
successor
suggella
superno
surga
tacere
tarde
temer
traditor
trasmuto
tremar
trestizia
tronca
troni
tropo
tropp
ubidente
udio
uman
umilta
unque
usar
uscite
vagheggia
valea
vallon
vaneggia
vasello
vassi
veglio
vel
vello
vender
venner
veracie
vermo
vil
villania
vilmente
vilta
violino
visibile
vision
volgemmo
volontieri
volser
voltando
vote
vuolsi
vuota
zuffa
##uti
##vate
abbassare
aeroplano
amava
cipolle
dappertutto
efficace
esserci
fiumi
fresco
gratuito
istruzioni
microonde
ncendio
oceano
pasta
popolari
portate
pregava
preoccuparsi
rapina
rendono
rompe
salta
spiego
suonando
superato
volentieri
zanzare
##ata
18
attraversa
averti
brevi
brutta
cazzo
collezione
conosceva
credera
detesto
dimensioni
dimentico
dimesso
famiglie
file
francobolli
garage
ginocchia
giornalista
individuo
invitata
lanciato
lasciami
libere
martello
morale
nagoya
nego
noce
obama
offesa
ombrelli
oso
persi
piacevole
piova
pittura
preoccupati
preparando
principalmente
profumo
risorse
romani
sareste
sforzi
stupide
succeda
uguali
video
25
accorta
ambasciata
ammirava
bicchieri
cartolina
colombo
cresce
crescita
curioso
dispone
divertiti
edifici
falsamente
farle
fastidioso
febbraio
ferite
gas
immagini
lasciarlo
madrid
mago
manna
morde
pedoni
prendiamo
preoccuparti
principe
produzione
ricetta
rise
rubata
serie
settembre
situata
stando
terribilmente
trovate
uccide
umanita
utilizza
vapore
vesti
##fica
##g
account
ascoltava
azione
barzelletta
barzellette
bionde
buccia
cognome
creati
divano
espressione
freddi
frego
hawaii
identita
immaginazione
inganno
latina
licenziato
manchi
maschi
mobili
montone
movimento
musicisti
nacqui
numerosi
osa
pepe
pesca
pianista
pigri
prendera
presentato
proibito
qualcun
rari
regna
scienziato
scuole
selvaggio
sentivano
sepolto
televisore
tranquilla
ufficiale
vestite
vincendo
##ka
##pi
##tiva
aerei
agnello
aspettera
attiva
attrice
bell
bevono
bilancia
busta
chiamano
chiamate
codardo
condizionata
confesso
credeva
critiche
danzando
dipinti
dista
fieri
fissa
fluentemente
grammatica
hobby
impero
intanto
irlandese
nascita
nonni
notai
ossigeno
permettere
politici
ragazzino
simbolo
soffrire
spinto
trovava
urlare
volevi
yanni
##ck
##stica
50
amiamo
andarmene
attuale
avaro
camminato
campi
campione
cappotto
cede
chiamava
compiuto
decisioni
digli
dimissioni
erta
esperti
espresso
foglia
gelosi
infelici
maglione
matura
milione
mostrarti
musa
nere
nervi
partenza
pechino
piego
preferite
prendemmo
protezione
provi
pulizia
ruolo
sabbia
salendo
saltare
saremmo
scelse
sentenze
software
spieghi
splende
superiore
##5
##ba
##cco
##on
##rto
##zzazione
accetta
applaudito
beh
bravi
camminava
celeste
champagne
cintura
combattuto
considerato
coreano
corra
dimostrato
dottori
fi
fornisce
gay
impegnati
ingannato
lama
lavorava
linea
lunghezza
malati
muore
norma
nuvola
occupa
oneste
paul
pensassi
pera
persa
pona
preziosa
pubblicato
quaderno
riposato
salsa
scandalo
sceso
sciare
scosse
scrivete
scura
shopping
sognando
sostegno
spaventato
stavamo
stavate
stupore
svegliarmi
tagliare
tappeto
tassista
testamento
toki
tornero
ubriachi
ungheria
##gi
##nta
##sto
##us
500
attendere
calma
carattere
cenato
chef
chiedendo
cimitero
cominciando
condanna
condusse
consiste
convegno
correte
cugini
database
durera
fieno
impaziente
jean
lotta
lucida
magro
mandare
maschio
massimo
metallo
muiriel
naturalmente
nostalgia
nudi
ottavo
palle
pareti
passate
precedente
ragionare
rana
religiosi
rida
scesa
schiacciato
sedie
smarrita
sorprese
spavento
spessi
stringe
tesi
torri
traduco
veniva
verrai
vivete
##cca
##ero
##ie
##lmente
##nica
##scono
##vole
##zia
##zzati
abitudini
accendere
aiutate
allergica
aprisse
arance
assenti
babysitter
bambine
banda
betty
brutti
bue
cambiando
capitare
capra
compie
conobbe
corpus
credevo
croazia
detesta
dopodomani
dormi
erbe
fermare
fitta
foro
giocano
giuste
guasto
incrocio
interessate
lodo
medea
milano
moderno
nuoto
odori
oggetto
okinawa
palestra
parcheggio
perdendo
portero
pubblica
questioni
ragionevole
romeo
scalda
sedici
sindaco
sospetti
ss
stara
steso
succedere
suora
tocco
turisti
vuoto
##nia
##tici
##uto
accesa
accorge
acquisti
adulto
ago
amasse
anca
apparenza
apprendimento
arrivano
assenza
britannico
cameriere
capisci
carezza
cavo
coinvolto
colonialista
colse
complicato
comprendere
comprera
coperta
coppa
coscia
difende
difendo
direttamente
distesa
diventati
dormo
entrate
farli
fattoria
giornate
giunte
hokkaido
indicarmi
lasciala
lasciatemi
magnifico
morira
occhiata
pagine
paolo
parlai
pelare
portogallo
pregai
pugno
repubblica
richiesta
ridi
rifiutare
rispettare
risplende
rovina
rubare
sacre
sapevano
scena
sciolse
scoiattolo
scusarmi
sedette
segretaria
sentono
sincero
sorde
suoli
taro
tinto
tornati
totalmente
vanto
voglie
##be
##rei
##zze
abitanti
alessandro
allenatore
anch
anguilla
appare
area
assicuro
assunto
atmosfera
augusto
aumento
benedetta
biscotti
boccone
chilometri
ciba
compri
coniglio
corri
costera
debbano
dimostri
documento
dormiva
en
finisce
formata
generazione
giudicare
inviato
lavarsi
legga
mattinata
memorizzare
miracolo
misto
monaco
montare
muri
naoko
nient
pallacanestro
parlasse
potremmo
prestare
pubblicita
reale
remo
restammo
rico
riempie
riguardava
rimarra
rimossi
ritenere
ritornai
rivolge
sacra
saggezza
salvato
sanguinato
scoppia
smalto
sosta
spegnere
spezza
sporco
stupito
sullo
tesa
tinta
toro
troverete
usate
usciva
usi
varra
veleno
volante
vomitato
##eremo
##in
ammiri
arma
ascoltarmi
attesa
attivi
balla
bui
calar
castelli
centrale
chiudi
cittadinanza
concede
continuando
convinta
costato
deserto
dimentica
diventi
divora
doglie
dolcissimo
dovremo
durata
eccellenza
educazione
eretto
feroci
fiacca
fico
fondata
gange
gelosia
geme
giovanna
gioventu
giustamente
groppa
groppo
guadagnare
innamoro
intesa
larghe
liste
lotteria
malgrado
matta
meravigliosa
miste
morisse
movimenti
nevica
novello
ordinate
oriental
ovest
padrone
paghi
palme
partiro
partite
petrolio
piaccio
piaci
pilastri
porci
potenze
reso
resti
ricevette
riscaldamento
risolve
ristretta
riviera
robot
saldo
scolastico
sentimento
sigillo
smettetela
soddisfatti
soggiace
spendere
stilo
studiate
studiero
sushi
tenta
tentativo
traduttore
trascorre
trattando
trovera
usciti
vacca
varie
vergini
viaggiano
volesti
##ali
##ito
##rai
##rd
##x
##zi
abbaglia
adiri
adottato
andammo
anna
annunzio
appaia
arde
ardenti
arrogante
avara
batti
belleza
buco
cadavere
cali
camminando
cattolica
chiedesse
cibi
cime
cioe
considera
converte
cristiana
crucciata
dannati
deliziosa
desto
devota
dirci
diventera
divenuta
divertenti
dote
elette
esperantisti
esprimere
fermai
figliuoli
fumi
giochiamo
gioiosa
grassa
harvard
hiroshima
iddio
intrai
lacca
leggete
lembo
limone
linee
lungamente
lupa
marrone
mattutina
mera
mestieri
monta
mostrarsi
mostrasse
mozzo
muti
naturali
navicella
novembre
orazione
ottimo
particolarmente
passanti
pastori
pate
pellegrino
perpetua
plastica
portando
portarmi
pregi
puglia
rechi
regni
remote
restera
restero
ricorre
ridir
rinchiusa
scemi
sconforto
scoppio
scusato
sedersi
sentii
severo
singapore
soavi
spietata
stivali
terro
tiranni
tolsi
totale
tramonto
turbato
utili
valuta
verga
vienna
vinca
visitai
vizi
zelo
##ere
##ggiato
abbracciar
abian
accorda
accostai
accosto
accuso
acerba
acheronte
acorto
adatto
adice
adocchia
aduna
affamati
affetti
affezione
aggiugne
agute
aguto
aguzza
alimenti
alluma
altissimo
amai
amando
ancella
ancoi
anella
angelico
anteo
anz
appariva
appiglia
appressando
approccia
approvo
aprite
arche
archi
arda
ardesse
ardita
arivata
armadure
arnese
arse
arsura
asciugamani
ascondeva
ascosa
aspettiamo
assale
assalto
assenso
assiso
atendo
atterra
attrista
avanzar
avei
avervi
avisata
avrebber
avrebe
avvalla
avversaro
baciare
balenar
basci
benaco
benedette
benvoglienza
bestial
bielta
biscia
bocha
bogliente
bontade
bordone
brami
brandon
brieve
brunetto
caccera
cacume
caler
canbiato
candor
cangiata
cape
capestro
cappe
carino
caron
celar
celestial
cen
cercar
cessar
chastita
cherci
chinato
chiome
chiostra
chiuda
chiuder
ciascheduna
ciercando
cigne
circonda
circunferenza
circunscrive
cittade
cittadi
colu
cominciamento
commettere
comparte
comprero
concepe
conduca
confessato
conosciente
consenti
considero
contero
contezza
continente
conven
conveniesi
converra
converse
cosce
cospetto
costante
costantin
cotesto
coverchia
credesse
cria
cristian
crucciosa
crucifisso
crudeli
crudelmente
cruna
damagio
danar
deggio
degniasse
desidera
dessert
desta
deus
dicere
dicero
dicessi
dichiarato
dido
dienno
difalta
digiuna
digrada
dilata
dilli
dimandando
dinne
dirittamente
dirizzo
discendemmo
discerna
disceso
dischiuso
discoverto
disdegnoso
disfatto
disiando
disianza
disir
dispaia
dispregio
divenimmo
dna
domandai
domandasse
donata
donno
dottare
dovrien
dritt
drizzan
drizzando
drizzava
drudo
duemila
emergenza
entre
ercule
erlique
errante
errar
essemplo
etade
evangelio
facella
fallacie
false
fano
fantolin
faria
fattor
fele
feltro
femmi
fende
fendendo
fender
fermar
ferza
fien
fiesole
fiorentino
fiorini
fisamente
fiumana
fiumicello
flegias
fondar
foran
forato
forese
formar
fornir
freddura
froda
fruga
fuggita
fugo
fuia
gaia
gel
gelati
gemme
gerion
gherardo
gieloso
gioire
giovaneza
girato
gire
gittar
giue
giugne
giugner
giuraro
gl
gline
gloriose
godi
gonella
gota
grame
gratis
gridai
guadagni
guado
guardommi
guasti
guata
guati
guerir
guernimento
guise
guizzo
gustar
iason
ierusalemme
igual
iguali
imaginar
imago
impari
impingua
incontanente
incontrati
inpresso
intenza
interdetto
intoppa
intrata
iosue
lagna
lagrimai
lasciammo
lasciasse
lasse
latin
lavina
legie
levando
levante
levarsi
levate
lezion
libertate
liete
lievemente
lievi
limo
limosine
lodando
lontan
loquela
lorda
lucerne
magrezza
maladetti
manifesti
manti
maraviglio
marchese
maremma
margini
martire
masnada
mea
melode
menato
mercie
mesprigione
michele
miller
ministra
mirabilmente
miri
miser
misere
miserere
miso
mistero
montagne
monton
mormorar
morselli
mostrav
mostrommi
motor
movesi
movieno
mperador
munta
muor
musarda
narro
nascendo
ncontra
ncontro
necesse
nequizia
nesso
ngannata
nimico
nipoti
nnanzi
nobil
nocchier
nominar
normandia
notar
notturno
nsegna
ntende
ntendi
ntendimento
ntese
nutrice
nvidia
occaso
oda
offense
offici
olandese
oltra
omor
oncia
onrata
onta
operar
oppinione
opposita
orando
orecchia
ospizio
ozio
pacienza
paion
palido
pareggio
parevi
partio
partirsi
paruta
pasce
passaro
paternostri
patre
patriarca
pe
pecca
pecorelle
pegnio
pegola
pelago
pensamento
pense
penta
penter
percosso
peregrina
perfezion
pesanza
piaciea
piaciente
pianeto
piccioletta
pietosa
pigli
pilota
piue
poder
podestate
poli
pomi
pondo
ponno
porebe
porge
portier
pose
posse
possendo
possibil
povertate
preco
prendono
pressa
prigioniero
primaia
procaccia
prociessione
proferta
promession
promessione
proveduto
provero
pruova
pudica
punge
punir
punse
puoser
puosi
queto
quici
quinc
quistione
quiv
raffi
raggiava
ragiono
raia
rammenta
ratta
reco
reda
reflesso
relazioni
renduta
responsabili
reverenti
ribaldo
richiedi
riciever
ricolte
ricordar
ridea
ridurre
rifusante
riguardai
riguardommi
rimagna
rimaser
rimirar
rimosso
ringrazia
rinier
rinova
ristrinse
ritornar
ritrar
rocca
rodano
roteando
salda
salmi
sape
saperlo
saputa
sardigna
scaglion
scaldar
scalee
scempio
schiere
scola
scoscende
scotto
seggio
segnior
sementa
semente
sempiterna
sempiterne
sentore
sepultura
sermonato
serpi
sigilla
signiore
smorte
soavemente
soccorre
soccorse
socorso
soddoma
soffera
soggetto
sogiorno
soglion
soletto
solingo
solver
solvi
sonare
sopr
sospezone
sospinse
sospira
sospirando
soverchia
sovrappeso
spechio
speglio
spiaccia
spiccia
spirando
spiri
stavan
stelo
stige
stole
strale
strema
strida
subiti
suggello
superne
supin
supprema
surger
tacea
tacette
tacito
tegna
tento
termometro
terrene
tetro
torcendo
torcer
tormenti
tornan
trafitto
traluce
trasmuta
trastulla
tratte
tremoto
tristizia
tro
troiani
trovasse
tuon
uccisi
udia
udirti
ulisse
uscivan
vad
vedovella
vedrassi
vei
velame
ven
vengianza
veno
vermigli
vermiglia
vertute
vespero
vestigio
vidimi
vienne
vigna
vinti
vissi
vivesse
vogl
voglion
volontade
volve
vosco
vostr
vuogli
zanche
##gato
##lata
##um
##v
accettera
accetterebbe
aprendo
ascoltate
assassino
attaccato
biancheria
bulicame
candela
colpevoli
coma
compiute
corna
costruita
cotta
crederebbe
davano
dizionari
dure
egoista
elefanti
esistere
europei
facevi
firmare
fondamento
forbici
fortunate
frastornato
funzionare
gemello
giochera
globale
hamburger
immobili
incendi
interprete
invitare
lavava
malinconia
messi
mettera
musicale
nascosti
organo
prega
prenotazione
privo
regalato
ricordate
ridire
rubinetto
saggia
sbaglio
scienziati
segna
semplici
senna
sforzo
sigarette
sorda
stese
stipendio
struttura
svegli
tasse
tirare
ungherese
vasca
ventiquattro
zampe
##ati
##ccio
##ggiata
##nare
##rato
##rgli
##ssero
##zzi
abbatte
adulti
affidabile
agire
arrestare
aspettate
assoluta
calore
cassa
chiamero
commenti
confusione
consapevole
coperti
copie
corridoio
costosi
costretto
crescendo
curry
dimenticata
dimentichero
dipinse
esempi
evidente
finira
folla
giudizio
grati
grigi
indicare
irlanda
istante
jazz
lasciati
leader
mancia
matite
minacce
nazioni
nervosi
nilo
pagati
pianse
picnic
polacco
poliziotti
portano
potente
prendersi
realizzare
riprovare
riuscira
riviste
salvi
schiavi
schizofrenia
scolastica
scusami
skura
spieghera
toccare
trovano
vanita
vittime
zelanda
##cche
##logo
##nale
##po
alzi
apriva
brutte
cadute
catturato
concentrarmi
contanti
correva
creativo
danimarca
darai
diario
dignita
disegno
diventano
divorziato
dovette
dramma
droga
famosi
fedeli
fermarsi
fonti
gridare
guardera
incaricato
incontrata
indossano
ingannare
insegni
kate
lavati
legate
lente
lira
macellaio
municipio
musulmani
nascondere
nettuno
obiettivi
paghero
parlarti
pianeti
picasso
pittore
poiche
popoli
pranzare
prenotato
pressione
prezioso
prometto
raccontare
recentemente
riesca
rischi
ruota
saliti
sapessi
scacco
scorciatoia
scorre
scosso
scrivero
seguite
sentirsi
sognare
sordo
spam
speciali
stavolta
tigri
tornando
trono
vice
videro
wang
##ge
##ggia
##nga
##voli
##w
##zzate
abbandonare
aiutata
andiate
arresto
bagnate
battute
bellissima
bordo
brown
bush
cambiata
celsius
chiamarmi
colla
cominciamo
complicata
conclusione
conseguenza
decisamente
desideri
diamante
dichiara
distruzione
dovevo
eccezione
escono
esterno
fratellastro
getto
gita
glielo
impariamo
incubo
inizi
inquinamento
invento
ito
legata
marzo
melo
migliorato
passai
passione
pazienti
pazza
pazzi
peccati
pessimista
positivo
preparera
pronunciare
pubblici
puzza
rappresenta
rendera
ricevere
rimasti
salutare
secco
seguenti
sembrate
stima
tela
temi
teneva
tigre
tornado
traduce
tramite
uccisa
vedranno
vigore
vincera
yacht
##amoci
##mia
##nate
##rale
##rino
##tano
##telo
##temi
##ua
15
accompagnera
alice
alzate
ampia
andrete
appoggio
apprezza
aquila
arachidi
armadio
armati
attraente
batteria
brucia
cambiano
completa
condotta
confini
contente
crescono
cuoio
divertirsi
divisa
emozioni
fangose
favorevole
forchetta
formale
fortezza
funerale
go
guanti
infermiere
inviare
materna
mezz
norvegia
occupate
oppure
orientale
orsi
ottimista
parlavi
parta
pensavano
pericolosi
personaggio
piacermi
piangi
piovuto
principali
professione
qualcos
quiete
rame
rimango
sanguina
scozia
scrissi
scuri
smette
spaventate
sposarmi
strumenti
supplico
tastiera
tortura
ulteriori
utilizzate
vegetariana
vendono
venticinque
visibili
votato
##ando
##ing
##lino
##ngono
##rra
##ss
##tare
2013
acuto
adulterio
alimentari
alzata
amati
arpa
avvolse
bionda
bloccato
branca
california
capita
capitolo
capre
carriera
cenere
cesso
chimica
combatte
connessione
corrette
crederanno
culturale
cuori
dichiarazione
difetti
dimensione
disonesto
disperata
dolori
dubita
elettrica
facilita
ferire
fidarsi
francesca
gelose
giovinezza
grassi
idrogeno
imposto
industria
interrotto
lamentarsi
lavera
mature
mercoledi
mezzi
mocio
modello
multa
nobilta
onesti
pasqua
platone
provera
religiosa
restato
riconoscente
riempito
rimangono
rimossa
rocce
salite
sedeva
shanghai
sottosopra
spettacolo
spine
spugna
statua
strane
stupidita
svegliare
testi
torturato
tranquillo
urlato
vantaggi
vegetariano
venere
vetri
vinceva
viola
vocali
volano
##ch
##cio
##gia
##glio
##rata
##rera
##reste
##rre
##za
12
abitato
abitiamo
accompagna
acquistare
adori
allusione
andavi
assistente
asta
buoi
canali
cancellarla
cerimonia
comitato
commento
continui
contrari
correggere
crescere
denso
dicembre
difesi
distingue
dormono
ebraico
esigente
estrema
fascio
fattura
fenomeno
fermamente
football
funzionera
ideale
imbecille
incolpare
incontra
innamorati
insopportabile
islanda
leggermente
liberare
limbo
linguistica
logica
lojban
marca
marino
matsuyama
mettendo
metterai
moderni
mondi
nono
odiava
offeso
orbita
orrore
ortografia
paghera
park
parlavo
partiremo
personalmente
polonia
praticamente
preferiscono
presento
proprietario
quercia
ricordato
roger
romano
rugby
sapendo
sapra
sbrigati
scopri
sentimmo
serva
sorprendente
spegni
sperando
telefonata
tombe
tormenta
trasformato
umido
uniforme
vile
violenta
##cata
##ggiare
##gica
##ico
##logia
##mila
##nati
##rare
##rdo
##zionale
abbandoni
abbi
abilita
accada
affascinante
ah
altamente
ammirazione
ansia
apra
arresti
arrivarono
avvenne
bibliotecario
binario
biondo
bologna
bordello
cambiate
camere
cattedrale
cenare
como
corrono
creando
curiosita
darvi
debiti
decisa
diecimila
dimenticate
discorsi
distanti
elementari
ferie
fidava
frequente
gemella
giocavo
gratuitamente
guardano
infernale
infinita
lanciare
lasciano
legna
maggioranza
malapena
mancava
marocco
materiali
menta
miracoli
mute
nervosa
noe
numerose
offese
orologi
ottiene
passeggiare
piacesse
piccioni
pisa
preghiere
preparati
preparo
preziosi
rachel
rapida
razza
restituire
reti
rispetta
riunioni
rotti
salti
scambiato
scritti
scusatemi
seguiro
sella
selvatici
sentiranno
serata
shakespeare
shibuya
sottili
spezie
spose
successivo
tragedia
trovarlo
tuono
urgente
uva
vanta
vedemmo
vietata
virtualmente
##dere
##fo
##ngo
##son
##zie
aiutando
alimento
alzare
ammalarsi
ammise
andrea
ape
assolto
attimo
averne
belgio
bibliotecaria
bruciato
calciatore
calvo
caratteri
carbone
casca
casi
catalano
cattivi
caval
cercate
cespuglio
chieda
colti
compositore
composta
comprai
compresi
confermare
considerare
conversione
coprire
critica
decorato
desidero
dettaglio
difendere
dispari
disperate
disporre
distinzione
divorziare
dovrai
eccesso
educato
eventi
famose
farci
feri
fondato
fondi
fredde
freschi
general
ideologia
ignora
illustri
immaginato
imparera
indizio
ingiusta
inutili
invita
isole
lavandino
lavatrice
luminoso
marcia
mettesse
ministri
mostrate
nancy
negligenza
nidi
notti
nucleare
offesi
orchestra
pensasse
pensero
perderai
perdeva
perdo
personalita
pian
pioveva
posato
potevano
preoccupazioni
probabilita
prudenti
prudenza
refettorio
ricordera
rimprovero
rissa
riuscirci
rive
robusto
scene
scesi
sconfitta
scritture
senape
sepolta
sessanta
smise
spari
strette
studiamo
tecnica
tenace
tenermi
teso
tradito
trang
tromba
uscirne
vermi
volute
washington
##ete
##ficato
##gando
##gna
##iamo
##ista
##lia
##rati
##razione
##simo
##sioni
##stici
##tiche
abbraccia
accuse
adolescenti
afferma
aiutami
aiutano
annego
apparse
appoggiato
aquilone
arabi
balli
basse
benvenuta
benvenuti
borse
brasiliano
bruciare
cacciato
cambiera
cerchera
chiedero
chiedete
cittadina
cliente
commissione
composto
conducente
congratulazioni
coraggioso
crollo
debba
decorare
delusi
descrivere
devoti
diana
diavoli
disaccordo
eiffel
esperimento
essenziale
facessi
falsita
fermati
folli
fracasso
fragole
funzioni
governare
governi
grigio
ignorato
ingrata
innata
ipad
islam
israele
judy
lasciamo
lassu
lavorate
leggeri
leggeva
leggono
lessi
limiti
litigare
lucy
madri
magia
maometto
meraviglioso
minacciato
monaci
noleggiare
ok
oppone
pagata
pallida
parata
parcheggiato
paulo
perdera
persino
pianga
picchiato
pilaf
pizzeria
pratico
preoccupa
professori
profonde
provarlo
quegli
ragionamenti
ricche
rigido
ripetere
riposa
riprendo
rock
roosevelt
salvati
sant
scalato
scherzando
scimmia
sciopero
segreta
servita
siccome
sporca
stancato
starebbe
stimo
strangolato
suocero
terribili
topi
tornai
tornasse
tremava
usura
vendo
venezia
vorrai
vorremmo
yokohama
zaffiro
##care
##f
##ficare
##glie
##ini
##ke
##nne
##one
##oni
##rano
##rica
##rita
##ue
##ure
abbraccio
addormentata
alain
albania
alchimia
alzati
amavo
asia
assicurazione
astronomia
bagnato
balena
bende
bevanda
bevve
blog
bocche
brina
cacci
can
cancellare
carole
cavaliere
chili
cocco
cogli
cominci
compenso
comun
condotti
confida
conigli
controllato
costano
costituzione
creazione
cuscino
darli
determinato
diciamo
dimostrare
disposizione
distrutti
divertimento
dovevi
dovute
eliminare
entrati
esco
facevamo
facevate
fanciulla
fatemi
fianchi
fisico
formiche
fuso
gentiluomo
giostra
giudica
immenso
intervista
invenzione
jones
lana
lang
licenza
litri
lucido
nega
norme
novelli
olanda
org
panno
parecchi
parleremo
peccatore
perda
permettermi
piantare
pino
pomodori
ponti
preoccupi
prepara
professionista
profeta
profitto
prometta
provate
raccomandato
reputazione
ribelli
ricordarsi
rifece
riposata
ritornero
ruscello
saluto
salve
scatole
sconosciuto
seguace
seguira
simon
situazioni
sociali
socrate
sostenere
stadio
strega
stupidi
suonano
suore
superficie
svegliata
tele
temperato
time
tirannia
trade
ucraina
unici
varia
vederci
verificare
viaggia
viziata
volumi
##enti
##late
##line
##lita
##nsione
##ton
##ttare
accenda
accoglieva
affama
affatica
afflitto
aggira
aiutero
allegra
alzarsi
amari
amorosa
apparecchio
apprese
appreso
ardeva
arriveranno
aspettano
attraversando
autista
avide
avvolti
beneficio
biologico
bomba
buffa
calligrafia
campare
cascata
caschi
cassetto
cessa
chiari
cogliendo
combattere
comprarlo
conforme
confronto
convinti
correnti
corrotto
cotto
crema
dedicato
diciotto
dillo
diverto
domandato
dotto
dritte
espressi
fareste
fastidiosa
fata
fermando
finora
formati
fort
fossato
fratellino
fresche
geometra
giocattolo
girava
gliele
impatto
impeto
incidenti
latra
lavoriamo
lustro
malate
maledizione
maleducato
malvagi
mandero
margarita
mascelle
medesimo
medici
metalli
momenti
morbido
mostrero
mucchio
musulmano
nettare
noci
odiavo
operazione
pedone
perugia
perverso
picchia
pietoso
pigra
pigrizia
praticare
predicare
prendesse
prendila
private
privati
promisi
quaranta
quotidianamente
racchetta
rapporti
rasoio
ravenna
reca
recuperare
richiesto
righe
riguardare
rivoluzione
romantico
rovinava
salimmo
salutato
sapro
scelte
schiuma
scomparso
scuso
seguirai
sentite
settima
similmente
situato
smeraldo
sopravvivere
sospese
spazzo
sprecare
stagioni
stessero
suicidato
svenire
tanaka
temono
tenebra
terrai
teschio
translate
trascende
trasportato
trombone
trovarono
tsunami
tuba
unghia
uscimmo
utilizzata
vane
vedendo
vedersi
vulcano
##00
##an
##ava
##cinque
##dono
##erete
##lone
##mita
##ntata
##rico
##vita
abbaia
abitate
abituati
adorava
aggiunga
aglio
allenta
alunni
ammirando
analisi
andrebbe
arrivederci
ascelle
aspra
assicuri
assoluto
attribuito
avuta
avvera
avvolte
azzurro
bacco
bagagli
bagnava
barattare
bevande
biologia
bizzarro
bugie
cacciati
calando
calare
calde
camicie
cangia
cantavano
capiamo
capirlo
cardinali
cerchiato
chiamami
chiamiamo
chiappa
chinati
chini
chiusero
ciancia
cicogna
cisterna
civilta
cocca
coltura
cominciano
concordia
consenta
consola
consunto
contenuto
coperchi
copio
cosse
create
creatore
crosta
cupo
dandole
devoto
dialetto
diva
drappo
dubitava
duo
elegante
elesse
emily
equilibrio
esercitarsi
facemmo
fallita
farmacia
fessura
forca
funzione
furore
galli
gangster
gaudio
geli
gemelle
generata
gianni
girarsi
goda
golfo
graffia
grotte
guardavo
hong
idioma
immobile
incontrarla
indo
ineffabile
iniziamo
insegnarmi
inversione
inviti
iran
kong
lampo
landa
libra
lino
logoro
lu
magnificenza
malattie
malizioso
mangiava
maniche
marciapiede
materiale
messagio
mirra
moltissimo
morda
morirono
mostrarli
mostrarmi
muffa
nacquero
nascoste
necessariamente
nette
numeri
odiare
omelette
operando
paro
partissi
patio
pensata
perfezione
piacimento
piangera
piangeva
pieghi
pietanza
ponticello
pranzando
precisione
preghiera
preoccupatevi
procedendo
progettato
protesi
pruno
puntuale
pupilla
quarant
quieta
racconta
recata
registra
remota
restai
ridicolo
rinchiuso
riprende
ripreso
ritmo
ritornata
riusci
riversa
roggia
rovesciata
saluta
sanguinoso
scaldi
schermi
scienze
scossi
sfida
sieti
sigari
singola
sopporto
sorrisi
splendeva
splendido
spoglia
sporchi
stormo
stupefatto
sugo
suicidarsi
superbi
tardato
tofu
tolte
tomi
tornano
torrente
vaghe
vendicata
videogiochi
vinceranno
vinco
zanzara
##ana
##bilita
##bre
##cita
##fa
##gni
##ino
##ita
##lati
##ntato
##rito
##ssime
##tata
##tera
##tori
##tre
##tt
##ture
##ura
##uta
abandonare
abandonato
abatte
abatter
abbaiare
abbandonati
abbracciava
abiamo
abie
abitava
accendea
accender
accennando
accompagno
accorger
accorri
accorser
accosta
acerbe
acomando
acontanza
acordanza
addita
adima
adocchio
adona
adorando
adorar
adosso
adreza
aduggia
affanna
affannata
affanni
affermando
affigge
affina
affissi
affoca
affocato
afondo
aggi
aggia
aggiri
aggrappa
agiata
agiate
agni
aguglie
aia
aina
aita
aiuola
alagna
alberga
albia
albor
allato
allungarsi
alme
almi
alpestro
alquanti
altru
altura
ambedui
ameria
ammanna
ammanti
ammorza
ampi
ampiezza
an
ancelle
ancise
anciso
andarne
angelici
angielicanza
annida
annidi
annotta
ano
anoiato
antiveder
aonti
apellava
apennino
aportaro
appaion
apparecchiava
apparer
appario
appariro
apparver
appella
appiccar
appollo
apporta
appostolico
appresenta
appressammo
appressava
approda
appropria
ara
aragne
arbuscelli
ardea
arder
ardi
ardite
ardori
ardua
aresta
aretin
argiento
argini
argo
arguta
armadura
armata
armava
arpie
arra
arrabbiare
arsiccia
arso
arto
asciuga
ascolte
asise
aspre
assetta
assisi
assomigliano
assommi
assonna
assottiglia
assumere
assunta
atenda
atra
attenda
attienti
attila
attuffare
audienza
augelli
augustin
ausa
ausi
avegnia
avemo
avenante
averebbe
averien
averle
avesti
avevan
aviso
avrian
avvede
avversi
avverso
avvinse
avvisar
balbuziendo
baldezza
baldo
baleno
balestra
balestro
baratta
baratteria
barbagia
baron
barone
basciar
basciato
beate
becchi
beleza
belva
beninanza
biade
biado
biece
bieltate
bilance
bisanti
bisogniava
bolognese
bolognia
bonagiunta
bonifazio
borghesi
brame
bramo
bramose
brenta
bretagna
briareo
brievemente
bruggia
bugio
buoso
burella
burrato
busto
ca
cacciando
cacciar
caccio
cadder
cadea
cagnazzo
cagne
cagnione
caina
calca
calcabrina
calcagne
calchi
calla
cambiamenti
cameriera
cammilla
campar
canbiando
candelo
candido
cangiando
canpar
cantai
cantaro
cantavan
capel
capere
capocchio
caramente
carcar
carcata
carmi
cascar
cassio
casti
castitate
cava
cci
ceffo
centesmo
cerchiar
cerebro
cerne
cerner
cerno
chaccia
chastel
chegia
chell
cheta
chiedea
chioma
chiostri
chol
ciacco
ciascheduno
cicilia
cielar
ciento
cigner
cinge
cinqu
circe
circuir
circular
circunscritto
ciriatto
cive
civil
civili
civir
cocaina
coglie
collegi
colonbi
colorata
coltel
comandamenti
combatter
combusto
comedia
commendo
compere
compia
comprarla
comprensione
concedette
conceduto
concetta
conchiude
concorde
confessi
confession
conflitto
confortarmi
conobe
consento
conservi
consistoro
contegnia
contegno
contemplando
contemplo
contenenza
contenne
contingenze
contraro
convegna
convegnon
converebe
converso
converta
convienmi
convienti
coram
corcar
corneto
corniglia
corollario
coronati
correa
corruzione
cortesemente
corusca
coruscar
costantemente
costinci
costuma
costura
cotanti
coto
cozzo
credesti
criatura
crin
crini
crio
cristianesmo
crucci
cruccia
crucciasse
cuna
cuopr
cuopra
cupa
damigiella
danaio
daniello
darebe
darei
darwin
debili
degie
deidamia
derate
destre
diche
dichi
dicon
dien
difension
difensione
difeso
differenze
diffidi
dificio
digesta
digesto
digiunar
dilette
dimandai
dimoranza
dimoro
dimostrando
dione
dionisio
dipartiro
diposta
diria
diriva
dirizza
dirne
dirotti
discacciato
discendendo
discendesse
discente
discernea
dischiusa
disciolta
disciolto
discordi
discoscesa
disdegnosa
disdetto
disegnare
diserti
disfavilla
disgiunto
disgrava
disiar
disiderio
disleale
dismisura
dismonta
disparve
dispetta
dispettoso
dispiega
dispoglia
disposizion
dispregi
dispregia
dispuose
disson
distinse
distinzion
distorse
distretta
distretti
disvia
divegna
divenir
diventate
divine
divizia
divote
doga
doglienza
doglio
dolcie
dole
dolea
doman
domandal
domenico
domine
donasse
donnea
doppiar
doria
dossi
dota
dottosa
dovess
dovevano
dovre
draghignazzo
drappi
dubitando
duoli
durar
ebb
eccelso
ee
effettuare
effige
egl
ela
elia
elice
elsa
emisperi
enno
eo
epa
erbette
ermo
erte
esci
esplosione
essenti
estima
etate
etera
eunoe
faccendosi
faccie
facesti
faci
faciean
faenza
fallace
fallava
falleria
falsai
falta
fami
fansi
faran
farfalle
farfarello
farinata
farisei
fasce
fasciato
fato
fecemi
fecesi
fecimi
fedir
fee
feggia
fella
felli
fensi
ferm
ferroviaria
ferute
fessa
fetonte
ffai
fialte
fiammeggiava
fiammeggio
fiammella
fiammette
ficcar
fidandomi
fieramente
fieti
figliuoi
figliuola
filippi
fina
finava
fio
fioche
fiordaliso
fioriscie
fisse
fitti
flagello
flegetonta
fleto
foggia
folta
fonde
forame
forli
fosca
fosco
foss
fotografo
franceschi
frasca
frasche
fratei
fratel
fredo
fregi
frodolente
frusto
fuggia
fuggirsi
fulgor
furie
gaeta
gaggio
galeotto
gallura
garra
gastigar
gastigato
gaudioso
gemma
gent
germoglia
gestire
gettato
ghermito
ghigniate
ghiotta
ghiotti
giacean
giacendo
giacer
giacie
giaciuto
giama
gienaio
giermano
gietti
giglio
ginocchio
ginochione
gioconde
gioelli
gioir
giostre
giovanetti
giovanetto
giovato
giovinetta
giovinetto
gissi
gito
giugnere
giunga
giunture
giuochi
givan
gloriosi
gradir
grama
gramigna
gratia
grattar
gravar
gravera
gravezza
gravo
gregorio
gridan
gridaron
gride
grifone
groppone
guadagnato
guadagno
gualoppo
guardati
guardisi
guerito
guiscardo
guittone
guizza
gustata
gustava
humana
humane
humano
iesu
ieu
igne
ignudi
ilion
imaginata
imbianca
impera
imperador
imperadore
imperadrice
impetri
impiglia
impossibil
impregna
incarco
incominciaro
incontenenza
incora
increbbe
incresca
inebriate
inferma
infermo
infernal
infuso
ingannate
ingegna
inghirlanda
inginochiato
ingiuria
insegnando
insino
intagliato
integra
intendea
intendente
interlingua
intoppo
intrametter
intrato
invola
iordan
ipocrate
ipocresia
ipocristo
iri
iscoglio
isnelle
isplendor
israel
issa
istran
istrane
italica
iti
iunone
iustiniano
labore
lai
langue
languire
largita
larve
lascian
lasciaro
lascierei
laterano
lavorar
lealtate
legati
leggemmo
leggiadre
leghato
legni
levan
levava
leve
levorsi
libicocco
libito
lici
lima
limosina
linux
liquor
lisciarsi
lituania
livida
livido
livore
loglio
lombardi
lonza
lordo
lucano
lucifero
lucrezia
luculenta
lunge
lunghesso
luni
macigno
macra
magagna
maggi
magio
magnanimo
magne
magni
malacoda
maldiciente
malenanza
malia
malo
mammella
managio
manera
manghanelli
manifeste
mante
mantoana
mantua
maravigliando
maravigliosa
marmi
mastino
matre
maza
megl
membre
membruto
menando
mendicato
meni
meo
merca
meridian
merigge
meritai
merta
mess
messagi
mesta
mettea
mettiamo
micianza
micol
milia
millesmo
minerva
mirabile
misfatto
mistura
misurato
modicum
moia
mola
molin
montava
montavam
mormorando
mormorava
morrocco
mortai
mostran
mostraro
mostrocci
mota
movemmo
moversi
movete
movi
movien
moviensi
mperio
mprenta
mprenti
mpresa
muda
murare
mutan
mutar
nascesti
nascosamente
natio
natur
navarra
navicar
ncarco
ndarno
necessitate
neente
negar
negletto
negra
nembrot
nerbo
nesuna
netta
nfin
nganno
ngegni
niccolo
nieghi
nimistade
nmantenente
noccia
nocte
nodrimento
nodrire
nomati
nomero
nominanza
nomo
nondimen
normando
nosco
notando
notrica
novellamente
noverca
ntelletti
ntenzione
nteso
nuvol
nuvoli
nviluppata
nvoglia
oblia
obliando
oblio
offensione
offerere
offizio
ognun
oltragioso
oppinion
orbi
orezza
orlando
orma
ornar
orse
ortolano
ostel
ovidio
ovil
ovrar
ovrare
oziosa
pacie
pacifico
paganesmo
palagio
palida
pantan
pantano
papalardia
pape
parca
pareami
parecchio
pareggia
pareglio
parendo
pariemi
parlarle
parlavan
parran
parsi
part
partiamo
partimmo
partirmi
partorisce
paruto
parvermi
pasca
paschi
passagio
passarsi
passavam
passera
pasture
paterna
paventi
pavese
pecuglio
pelar
peli
pellegrinagio
peloro
pen
pendea
penetra
pennuti
pennuto
penone
pensoso
pentuta
pentuto
percossa
percossi
percotendo
percuoter
perdea
perdimento
pergamo
pergiurato
perigliosa
permutasse
perta
pescator
peschiera
pessima
petti
pezi
piacciati
piacea
piacente
piacier
piagni
piangier
piatitori
piato
piaza
piccante
pingue
pinser
pinti
piovvi
piramo
pirata
pirro
pispiglia
placa
plaga
ploia
pluto
poc
podesta
poema
poggia
poggiato
pogna
polidoro
polli
polpe
polsi
ponente
ponesse
ponta
poppe
porra
portal
portan
portatura
possiam
possiate
potem
potero
potesser
potrebbesi
potte
potti
poverella
poveruon
prava
precinto
predicando
predicanti
predicar
pregiar
pregiava
prelato
preliba
prendea
primai
primiera
primizia
proceder
procedesse
prochacciato
proferse
propinqua
proveggia
prun
puerizia
pugnar
punger
punt
purgatorio
putta
qu
quandunque
quatro
quatto
quetarsi
quete
queti
quiditate
raccese
raccorci
rachele
racomanda
radi
ragionato
ragioniam
ragna
rammarca
rampolla
rance
randa
rapaci
ratte
rauna
real
reato
recare
recepe
redenzion
reflette
regalmente
reggimenti
reina
religion
ren
rendea
repleta
restar
retaggio
reverente
rezzo
ribalderia
ribatte
riccore
ricever
ricevesse
richa
richesto
richi
richiamava
richiude
richiusa
richiuse
ricolta
riconfortando
ricontare
ricoperse
ricordati
ricorse
ricoverare
ricrea
ricuopre
ridente
ridenti
ridico
ridottava
rifa
rife
rigira
rilevarsi
rimanea
rimbomba
rimiri
rimonto
rimpetto
rincalzo
ringraziato
rinovella
rintoppo
rinverte
ripognia
riprender
riprezzo
riscossi
risonar
risono
rispuosemi
rispuoser
ristetti
ristora
ristoro
ristrinsi
risurge
ritene
ritener
ritorte
ritrova
ritto
rivolgi
rivolti
rivolve
robe
rocchi
roggio
romagnuoli
rostro
rovente
ruberto
rubesto
rubicante
ruffian
ruine
ruminando
ruscel
rusticucci
sabbion
sabbione
sacciate
sagiamente
saglia
salamone
salata
salavam
saliri
sallo
salmo
salsi
salvaggia
salvagio
salvamento
sanese
sanesi
santuaro
sapia
sapiamo
sapor
sappie
sardi
sarebber
sarien
sarieno
sarte
satan
sbarro
sbigottir
scabbia
scaleo
scalzasi
scalzi
scanno
scempie
scendemmo
schegge
scheggio
schiara
schiatta
schioppo
scintillando
scipa
scisso
scondir
scorge
scoverto
sdegna
sedera
seggendo
segnio
sego
seguio
seguitai
seguon
semele
seminar
sempr
sene
senn
sentio
sentivo
seppi
sepulcro
serafin
serba
serene
sermo
serocchia
serrame
serrata
serse
servagio
servando
servir
settentrion
settu
sezzo
sfavilla
sfoghi
sicheo
siedi
singular
sinon
slega
smaga
soblima
sobranza
soccorra
socrato
sofferir
sofferire
soggioga
sogliono
soldan
solere
solvendo
solvetemi
sommerse
sommerso
sommi
sonando
sonni
soperchia
soperchio
sopranome
sordel
sormonti
sorprende
sortille
sortiro
sortita
sospecciar
sospinto
sospir
sostenni
sottilmente
soverchiar
sovvenne
sovvenni
sozzo
spande
sparito
sparvier
specchia
speme
sperar
spietati
spiritale
spiritali
spregiando
sproni
spuola
spuose
squarcio
ssai
stagna
staio
stan
stanzi
stetter
stizzo
stola
strali
straneza
strozza
subitana
suggel
suggetto
suicidio
sunt
suonan
surgi
surgon
surto
sussistenze
ta
tacita
tacite
tacqui
tagliar
tantosto
tapini
tatuaggio
tauro
teban
tegghia
tegghiaio
tegno
tegnon
temenza
temeva
temp
templo
tencione
tenghi
tenperato
tenza
tepidezza
ternaro
teseo
testeso
tevero
tiemmi
tigna
tin
tiresia
titanic
tito
titol
toccasse
toccata
togliea
toglieva
tolomeo
tona
torca
torcete
torma
tormentando
tornarsi
tornasser
torra
tosca
tota
tr
trabochi
tradigion
tradiscie
tradizionali
traean
trafisse
traggon
traligna
tramortita
tranobile
trapassante
trarmi
trarne
trarria
trascorri
trasmutai
trasmutare
trasmutata
trasmutato
trasmutava
trasmuti
trasporto
trassel
trasser
tratutta
travaglia
travagliava
travaglio
treccie
tremolando
triangol
triegue
trieva
triforme
trina
trino
tristano
trita
triunfa
trovarla
trovasti
trovati
troveria
truante
truovo
tube
turbar
turbe
turchi
turge
uberta
ubi
ubidir
ubidire
udendomi
udiron
udisse
udissi
ugo
ugolin
ugolino
uncin
uncino
unquanco
unto
urge
usai
usano
uscisser
usiamo
usurpa
vaca
vacante
vaghezza
vali
vallea
vangelio
vanni
varo
varria
vechieza
vedem
vedresti
veduti
veggendola
veggiate
vegio
vegnan
vego
velando
velata
velen
veli
velle
vengha
venien
venieno
venisti
venivan
verbi
vergognando
veritade
vermiglie
verna
verona
verria
vetusto
vicario
vico
videbitis
ville
viltade
vin
vincea
vincero
viro
visaggio
vivagni
vivagno
voglenza
voglienza
volerne
volga
volgea
volgendosi
volontate
volonteroso
volsersi
volsesi
volt
vulgo
##ei
##fono
##ggono
##ham
##ite
##lazione
##lgono
##miche
##ore
##rava
##sione
##sita
##ssimi
##ttata
##uale
##uo
##vera
##zo
13
accaduto
aceto
aerea
annullare
antonio
atomica
azzurri
balene
benissimo
buddismo
cadono
calcolato
cambiava
candidato
cavare
cesto
charlie
chiamati
chirurgo
circondato
cominciarono
commercio
compassione
confermato
connesso
conseguenze
consumo
contemporanea
cuffia
curiosi
deboli
desdir
dipendente
dipingere
esatta
facciano
fantastica
fax
finiate
fortunati
francobollo
galassia
gonne
gusti
helen
imaginato
immigrati
imparano
impedi
incenso
iniziano
joe
leggerlo
limite
magre
malta
medicine
meriti
metterlo
microscopio
migliorando
moriro
mozart
mucca
musei
noiosa
norvegese
pappagallo
peter
piazza
polmoni
preavviso
prenderne
prendeva
provengono
puniti
racconti
religiose
respirare
restituito
ritratto
rivedere
robert
salvatore
scacchiera
scegli
sceglierne
scendi
scivolato
sede
segua
soffia
sporche
storico
succedono
tagliate
tedesche
terre
terreni
the
trasferi
ubriacone
ulteriore
vasta
vattene
vincitore
vivevano
volevate
##cano
##ciato
##en
##gici
##gio
##gue
##pe
##que
##rate
##tra
##tri
##ttava
##umi
##ya
11
40
acciaio
aiuteremo
alberghi
ammirano
architetto
aree
asma
assurdita
bagni
battere
bisognerebbe
bugiarda
cancello
cartello
caverna
certificato
chiusura
coca
collaborazione
comprate
condiviso
conoscerti
cravatte
cristianesimo
darle
decisero
dichiarazioni
dimenticai
dirsi
dirtelo
disastro
disprezzo
divertite
dorma
entusiasmo
esperienze
farmaco
finestrino
finisca
francamente
francisco
funzionano
furiosa
gallo
generoso
imbarazzato
infranto
ingrassa
insegnamento
ipocriti
johnson
ladri
legale
legame
lesse
magazzino
massaggio
meteo
militare
modena
mostrami
mucche
muovono
nara
navetta
occidentale
occupazione
offre
opposizione
opzioni
pagate
palestina
pallido
partiranno
passarono
permettendo
personaggi
pianificando
polvere
portiera
preferirebbe
pregiudizi
prendermi
presumo
provava
rara
reazione
rese
rimandare
rimarro
romania
sapone
scommetto
scusare
scusarsi
sebbene
sentirmi
serranda
settore
sexy
sfortuna
sig
signorina
siria
siti
soldato
sparato
spende
spezzato
spiegheranno
stirato
suocera
sydney
tartarughe
tendenza
tentare
topolini
trattamento
tremila
uccidermi
uscira
vari
vendette
vini
zhuangzi
##dire
##emo
##endo
##etto
##fiche
##gico
##gro
##ki
##lava
##lico
##man
##melo
##mica
##nico
##pa
##rando
##rire
##ry
##ssima
##ssione
##tamente
##tive
##ttiamo
##ttiva
##vero
##zero
##zionata
300
abbatteva
accogliente
affamata
affittato
aggiungi
amavano
amero
andavano
api
apparentemente
atleta
avvicino
band
barack
camminata
capite
causando
codice
colonna
comprava
concerti
condivido
confessare
confronti
conosciute
conosciuti
considerate
contadino
continuate
corrisponde
crediamo
cuba
culla
dado
depresso
destinazione
dibattito
disegnato
disponibili
drago
duecento
ebbrezza
edison
enormi
evoluzione
facili
farina
fase
fermate
fidarti
fondamentale
fornello
fumatori
fumava
gioielli
giustificare
gravemente
guidava
impegno
impronte
indovina
infallibile
ininterrottamente
insulto
islandese
lavano
libano
luigi
mandi
mangero
mangiata
manuale
mari
mark
matrimoni
meg
mercurio
miliardi
misteriosa
motivi
muoia
necessaria
nimes
nobili
normalmente
obbedire
ottenne
paesaggio
pagamento
pagano
pelato
pensarci
perdonato
piacero
pomodoro
possedere
recenti
restata
riconosce
ricoperta
rifatto
rifugiati
rimasero
ringraziamento
ringraziarti
risolverlo
riusciti
russi
salutarmi
sanguinando
sbrigatevi
scaffale
scambio
scarso
scusate
seguono
servizi
sgradevole
studioso
sviluppato
tasche
telefonare
termina
toccate
traduci
tranquilli
trascorro
troviamo
uccidera
vagina
valido
vedremo
vocabolario
vocale
votare
##ai
##dio
##eranno
##gne
##ire
##ku
##metro
##nando
##nano
##ns
##ppi
##rmo
##rne
##rno
##tela
##tivi
##ttivo
##ur
##ute
abbandonera
accadendo
aggiungo
alfiere
analizzato
annaffiare
annullata
apprezzato
armenia
arrivammo
ascoltata
audio
auguro
autostrada
autovelox
badminton
bilingue
cacciare
cadendo
cambiati
campioni
canna
casuale
cavi
chiedermi
chiederti
chitarre
chopin
comporti
consideri
contadini
contattare
contenere
continuano
conversazioni
convertito
cristoforo
darebbe
defunto
delusione
diamo
dimentichi
discesa
dovuti
ehi
estraneo
fili
fingendo
finiti
freni
funzionato
getta
gialle
idioti
impazzire
incontrarlo
incontri
incoraggiare
incredibili
incrociate
indagato
indispensabile
inevitabile
influenzato
infuriava
ingannata
iniziarono
intermedi
interpretazione
investimento
invio
invisibile
invitate
jerry
jiro
karate
klingon
lavate
leopardo
letta
lontane
lottare
lusso
magri
manzo
marijuana
maschera
medaglia
mettersi
michael
miglio
nuziale
ognuna
ottanta
padroneggiare
pago
parlami
parlarvi
passeggiato
peggiori
pensavi
percorso
perderanno
peste
pillole
potrebbero
premuto
previsioni
pulite
puntuali
rapido
realizzo
ringraziare
riposare
riprese
rivelato
scimmie
sciocca
sedermi
sembro
severamente
siccita
sistemi
skype
sms
sollevo
spettatori
spia
sudore
sufficienti
susan
tasso
temere
territorio
togli
togliere
tosse
traducete
trama
trasferirsi
universale
vadano
veterinario
viaggiato
##diamo
##dito
##gno
##ici
##iti
##ja
##minare
##mpo
##ncia
##niamo
##posto
##rarono
##riva
##samente
##sh
##st
##ttere
##volto
##zio
##ziono
##zzano
##zzava
abbaiato
addormentarmi
allarga
allineato
alt
alzava
ammetto
ammira
andatevene
apertura
argentina
armato
asilo
assistito
attori
avanzato
avessimo
avvenuto
bagnati
brave
bugiardi
bulgaria
candidati
cardiaco
cattura
celesti
cellule
ceno
centinaio
chiameranno
ciotola
coincidenza
colleghi
competizione
concorso
consegnare
cucchiaio
culo
desiderare
dipinge
direte
dirmelo
distruggere
dovevamo
dovranno
eco
elicottero
entrai
esibizione
esposizione
essersi
fantastico
farcela
for
fornire
franca
gabbie
gallina
genera
gravita
ignoro
imam
impegnate
impiegato
impressionato
inchino
indossato
inoltre
intenzioni
invano
istinto
janeiro
kebab
lavata
lavorero
lincoln
magnifica
mantieni
mario
mariti
maschili
messicano
metteranno
mettero
mischiato
mostrera
muoio
muova
nativa
necessarie
nevichera
newton
operai
opposto
orfano
organizzato
osserva
osteoporosi
parlante
parlavano
passami
passeggio
passero
pellegrini
percento
portatile
possesso
potabile
privacy
professionale
progresso
promuovere
propone
provai
raccolti
regolarmente
resistenza
restano
restate
retta
rimosse
risparmi
rispettato
sanguigno
sappiano
sbadigliava
scalare
scontato
scritte
segnale
seguita
sentira
sentirai
sentirti
serbia
seta
settentrionale
sforza
specifica
spiacenti
spostare
starnutito
statunitense
straordinario
studiano
stupita
successiva
supporto
svenuta
terreno
testimone
texas
tornerai
trasferita
trucco
turista
usarlo
utenti
valentino
vederli
venduti
ventidue
volato
volevamo
waterloo
www
zombie
##avo
##b
##ccato
##cchia
##cento
##disco
##fi
##fia
##ficata
##gliato
##iscono
##land
##ller
##mare
##messi
##nda
##nde
##ndi
##ngolo
##oso
##rni
##stre
accusata
affamate
aggiunse
aggravato
aiutati
aiuterai
alfa
ammalati
ananas
andassi
ann
applicazione
aspetteranno
assunse
assurdo
attribuisce
avvicina
ballato
basato
begli
benche
benvenute
broccoli
bus
cabina
cacciatore
calcolo
calme
capisca
capitata
carico
centesimo
cercano
cerchiamo
chiedervi
chiedeva
chiudo
cominciate
complessa
comprendo
condurre
confina
confusi
consiglia
consultare
continuera
contribuito
copiato
correra
corro
critico
cucinando
daniel
danneggiato
decollo
demolire
dichiaro
difendeva
diffuse
dimenticarti
disoccupazione
dormivano
economici
elementi
emozionante
enigma
esatto
essermi
fantasma
favorevoli
femminile
fette
fido
follemente
frega
furioso
gelatina
guardata
immortale
indiana
innamorarmi
intenti
interrompere
interrompermi
invenzioni
invidio
lavavano
limitato
maestri
maltese
mantenuto
marinaio
mazzetta
mediocre
memorizzato
migliaio
minacciando
mite
navi
nervose
nevicando
nevicare
nevicato
normali
nuotava
nuvoloso
obbligato
opposta
oscurita
pacifica
parcheggiare
parlero
pattume
perdoni
perfetti
perla
permettersi
piacendo
piegato
pietroburgo
pirati
possibili
precisamente
preparata
preparate
presenta
presentate
procedere
programmi
prometti
quattordici
raccogliere
raggiunge
ragionamento
rane
resa
riconobbe
rideva
ringraziarla
ripari
riportero
riscaldato
ristrutturato
sacchetto
sacri
salotto
saturno
sbarazzarsi
scappare
scappato
scendete
scendeva
scomparsa
scriveva
segretamente
shirt
smetti
soddisfare
sorellina
spiegartelo
spieghero
sposarti
street
stufa
successe
suppongo
suprema
tacchino
tango
tentazione
traducono
traslocato
triangolo
ubriache
unte
utilizzi
vaticano
venditore
versato
visitatori
vivaci
voluti
vomito
windows
zucca
##ario
##bbero
##ble
##burgo
##cava
##dizione
##eri
##gazione
##ggiate
##ha
##ili
##ina
##isco
##lgo
##ll
##rdi
##rro
##rta
##rvo
##tati
##tava
##tazione
##tero
##tezza
##ui
##uno
##usa
##ut
##wa
##zzando
19
abbandonata
abbasso
accordato
addormentai
addormentati
affollato
alcool
ambizione
amichevole
annoiato
anziane
applica
arriveremo
artificio
assaggiato
assistenza
aumentando
avvicini
avvocati
battuto
benefici
berbera
buonasera
buttare
calcolare
calo
calze
capitera
capricci
carini
carlsen
cartina
cassaforte
catene
cercava
cesta
combinazione
compagne
comprando
comprata
concesso
confondere
conoscevano
consolare
cooperazione
cortile
crediate
crudelta
dannazione
decollato
demoni
desiderato
diffusa
dimenticano
diplomatico
disciplina
discreta
disperati
disposti
diventerai
donate
dotato
dovetti
dozzina
elena
esercizi
esigenti
esserne
estonia
eternita
etica
etiopia
fatale
fattori
favola
fischio
galera
gatte
ginevra
gioioso
giuria
gliene
globo
grandezza
greca
guerre
hey
imitare
imparava
include
incontrai
indifferente
iniziata
innervosirsi
invii
laurea
lavorai
letame
lune
margarina
mayuko
mazza
mensola
mentiva
merci
metodi
mordere
motivato
nascondo
novecento
oboe
odiavano
of
omaggio
orgogliosi
pakistan
pallavolo
passeggia
pendente
piegare
potremo
pregare
presentazione
principato
proviamo
putin
ranch
ricominciare
ricordata
riflettere
riluce
ripete
riprovarlo
rispondendo
rompicoglioni
rude
salva
sanguinava
sapporo
sapranno
scaccoli
scientifica
sconto
scrivera
solida
sportiva
sposarvi
sprecando
stabilito
svegliai
sviluppare
tahiti
talenti
tenersi
toglierli
trappola
trasferire
tunnel
uccidero
uni
uniche
uniformi
vendendo
vengano
vergognosa
vietnam
violenti
volgare
whisky
wi
##cati
##cente
##disce
##ente
##gare
##gate
##gono
##gramma
##he
##llata
##lta
##mato
##mina
##mine
##mmi
##nie
##nimo
##poli
##sate
##spira
##ssera
##stri
##ulare
##zzera
##°
24
26
abbatta
accedere
accettabile
accettate
accetteranno
aderito
affettuoso
aiuteranno
aiutino
allungati
amen
annunciato
appartengono
applicare
arancione
artisti
aspettassi
aspettata
aspettavamo
assomigli
ateo
atterro
aumentare
aurora
autori
averci
avocado
aziendale
bagaglio
baule
bevette
biasimarmi
biciclette
bisogni
bloccata
bricolage
cancellato
capiva
capodanno
cariati
casella
certezza
cetriolo
chiamai
chiamarla
cognati
cognato
commessi
composizione
comprerei
compreso
condividono
confondo
confuse
conoscenze
continuazione
correntemente
decollano
delfini
difendersi
dimentichiamo
dischi
discreto
disney
disneyland
disonesta
disturbare
disturbo
diverti
dotate
durato
emigrare
equatore
eretica
familiare
femminismo
filosofo
fortunatamente
frontiera
gabbia
garantire
gesticolato
giocattoli
gol
gregge
guanto
guardami
harry
ignorare
illuminato
imposta
imposte
incontrano
incontrate
incoraggio
indovino
ingrandito
innamorate
installare
intenzionalmente
interamente
interiore
istituto
lacci
lampadina
lasceranno
laureato
lavarmi
leggerebbe
liberato
lisa
lunari
macelleria
magari
marcel
medusa
meritano
missione
missioni
monete
nastro
natalizio
noti
nuoce
nuotano
oca
occupi
operaio
orfanotrofio
organizzare
origini
ostaggi
parlammo
passaporti
pennello
personali
pharamp
polacca
portami
poteri
potevamo
precedenti
prema
preoccupo
produrre
pulizie
registrato
rendero
riconobbi
ridare
rigirando
rimesso
ripulita
rischiare
risparmiera
rispondete
rivolga
romena
rubo
ruttato
salone
sbagliate
sbrighi
scenda
schiaccera
sci
sconfitto
scoppiata
sdraiato
segretario
seguimi
separate
servito
silvio
sinfonia
soddisfacente
soffrendo
sorge
sorprendentemente
sospettato
sovietica
spaventata
spaventati
spegne
spente
spiegazioni
sposarla
sposarlo
sposera
sposi
standard
stiate
strizzato
suggerimenti
sumo
svegliati
tangente
tazze
telefonica
tenera
tentato
terremoti
tessuto
testimonianza
tiranno
toccato
tori
tradusse
tremare
tristezza
ucciderti
umiliato
unire
valere
valigie
veda
ventesimo
vespa
vestiva
volessi
volpi
zamenhof
##data
##denza
##dita
##dra
##es
##ffe
##gava
##ggiano
##gnato
##llare
##ly
##mpa
##ntati
##nziata
##nzione
##otto
##pia
##pongono
##ppa
##ravo
##riamo
##ssia
##ttica
##ttico
##ttrice
##tuiti
##ty
##yama
##zionali
14
1988
200
2010
abituerai
accade
affidabili
agente
aiutava
algebra
allertato
alzai
alzarmi
ambasciatore
amera
amicizie
ammirato
ammisero
annuncio
apostoli
aprirmi
arrestata
arrestate
aspettarti
aspirina
assaggia
atleti
atmosferico
atomi
attacchi
avessero
azoto
bambole
bangladesh
beva
bis
britannici
butti
calendario
cantanti
capricorno
casino
caverne
cedere
cerchero
chiamavi
chiarito
cile
comico
commosso
comprano
compromesso
concentrato
confonde
connesse
consegue
consultato
contate
converti
copiano
copione
correggo
corsero
crea
crescera
crimini
cure
danzato
decimo
decisi
dedico
deluse
dentifricio
descrisse
detestano
disco
discoteca
divertiva
domestico
dorate
elemento
eletta
entrano
estinzione
estreme
etiope
fagioli
fastidiosi
fertile
fidanzamento
fidati
filippo
fissando
formare
formica
franklin
fuggite
fulmine
furia
giocate
giocavano
hitler
imperatore
impiegati
improvvisa
incolpato
infatti
informativa
james
justin
lancio
lascerai
libia
liceo
litigato
locali
mammifero
ministero
modesta
morsa
mosche
moschee
muoveva
mutare
nausee
nonche
nonne
occorre
onorata
pagando
panico
perdi
pesantemente
piccione
pilato
pollice
posseduto
praga
pranza
prepararsi
presentare
preside
prestarmi
proposte
proteggersi
pulci
raccontero
rappresentare
reali
ricardo
riconosci
ricordero
rimorso
rimpiangere
ringraziarvi
ripara
risposi
ritenuto
ritrovai
ritrovare
romane
rompipalle
ruba
rumeno
scherzi
scherzo
schiari
schiavo
seri
severa
sfide
sinceramente
single
sobria
soddisfatte
spagnola
sparo
spaventoso
sputato
stabile
staranno
staremo
suggerimento
suggerisco
suicido
sussurrato
tastiere
tatto
terrestre
terzi
tifone
tolti
topolino
torbide
tradita
tradizionale
tragitto
trasporta
trasportare
trasporti
trovassi
troveremo
tubercolosi
utente
varieta
versa
versare
vigili
villana
vitelli
vivevo
volerlo
yamada
zodiaco
##am
##cate
##coli
##der
##dico
##dina
##dine
##ebbe
##gione
##ica
##letto
##lio
##llato
##lti
##matico
##mette
##nava
##nese
##nismo
##nni
##nziale
##ori
##ose
##rte
##tali
##tate
##tente
##tina
##tudine
##uro
##vere
##vista
22
abbaiando
abbondante
accolti
accompagnarla
accompagneranno
acro
acuta
adorera
aggiunta
agricola
allarme
alternativa
ammalare
ammette
andre
ardere
arrestavano
asino
atlantico
attendete
avidi
avorio
avvento
avvertimento
bambu
batterie
battuti
bellissimo
biblioteche
biografia
bisbigliando
bloccati
bocciato
bottone
brilla
bruni
bustarella
calmi
cambi
campeggio
canale
capira
cassino
castro
centauri
chiamarono
chiederle
colibri
collana
college
cominciava
commentare
complimenti
comprenda
comprese
conduco
confessarlo
confortato
congela
connessa
conoscessi
consapevoli
conservo
considerano
consigliamo
consolato
consonanti
contemporaneamente
copiero
cornici
costretti
cova
credente
cresta
cugine
dame
dante
decina
defunta
destinata
dialetti
diritta
discriminazione
dispiaciuto
dispongono
disposte
diventava
dorata
dormira
dottoressa
dozzine
elezione
emerse
emisfero
esigo
estremita
fatiche
fidate
fide
figo
filippine
filosofica
firefox
frequentato
fumetti
gabriel
giornalisti
gonfia
gotta
governatore
gratuita
guaio
guidata
ignorano
illustra
impone
incapace
incontrarvi
incredibilmente
indiano
infiammato
informa
informati
ingiusto
insistito
insolito
intere
interessano
intriga
inventore
investigatori
iraq
italiane
kylie
laboratorio
laghi
laurie
leale
leggenda
lego
limoni
lin
link
lodata
lorenzo
loto
louis
maniere
mantello
massa
matte
matti
mattine
memorie
mentono
merli
merlo
mettiti
minacciata
mostrati
motori
naomi
nascondersi
nativi
negare
negativa
obbligati
orazioni
osservazione
pacifici
pagamenti
pandemia
parlata
partner
passasse
passatempo
passeranno
patatine
pauroso
pelando
perdero
pericolose
pessimo
pianura
pitturato
pizzicare
pony
positivi
possedeva
possiedo
preferiresti
prescritto
principiante
priorita
prodotta
profondi
promossa
pubblicare
pupazzo
raddoppiare
raso
realmente
reddito
rendendo
rendesse
resistere
retto
ricordarmi
ricorso
rimaste
rinunciato
riportato
riposarmi
riposi
rovinera
scelga
sciocchi
semestre
server
smettera
somiglia
sorride
soste
sottotitoli
sprecato
statue
strangolarlo
svantaggi
telefona
tenda
tenero
territori
tirano
tolga
tracce
tranquille
tronchi
trovarci
trovarsi
uffici
unirsi
urli
usava
vedrete
venditori
vestire
vicinanze
visitando
vivente
vollero
vorrebbero
white
##12
##amente
##atto
##cani
##derlo
##dira
##id
##ine
##ioni
##ivi
##lano
##lpa
##mentare
##mie
##minato
##nali
##naria
##navo
##ndosi
##nente
##nge
##nire
##nsi
##osi
##pito
##porre
##riche
##risce
##rite
##smi
##stan
##stiche
##tale
##tando
##uali
##uri
##usse
##ze
16
2011
28
abbandonai
abel
accelero
accendeva
accendino
accendo
accettiamo
accidenti
accolse
accolte
accompagnarvi
accompagnata
acconsentito
acido
acquisire
adriano
affila
affondo
affretta
agatha
aggiornato
aiutavano
aiuterete
allungata
ambulanza
ana
anguille
annoia
annoiata
applaudiva
approvato
araba
arbitro
architettura
ariete
arriviamo
ascia
asciutto
assonnati
astrologia
atteggiamento
austro
avventura
azzurra
bacchette
baci
ballano
basata
battezzato
berberi
berretto
bestemmia
bevevo
bollire
bonaparte
botto
bufera
calci
cambieranno
camminavano
campane
campionato
cantina
capaci
capitoli
capolavoro
cappa
carbonio
carica
casalinga
catalogo
ceni
centimetri
charles
chiamera
christie
circuito
clemente
colombe
comandare
comete
commossi
comperare
comportano
comprarmi
compreremo
compresa
conoscerla
consenso
considerata
considerati
consolo
contava
contengono
convincerlo
coraggiosa
corrispondono
country
creativa
crepa
culture
daranno
demmo
densa
depressione
deriso
desiderate
desideroso
dirotto
discussioni
disperse
distrutte
dollaro
dovemmo
economicamente
effettuato
ellen
entrava
eroi
esperta
espresse
europeo
fabbricato
fallimenti
faroe
ficcare
fidarci
finga
franchezza
generato
genero
giurare
gradito
guidati
guidera
hon
idolo
imbarazzante
imbarazzati
immensa
immigrazione
inchiostro
incolpo
incoraggiano
indipendenza
infantile
infastiditi
inferiore
iniziera
inserire
interne
intervallo
intima
ipocrisia
ipod
ipotesi
ispirazione
iulia
jeanne
killer
lamento
lascerebbe
lasciassi
leonessa
leoni
lilla
maligna
mamme
mancato
manchera
mangiavo
manovrare
marroni
maschile
maturi
medio
melanie
mennad
meritare
mettono
minogue
miseramente
mogli
moltitudine
nanna
nobel
notevole
oltremare
orazio
ordinare
pali
parlassi
parlerei
partecipo
partiva
patata
patti
perdessi
perfido
persegue
pesanti
pesare
pescatori
piacerti
piantina
piovve
poni
popolarita
portale
portarle
portiere
posarsi
postino
potter
povere
preferireste
preghi
preoccupazione
prestando
procedeva
promette
proporzione
provano
psichiatrico
punisce
rasi
razzismo
regolamento
relativamente
renderla
rendersi
restiamo
ricevuta
richard
richiamero
riempi
riflette
riguardavano
rilevare
rimarrai
riparata
ripieno
ritornasse
rivela
rivelo
salvate
salvia
sanguigna
sanguinosa
sapevamo
sbagliare
scaccia
scalzo
scaricato
scarpa
scegliete
scelgo
scenica
sciarpa
scientifico
sciocche
scivolata
scoiattoli
scorsi
scrittori
segrete
sensibilmente
sentiamo
senz
separati
sepolti
servira
serviti
sessuale
siepe
simpatica
simpatico
sognavo
soleva
sorta
sostanza
sostengo
sovrana
sparare
sperano
spina
sposano
stabilita
steccato
stetti
stufata
stufo
suv
svenuto
svizzero
tagli
tamburo
tappo
tardare
telefonero
tempera
tenerla
tenetevi
tifo
tolsero
tormentato
torneo
tovaglia
tradotta
trasforma
trattare
tremavano
tumulto
turbata
unite
urbano
userei
utilizziamo
veniamo
venivano
vergogno
visitano
visitera
volerle
xilofono
zie
##anno
##bra
##ccare
##cciata
##cciato
##ccioli
##cola
##colare
##dendo
##detto
##dor
##ducono
##fobia
##foni
##ggiava
##ise
##ismo
##lini
##mettono
##narmi
##narsi
##nce
##neremo
##nero
##netto
##nista
##nove
##ny
##oli
##osa
##pato
##revole
##rina
##rso
##scritto
##stato
##toso
##ttate
##ualmente
##une
##ver
##versi
##via
##volta
1000
1945
90
abbassa
abbattera
accendera
accettava
accetti
accoglienza
accogliera
acconsentire
accontentare
accoppato
acquario
acri
addormento
adolescente
adottare
affamava
affamera
afferra
aggiunge
aggiungete
aggiunsi
aggressivo
alessandria
alternative
amarla
ambidestro
americane
anda
andavo
annoio
anselmo
antenati
antidoto
apertamente
appari
appendeva
appiglio
appresa
apprezzerei
appuntamenti
arcivescovo
argomentare
arrestati
arrivasse
asiatici
assalita
assicuratevi
assicurati
assolvo
astronauta
aumenta
avviene
bacia
barbari
barbiere
basilico
bastardi
benda
bevesse
beveva
bieber
borgo
bug
cadrai
caduti
caino
cambiero
canaglia
cancella
cantero
cappelli
caratteristica
cartoline
casco
catalogna
cauti
cervice
cesar
cessato
chiacchierare
chiedera
chiesta
chilo
cigno
cigola
ciliegio
citazioni
cleopatra
clitoride
coccodrillo
coltivo
coltre
comandi
comincero
commettesse
commise
comoda
comportarsi
compreranno
compressa
comuni
concentrarsi
confidare
confonda
conoscerete
conserva
controllata
corone
corregga
corremmo
cortesi
cotte
credettero
cresca
dadi
danese
danne
dannosa
dean
declina
delitto
delizia
deposizione
derrate
descritto
descriva
desista
detti
diate
dicevi
dick
differentemente
dimentichera
dinosauri
dipendenza
discuterne
disputa
distratte
disturbi
dittatura
divorarlo
dolorose
dolorosi
domandare
dovevate
dovrete
du
durezza
ego
entrasse
episodio
equipaggio
eredita
eretta
eseguita
esitazione
esservi
etico
falle
fascino
fastidio
federico
fermammo
fiacco
ficco
filosofici
fingere
fiorisce
fisicamente
fittizio
focaccia
fondatore
fontane
formali
fortezze
frastorna
frastornera
frequentemente
frigoriferi
fuggiti
funerali
galla
gaza
gene
gerusalemme
getti
giochero
gora
grandine
grattarmi
graziosa
gru
guadagnera
guardaroba
guarire
haiti
hollywood
imbiancava
impazienti
impediva
incarcerato
incluso
indica
indicazioni
industriale
infastidire
infastidito
infine
infiniti
ingannati
ingegnere
ingrassare
inizialmente
insegnano
insegnavate
insultava
intendere
interpretata
invidiosa
iphone
iv
kazakistan
km
lamentarmi
lampada
lascivo
lavoravo
lealta
letargo
lina
liscia
lite
macchie
mandera
mangeranno
mangiarne
mantiene
marcite
margherite
marine
materasso
mediterraneo
mendicante
meridionale
meschini
metterei
metteremo
milan
milionario
minaccio
mischia
misfatti
mobilio
molecola
monaca
monastero
monroe
montanaro
moralmente
mostrata
muoiono
musulmana
mutui
narita
negligente
nocivo
nodi
notturna
novanta
odiate
offerti
olocausto
ordigno
orecchio
organismo
orsa
ossessione
oxford
padova
palmi
palpebre
parcheggiata
parlarono
parlavamo
parteciparono
partono
parzialmente
passe
pattinare
pentola
perdesse
perdoniamo
permettono
piaciute
piero
pila
pina
pompeo
posi
poso
preferiamo
pregano
premere
premi
presentarti
presuntuoso
privi
privilegi
procuro
profani
professor
promettermi
propriamente
proprietari
prosciutto
prossime
protetto
proverai
province
puliva
puntura
quantistica
quod
rapide
rappresentano
residenza
richieste
riconoscete
rido
rimise
ringhia
ringiovaniva
rinunciare
riposarsi
riprendendo
risparmiando
ritira
ritrovi
rob
roso
routine
sally
salmoni
sanguinera
santissima
scarse
scettica
schiacciava
sciocco
scoperti
scoraggiava
segnare
seguiti
selezione
selvagge
semi
seni
seppellite
sfidi
sfinge
sicilia
significava
smarriti
soffiando
soffio
soia
solco
sollevato
soluzioni
somme
sopravvissuto
souvenir
spago
specchiarsi
specialmente
spedita
spontanea
sposeranno
stenda
sterco
stracci
strappato
strategia
stringo
strinsi
striscia
successivamente
sudamerica
sufficienza
tabella
tana
tartaruga
tatami
taverna
temporale
tendeva
tenerlo
tennero
testardo
tinse
tirando
tirati
togliersi
tradizioni
tradotte
traduca
trascorsa
trascorsi
trattata
trattenere
trattero
traversa
trecce
trepidazione
twilight
uccidersi
umidi
universitaria
uragano
urtare
usarla
usciamo
utilizzano
vampiro
vedevo
vedovo
vernaut
veronica
verrete
vespe
vinte
virgola
visivo
viventi
volgere
volgersi
vuote
##14
##99
##al
##almente
##anti
##ay
##bico
##cale
##ccata
##ccate
##centi
##cia
##ciso
##cluse
##dite
##diva
##dy
##elo
##fe
##fficiente
##ffo
##fici
##gati
##gawa
##ghe
##grafico
##isce
##lismo
##lito
##lizzato
##luto
##mene
##metto
##mico
##ming
##molo
##namento
##nd
##nes
##niche
##pio
##ppo
##rca
##rebbero
##rendo
##rgo
##rs
##sato
##schi
##ser
##sera
##shima
##stante
##ster
##stito
##tivamente
##trici
##ttrici
##uggire
##usi
##vare
##ville
##viti
##zionato
00
60
abete
abituera
abituerete
accesero
accolta
accompagnava
accompagni
accorgo
acute
adatta
addormentate
affronti
agenzia
aggiornare
aggrava
agguato
agra
ahime
aiutiamo
akira
alleluia
allenti
alzarti
ambra
amerei
ammiraglio
andresti
andy
angusto
animi
anne
annegato
anniversario
ante
apparecchi
appassionato
appesi
approfittare
approvarla
apriranno
aquino
arato
arcano
arcobaleno
arezzo
arrabbio
asciutta
ascoltai
ascoltarli
ascoltera
ascoltiamo
ascoltiate
aspettative
aspri
assassinato
assicurare
assicurarmi
assicurata
assonnato
atterrando
aumentato
autentico
avanzando
avari
baco
balliamo
bancario
banche
bandiere
basilica
battaglie
battendo
battero
beffa
belo
biasimo
bistecca
borsetta
bronchi
brusca
cacciata
cada
cadeva
calcando
camionista
cappuccio
carboni
cardinale
cardini
carnale
castita
casto
causare
cause
cavalcato
cenando
cercati
chinai
chioccia
cinghia
cintola
ciocca
civile
colombi
colsi
coltivare
commessa
comparata
competenza
compriamo
concedo
concesse
concorda
congiunti
conoscesse
conosceste
conoscesti
conservatori
consigliere
consolando
consumatori
contemplare
contenute
continuava
contratti
corregge
correrebbe
corresse
corrotta
costellazione
costose
costrinse
crasso
croci
crollando
cucciolo
cul
curi
damiano
dedalo
definizione
delira
denunciare
descrive
descrizione
desti
determinazione
devotamente
dibattendo
diciassette
difenda
digitali
dilettava
dipendenti
dipinte
dirama
discendeva
discendiamo
discordanti
discordia
dispensare
dissolve
distinta
distratto
diurno
divenisse
dividendo
dobiamo
doppi
dormiro
dormisse
elettronica
epicuro
eppure
eretici
errando
erri
esaminare
esere
essenzialmente
euclide
evita
fagli
faglia
falde
falliti
fatene
faticoso
fatture
fermandosi
festeggiare
fetta
fiamminghi
fidarmi
finali
finite
firma
flauto
fogna
folti
forata
force
fritte
fucile
fugga
fuggiva
fumate
funzionava
galassie
galizia
ganimede
gara
garda
gelate
generate
genovese
genovesi
gesta
gestione
ghiacciati
ghiande
giovanile
giovi
girati
giubileo
giunsi
giuntura
godo
gorgo
gradire
gridi
guardaci
guardarono
guardasse
guardassi
guidai
haiku
helsinki
ichiro
ignori
illusioni
imbattuto
impallidi
imparate
impedimento
impedisce
impetuosa
impetuoso
impresso
incerti
incomprensione
incontrarci
incontrarti
indonesia
indossi
indugia
infangato
infastidite
infedele
infermi
infezione
infiammo
informatica
inginocchiato
iniziero
inondazione
inquietante
insegnera
insensata
insetto
insultato
inversa
investito
invidi
isolata
isoletta
jeff
jersey
laccio
lacuna
ladrone
ladroni
lasciarmi
laude
laura
lavar
laveranno
leadership
lealmente
lecca
lecchi
legare
limitata
linci
lituano
lussemburgo
maiolica
malamente
malanno
mammiferi
mancavo
mangiarono
manifestazione
margherita
marshmallow
massachusetts
materno
meritarmi
mero
mettemmo
minimamente
mischio
morali
morirai
mossero
mostrassi
motivazione
munge
muovervi
musicali
nasca
nascente
nebulosa
negate
nemiche
nobilita
nondimeno
notevolmente
nuca
nuvoletta
occasioni
occhiaie
occupero
odierno
orribilmente
osava
ospedali
ospitalita
ottima
ottusi
pacchetto
palermo
papi
parabrezza
paria
partii
passeggiate
passeggiava
paterno
pellicano
pennelli
pensaci
perdette
perdute
pere
perfida
perire
persero
perverse
pettini
piane
picchiava
piegava
pierre
ping
piombato
plauto
polenta
politiche
polveroso
ponete
pong
ponga
pop
popcorn
portasse
portati
posasse
potrete
pozza
predicazione
preservativo
proceda
produsse
profeti
profilo
promettere
promisero
puerto
quadranti
quotidiana
quotidiano
rape
rappresentante
rassegna
ravviva
razionale
realizzazione
recate
reggi
reggia
regolare
reparto
respiri
respiro
richiama
richiamarti
riconoscendo
riconosciuta
riduci
rifiutata
riguardati
rimanesse
rimbombo
rimessa
rimuova
ripensa
ripensi
ripetuto
riposando
riscaldata
riserva
ristretti
ritroso
ritrovarti
rivedrai
riversata
riverso
rivesta
rivide
rividi
rivolgiti
rombo
romney
rossore
rotelle
rupe
ruppi
sacchetti
saldi
saltella
salutai
salvarsi
sam
samuel
sapori
sappiate
scaglie
scarico
schiavitu
scipione
scommettendo
sconfiggere
scontrati
scontrava
scoppiava
scorgere
scorse
scozzese
scriba
scrivono
scuotersi
scusera
sdegnoso
sedi
sedusse
seguo
seminario
sentirei
sepolte
serrare
servirlo
sforzava
sieda
sigaro
smarri
snella
social
soffi
soffiata
soffrono
sommersa
sonnolento
sorrida
sorridere
sorti
sostengono
sostiene
sostieni
sovrani
spanna
spariti
sparse
sparso
specializzato
spergiuro
speri
spezzate
spicca
spicchi
spietate
spietato
spinaci
sponde
sporse
sposero
sputa
stallone
starmi
statuto
sterna
stimolo
stolto
storpiato
stringa
stupendo
supplica
sussistenza
svenne
sventura
taccio
tacco
takahashi
tan
televisivo
tempia
terso
tese
tesori
toccando
togliendo
tornavano
torso
torturata
toscano
traina
transito
trasparenti
trasparenza
travi
trentino
troncone
tui
tuona
ufo
universitario
unti
urgenza
urlo
uscissi
utilizzati
valli
valori
vendemmia
vendessi
venirvi
venissero
veranda
versailles
vetta
vibra
vietare
villaggi
vincesse
viole
violento
vivamente
vivande
yuan
##abile
##atore
##berg
##bia
##bica
##bri
##cavo
##cce
##cchio
##cherete
##ciamo
##ciare
##cino
##clusa
##colla
##colo
##cro
##dicesimo
##entale
##ese
##et
##ferendo
##ft
##genti
##ger
##ggibile
##ghero
##gliare
##hi
##iava
##iche
##ii
##ji
##leto
##letta
##llino
##lse
##minata
##nabile
##nazioni
##ngare
##per
##pinse
##posti
##quisizione
##ravano
##rdato
##reggiare
##rge
##rivo
##sche
##sei
##shi
##sia
##stia
##stibile
##strazione
##tante
##tiamo
##ttero
##ttore
##turo
##uncia
##unto
##use
##veglio
##versa
##viare
##viglia
##ziato
##zzarono
##zzazioni
1980
ab
abaglia
abaiera
abandonar
abandonarmi
abandonata
abandono
abattera
abattero
abatti
abattuto
abbagli
abbagliato
abbandonar
abbandonava
abbarbaglio
abbarbicata
abbassi
abbella
abbelliva
abbellivan
abbian
abbica
abbigliamento
abbo
abborra
abborri
abbracce
abbracciare
abbracciarmi
abbracciol
abbracciommi
abbreviato
abbruscia
abbrusciato
abbui
abbuia
abeliscie
abellendo
abellia
abellis
abiate
abido
abitator
abitavo
aborre
aborto
abraam
abracci
absalone
acan
accadere
accadra
accaffi
accampa
accapriccia
accarno
accascia
accatta
acceffa
accennava
accenne
accennolle
accenti
accerta
accertar
accertarsi
accettano
accidia
accidioso
accisma
accline
acco
accocchi
accoglia
accogliea
accoglienze
accoglitor
accolsero
accompagne
acconcera
accoppia
accoppio
accorciavan
accordiamo
accorgete
accorgimenti
accorgimento
accoro
accorso
accoscia
accostarsi
accostati
accrebbe
accrescera
accumulando
accusai
accusiam
achitofel
aciende
acierbo
acietato
acomandata
acomandato
acomandoe
acone
aconpagna
aconpiermi
aconsenta
aconsentente
acontanze
acontar
acora
acorando
acordamento
acordaro
acordasse
acordo
acorgimento
acorta
acquacheta
acquasparta
acquatta
acquetava
acquistan
acquistando
acquistavan
acra
acrocando
acutamente
adage
adagia
adamante
adato
addemmo
addentar
addento
addimando
additandomi
addite
addito
addivenne
addivien
addobbi
addolcia
addolcisce
addornamento
addornarmi
addossandosi
addotto
addrizzaro
addua
adduce
addur
addusse
adea
adempia
adempie
adempiera
adempion
adenti
aderse
adesa
adeschi
adhaesit
adietro
adirar
adirizata
adiro
adizzo
adocchi
adocchiato
adolzito
adombra
adontata
adopera
adoppiare
adopra
adovra
adrizai
adunar
adunate
adunati
aduni
aduno
ae
aegypto
aequar
afanno
afenda
afese
afetata
affannate
affaticarne
affaticava
affatico
affattura
affermar
affibbia
affige
affiguro
affilava
affilera
affisar
affisser
affliggono
affocate
affollar
affonde
affranse
affranto
affreno
affricano
affuoca
afideromi
afinare
afogava
afretta
afrizione
ag
agapito
agatone
agevole
agevolemente
agevolero
agevolezze
aggelava
agghiaccia
aggirammo
aggirata
aggiugnieno
aggiungero
aggiusta
aggrada
aggrappossi
aggrata
aggrati
aggravava
aggressiva
aggroppata
aggroppate
agguagli
agguagliar
agguati
aggueffa
aghuglia
agian
agl
aglauro
agniol
agno
agnus
agobbio
agosta
agrada
agresta
agro
agrume
aguglier
aguglion
agurarsi
agusta
aguti
aguzzavan
aguzzeranno
aguzzo
aitare
aiuol
aiutan
aiutaro
aiutorio
alabastro
alagia
alardo
albergan
alberichi
alberigo
albori
alcide
alcolici
aldobrandesco
aldobrandi
alena
aleppe
alessio
aletto
alichin
alichino
allaga
alleggiar
allegiasse
allegiata
allegrai
allegrammo
allegrezze
alleluiando
allemi
allentava
allento
alletta
allette
allevata
allevio
allodetta
alloro
allumati
alluminar
alluminasti
allumo
allungar
almeon
almeone
alo
alose
alpestre
altaforte
altera
alterazione
alternando
altero
altezze
altrementi
altresi
altressi
aluminava
alunga
alvo
alzar
am
amassero
amasti
ambage
ambrosia
amecche
amendare
amendarlo
amendata
amendato
amforismi
amiclate
amista
amistade
amistate
ammaestrato
ammalera
ammalia
ammalo
ammanta
ammanto
ammassiccia
amme
ammendava
ammenta
ammentassi
ammicca
ammiragli
ammiraron
ammirata
ammoglia
ammoniaca
ammonir
ammorta
ammusa
ammuta
amomo
amonesta
amoniera
amonizione
amostra
analizzo
anania
anassagora
anastagi
anastasio
anbascieria
anbassi
anbo
anchor
ancida
ancide
ancider
ancidera
anciderammi
ancilla
ancisa
ancolai
ancole
ancore
andaron
andarvi
andasser
andavar
andera
anderem
anderemo
andi
andiam
andian
andianci
andovvi
andrei
androe
ane
anegasse
anelo
anfanti
anfiarao
anfione
anfisibena
angeliche
anghoscia
angiolello
angoli
angosciate
angosciosa
angoscioso
angue
anguinaia
anibal
anibale
animai
animose
anitra
annegava
annera
annerava
annieghi
annoda
annoverar
annual
annunziatrice
annunziava
ansando
anselmuccio
antandro
antecessor
antecristo
antelucani
antenora
antenori
anterior
anticamente
antifonte
antigone
antivedere
antivedesse
antomata
anzian
aoi
aolente
aombra
apacificava
aparechia
aparechio
aparenza
apartenenza
apasse
apicco
apo
aporta
aportai
aportalla
aportare
aporti
appaghe
appago
apparecchia
apparecchian
apparechiando
apparinno
apparisce
apparivan
apparo
apparvero
appasta
appellar
appellava
appetibili
appiani
appiatto
appicca
appon
appone
apporterai
apposto
apprender
apprendi
apprendo
apprensiva
appresenti
appresento
appreser
appressai
appressano
appressarne
appressaro
appressarsi
appressavamo
appressavan
appresta
approbo
appropinquava
appulcro
appuntano
appuzza
apregiasse
aprender
aprese
apressando
apressimando
apresso
apressoche
apria
aprimi
aprio
aprissi
apristi
aprossimare
aquario
aquella
aquista
aquistar
aquisto
aragona
arata
arbia
arbor
arbore
arcanamente
arcangeli
archian
archiano
archiera
archimandrita
arcioni
ardendo
arderebe
ardesser
ardinghi
ardir
ardirei
arditeza
ardiva
arenda
arene
aresto
aretini
aretusa
arezo
argenti
arghus
argia
argogliosi
argolica
argomentar
argomentin
arguto
arida
aringo
aristotile
aritropia
arivato
arivera
arli
armar
armarsi
armasse
armento
armonizzando
arnaut
arnie
aronta
arr
arrabia
arrampicarsi
arredi
arrendersi
arrestai
arrestaron
arrestasse
arrestin
arretri
arricciar
arridi
arrigucci
arrio
arrisemi
arrossan
arrosso
arrostarsi
arruncigliarmi
arrunciglio
artezza
articular
artigliar
artimon
artu
arzana
asa
asaggia
asagi
asagia
asai
asalgha
asalire
asalita
asalto
asbergo
ascende
ascesi
ascholterai
ascian
asciutte
asciutti
asconde
asconder
ascondo
ascoso
asdente
asealzare
asente
asetti
asicura
asiglio
asisa
asociale
asopo
asottigliamo
asottiglio
asperges
aspersion
aspiri
assaliranno
assalire
assalisse
assaliti
assanna
assanni
assanno
asseggia
assegniar
assempra
assenno
assenpri
assentio
assentir
assentirei
assenzo
assesino
assessin
assetate
assettai
assiepa
assiri
assiser
assolver
assomigliarsi
assonnar
assonnaro
assottiglio
assuero
assumma
astalla
asticciuole
astinanze
astio
astor
astro
astronomi
atamante
atanto
atar
atarda
atare
atarli
atarmi
atende
atendera
atendi
atenpata
aterata
aterminatori
aterrato
atesa
atiopia
atire
atorna
atorto
atracto
atrare
atre
atropos
attacci
atte
atteggiata
attempo
attenderemo
attendo
attene
atterga
atterri
attesersi
attinghe
attorse
attorti
attosca
attratta
attraversati
attristiam
attuffa
attuffata
attuffo
attuia
attuta
audivi
augei
augel
augelletti
augelletto
augello
augure
augustino
aulia
aulide
auliva
auna
aunasse
ausonia
automatica
autoritadi
autostima
avacci
avaccia
avacciar
avacciava
avanpar
avanpava
avantaggio
avantagio
avanzerai
aveder
avedesse
avega
avegi
avelli
avello
avelse
aven
avendogli
avendomi
avenir
avenne
aventino
avenuto
averei
averl
averois
aversi
avese
avess
avia
avicenna
aviluppando
aviluppato
avisa
avisare
avisato
avisione
avocato
avolo
avolterate
avoltero
avran
avre
avren
avute
avvalli
avvalliamo
avvalora
avvalorava
avvampa
avvampo
avvantaggia
avvantaggio
avvedrai
avvenia
avventa
avventarsi
avvertire
avvide
avvinghia
avvinghiai
avvinsi
avvinte
avvinto
avvisai
avvisando
avvisava
avviticchio
avvivan
avvivava
avvolge
aziende
azzo
azzolino
babillon
bacchiglione
baccialier
bach
baciata
badessa
badi
badia
bado
baffi
bagnacaval
bagnata
bagnavan
bagniando
bagniata
bagniava
bagnoregio
baiulo
balasso
balba
balco
balcone
balda
balestrando
ballia
bandera
bara
baratata
baratro
barattar
barattati
barattato
baratterie
baratti
barattiere
barbacani
barbare
barbarossa
barbuto
barga
bari
baronessa
baroni
barucci
bascia
basciai
basciando
basciarsi
basciase
basciavansi
bascierai
basciommi
basi
bassamento
bassando
bassissimo
bastavasi
basterna
bastisi
bastiti
baston
batisteo
battea
battendosi
battezzar
battezzati
battezzatori
battien
battiensi
bava
bboscagi
bea
beatitudo
beccaio
beccheria
becchetto
beda
bee
beffata
belacqua
bele
belisar
belissim
bellacoglienz
belletta
bellincion
bellincione
bellissimi
belzebu
benedicendomi
benedicta
benedicti
benedictus
benevento
benignamente
benignita
benivento
benvolere
bergamaschi
beringhiere
bernardin
bernardone
berta
berti
bertram
berzaglio
berze
bestemmian
bestemmiando
bestemmiava
bestemmiavano
bestiali
bestialitade
bestialitate
bestiame
betlemme
bevesti
biacca
biancheggia
biancheggiar
biancheggiare
biancheggiava
bianchetto
biancovestito
biasimava
biasmato
biasmerebbe
biche
biechi
bieci
bieco
bifolco
biforme
biga
bige
bighino
bigi
bigio
bigoncia
biltate
binato
bindi
bisava
bisavol
bisbigliato
biscazza
bisce
bisenzo
bisessuale
bismantova
bisognasse
bistorna
bivero
blanda
blande
blandimenti
blasmando
blasmarla
bleza
bloccate
bobolce
bocie
boemme
boglienti
bolge
bolino
bollia
bolliti
bollori
bolognesi
bolsena
bonaccia
bonatti
bonaventura
bonconte
bonturo
bordelai
borea
borgesi
bornio
borsiere
boscho
bostichi
botoli
bozzacchioni
bozze
brabante
braco
brage
bragia
brago
bramosa
bramosi
brancolar
branda
brandizio
brandoni
brasiliana
brenno
brescia
bresciani
bretinoro
brievi
brigavam
brisso
broccia
brocciare
broda
broglia
brollo
brolo
brulla
brullo
brune
brusciato
bruti
buccolici
buggea
buglia
bulla
bullira
buondelmonte
buondelmonti
buonuon
burchi
burli
buscolino
cacciagione
cacciaguida
caccianemico
caccianli
cacciator
caccionne
caco
cadi
caditoie
cadmo
cadran
caduci
caendo
caffetteria
caggendo
caggion
caggiono
cagia
cagiona
cagioni
cagnan
cagnazzi
cain
cal
calaroga
calavrese
calboli
calcagni
calcai
calcanta
calcar
calcato
caldaia
cale
calea
calendi
calesse
calfucci
caliga
caligine
caliope
calisto
callaia
callo
calonaco
calse
calure
calzata
camamilla
cambiar
cambiaro
cambiassersi
caminando
camini
caminiera
camiscia
camiscion
cammelli
cammine
camo
camonica
campagnatico
campaldino
campasse
campion
canavese
canbiar
canbiare
canbiasse
candelabri
candellier
candente
candida
candori
cangera
cangerebbe
cangi
cangiandosi
cangiar
canicular
caninamente
canne
cannucce
canoscenza
cansar
cansarsi
cantan
cantaron
cantasti
cantate
cante
cantere
canterebbe
cantica
cantilena
canzon
caorsa
caorsini
caosso
capaneo
capea
capezal
capezale
caponsacco
cappelletti
cappia
capponi
cappucci
capraia
caprona
car
carati
carbon
carcava
carche
carello
carentana
carenze
carettiere
careza
caribo
cariddi
carisenda
caritevoli
carizia
carlin
carnali
carnalmente
carnaro
carol
carpando
carpigna
carpir
carpon
carpone
carrarese
carreggiar
casal
casalodi
cascando
cascaron
caschero
casentin
casentino
casolari
cassero
cassi
caste
castellan
castore
castrocaro
casual
catalan
catalognia
catellini
catenella
catolico
caton
catona
catria
catto
catun
cavalca
cavalchi
cavalleria
caviale
cavretti
ceca
cecilio
cecina
cefas
celai
celano
celarlo
celasi
celato
cele
celera
celestiali
celorum
cencri
cenit
cennamella
centesma
ceperan
ceppo
ceraste
cercasse
cercavamo
cercavo
cerchiando
cerchiaro
cerchie
cerchietti
cerna
cero
cerro
certaldo
cervel
cervia
cetra
chade
chaldo
chale
chantera
charte
chasso
chastelli
chastello
check
chegala
cheggia
cheggioti
chelidri
chella
chennoi
chent
chente
chera
cherco
chercuti
chere
cherendo
chericia
chericiello
cherico
cherubi
cherubica
cherubini
chessie
chett
chiaman
chiamaro
chiamaste
chiame
chiana
chiar
chiareza
chiarir
chiarirti
chiarissima
chiarita
chiascheduno
chiassi
chiavar
chiavasse
chiavata
chiaveri
chiavicella
chiedente
chiedesti
chiedro
chilli
chimico
chin
chinail
chinando
chinandomi
chinare
chinarsi
chinate
chinava
chinavan
chinavi
chiocce
chiosa
chiosar
chiosarlo
chiose
chioso
chiovi
chitamente
chitarli
chitata
chiti
chito
chiudessi
chiudon
chiuser
cholui
chugina
chuor
cianberiera
ciance
cianfa
cianghella
ciappetta
ciascheun
ciaschuna
ciaschuno
cibera
ciceron
cicierone
cicilian
cicognin
ciecierono
cielando
cielante
cielata
cieldauro
cieleria
ciella
cientomilia
cierchiamo
ciertanamente
cignersi
cignesi
cigolar
cilestro
ciliccio
cimabue
cincinnato
cinger
cingon
cinquecent
cinquecentesimo
cinquemilia
cinsela
cinte
cinti
cinturetta
ciocchi
cionca
ciotto
cipri
ciprigna
circonde
circulata
circulava
circulazion
circumcinto
circunferenze
circunfulse
circunspetta
circunstanti
ciro
cirra
cirro
citare
citarista
citerea
ciuffetto
civi
civire
clarinetto
claritate
claustro
clavi
clementiae
clemenza
cleopatras
cleto
climene
clio
clivo
cloaca
cloto
clugni
coagulando
coarta
cobrire
cocea
cocenti
cocha
cocolle
coculla
coderon
cogitazion
coglienza
coglierai
cognazione
cogniobor
cognosco
colchi
colco
colegio
colletta
colloca
cologna
colonbiere
colorare
colorava
colte
colubro
comandaro
comandato
combatteo
combattesse
comento
comincerebber
comincian
cominciansi
cominciaro
cominciaron
cominciarsi
cominciommi
commendai
commendan
commensurar
commesse
commisa
commota
commove
comodo
compage
compartendo
compartir
compassion
compatire
compense
compiacemmi
compiacermi
compiange
compianto
compier
compiesi
compila
complession
complesso
comportato
comporte
comunista
conca
conceda
concederebbe
concedi
concepera
concette
conchiusa
conchiuse
conchiuso
conciando
concieduto
concio
concipio
concluso
concolori
concordi
concorsi
concreata
concreato
concubina
condescende
condiziona
condizionate
condoleami
conducemi
conducerlo
conducessi
conduchi
conduci
conduciersi
conducitrice
condur
condurl
condussi
confaccia
conface
conferenze
conferisce
confessar
confitto
conflati
conforma
conformate
conformato
conformi
confortai
confortando
confortare
confortaro
confortava
conforte
confusamente
confusion
congaudete
congio
congiugnersi
congiungi
congiunte
congiurato
congratulando
congresso
coniavi
coniglietti
conobbemi
conobber
conocchia
conoscea
conosceranno
conoscerebbe
conosceresti
conoschi
conoscie
conosciea
conoscienza
conosciesse
conoscitor
conosiente
conpagna
conpagnione
conpagnioni
conpare
conpasata
conperare
conpita
conpressione
conquiso
conseco
consecrato
consegnato
consentevi
consentir
consequenza
conserte
conservar
considerar
consigl
consigliar
consigliare
consiros
consistorio
consolalla
consolar
consolaste
consolata
consonava
consorto
consorzio
consperso
constare
consumai
consumar
consunse
consunsi
consunta
consuona
contamente
contar
contarla
contastare
contasto
conteco
contemplante
contemplanti
contemplar
contemplativi
contende
contendere
contendo
contenea
contenerlo
contenesse
contentato
contentava
contese
conteza
contieni
contigiate
continga
contingente
contingenti
contingenza
continuar
contrade
contradire
contradizion
contradizione
contrapasso
contrapesando
contraposto
contrata
contratta
contribuenti
contrista
contristati
contumacia
convegnono
convenenza
convenenzare
convenette
convera
converrassi
converrebbe
converria
conversi
conversion
convertian
convio
convolto
coperchia
copersi
copiera
copierai
copierete
coppo
copri
coprir
coprisse
copro
coragioso
corata
corca
cordigliero
coreana
coregia
corendo
corere
cori
corni
cornuta
cornute
cornuti
coronarmi
coronata
coronato
coronava
corono
corporai
corravam
correan
correda
corredato
corregger
correvan
corridor
corrien
corruttibile
corruzion
corsar
corser
corsier
corsiere
cortes
cortesegiato
corusco
cosenza
cosperso
cossi
costasse
costellati
costellazion
costrigner
costu
costumati
cotenna
cotidiana
cotone
cotti
coverti
covriciefo
covricieri
cowboy
cozzaro
cozzi
crastino
creasse
creasti
creator
crebra
credendolo
credendomi
credenze
crederci
crederei
credes
credett
credon
credute
crepata
crescente
crescerann
cresciemi
crese
crespa
creta
creti
creusa
criate
cricchi
crine
crinello
crisostomo
criticato
croia
crolla
crollarsi
crolli
crollonne
croscia
croste
crucciar
crucciare
cruccio
cruciata
cucinato
cucini
cune
cunizza
cunta
cuoci
cuoia
cuoprar
cuopron
cupe
cupi
cupide
cupidita
curan
curar
curasse
curio
curradino
curro
curule
cusce
custodi
cuticagna
dalfini
dalmi
dami
damigielle
dammiata
dannaggio
dannando
danneggiata
dannera
dannose
danoia
danubio
dape
dapoi
dardo
darne
darotti
dartene
dat
dattero
davami
dear
debbia
debilemente
debitamente
decenne
deci
decimas
declivo
decollare
decreta
decretali
decurio
deduca
deduce
deducendo
dedutta
dedutto
defettivo
definitiva
degia
degian
degio
degl
degnamente
degnasti
degnia
degniaste
deianira
deifile
deiforme
deita
deitade
delectasti
delfica
delia
deliberarti
delinque
deliro
delizie
delo
delubro
deman
democrito
demofoonte
denan
denar
densi
deon
depende
derelitta
derelitti
derisa
derivo
descripto
descriver
desiderai
desiderasse
desiderosi
desinore
despetto
desso
dessono
destri
detruso
deturpa
deum
devisar
devisate
devisati
devote
diamanti
diascoride
dibarba
dibattero
dibattuta
dicagli
diceami
dicend
dicendomi
dicerei
dicerolti
dicete
dicevan
dichiarar
dichiararti
dichiareranti
dichiarisse
diciea
diciean
dicieano
dicier
dicieria
diecie
diedemi
dienne
dieno
dierno
diessa
diessi
difamarlo
difamaste
difami
difendea
difender
difensa
difensioni
difettivi
differendo
dighisamenti
digiun
digiuni
digiunto
dignitade
dignitadi
dignitate
dignitosa
digradar
digressi
digression
digrigna
digrignan
digrignar
digroppa
dii
dilacco
dilaceraro
dilatarsi
dilatata
dilatate
dilci
dilegua
dileguan
dilegue
dileguo
dilemma
dilettando
dilettanze
dilettarne
dilettoso
dilibra
diligite
dilmi
dilunga
dimagra
dimagre
dimandarla
dimandarne
dimandaro
dimandarvi
dimandasti
dimandati
dimane
dimenata
dimenian
dimessa
dimino
dimonio
dimorando
dimorante
dimorasse
dimorato
dimore
dimori
dimorra
dimostrami
dimostran
dimostrazion
dimostrommi
dindi
dinosauro
diogenes
diomede
diparta
diparti
dipartilla
dipartille
dipartir
dipartirci
dipartire
dipartirei
dipartirsi
dipartita
dipartiti
dipela
dipelato
dipinghe
dipingon
dipinsi
diporta
diporto
dipuose
dirada
diradar
dirallami
diranno
diren
diretani
diretata
diretri
dirglielo
dirimendo
diritte
dirli
diroccia
diroe
dirompea
dirubata
disagguaglianza
disagia
disami
disanimato
disasconda
disaventura
disavorato
disbramarsi
disbrigo
discacciata
discarcate
discarchi
discarno
disceda
discendea
discender
discendesi
discendiam
discendo
discendon
discerner
discernesi
discernesse
discernessi
disceser
discesero
discetti
dischiava
dischiomi
dischiude
disciepoli
discindi
discioglie
disciogliero
disciolse
discipline
discolora
discolpi
disconforto
disconvenevole
disconvien
discoperse
discoperta
discorda
discorde
discorre
discorrer
discoverse
discovrir
discrezioni
discriver
discuopre
discute
discutiamo
disdegna
disdetti
disdotto
disegli
disegnerei
disele
diser
diserrando
diserrare
diserri
disertato
diseta
disfaccia
disfama
disfanno
disfatta
disfatti
disfavillo
disfecemi
disfidaglia
disfidi
disfiorando
disfoga
disfranca
disfrenata
disgiunte
disgrievi
disia
disiante
disiassimo
disiata
disiati
disiato
disiava
disiderate
disideroso
disigilla
disigli
disioso
dislaga
dislealtate
dislega
disleghe
disleghi
dislego
dismaga
dismaglie
dismago
dismala
dismento
dismontiam
disnebbiar
disnoda
disnodi
disobediendo
disoccupati
disonna
disopra
dispario
disparito
disparmente
dispegniata
dispendea
dispenduto
dispense
disperar
disperebbe
dispergesse
dispersi
dispett
dispetti
dispettosa
dispezata
dispiacienti
dispiacque
dispicchi
dispieghi
dispietati
dispitto
dispittose
dispogliando
dispogliata
dispogliato
disposando
disposat
disposo
dispregiare
disserle
dissilo
dissimile
dissipa
distar
distava
distavan
distendi
distesi
distillo
distingua
distinguerla
distorta
distorti
distrettamente
distrezza
distribuendo
distributa
distributo
distruggitor
disturbate
disuna
disusa
disvele
disvelta
disvestito
disviando
disviate
disviato
disviluppato
disviluppe
disviticchia
disvuol
dit
ditel
diteli
ditene
diti
dittator
ditutto
divalli
divella
divelse
divenendo
divenisser
divenivan
divenn
divenner
diventaro
diventaron
divenuti
diverrebbe
diversitade
divien
divima
divinatori
divisando
diviserei
division
divo
divorando
divorasse
divotamente
divozione
doagio
dobian
dogliendomi
dogliosa
dogliose
dogliosi
doglioso
dolcin
dolend
doler
dolere
dolermi
dolorando
dolsi
dolve
dolzemente
dolzi
dolzore
doma
domandamento
domandarmi
domandata
domandava
domandi
domandollo
domandommi
domane
dome
domestiche
dominazioni
domizian
donagione
donan
donargli
donarne
donati
donava
dond
done
donera
donian
donnescamente
doppiero
dormigliosa
dormitori
dotar
dottai
dottar
dottasse
dottate
dottav
dotte
dotterei
dotti
dovei
doveria
dovessiti
dovieti
dovrebb
draco
drapo
drittamente
drittura
drizzar
drizzare
drizzaste
drizzasti
drizzate
drizzato
drizzeremo
drizzi
droghe
druderie
dubbiando
dubbiare
dubbiava
dubbiosi
dubi
dubitan
dubitazion
duera
dugento
dunqu
durabile
durai
duramento
durando
durazzo
duritate
durome
eb
ebbre
ebero
ebree
ebreza
ebro
ecce
eccede
eccelsa
eccelse
eccezioni
eccio
eclissar
eclisso
ecuba
editti
effettuo
effigiata
efigenia
egidio
egina
egoismo
egregi
egregia
ele
elegge
elesponto
eletra
elezion
eli
elicona
eliodoro
elios
eliseo
eliso
elitropia
ellera
ema
emmi
empedocles
empi
empia
empiera
empierti
empiezza
empireo
eneida
enne
enpia
enpio
enterai
enterra
entrarvi
entusiasta
enuia
envia
eolo
epe
epiciclo
equale
equalita
equivocando
eraclito
eramo
eranmi
erbagio
erbetta
eresiarche
eretti
ergea
erine
erisittone
eriton
ermafrodito
ermine
ermitagi
erore
erro
erti
esau
escalina
eschi
escon
escotendo
escusar
escusarmi
eservi
esi
esper
esperimenti
espremer
essalazion
essaltasti
essaltate
essaltato
essalto
essamina
essaminando
essaminava
essausto
essecutori
essemplare
essenze
essordia
essordire
essuta
essuto
estatica
ester
estimo
estranei
esuriendo
etati
eteocle
etiopo
etsi
etternal
etternale
etternita
ettor
ettore
eufrates
eurialo
euripide
euripilo
evangelica
evangelico
evvi
excelsis
exitu
ezechiel
fabi
fabricare
fabrizio
facciam
faccianli
facciar
facciendo
facciovi
faceano
faceasi
facei
facelle
facen
facesser
facia
facien
faciensi
faciessi
faciesti
faciev
facultade
facultate
fagliele
fahrenheit
falafel
falasse
falca
falcone
falconiere
falenza
fallaci
fallanza
fallar
fallare
fallarei
fallate
fallia
falligione
fallio
falliscie
fallore
falsador
falsar
falsasti
falsava
falseggiando
falseria
falsificando
falsificare
falsificato
falsonier
falterona
famagosta
famigliar
famigliari
fammiti
fanciul
fanciulli
fanciullo
fane
fannomi
fantasie
fanti
fantin
fantolini
fantolino
faranolti
farda
farebe
faree
farian
farieno
farmisi
farol
farolla
farotti
farsalia
farsito
fascian
fasciare
fasciasse
fasciati
fassene
fatate
faticasse
fatturo
fausto
favelli
favello
favole
favoleggiare
favoleggiava
favolelle
favoro
fazion
fazon
feceli
fecersi
feda
fedeltate
fedita
fegghine
fegi
fel
felices
felicitando
felle
fellon
fellone
fellonia
feminine
femminetta
femmo
fendea
fendi
fene
fenestra
fenice
ferace
feratura
ferci
feria
feriami
ferien
ferisse
fermagli
fermalvi
ferman
ferme
fermerem
fermeza
fermossi
ferrarese
ferrati
ferrato
ferrigno
fersa
fersi
fertilemente
fervore
ferze
fessure
festanti
festeggiato
festina
festinata
festini
festino
festuca
fetato
feto
feton
ffa
ffan
ffar
ffede
ffollia
ffose
fiachava
fiadoni
fiala
fiammando
fiammeggiante
fiammeggiare
fiammeggiarsi
fian
fiar
fica
ficando
ficcai
ficcando
ficcava
ficcavan
ficchi
fiche
fidanzaro
fidar
fidasse
fidato
fiele
fiene
fiesolane
fievole
fifanti
figliar
figliastro
figliuole
figluoi
figluoli
figluolo
figurando
figurarlo
figurato
figuri
filio
filippeschi
filippino
filosofando
filza
finai
finanziario
finii
finisci
finiscono
finitolo
finor
fintamente
finteza
fiocca
fioccar
fiorentin
fiorentina
fiorentine
fiorentini
fiorian
fiorin
fiotto
fisi
fisice
fiumicel
flailli
flegra
flessibili
flette
fluente
focara
focile
focina
fodrai
fodrato
fogliette
folco
folgorando
folgorate
folgoreggiando
folgori
folgoro
foll
follagio
follegiando
folletta
folletto
follore
folo
folor
folto
fommi
fonder
foracchiato
forando
forbendola
forbi
forcata
forcatella
forcuta
forcuto
forestiere
formal
formaro
formativa
formazion
formazione
fornace
forneccio
fornel
forniro
fornirvi
fornischa
forsennata
fortunal
forziere
fos
fose
fossati
fotin
fragile
frali
francescamente
franche
francheggia
franchez
franchigia
franchitate
franga
fraschetta
fratta
frattempo
fratto
freda
fredore
freghi
fregiati
fregiavan
fregio
frequenti
frison
frodi
frodolenti
fronteggiar
fronti
frugar
frugava
frui
frustato
frustatori
frustra
fruttare
fruttava
fucci
fuci
fuggendoli
fuggeria
fuggian
fuggiemi
fuggien
fuggirem
fuggiro
fuggisti
fugi
fugie
fugiendo
fugio
fugisse
fugite
fugiti
fulgeami
fulgida
fulvido
fumetto
fumma
fumman
fummavan
funata
fune
fungo
funne
fuorono
fura
furare
furiosamente
furor
fusca
fusi
fusto
futa
gabbo
gabia
gabriello
gaddo
gade
gaetta
gaggi
gagio
galeoto
galieno
galigaio
galle
gallese
galliardo
galluzzo
ganbetto
ganellone
gardingo
garofano
garza
gastiga
gastigarla
gastigava
gastighi
gastigo
gaude
gaudiose
gaville
gedeon
gelata
gelboe
gelsa
gelso
gema
generando
generante
generanti
genesi
genitrice
gentes
gentucca
geomanti
gerarcia
geri
gerione
germinato
gette
ghagliarda
gharzon
ghatto
gheroni
ghiado
ghianda
ghibellin
ghignare
ghignate
ghigniata
ghilla
ghin
ghiottoni
ghirlande
ghirlanduze
ghisolabella
ghovernar
giaccia
giaccio
giacere
giaci
giadiss
giadisse
giano
giason
gibbo
gibetto
gichito
giechire
gient
gientamente
gientile
gientileza
giesonaio
giesono
giesu
giga
gimmo
ginocchie
ginochie
giocasero
giocassi
giocasta
giocaste
giocheranno
giocho
gioeletti
gioeletto
gioi
gioielette
giolivita
giolivo
giomelle
giomenta
gioseppo
giostro
giotto
giovacchino
giovan
giovanella
giovanetta
giovanette
giovanzella
giovare
giovenale
giovera
giovial
giraffe
girammo
giran
girano
girerommi
girgli
girne
gironi
girossi
girsene
gissen
gite
gittai
gittan
gittando
gittansi
gittante
gittaro
gittarsi
gittate
gittati
gittator
gittiamo
gittil
giubetto
giucar
giucasse
giudecca
giudeo
giudicante
giudicata
giudicie
giuggia
giugiamento
giugiato
giugnemmo
giugnendo
giugneriesi
giugnieno
giunchi
giunco
giungemmo
giunghi
giungla
giungon
giuoca
giuoco
giurai
giurale
giurando
giurarlo
giustissimo
giustiziano
givi
glauco
glel
glele
glene
glie
glien
gloriai
gloriar
gloriarla
gloriosamente
gocciar
gocciava
gocciol
godenti
goder
godeva
gole
gomita
gomorra
gonfiar
gonfiate
gorda
gordo
gorgiera
gorgoglian
gorgon
gorgona
gottifredi
governasse
governiamo
governol
gozzo
gra
gracidar
grada
gradato
gradevole
graffi
graffiacan
graffiacane
graffiar
graffiati
gramo
grando
gratitudine
gratulando
gratular
gravanza
gravasse
gravaste
gravato
gravida
gravidi
gravido
grazian
grella
greppo
gridandosi
gridaro
gridera
grieva
grieve
grifagni
grifagno
grifo
grige
gromma
grommate
gronda
grue
guada
guadagnar
guadagniar
guadagniare
guadagniaro
guadagnieria
guadi
gualandi
gualdane
gualdo
gualdrada
gualterotti
guanciale
guardacuor
guardail
guardasti
guardavam
guarde
guardere
guardiana
guarentire
guarentita
guarento
guarnacha
guaschi
guasco
guascogna
guastatori
guate
guazzi
guazzo
guelfi
guera
guerci
guercia
guereggiare
guereggiata
gueregiarmi
gueregiata
gueregiato
guerero
guerigione
guerio
guerire
guerita
guernigione
guernita
guerrier
guid
guidavaci
guiderdon
guiderdonarmi
guillelmo
guillermo
guinizzelli
guizzan
guizzando
guizzante
guizzava
guizzavan
gumitol
guocho
guoco
gurge
gusta
gustato
gustiziere
habent
hermito
homagio
honesta
honne
honor
honorare
horum
humili
humiltate
hunter
huomini
iacob
iacobbe
iacomo
iaculi
ianua
iarba
iattanza
iattura
ibero
iborni
icaro
ice
ida
idolatre
idre
idropesi
idropico
iepte
iernotte
ieronimo
ierusalem
ignes
ignito
igniudi
ignota
ignude
ilerda
illuminante
illusione
illustrami
ima
imagina
imaginando
imaginasse
imaginativa
imbarazzata
imbarche
imbestio
imbianchi
imboli
imborga
imborsa
imbruna
immegli
immense
immolle
immondi
immota
impedir
impedire
impediti
impeli
impenna
imperio
impetrai
impetrare
impetrato
impieghi
impigliar
impola
imponne
importuni
impregnata
imprende
imprendea
impressionata
impronti
imprudente
impruna
impugnan
impulse
inamorata
inarrata
inarrato
inberteschate
inbolarle
inbrasciato
incaccia
incantamenti
incantata
incappelli
incarnarsi
incenerarti
incensa
incesa
incese
inceso
inchegiendo
inchiese
inchinai
inchinassi
inchinava
inchiuso
incida
inciela
incinqua
incinse
inclita
inclusa
incognita
incognito
incomincian
incominciando
incominciar
incominciava
incominciommi
inconsummabile
incontrammo
incontran
incortesito
incostri
incostro
incresce
incresciesse
increspata
incrocicchia
incude
indaco
indagine
indegna
indegno
indige
indistinto
individui
indomita
indonna
indova
indraca
induca
induce
indugiar
indulgo
indulse
indurasse
indurlo
indussero
inebriava
ineffabil
ineffabili
infallibil
infanti
inferna
infernali
inferni
infiammar
infiammata
infiammati
infiata
infiebolita
infignirei
infima
infimo
infinse
infinte
infonde
inforca
inforcar
informante
informar
informata
informatico
informato
informava
inforsa
infra
infralita
infronda
infutura
ingagiaste
inganar
inganarla
inganatori
ingannar
ingannatori
ingemmato
ingemme
ingemmi
ingenuo
ingesto
inghanarlo
inghilese
inghiottissi
ingigliarsi
ingiura
ingiustamente
ingozza
ingrada
ingrato
ingrogna
ingrosso
iniqua
inlei
inlibra
inluia
inmii
inmilla
innaffia
innalzai
innalzo
innamorava
innocenzio
innoltra
innovo
innumerabili
inonda
inope
inoperare
inorgogliscie
inpacci
inpaccia
inpaccio
inpalidito
inparentare
inpaza
inpennato
inpeso
inpiccare
inpiegata
inpregionata
inpreso
inretito
insacca
insala
insano
insapora
insegnava
insegne
insegniar
insegniarti
insegniata
insempra
insiem
insiste
insolla
instanza
insurgo
insusi
intagli
intelletta
intellettual
intellettuali
intendemmo
intendesti
intendimenti
intendon
intepidar
intercisi
interciso
interminei
interporsi
interpuose
intervenire
inteser
intrafatto
intrambe
intrambi
intrambo
intramettesse
intrametto
intrasti
intrea
intrecciatoi
intro
introcque
introduzione
intuassi
inulla
inurba
invaghito
invechiarmi
inveggia
inveggiar
inventro
invera
invernali
inveschi
inviasti
invidie
invidiosi
invioso
inviscate
inviscava
invitar
invoco
involto
involuto
inzaffira
iole
iosafat
iove
iperione
ipolito
iracundia
irato
irmi
isaia
isara
isbandegiato
iscacciati
iscede
ischarpello
iscienza
iscioglie
iscoia
isconosciuto
isguardi
isidoro
isifile
islamabad
ismagato
ismenbrata
ismene
ismeno
ismisurato
ismorto
ismosso
isnello
isopo
isotta
ispada
ispade
ispagna
ispagnia
ispanda
ispechiata
isperanza
isperate
ispeziali
ispiletti
ispirazion
isquatra
isso
istabulita
istanotte
istar
istara
istare
istata
istava
istavamo
istolti
istoria
istra
istrana
istraneza
istrettamente
istringa
istrutto
isvanoio
italo
ite
iterate
iterum
iuba
iube
iudicatis
iudit
iulio
iuno
iura
iustitiam
jausen
jimmy
jogging
joi
juan
kalendi
kenji
labi
labia
labili
labor
laboro
laccioi
lacciuoli
lacedemona
lacerto
lachesis
laci
ladorneccio
ladroneccio
ladura
lagnarsi
lagnera
lagrimabil
lagrimare
lagrimata
lagrimetta
lagrimosa
lagrimose
laico
laida
laide
laidura
lamagna
lamentano
lamentar
lamone
lampa
lampeggiar
lampeggiava
lance
lancialotto
lancie
lanfranchi
langia
languendo
languir
lano
lanose
lanprede
lanterna
lapi
lapilli
lapo
laptop
largha
largir
largirmi
largiscon
largisse
largito
lasc
lasca
lasciali
lasciane
lascianlo
lasciaron
lasciarono
lasciasser
lasciasti
lasciavam
lasciavane
lascieroe
lasciolla
lasciolli
lasciommi
lascisi
lassci
lastrellata
late
latebra
latente
latrando
latri
latria
latro
lattar
laudabil
laudabile
laudamo
laudamus
laudando
laudato
lauro
lavaggio
lavor
lavoraggio
lavorroe
lazzi
lcun
lealtade
leandro
learco
lebbre
lebbroso
leccando
leccar
leccio
leda
legar
legaro
legasse
legava
legger
leggeramente
leggiadria
leggiavamo
legiea
legier
legierai
legierne
legiero
legista
legniame
lemosi
lenno
leno
leoncini
leonine
leppo
lerci
lerice
lesa
letane
leteza
letigio
letizian
letiziar
letizie
lett
lettone
lettori
leuto
levammo
levaro
levaste
levasti
levatemi
levila
lezzo
lia
libelli
libente
liber
licenzio
lidi
lietamente
lieva
lievre
ligire
ligniagio
ligurgo
lilia
limoniere
linguagio
lioncel
liqua
liquefatta
litame
litare
litorano
litterati
litterato
livelli
livide
livio
livre
lizio
llacci
llu
locata
locati
locuste
lodar
loderebbe
loderingo
lodero
lodiam
lodila
logagio
logodoro
loico
lombarda
lonbardia
longevi
longobardo
lontra
lorde
lordura
lucci
lucciole
lucemi
lucendo
lucevan
lucha
lucidi
luciea
lucis
lucore
lude
ludi
ludo
lugent
lulla
lumaccia
lungh
lungho
lungia
lungiamente
lungiare
lungiato
luogora
lupelli
lupicini
lurchi
lusingar
lusinghar
lusinghera
lussuriosa
lutti
macabeo
maccabei
maccario
macchia
maccio
maciulla
macolati
macolato
macri
macro
mad
madian
madona
magagne
magagniare
magica
magiche
maginare
magino
magione
magioni
magna
magnificenze
maia
mainardi
maiuscole
malacoth
maladette
maladizion
malagevole
malaspina
malaurata
malaventura
malbalita
malbalito
maletta
malie
malignamente
maligne
malivoglenza
malivoglienza
malmenare
malmenata
maltenpo
maltolletto
malvage
mammelle
mancina
mancino
mandaro
mandasse
mandommi
mandra
mandrian
manduca
manegiare
manendo
manfredi
manga
manganello
mangiadore
manibus
manicar
manifestar
manovaldo
manse
mantacare
mantaco
mantel
mantener
mantenghi
mantien
mantoan
mantoani
mantoano
manuca
manucar
maravigli
maravigliare
maravigliate
maravigliava
maravigliose
marc
marcabo
marche
mardoceo
mareggiare
marescalchi
marin
marinar
marinari
maritata
marosi
marra
marrito
marsia
marsilia
martelli
martino
martoriate
marturi
marzucco
mascella
mascheroni
massi
mastin
matelda
materie
matia
matin
matino
matteo
mattia
mattin
mattinar
mazone
mazzerati
mazzo
mbedue
mbestiate
mbianca
mbocche
medesme
medesmi
mee
megera
melanesi
melchisedech
meleagro
melisso
memorar
menai
menalippo
menalo
menane
menarlo
menarmi
menarvi
menate
menavano
menbra
mencio
mendaci
mendicando
mendichita
mendichitade
mendici
mene
menero
menocci
menommi
mensurati
mentitore
mentovato
menzionando
menzognia
menzonier
meos
mercatante
mercatantia
mercedi
mercied
merdalia
merdose
mere
meretrice
meridiana
meridiano
meritar
meritorio
merrenti
merro
merse
mertai
merti
merziarmi
mesca
meschine
meschite
mescolai
mescolato
messagger
messaggier
messagiere
mestero
mesti
metafisice
metal
metello
meterai
metesse
metropolitano
metterebe
metterli
mettetel
mettien
mettine
mettor
meus
mezane
mezzana
mezzul
miccianza
miccina
mida
mieto
migliora
militante
militar
militaro
mill
millecent
miluogo
minacci
minaccian
minacciar
minaccie
minacia
minoi
minotauro
minugia
minuzie
mirabili
miracol
miraglio
mirate
mirro
mirto
misagio
mischiar
mischiata
mischiate
miseli
miserella
misericordes
misesi
misfar
misprendea
mispreso
misture
misurar
misurarti
misuratamente
misurrebbe
mitrio
mmonito
modesti
modulo
mogle
mogliazo
moleste
molesti
molesto
monaldi
monche
moncherin
monchi
monda
mondan
mondana
mondani
mondano
monde
mondiglia
mondizia
monetier
monferrato
mongibello
monimenti
montai
montando
montaperti
montasi
montati
montecchi
montefeltro
montemalo
montemurlo
montereggion
monto
moralita
mordendo
morder
mordesse
moria
mormorare
moro
moronto
morra
morria
morsel
mortalita
mosconi
mossesi
mossimi
mostera
mostere
mosterra
mosterrolli
mosterrolti
mostrai
mostralli
mostrandomi
mostrandovi
mostrano
mostranza
mostratene
mostravam
mostravami
motum
movean
moventi
movera
movesse
moveti
moveva
moviti
movo
movono
mozza
mozze
mozzi
mpaccia
mpacciata
mpacciati
mpacciato
mpaluda
mpaniati
mparadisa
mpedimento
mpedisce
mpediva
mpegolate
mperche
mpetro
mpiastro
mpiglia
mpresso
mpromette
mucci
mugghia
mugghiava
mugghio
mul
multiplicar
multiplicata
multiplicato
mundo
muno
munto
muoi
muoion
muovasi
muoverci
muovon
murata
murati
musagio
mutai
mutamento
mutando
mutandom
mutarsi
mutasti
mutata
mutava
mutua
muzio
nabuccodonosor
nacqu
naiade
namibia
narcisso
nardo
narrai
narrar
narrata
narrate
narrazion
nascer
nascete
nasceva
nascimenti
nascimento
nasconda
nascondea
nascondesse
nasetto
nasidio
nasuto
natan
natiche
navarrese
navicando
navicanti
navicava
navigare
navigio
nazarette
nazion
nbraciata
nbriga
ncarcati
ncarnate
ncatenata
ncensi
nchacato
nchiede
nchiese
nchina
nchiude
ncise
ncor
ncurvaron
ndivine
ndoman
nduce
ndugiai
necessitato
neciessitate
negando
negasse
negassi
negghienza
negletta
negletti
nembrotto
nemica
neque
nerli
nescia
nett
neun
neuno
nfamia
nfiammati
nfiata
nfinga
nfinghe
nfiora
nforco
nforzare
nfuria
ngaggiassi
ngannare
nganni
nghannati
nghanni
nghiottiva
ngrassata
ngrassato
ngrossa
ni
nicchia
niccosia
niega
niego
nigri
nil
nimistate
nin
ninferno
nino
niobe
niso
nitide
nnamora
nnanellata
nnerro
nnocenti
noarese
nobileza
nobilitasti
nobilitate
nocchi
nocchiere
nocchiero
nocera
nocque
noderuto
nodosi
nodri
nodrir
nodriro
nodriti
nogia
noiando
noie
noli
nomando
nomarlo
nomasse
nomava
nominommi
nonpoder
nonpossa
norsato
nostral
nostrali
notabile
notabili
notan
notaro
noteranno
notrico
nott
novissimo
novitadi
novitate
noviza
novizia
noze
nsegnate
nsegnera
nsegni
nsegnio
nsembre
nservito
nsidie
ntanto
ntecciatoi
ntenda
ntendanza
ntendendo
ntenerisce
ntento
ntenzion
nterrai
ntesa
nteser
ntra
ntrammo
ntrassi
ntrate
ntrati
ntrato
ntrona
ntronan
ntrono
nubent
nul
numerando
numi
nuro
nvetriate
nvia
nviarci
nvidio
nvidiosi
nvieranno
nvii
nviscava
nvita
nvitar
nviti
nvogliava
nvolti
obbligata
obbrobrio
obediendo
obietti
oblico
oblita
oblivion
occorse
occulta
oderisi
odono
odorar
oferta
offendesse
offensa
offension
offerente
offerie
offersi
officiali
ognio
ognora
ohi
olezza
olimpo
oloferne
olor
oltracotanza
oltracotata
oltrarti
oltrepassare
omanagio
omberto
ombrata
ombreare
omeri
omicide
omicidi
onbreando
ondeggiar
onestade
onestadi
onorate
onorati
onoravano
onori
onorio
onranza
ontoso
operante
operazion
opima
opimo
opizzo
oppilazion
opposito
oppresso
orai
orate
orator
orbino
orbisaglia
orbivieto
orbo
ordinamento
ordita
ordite
oreste
orfeo
organa
organar
orgogli
orgolliose
oriaco
oriafiamma
originar
oriuoli
orizzon
orizzonta
ormanni
ornata
ornate
ornati
orranza
orrevol
orrevoli
orsatti
ortica
orza
osannar
osasse
oserva
ossame
osserve
osta
ostante
ostellagio
ostellerie
ostendali
osterlicchi
ostiense
otta
ottacchero
ottavian
ottusa
ovile
pa
pachino
paci
pacificati
pacificato
pacto
pado
padoan
padoano
pagan
pagar
paghere
pagheren
pagio
pal
paladino
palafreni
palato
palazi
palazo
pale
paleo
palesarvi
palesemente
palesi
paleso
pallade
palladio
pallante
panchina
pande
pandi
panieri
panino
pantasilea
papalardo
papale
paperi
papiro
pappo
paragio
paralelli
paralizzato
parato
parchi
pareggiando
paressero
paresti
parev
parevan
pargoleggia
pargoletta
pargoli
paricida
parieno
paris
parisi
parlandomi
parlasia
parleroe
parliere
parlomi
parlommi
parlonne
parmenide
parmi
paroffia
parolette
parranno
parrebber
parria
parrieno
parro
partecipera
parteggiando
partes
partia
partimenti
partinci
partine
partirs
parturie
parventi
parvenze
parvero
parvi
parvo
parvol
parvoletti
pascendo
pascer
pasciute
pasciuti
pasciuto
pasco
pasife
passada
passamm
passarmen
passasti
passat
passeggero
passeggiar
passeggiati
passegiato
passin
passuri
pasturale
pasturo
paterini
paterino
paternostro
pati
patire
patrici
patris
patteggiarne
patteggiati
pauperes
pauperum
paur
paurose
pavento
pazo
peana
peccai
peccaro
peccatrici
pecco
pechato
pecherebe
pecie
pedagogo
pedes
pegasea
peggiorare
pegiorando
pegiore
pelaghi
pelegrin
pellegrin
pellegrina
pelligrinagio
peltro
penar
penda
pender
pendevan
pendice
pendici
penduta
peneia
penelope
penestrino
penetrando
penetrante
penetrare
penetri
penitenze
pennecchio
pennel
pennelleggia
pennino
pennone
pennuta
peno
pens
pensase
pensea
penserebe
penseren
pensosa
pensosi
pentecosta
pentendo
penterai
pentere
pentesse
pentimento
penultimi
percosselo
percotean
percoteansi
percuota
percuoto
perdeo
perderagli
perderesti
perdesi
perdizione
perdon
perdonando
perdonanza
perdonasse
perdonero
perfidie
periclo
perigli
perizoma
permane
permanendo
permotore
permutanza
permutazion
pernotta
perpensato
perpetualemente
perpetue
perpetui
persecutori
perseguette
persevra
persio
persuade
pertratta
pertrattato
pertugia
pervenne
perversa
pesasse
pescan
pesol
pestar
pestilenzie
petitto
petraia
petri
petrina
petrone
pettinaio
peza
peze
piaccion
piacerli
piacevano
piacierebe
piacqui
piagata
piage
piagge
piaghasse
piagia
piagna
piangean
piangene
piangesse
piangevan
piangevisi
pianghe
piangie
piangon
pianificato
pianser
piantagrane
piatoso
piava
picciole
picen
piche
piciolella
piegar
piegaro
piegasse
piegavano
pieghe
pietanze
pietola
pietosamente
pietose
pietosi
pietrapana
pigiore
pigliando
pigliar
pigliarmi
pigliaste
pigliato
pigliavano
pigmalion
pignia
pilosa
pilose
piloso
pilucca
pin
pinamonte
pineta
pinga
pinge
pinger
pinghe
pingo
pinsero
pinsi
pinto
pintor
pinzochera
piogge
piomba
piorno
piota
piote
piovean
piover
piovier
piovuti
pira
pirate
pisan
pisistrato
pitturava
pitture
pizzicor
plage
plato
plaude
plaustro
plebe
plena
plenilunii
plenis
plor
plora
podestadi
poesi
poetar
poetaro
poggian
poggiati
poggin
pola
pole
policleto
polimnia
polinestor
polissena
polmon
poltre
poluce
polve
polver
pompeana
ponavam
ponderoso
ponea
ponemmo
poner
ponesti
pongon
poniam
pontan
pontano
ponticelli
pora
poran
porcil
porfido
porger
porgevan
porgo
porpore
porpresa
porser
porsila
port
portali
portamento
portandosene
portarne
portarno
portinaio
portir
pos
posando
posano
posare
posarmi
posava
posponendo
posposta
pospuosi
possedea
posseder
posseditor
possent
possenti
possessivo
possi
possian
possuto
postille
postrema
postutto
potavam
poteano
potemo
potenziata
poteo
poterebbe
potert
poterti
potese
potess
potestate
potesti
potien
potiensi
potiersi
potiesi
potran
potre
potrebe
pott
poverel
poverelli
poverello
povertade
prande
pranse
prata
pratomagno
prave
pravi
prec
prece
precedetter
precedeva
preclara
preconio
precorre
predella
predestinata
predestinazion
predetta
predicaro
predicate
predicava
predico
predon
prefazi
prefetto
pregassi
pregasti
pregherei
pregheremmo
pregia
pregiando
pregiare
pregiasti
pregiata
pregierai
pregierei
pregion
pregna
premerei
premevan
prendan
prendemo
prendente
prendenti
prendergli
prenderl
prenderti
prendesti
prendim
prendon
prendone
preparazion
presaga
prescriba
prescrisser
preseli
presemi
pressura
prest
prestamente
prestanza
preste
presumma
presunsi
presunzion
preterito
pretioso
prevenne
previene
previsa
priegavi
prieghati
prieghe
priegoti
prigion
primera
primieramente
primiere
primiero
primipilo
primizie
primum
principati
prinze
prioressa
priscian
privadi
privilegia
privilegiato
probitate
probo
procacciam
procacciando
procacciante
procacciata
procacciera
procaciare
procedea
procedemmo
procedette
procedetter
procedi
procella
prodeunt
prodezza
producerebbe
produomo
produtto
proenza
proferenza
proferer
professa
profetico
profila
profondita
progenie
programmatore
prole
prome
promessi
promettendo
promettili
prope
propia
propinque
propinqui
propinquissimi
proponimento
proposi
proposizion
proposo
prore
prose
proseguendo
proserpina
prospettiva
prossimano
protende
proterva
proterve
proteusso
protezion
provaro
provarsi
provavo
provedimenti
proveduta
provedute
provenza
provenzai
provenzale
provenzan
proverbio
provosti
pruovi
pub
pubbliche
puccio
pueril
puerili
puesc
pugliese
pulcelle
pulciella
pulcro
pullular
pulzella
pulzelle
punga
pungeami
pungenti
pungi
pungiendo
punio
punizione
punton
punzelli
puollo
puommi
pupille
purette
purgan
purgando
purgar
purgarmi
purgazion
purghero
purgo
puri
pusillo
pute
puttaneggiar
putti
quadra
quadrante
quadrel
quadrelli
quadrello
quae
quaentr
quantitate
quare
quartana
quattromilia
querente
quetar
quetaro
quetato
quia
quietar
quietarmi
quietata
quinzio
quirino
quiritta
quiritto
quisquilia
quistioni
quive
quorum
raab
rabano
rabbiosa
rabbiosi
rabbioso
rabonacciando
rabuffa
raccapriccia
raccerta
raccesa
raccesi
racceso
racchiuso
raccogli
raccoglia
raccoglier
raccoglietele
racconciasse
raccorce
raccorse
raccoscio
raccostammo
raccostansi
racontar
racqueta
rada
radial
radiando
radoppiato
raffigura
raffigurar
raffina
raffretto
raffronta
raggeli
raggera
raggeran
raggiando
raggiandomi
raggiar
raggiare
raggiasse
raggiorna
raggiunsi
ragionarmi
ragionava
ragionavan
rallarga
rallargati
rallargo
rallegrano
rallegrasse
ralligna
ramarro
ramerin
ramicel
ramogna
ramondo
ramora
rampogna
rampogni
rampollo
rancura
rancuro
randone
rannicchia
ranocchi
ranpogna
raphel
rapiron
rapisse
rapiva
rappaciati
rapporta
raquistarli
rascia
rasicurando
rasicurata
rasicurato
rattento
rattezza
rattrappa
raunai
rauni
ravignani
ravisare
ravisato
ravvisai
ravvolgea
ravvolta
razionabile
razzisti
reami
rebecca
recalcitrate
recar
recarne
recasse
recasti
recati
recessione
recettacolo
recetto
rech
rechava
rechera
rechero
rechiti
recirculando
reclusa
record
reddire
reddita
redimita
redire
redissi
redole
reducemi
reduci
redui
redur
ree
reflettea
reflettendo
refletter
refratto
refrigerio
refugio
refulge
refulgo
refulse
refuse
regal
regger
regime
regis
registro
regnar
regnio
regnum
regolate
reguarda
reiterando
relegiosa
relinqua
relique
reliquie
relusse
remedio
rememorar
remunerar
rendeli
rendemmi
renderglile
renderlo
rendetemi
rendili
rendon
renduto
repe
repente
reperte
repetendo
repetiam
repleto
replico
repluo
repreme
requievi
reserva
resistenze
resolva
respetto
respittar
respitto
resplendo
respuose
resse
restanno
restarmi
restarsi
restati
resurga
resurger
resurgeranno
resurgi
resurrezion
retrorso
retrosa
retrosi
retroso
revela
revelando
revelazion
reverendi
reverire
revestita
revoche
riaccesa
rialto
riarmar
riarse
riarso
riavesse
ribadendo
ribaldi
ribatter
ribellante
ricadde
ricadeva
ricador
riccardo
ricceza
ricchissime
ricenti
ricerna
ricevieno
riche
richegge
richeggio
richegio
richesta
richeze
richezza
richie
richiesi
richinava
richiudon
richiuso
riciclare
ricida
ricidemmo
ricidien
riciercar
ricieviate
ricievute
ricignia
ricinghe
riciso
ricoglie
ricominciai
ricominciar
ricominciaron
ricominciavan
ricominciommi
ricompie
riconfor
riconforta
riconobb
riconoscenza
riconoscer
riconoscerai
riconoscimi
ricoperchia
ricopersi
ricoperto
ricorca
ricorcarsi
ricordaro
ricordivi
ricorsi
ricovrar
ricredentia
ricreduta
ricuopra
ricuscia
riddi
ridenzione
ridessi
ridiam
ridice
ridipinto
ridisse
ridoglio
ridolfo
ridon
ridottate
ridure
ridurlasi
riempion
rifatti
rifeo
rificchi
rifiede
rifiglia
rifissi
rifiutan
riflesso
riflettuto
rifondarno
rifonde
riformossi
rifrangesse
rifratta
rifrenare
rifuggir
rifulgea
rifusanza
rifusassi
rifusato
rigagno
rigavan
rigida
rigiugnero
rigiunse
riguardarmi
riguarde
riguardolla
rii
rilega
rilegate
rilegollo
rileva
rilevarvi
rilevi
riluca
rilucenti
rimagnia
rimagno
rimanendosi
rimaner
rimanessero
rimaria
rimarita
rimarreste
rimbalzo
rimbecca
rimembra
rimembranza
rimembre
rimembri
rimembriti
rimembro
rimenargli
rimenbra
rimenbramento
rimenbranza
rimenbro
rimendo
rimettendo
rimiraron
rimiro
rimisi
rimorda
rimorse
rimorte
rimote
rimove
rimovea
rimovi
rimpalmare
rimpiango
rimproverando
rinacque
rinaldia
rinasce
rincalzi
rinegasse
rinfami
rinfarcia
rinfiammarsi
rinfresca
rinfrescarmi
rinfreschi
ringavagna
ringhiosi
ringhusa
ringioire
ringraziai
ringrossato
rinoardo
rinovando
rinovate
rinovellar
rinovellate
rinovelle
rinovelli
rinselva
rintoppa
rinvenuto
rinverda
riordinato
riparar
ripassossi
ripensando
ripentaglia
ripentesse
ripentira
ripentuti
ripentuto
ripercossi
ripercosso
ripetall
ripeterai
ripiagne
ripiene
ripieni
ripigliammo
ripigliera
ripigneva
ripinse
ripinte
ripogna
riporse
riposar
riposta
riposte
riposto
riprenda
riprendea
riprendiene
ripreser
ripresi
ripresta
ripriego
ripriso
riprofondavan
riprovando
ripuose
risalir
risalire
risaliva
rischiarando
rischiari
riscosse
riseder
risega
risense
risente
riserrolli
risma
risonavan
risorsa
risparmio
rispazo
rispettano
risplenda
risplendea
risplendendo
risplendere
rispondero
rispondesti
rispondien
risponsione
rispuosero
risso
ristato
ristoppa
ristorar
ristori
ristretto
ristrignendo
ristrignermi
risurgeran
ritegna
ritegno
ritenerlo
ritenga
ritengnio
ritenuta
ritenuti
riterrai
ritese
ritondo
ritorci
ritornarci
ritornaro
ritorse
ritorsili
ritrae
ritraen
ritraesse
ritragge
ritrarra
ritrarre
ritrasse
ritrasser
ritrovar
ritrovata
ritroviam
ritta
riturando
riudir
rivada
rivedera
rivederla
riveggia
rivegno
riveli
rivene
rivenire
rivestire
rivestita
rividil
riviva
rivo
rivocai
rivolando
rivolgea
rivolgendo
rivolgon
rivolsersi
rivolsesi
rivolsilo
rivolvi
rizar
rizatoi
robbi
roboam
rocco
roco
rode
rodo
rodolfo
rodopea
roffia
roffiane
rogna
romanziere
romita
romito
romoaldo
romor
rompendo
rompeo
romper
rompieno
ronca
ronchion
ronchione
ronchioso
rondinella
ronpea
ronpendo
ronzino
roratelo
rosata
rosseggia
rosta
rotando
rotante
rotar
rotare
rotata
rotollo
rotture
rovesciato
rovinar
rozzo
rua
rubaconte
rube
rubecchio
rubelli
rubicon
rubin
rubro
rud
rugghiato
rugghio
ruggieri
rugumar
rui
ruinare
ruino
runcigli
runciglio
ruper
rupp
ruppemi
rupper
ruscelletti
ruscelletto
ruvida
ruvidamente
sabaoth
sabellio
sabello
sabine
sacca
saccian
saccie
sacerdozio
sachetti
sacramento
sacrata
sacrate
sacrato
sacrete
sacreto
sacrosante
sacrosanto
sadako
saettamento
saettando
saettaron
saettava
saetti
saffira
sagina
sagrestia
sagreta
saladino
salde
salia
saline
salio
salirla
saliro
salissi
salitor
salivan
salma
salmista
salmodia
salse
saltando
saltar
salterello
salutar
salutevol
saluti
salvaggio
salvagnione
salvani
salvar
salvatiche
salvatico
salvazione
salvitate
samaritana
sampogna
sanar
sanasse
sanato
sanator
sanctus
sanguinano
sanguinenti
sanguis
sanleo
sanna
sanne
sannella
sannuto
sanpogna
santade
santafior
santate
santerno
santire
sapavam
sapean
sapei
sapem
sapermi
sapev
sapiate
sapie
saracin
saracine
saragli
saramenti
sardanapalo
sareb
sarian
sariesi
saroe
sarra
sarria
sartor
sartore
sassol
satana
satiro
satisfaccia
satisface
satisfara
satisfare
satisfatto
satolli
satollo
saul
save
savena
savesse
savietta
savorose
sazi
saziando
saziarti
sazie
sbaglia
sbandir
sbandita
sberna
sbigottito
scacci
scacciato
scachi
scagioni
scalappia
scaldata
scalderoe
scaldo
scaletta
scalogni
scalpitar
scaltro
scampo
scandi
scane
scapigliata
scarche
scarco
scardova
scariotto
scarmiglione
scegliendo
scellerata
scellerato
sceman
scemata
scempia
scendea
scendean
scendesse
scendessi
scerna
scerpi
scevra
schaldi
scharsella
scheggion
schembo
scherma
schermar
schermire
schernisse
schernita
scherniti
scherza
schiancia
schiante
schianze
schiarar
schiarato
schiatte
schiave
schicchi
schietta
schietti
schietto
schifando
schifate
schife
schiro
schiude
schiume
schiuso
schiva
schivi
schivo
schufiava
sciagura
sciagurato
scialba
scialiva
sciancato
scias
sciaurati
scienzia
sciesa
scilocco
scimia
scindi
scioglia
sciogliea
sciolti
sciorina
scipideza
scipio
scipion
scisma
scocare
scocha
scogli
scole
scolora
scolorocci
scolpa
sconcio
scondetto
sconfortai
scongiura
sconoscente
sconosciuta
sconsolata
scoperchiata
scopersi
scoperte
scoppiar
scoppiato
scorger
scorgessi
scorgeva
scornata
scornati
scorno
scorpio
scorpion
scorticargli
scorticate
scorza
scoss
scosta
scostarsi
scotea
scoteo
scotesse
scoverta
scovra
scovrire
scranna
scripto
scrittor
scriver
scrivermi
scriveste
scrivesti
scrivon
scrofa
scroscio
scudi
scuffa
scuoi
scuopra
scuote
scuriada
scusar
scusava
sdebito
sdegnosa
sdruscia
secchezza
secchio
secchion
secolari
secomoro
secondamente
seconde
secreta
seculare
secure
sedavamo
sedeasi
sedendo
sedesse
sediero
seduce
segando
seggon
seghata
segnar
segnaro
segnera
segniale
segniore
segnori
segnoria
segnorso
seguentemente
seguia
seguian
seguirla
seguitare
seguitarmi
seguitata
seguitava
seguitavam
seguiteria
seguiterieno
seguitero
seguor
sembian
sembianz
sembianze
sembiar
sembio
sembran
semenze
semicirculi
semilia
seminai
seminarla
seminata
seminator
semiramis
sempiterni
sempiterno
semplicetta
senbianza
senbiava
senbra
seneca
seniori
senis
sennaar
sennacherib
senni
senpieza
senpremai
sensale
sensato
sensibil
sentendomi
sentenzia
sentero
sentesi
sentier
sentiro
sentiron
sentisse
sentisti
sentitevi
sentiv
seo
sep
sepolcri
sepulcral
sepulcri
sepulto
sepulture
sequestra
serafi
serafico
serafini
serbolo
serchio
seren
sereni
sergiente
sermon
sermonar
serotini
serpentelli
serpentello
serrando
serrati
serrato
serrava
serto
servali
servammo
servata
servirebevi
servirgli
servirli
servisse
serviziale
settanta
settentrional
sezione
sezzai
sfacciate
sfami
sfavillaro
sferza
sferzati
sfidassi
sfogato
sfoglai
sfoglia
sfogliare
sforzai
sforzami
sfregia
sgagliarda
sganni
sghermitor
sgombra
sgomenta
sgorga
sgorgando
sgrana
sgridava
sguardando
shock
siar
sibilia
sibilla
sichurare
sicur
sicut
sidi
siediti
siestri
sieva
sighier
sigieri
sigillava
signa
signaculo
significando
significar
significati
signioria
signoreggia
sile
sili
silogismi
silogismo
silogizzar
silogizzo
silvano
silvestra
simeonta
simifonti
simiglianza
simiglianze
similitudine
simoneggiando
simonia
simonide
sine
sinigaglia
siniscalchi
sion
sipa
siratti
siri
siringa
sismondi
sisto
sitisti
sitiunt
sizii
slaccia
smagato
smaghi
smagrato
smarria
smarrirsi
smarriva
smartphone
smenbrata
smeraldi
smettesse
smisurato
smorta
smorto
smozzicate
snelle
snelletto
soavita
sobarcolata
sobbarco
sobborghi
sobilia
soblimi
soccinto
soccorer
soccorri
soccorrien
socero
sochiuso
socialista
socorciata
socorere
socoriate
sodalizio
sodisfaccia
sodisfammi
sodisfare
sodisfarvi
sodisfatto
sodisfece
sodisfeci
sofera
soferenza
soferir
soferisse
soferte
sofferia
sofferian
sofferria
sofferser
sofferta
sofferti
soffiar
sofficiente
soffitto
soffolce
soffolge
soffrir
soffriri
soffriro
soffristi
soffro
sofismi
sofista
sofrattosa
sofrenza
sofrettosi
soga
soggiacete
soggiogare
soggiorna
soggiugnendo
sogli
sogliare
soglie
sognaro
sogniando
solaio
solavan
solazo
soldanier
soldanieri
soldano
solecchio
solemo
solev
solevando
solfo
solicito
solien
solieno
solinga
solla
sollaza
sollazi
sollazo
sollazzo
sollevando
sollevare
sollo
solone
soluto
solva
solve
solveranno
solvero
solvesi
solvesti
solvuto
som
some
somigliarsi
somiglio
sommersi
sommesse
sommettono
sonanti
sonasser
sonava
sone
soniferava
sonnolenza
soperchiava
soppressa
soppresso
sopragridar
soprannome
soprapuose
soprastando
soprato
sopravendono
sopravvivera
sopriora
sor
sorbi
sorco
sorcotti
sorcotto
sorga
sorise
sormontar
sormontati
sornome
sorpriso
sorridea
sorridi
sorteggia
sortillo
sortito
sosine
sospeccion
sospeccione
sospeccioso
sospigne
sospinte
sospirosa
sostati
sostegna
sostegnon
sostenibile
sostenitori
sostentar
sostituito
sotterare
sottesso
sottil
sottrasse
sovenenza
sovenha
sovenire
sovenne
sovragiunto
sovran
sovraposte
sovrasta
sovvegna
sovvenir
sovvenisse
sozze
sozzi
spaldi
spallacce
spalmi
spandessi
spandeva
spandi
spani
spanne
spano
spargo
sparser
sparti
sparto
spaurato
spaventi
specchiai
specchiati
specchiato
spece
spechi
spechieria
specialita
speculi
spedali
spedia
spediti
spegli
spelonca
spelonche
spelta
spender
spendio
spennar
spensi
speran
sperate
speravi
sperent
sperga
spergiura
spergiuri
sperino
spermentar
sperne
spersi
sperule
spezial
spezieria
spezzera
spiacer
spiaciere
spiar
spiga
spigolar
spigoli
spingava
spiraglio
spirar
spirare
spirarmi
spirava
spire
spirital
spiritu
splendesse
splendida
spodestato
spogliar
spogliarvi
spolpa
spoltre
sponesti
sponsa
sponsalizie
spontaneo
sporge
sporgo
sporte
sposarono
spranga
spranghate
sprazzo
spreme
spronaron
spungo
spunton
spuntone
squaderna
squadro
squama
squarcia
squarciata
squartellato
squilla
squilli
ssa
ssagia
ssagio
ssara
ssarai
ssera
ssiate
sson
ssua
ssue
stagi
stagliata
stallo
staman
stamane
stannosi
staria
starian
starsi
starvi
stassi
statera
stav
stavvi
ste
stecchi
stellate
stemmo
stempre
stendero
stenduto
stenebraron
stenperata
stenta
sterne
sternel
sternilmi
sti
stieno
stil
stilla
stillar
stillasti
stille
stimando
stimar
stimativa
stimava
stimin
stimolati
stinghe
stingue
stingueva
stinse
stinti
stizzosamente
stoe
stolta
stoltezza
storce
storiata
storioni
stormire
stornei
storpio
storse
stoscio
straccia
stracciando
stral
stralunava
strambe
strame
strami
straniasse
strascineremo
stratto
stregghia
stremi
strenne
strett
streza
stricca
strigne
strignete
stringea
stringer
stringon
stringonsi
strinser
strinsermi
strofade
strugitoi
strupo
strutto
stucca
studiar
studiava
studierai
studiose
stupefaciensi
suadi
sub
subietto
subsisto
succedette
succedeva
succession
succhio
succia
sucide
sucidume
suco
suddito
suffolando
suffolero
suggellata
suggelli
suggetti
suicidata
summae
summo
suocier
suonate
suone
suonin
superbe
superbir
superbite
superillustrans
superinfusa
superna
superni
supero
supini
suppe
suppremo
surgea
surgendo
surgeran
surgere
surgono
surta
surti
sus
suscitarla
sussurro
sustanzia
sustanzial
suzuki
sveli
svelle
sventurata
sventurato
svergognate
sverni
sveste
svia
sviando
sviati
sviluppata
svolazzava
tacciolo
tacente
tacerci
tacessi
tacetti
tacevansi
taciensi
taciti
taciuto
taddeo
tafani
taglata
taglente
tagliacozzo
tagliamento
taide
taiwan
talamone
talora
talpe
tambernicchi
tamburi
tamiri
tamisi
tanaglie
tanai
tane
tange
tapin
tapina
tapinando
tapinatori
tardar
tardavali
tarpata
tarpea
tarquino
tartari
tartere
tasta
taumante
tebaldello
tebaldo
tebano
tecta
ted
tegni
tegnono
telefoni
telo
teman
temea
temerei
temesti
temett
temetti
temon
temperanza
temperanze
temperar
temperasse
temperate
temperava
temperi
temporal
temprando
temprata
temprava
tempre
temps
tempura
temuta
tenavamo
tenciona
tendiam
tendono
tenean
tenebrata
tenebroso
tenem
tenerne
tenesser
tenesti
tenevan
teng
tengh
tengha
tengho
tengono
tenpesta
tenpie
tenporale
tentando
tentar
tentennato
teodia
tepe
terai
terebe
teresa
teresti
terghi
terian
terminando
terminar
terminarla
terminava
terminonno
terragne
terragno
terram
terren
terrenzio
terrestro
terribil
terroristi
tersi
terze
terzeruolo
tesifon
tessutetti
testando
testimon
teti
tetragono
tever
thailandese
tibi
tideo
tienti
tienvi
tifeo
tignemmo
tignoso
timbreo
timeo
times
timidette
tinche
tingale
tinghe
tinte
tintinno
tiralli
tirandosi
tirarti
tisbe
titone
tobia
toccar
toccarne
tocche
tocchin
toglien
togliessi
togliesti
togliti
tolleranza
tollette
tolomea
tolosano
tomma
tonar
tonde
topazi
topazio
toppa
toppo
torbidi
torcesse
torceva
tore
torello
torelmi
tormentarlo
tormentati
tornand
tornaro
tornavan
torneamenti
torneare
torneranno
torniamento
torpente
torquato
torreggiavan
torrien
torsi
torza
toschana
toschi
tosone
tossio
tost
tostamente
toyota
trabocca
tracielato
tracotanza
tradizione
traduttori
traeli
traemmo
traemmoci
traeser
traesti
traeva
traevan
trafigge
trafitta
trafuggo
traga
tragedo
tragetto
tragga
traggasi
traggi
traggonsi
trai
traiano
tralignando
traluca
tramagli
tramette
trametter
tramontana
tramuti
tranello
trangugia
trani
tranobil
tranquillar
translato
trapassammo
trapassando
trapassate
trapassi
trapasso
trapassonne
trapela
trapiaciente
trapresaglia
trapunta
trara
trare
trareti
trarlo
trarra
trarrei
trarresi
trarreti
trarrotti
trarsi
trasale
trascenda
trascolorar
trascoloro
trascorra
trascorrer
traslato
trasmoda
trasmutabile
trasmutar
trasmutarsi
trasparea
trasparente
trasparer
trasparere
trasparien
trasseci
trasselo
trassimi
trastullo
trasumanar
trasvolar
trat
trattar
tratutte
tratutto
travagli
travagliando
travagliato
travaglie
travasa
traversara
traversaro
travio
travolse
travolta
travolto
trecha
tree
trei
tremaci
tremante
tremesse
tremi
tremolante
tremolar
tremolava
tremolera
tremore
trento
tresca
trescando
trespiano
tretutto
tribo
tribuglia
tricordo
triegua
triema
trieve
trinacria
tripartito
tripudi
tripudio
tristissima
triunfal
triunfale
triunfando
triunfante
triunfanti
triunfar
triunfare
triunfaro
trivia
troian
troiane
troiano
trombe
trombetta
troncandosi
tronche
tronto
trop
trotando
trottare
trovammoci
trovan
trovandoli
trovavar
troviam
trovian
truandando
truandar
truandia
truanti
trucchi
truffando
truffola
trulla
trump
truono
truov
truppe
ttal
ttavole
tterra
ttua
tucto
tulio
tumor
tupino
tura
turbando
turbarsi
turbava
turbia
turgide
turpa
tusse
tute
ubaldin
ubaldo
ubertin
ubidenza
ubidia
ubidisti
uccellatoio
uccellin
uccie
ucciel
uciderlo
udie
udimmo
udira
udiremo
udirmi
udirne
udiro
uditi
udiva
ughi
uguiccione
uhi
ulio
uliva
ulivi
ulivo
ultimar
umbilico
umbriferi
umilemente
umilitadi
umilitate
umiltate
uncina
uncini
undicimilia
unghiate
unghioni
unguanno
unio
unitate
universal
universitari
unqua
unquam
unse
unta
uo
uranie
urlar
urtava
urto
usagio
usaro
uscial
uscian
uscicci
uscie
uscinci
uscirci
usciresti
usciron
uscissimo
usciteci
usorieri
usurai
usuraio
usuriere
utica
utilita
utilmente
vadasi
vadi
vagabunde
vagante
vagheggiar
vaghi
vagliami
vaglian
vaglio
vaio
valchi
valdichiana
valdigrieve
valente
vallan
valletti
vallone
valute
vampa
vaneggiai
vaneggio
vangelista
vanio
vanitate
vann
vanole
vantando
vanti
varcai
varcheresti
varebe
variar
variazion
varrian
varro
vas
vasel
vassalli
vassene
vau
vechie
vechio
veco
vedeasi
vedeisi
vedemo
vedente
vederebbe
vedeste
vedestu
vedevan
vedevi
vediesi
vedine
vega
veggendoci
veggendomi
vegghi
vegghia
vegghiar
vegghiava
veggiam
veggiolo
veggiono
vegh
veghi
veghiata
veghiava
vegia
vegiendo
vegn
vegnati
vegne
vegnia
vegnono
vegnonti
veiculo
velar
velato
vellio
vellute
velocissime
velocissimo
veltri
veltro
vendan
vendeser
vendeste
vendica
vendicare
vendico
venedico
venendomi
venenosa
venenosi
venerabil
venerabile
venerati
venerunt
venghi
vengiammo
vengiata
vengio
veni
venirli
venis
veniser
venisser
vennermi
venta
ventarmi
ventava
ventilando
ventilate
ventilonne
ventraia
venturo
venusto
veraci
verai
verba
vercelli
verdissime
verebe
verghetta
verghi
vergognar
vergognosi
verifica
vermena
vernaccia
vernai
vernan
vernando
veronese
verre
verrebber
verrem
verrucchio
vertude
verun
vessillo
vest
vestige
vestigge
vestimento
vestiro
vestisse
vestisti
vetato
vexilla
viaggiando
vicari
vicita
vicitare
vicitasse
viddi
videmi
vidil
vidila
vidile
vidili
vidine
vidivi
viemmi
vietarmene
vige
vigilate
vigilie
viglia
vignaio
vigor
villanamente
villane
villanello
villani
viltanza
viltate
vime
vimi
vincastro
vincenti
vincenza
vincesti
vincia
vincie
vincislao
vincon
vincuto
vinegia
viniziani
vinum
violato
vipera
viri
virtude
virtudi
virum
visiere
visitarli
visivi
vispistrello
visser
vital
vitaliano
vitiperata
vittore
vituperio
viuole
viuti
viv
vivea
vivemo
vivera
vivesi
vivette
vivieno
vivissime
vivuto
vizia
vizzo
vocem
voe
vogli
voglian
voglioso
voialtri
voill
vol
volaggia
volagia
volan
volapuk
volasse
volasser
volean
volem
volemo
volenci
voleri
volgeami
volgendom
volgera
volgermi
volgesi
volgeva
volgiam
volgianci
volgieno
volgiensi
volgieria
volgon
volgono
volgonsi
volitando
volontari
volontario
volpagio
volseci
volsero
voltommi
volvea
volvi
vomitare
vommi
vonno
vora
vore
vorebe
vorrassi
vorre
vorrebber
vorria
votar
votivo
vunque
zabi
zanca
zara
zavorra
zebe
zefiro
zelda
zeno
zenone
zita
zuffe
##15
##68
##ani
##arono
##azione
##bito
##bui
##canti
##cene
##ciati
##dali
##dente
##dera
##destra
##dice
##dro
##fettura
##ggiamo
##ggiavo
##ghera
##gimento
##gola
##gua
##ho
##ide
##ilo
##im
##it
##iva
##ler
##lin
##lto
##mentato
##mettersi
##mmelo
##monta
##moto
##mpico
##nazione
##nete
##nita
##nite
##ntare
##ntemente
##nziali
##nzo
##ok
##pata
##pera
##pido
##polo
##ppe
##pporta
##rante
##razia
##rero
##rista
##sero
##ssante
##ssare
##stino
##tch
##tendo
##ttavo
##ttive
##tutto
##uazione
##ugo
##ulo
##ume
##urato
##uzione
##venti
##verete
##vido
##visione
##voloso
##zare
##ziati
21
70
accendi
accompagneremo
adattato
aeroporti
affermato
afghanistan
agisce
agricoltura
aiutarli
akiko
angela
annunciare
antibiotici
apice
approva
approvare
arabia
arrivai
arrivava
arrivero
asciugare
assomigliava
assumo
attirare
attrezzi
avanzata
baciando
baldanza
barcellona
beccato
benessere
biologo
blocco
bouquet
brillanti
brucio
buttato
campus
cantano
capirebbe
capiti
carrello
cartellini
cellula
cercheranno
chiacchierata
chiamatemi
ciliegi
cipro
circuncidere
cocktail
colloquio
colpire
comincera
comportando
condivise
considerando
consideravano
consiglierei
contando
cookie
credevano
cretino
cucire
culturali
deceduta
dedicare
delfino
delinquenza
dessi
detective
dipendono
ditegli
ditele
divertirono
divisi
drink
drogato
eccellenti
eccezionale
einstein
elettrico
eliminato
esprime
estivo
estremo
etadi
europee
fattorie
fbi
finge
finiro
florida
formato
fred
gergo
ghepardo
giraffa
grattacieli
groenlandia
guardiamo
identificato
idiozia
imitazione
imparerete
impressionare
indicato
indovinare
iniezione
insistere
intellettuale
interpretare
interruppe
intervento
intraducibile
investire
irregolari
irritante
istinti
istruttore
jet
kato
lesbiche
limousine
lione
liquido
luis
lussemburghese
lustra
magagniati
maglia
magnus
maiuscola
maiuscolo
maltempo
manchero
mangiavano
maratona
marilyn
matematici
medie
mentalmente
menzionato
metterti
miglioramento
miliardo
minerali
nascondono
negativo
notare
numerosa
nuotatrice
occuparmi
offri
oratore
orleans
ostacoli
ottimisti
paragrafo
parlanti
parlera
partecipanti
particelle
penisola
perfette
pesco
piangono
piatta
pinguino
polso
posanza
posasi
poterla
prenderlo
preparero
prestano
prestero
prevedere
procedura
pronunciato
proteine
provarla
proveniente
proveranno
proverbi
provoca
punk
quadri
quesito
ragazzina
rapinato
rase
religioni
ricordano
riduzione
rimpianti
rimproverato
rinascimento
rinnovare
rinuncio
ripararlo
riparazione
ripeterlo
rivederti
rivelata
rompesse
rompo
rovino
saltata
salvataggio
sapremo
sbagli
scaffali
scatarrato
sceglie
sconosciute
scopre
scordata
scordo
scorpione
scriviamo
sederti
sedute
separa
serviva
sessuali
shinjuku
sintomi
soldo
solleva
sopravvissuti
sopravvivenza
sorvegliare
sospettosa
sostituto
specifico
spegnete
spenga
spogliato
spreco
squillo
stampante
statistiche
storici
stradali
straordinari
strettamente
strisce
successa
suonavano
tagalog
talmente
tassa
team
tecnico
telefonate
telegrafo
temporanea
tensione
thailandia
timide
timidi
tollerero
tonno
tostapane
tovagliolo
trascorrete
trasferiti
traslocare
trentacinque
trovero
turistico
usb
utilizzarla
vaccino
valga
variano
variazioni
varsavia
vechi
vederle
vegetariani
venderli
venissi
vergognarsi
viceversa
vivevamo
vorranno
zaino
##ad
##aggi
##amento
##as
##bilmente
##cali
##cidi
##cipazione
##cito
##cratici
##crete
##cutore
##cy
##den
##dette
##dia
##diente
##duce
##el
##ficate
##gan
##gata
##gge
##giche
##gie
##gone
##grammi
##guay
##han
##iare
##iato
##ig
##ira
##lele
##liare
##liato
##lm
##matiche
##mele
##mmene
##mula
##navi
##nello
##neo
##nerete
##nio
##nstein
##ntro
##oko
##olo
##pare
##pitato
##porta
##pulso
##rabile
##rali
##ran
##ratto
##ravi
##reranno
##rerete
##rry
##rtato
##rutture
##rve
##scio
##sito
##siva
##ssiva
##stente
##sticato
##stratta
##suro
##teri
##tion
##toni
##ttono
##ucati
##uco
##ula
##uni
##urare
##urre
##venuta
##venuto
##viamo
##vite
##volmente
##zera
##ziona
##zionate
##zziamo
4000
abbassava
abbattevano
abbatto
abile
abuso
accadesse
accadono
accetterebbero
accidentalmente
agricoltori
aiutai
aiutasse
alaska
algeri
alieni
allergie
alloggia
allontano
alpi
ammorbidito
analfabeta
anelli
appello
aprira
apro
arnold
arrende
arrotolandoli
aspettavi
assomiglio
atterrare
attico
attive
attrazioni
aumentati
aviv
ballava
basco
batteva
beatles
bersaglio
bevevano
biliardo
bistecche
branco
brian
brodo
bruciata
bulgaro
calmati
calvino
calzini
cancellata
cantiamo
caos
capiro
caratteristiche
carlos
catinelle
cavarti
celebrato
celebre
censurata
cercarlo
cercheremo
chiamarlo
chiedevo
chiedono
cileno
cipolla
circolo
circondata
climatico
clown
collegare
coloni
colorate
colpetto
coltiva
cominciata
compravano
confidarti
connessi
conoscera
conoscerlo
conquistare
consegna
controlla
controllava
coprirti
coraggiosi
correggano
cosciente
costituisce
creativi
cresciuti
cucchiaiate
cucinera
cuoca
cuocere
darsi
debolezza
decappottabile
democratico
depressa
destinatario
destinato
detesti
dichiarare
diciannove
dimagrire
discutendo
disturbarci
disturbera
dittatore
diventerete
divide
documentario
domestici
donald
eccetto
edgar
effettivamente
elettricista
elettronico
emilia
emozionato
energetiche
entrera
esagera
esausti
esclusivamente
eseguito
esercitare
esista
esito
espressioni
everest
faccenda
farebbero
federale
finendo
firmo
fiscale
fischiava
flessibile
fluenza
fondamentali
foreste
formano
fotocopiatrice
fragola
frequentarlo
furiosi
generi
generosa
geni
giardini
giocata
girarci
giumenta
glutine
gomma
grammaticalmente
grate
gratto
gridato
guardavano
hanako
henry
ia
illumino
imbarazzate
imbattuta
imbecilli
imitano
immediato
imparai
impazzito
impermeabile
imprevedibile
incontreremo
indiani
indice
indigeni
infestata
insegnasse
insonnia
interesso
invernale
jeans
keiko
lamentarti
lampeggiare
lascialo
lavavi
leccava
legend
leggevo
letteralmente
lunare
macedonia
maestra
manico
mcdonald
meccanico
melbourne
miami
migliorata
minatoria
modella
moriranno
mp3
multilingue
muove
nascondeva
nativo
necessari
network
nikko
normalita
nucleari
nuotatore
occuparsene
oceani
odiato
offro
olimpiadi
onestamente
orale
orari
oslo
ostriche
paragonato
parlarlo
patologico
pento
percentuale
perdonera
perfino
permanente
piaceri
picchiavano
pigiama
pipistrelli
portassimo
porvi
pranzi
predicatore
prenderanno
prenderete
prenotazioni
prepararmi
presentata
prevede
procrastinatore
programmazione
proiettili
prossimi
pulisci
punizioni
quota
ragionata
reciproco
referendum
rendi
resteranno
riavviare
ricevetti
ricompensa
ridacchiavano
riduce
rientrato
riferimento
riguardante
rimedio
riordinare
ripugnante
risparmiato
ritengo
riusciremo
riusciro
romantica
rotondo
ryck
saltate
salvarla
sanguino
sbrigativamente
scadra
scambiare
sceglieranno
scesero
scettico
schiacceranno
schiaccia
schwarzenegger
scottato
seguiranno
sentirlo
sfera
sfrecciando
sfrutto
showroom
significhi
singolo
sofferenza
sognano
solitario
sostantivo
sostenuto
sottovalutato
spasso
speranze
speravo
spiegarlo
spiegarmi
spoglio
spuntino
stephen
straordinaria
stringevano
suicidera
superficiale
suppone
tecniche
tel
telecomando
telefonico
temevo
terminal
terrore
terrorizzati
tipico
toccherei
tollerare
torneremo
torturate
torturati
tragico
tremano
truffatore
tuffata
turistica
ucciderla
uguale
ugualmente
unira
unitevi
urdu
urumqi
usati
usciranno
utilizzarlo
veicolo
velenoso
vendera
veterano
viaggiatore
viennese
vivra
wow
yogurt
##ari
##asa
##atico
##atti
##azioni
##bando
##bare
##bbedito
##bert
##brico
##ccano
##cenere
##cesimo
##chiko
##correre
##dano
##die
##dino
##dirmi
##dizioni
##dre
##dute
##ficazione
##fitti
##gano
##genza
##ggere
##ggini
##giano
##gui
##ibile
##ivo
##jan
##kusa
##lai
##landesi
##larono
##latore
##lena
##lenti
##lera
##lf
##lici
##lizzazione
##llito
##loni
##loso
##lovacchia
##midi
##minati
##mma
##mpare
##nario
##ndere
##nendo
##nera
##ngere
##nosa
##nse
##nsori
##ntento
##nuto
##pardi
##pero
##plicate
##polare
##pp
##ppati
##ppy
##pre
##prensibile
##ption
##ranio
##rda
##rdito
##reremo
##resi
##riamente
##rici
##rine
##riosi
##rismo
##rma
##sette
##spirano
##ssibile
##ssico
##stanza
##stro
##tami
##tanti
##tarono
##tavo
##tele
##ter
##tizia
##tro
##ttati
##ttura
##tturo
##tu
##udo
##udu
##uino
##uso
##utamente
##vabile
##vale
##valutare
##venuti
##vio
##visti
##volti
##ware
##ziano
##ziose
1939
1941
1950
23
35
80
95
abbandonate
abbracciato
accetterei
aeroplani
aeroportuale
affinche
affonda
affondato
aggeggio
allan
altrettante
ambizioso
app
apparire
apprendere
apprezzare
approvata
argomentazione
arrabbia
arroganti
arroganza
ascoltami
ascoltano
ascoltarlo
ascoltavo
assassini
assicurato
assonnate
assumera
attaccata
attirato
attrazione
australiana
austriaca
autorizzo
ayako
bancarotta
barbara
beethoven
benedizione
berlinese
beviamo
biondi
birre
blues
bolletta
brandy
british
bruciando
busso
caffettiera
calcolatrice
camicetta
camminano
capanna
caramelle
casetta
cavolo
celebrita
cellulari
cenera
cenerentola
central
cercai
cestino
chiamerei
chiesero
chimici
chitarrista
chiudete
ciclo
cifre
cinquant
circo
classici
colleziona
colombia
colonne
colosseo
commedia
completare
completato
complete
comprerai
compresse
consapevolezza
contano
contenuti
conveniente
convinse
convinte
costerebbe
costituito
cottage
creative
cricket
cucino
cuciva
cuffie
curo
custodia
deceduto
degas
delirio
deliziose
deliziosi
democratica
deserta
diedero
differiscono
dimenticati
direbbero
diresti
disegni
disoccupato
disordine
disperatamente
disponiamo
dormiamo
dormivamo
enigmi
erede
esausto
eseguire
esigenze
esitare
esplorare
estintore
fabbriche
fabbrichera
fantastici
fatelo
ferrovie
finanziari
finanziaria
fissare
ford
formalita
formule
fossili
fotografiche
fratturato
freezer
funghi
funzionando
gattino
geometria
gesso
gesticolava
gesto
giulietta
gocce
guarito
guinea
igienica
immerse
impararlo
imparziale
implica
importiamo
impressionante
impressioni
inaspettatamente
indispensabili
influente
ingenua
ingrasso
insegnero
internazionali
inventata
inventate
investigatore
irrilevante
istruito
judo
kanji
koala
koko
kumamoto
lacrosse
laghetto
lattea
lavarti
lavastoviglie
leggiamo
lepre
letterale
libbre
licenziare
loiseau
lumache
magnifiche
mandami
mantenne
massima
medica
medievale
medioevo
memorizzazione
meravigliosi
messaggero
miglioro
modificare
modificato
monumento
museum
nano
negativi
nelson
nuotero
obbligate
obiezione
occuparsi
odiamo
olive
omosessuale
orzo
ottant
overdose
padella
padroni
panna
partendo
partirai
pc
pensera
pentira
percezione
perdente
permettera
permetti
persuadere
pesche
pfirsichbaeumchen
plagio
pochino
pokemon
polacchi
polpette
pompieri
pongo
popolazioni
portarlo
portarono
portavoce
porteranno
post
potenti
potervi
potranno
potuta
preferibilmente
premier
prenderemo
presentati
presentero
prigioniera
programmatori
prostituta
protagonista
protesta
provarono
provenienti
provocato
puliti
puramente
quadretti
quattrocento
raccolte
renderanno
rettili
ricercatori
richiamato
richiedo
richiedono
riconoscimento
ricorrere
ricostruire
ridotto
rifarlo
riferisce
rifiuti
riflessione
riforma
rilasciata
rilassata
rimandato
rimando
rimanete
rimaniamo
rinnovato
riporto
riposarti
risale
riscrivere
risparmia
riuniti
rompicazzo
sake
salsiccia
samurai
sanitaria
saperne
satellite
sbarazzarmi
scappata
scettici
scomparire
scoprira
scrivimi
sedervi
segnali
separata
sfortunato
sin
sincere
sinceri
smoking
soggetti
soggiornato
sondaggio
sorso
sospettoso
spaventosa
spiegargli
spinge
spingere
sporcando
stancata
starai
suonavo
telescopio
televisori
templi
tennista
terminare
testimoni
testuggine
tokio
toronto
tradire
traducendo
trasformazione
tribu
triplo
tuffato
tumore
ubriacarsi
vacche
valida
venduta
ventunesimo
verremo
violazione
visitatore
vitale
voluta
yumi
zoppicato
zuckerberg
##63
##65
##70
##76
##92
##95
##africa
##aria
##arl
##avano
##avi
##bana
##batte
##beth
##biche
##bici
##bisce
##braccio
##buiva
##buzione
##camente
##capito
##cchiavo
##cciate
##centrico
##cinante
##cini
##cript
##ct
##dad
##dato
##detta
##dge
##dienti
##discono
##done
##duco
##eni
##eno
##enza
##erebbe
##erei
##esimo
##esti
##evo
##fera
##feri
##finita
##fitto
##gara
##gavano
##ggendo
##ggiamento
##ggiati
##ggine
##gh
##grammo
##guaglianza
##hara
##hon
##hy
##iana
##iano
##icato
##idi
##ika
##ile
##inson
##irono
##isca
##kura
##ky
##lavo
##ldo
##leranno
##lga
##lina
##llera
##logico
##mani
##mar
##mata
##menta
##mentazione
##mentero
##messa
##minate
##minciato
##mismo
##missione
##mpe
##nari
##nea
##nso
##ntera
##nuita
##nya
##nzialmente
##nzioni
##od
##ola
##ologiche
##oroso
##otta
##peau
##penda
##perta
##pongo
##ppava
##primo
##quenza
##rabili
##rad
##ranti
##rcia
##rence
##renze
##ressione
##reta
##riale
##riana
##riere
##rieta
##ritti
##rive
##rizione
##rl
##rnato
##ron
##rse
##ru
##sessuali
##sha
##sio
##sori
##ssato
##ssioni
##ssivo
##ssuale
##stata
##sulta
##tazioni
##teranno
##teria
##tibili
##ticamente
##tino
##tipo
##tita
##trica
##tterete
##ttibile
##ttiche
##ttino
##tture
##turale
##uano
##uare
##ude
##udere
##ughe
##ul
##ulnerabile
##unava
##uncero
##unciato
##unte
##uoti
##urla
##vati
##vato
##velo
##verse
##vida
##vidi
##volo
##vono
##yuki
##zionare
##zionati
##ziosa
120
17
1940
1975
1990
2000
27
abbaiava
abbattono
accendono
accettammo
accettarlo
accusate
accusati
acquistato
addirittura
adorabile
adottate
affondata
afrikaans
aggiungeva
aires
alfabetico
algerini
alimentata
allievi
alluvione
ammettendo
ammettera
ampiamente
andiamoci
anguria
annegata
annullo
appeso
apprezzamento
approccio
approfittando
appunti
aprono
arriverai
arrossi
aspettarlo
aspettati
aspettativa
aspetteremo
assemblato
assomigliare
attuali
auguri
autobiografia
autorizzati
autostrade
avvisato
baciarla
bagagliaio
banali
batta
belfast
beth
bisognera
bjork
braccialetto
buenos
buonumore
burocrazia
cagare
calciatori
cambiarlo
cammini
capitali
capivo
cartella
cascate
castani
ceramica
certificati
cestista
cheerleader
chiamavano
chiederlo
chirurgia
classi
classico
coinvolta
colpevolezza
commerciali
competenze
competizioni
compiere
comporto
comprarne
comprerete
conciliare
condizionatore
condominio
conducenti
confronta
contagioso
contatti
cresciute
croato
curie
curriculum
danzava
darete
delicata
derubare
descriveva
deserti
difendevano
diga
diremo
disappunto
discusse
disk
disperazione
dispositivo
divertiremo
dividere
divisione
dormivo
doveri
dovettero
drasticamente
dublino
durano
edizione
educata
eh
elfi
elisabetta
emet
energie
ergastolo
eroina
esagerare
esamino
escandescenza
escursione
esistano
esploderebbe
esserlo
estetica
eterna
evidentemente
evitavano
facessero
faremmo
farshad
fast
fazzoletto
fenomeni
fermava
ferrovia
fidarvi
fidiamo
flash
food
forum
forzato
fotografico
france
frontiere
fumando
fumano
gela
generazioni
genitore
gentilmente
geografia
gestita
giardinaggio
giocatrice
giornalismo
girate
gomito
grammaticali
guidatore
hockey
identiche
imbarco
immigrato
immobiliare
imparerai
imparero
impianto
impormi
impressionati
imprigionato
inaugurazione
incontriamo
inconveniente
infastidita
influencer
informo
ingegneria
iniziativa
insegnarti
insisto
instagram
insultarmi
insulti
integrale
interruzioni
intimi
introdotto
invecchiando
inventare
investendo
irresponsabile
isolato
ivy
jacques
jessie
julia
kakogawa
kansas
kashgar
kuzey
lavoravano
lavorera
lesbica
letteraria
libbra
litigano
lontananza
louvre
maionese
maleducazione
malesia
manager
mangiarlo
mannaro
marketing
marx
matematico
mattoni
maturita
mediocri
meditazione
mentali
mescolate
messicana
mettermi
miliardario
milionari
minigonna
minimarket
monopolio
morbida
multe
muratore
murphy
muscoli
nagasaki
nascono
nazionali
neonato
nizza
nutre
occasionalmente
occupare
olandesi
oliva
orecchini
orientamento
originari
originaria
ossessionato
ostinato
pagheranno
panetteria
particolari
peggiorando
perdete
perdevano
perdiamo
permettimi
permetto
personal
petizione
pianificazione
pipa
pirenei
pitturare
portiamo
positiva
posizioni
poterlo
precisato
prepari
preposizione
presero
presumibilmente
pretendo
pretesto
prevedibile
problematica
progettando
pronuncio
protegge
proteggerli
provarci
provavano
proviene
provviste
psichiatra
psicologica
pubblicata
quadrato
quebec
raccontando
radioamatore
ragionevoli
rammarico
reagire
recuperato
regioni
rendimento
resteremo
ricevono
richiamera
richiedere
ridicola
rientra
rifletti
rifugio
riguardano
rilassante
rilassato
rimpiangera
riparerai
ripetera
riservato
ritornate
rivelare
rivolgersi
roditore
romana
rubava
rumeni
saboto
sacrifici
sanguinavano
sanita
sapeste
sasha
saudita
sbuccia
scadenza
scambiata
scappati
scappo
scarponi
scavato
scegliera
scettiche
schiacciare
schizofrenico
sciocchezza
sciocchezze
scoppiare
scoraggio
scordare
scrivevo
scrupoli
seguirei
selfie
sequenza
settant
settantadue
sgabello
silenzioso
simboli
smettete
sobrio
solido
solitudine
sordi
sorvegliarti
sospetta
sostituire
spagnoli
spengo
spiegherei
spiegheremo
sportivo
sputo
squali
stagista
stereo
stiro
straordinariamente
suoniamo
sveglie
sysko
tabacco
talentuoso
telefonera
tendiamo
teorie
terminato
testarda
toccarmi
tonnellate
tossiva
tradendo
traduttrice
trascurare
trasferirmi
trasformo
trovarti
tubo
tuffo
tunisi
turca
uganda
umiliata
unirvi
up
uscirono
vampiri
vegani
vegano
venderanno
vendeva
verrebbe
vestirsi
viaggeremo
viaggiate
viale
violinista
visitarlo
vogliano
zitti
zitto
zola
##56
##62
##69
##77
##82
##ameremo
##amole
##ang
##ante
##anze
##avier
##bai
##bali
##belle
##beti
##biate
##bite
##borato
##bro
##camera
##ccando
##cciano
##cer
##ceremo
##chen
##ciata
##cido
##citato
##cite
##creti
##culo
##cura
##cuzione
##dare
##ddisfazione
##desi
##dete
##dici
##dista
##dotti
##dualmente
##duta
##ello
##fatto
##fensiva
##ferenza
##ferire
##fezioni
##fficaci
##fficienza
##ficati
##fie
##fora
##forme
##gga
##ggero
##ggiando
##gnone
##gs
##guo
##ibita
##icamente
##il
##imer
##imo
##iolo
##landese
##lando
##lante
##lanza
##lento
##lenza
##listi
##lizzare
##llina
##lotto
##lu
##lustro
##lvia
##matica
##metta
##mini
##mitando
##my
##narlo
##nco
##ndono
##nelli
##nimento
##nito
##ntava
##ntenta
##ntrata
##ntrati
##nuta
##nvolgente
##ologo
##oti
##otica
##patia
##patico
##pendenti
##perando
##pianto
##pica
##pici
##pie
##pingo
##piscono
##plica
##plicita
##pone
##portare
##porto
##poste
##pparsi
##pper
##ppera
##ppie
##pressi
##puscolo
##quattro
##quisito
##raneo
##rarti
##rassi
##ratori
##rbo
##rchia
##ressi
##riano
##riato
##rira
##rmato
##rna
##rnale
##rnera
##rva
##scilla
##scrivi
##shu
##sima
##sire
##sisce
##siti
##sivi
##ssata
##ssuti
##strato
##sy
##tai
##taria
##teci
##tene
##tenza
##tha
##timo
##tismo
##tola
##ttando
##ttatori
##ttera
##ttiti
##tty
##tuita
##uario
##uchi
##uisce
##uma
##unciata
##unite
##unti
##uove
##urosa
##uroso
##utato
##van
##vania
##vazione
##venute
##viglio
##vini
##volgere
##volte
##vy
##ziali
##ziamo
##zy
##zzarlo
##zzavo
##€
1971
2021
31
98
abbandonano
abbandonavano
abbassate
abbonda
abbondanza
abitando
abolire
accettata
accetteremo
accettero
accolgo
accompagnarti
accompagnero
acida
adattarsi
addestrato
addetto
affar
affermazioni
affittare
affronta
africano
agito
aids
aiutarle
aiutarsi
alcolizzato
alexandre
algerina
allacciarmi
allacciati
allah
alleviare
allontanati
allontanato
allungato
amaca
ammala
amministro
ammirare
ammiratore
ansioso
apocalisse
apollo
apparizione
apparso
aprirlo
argilla
armate
armonica
arrugginito
artificiali
artistica
asciugati
aspettavate
assassinare
assonnata
attaccare
attaccarono
attaccati
audiolibro
autografo
avanzate
avanzati
avanzava
avverarsi
avvertito
avvisare
badare
ballando
barista
bastoni
batteri
bau
best
bicchierino
bielorussia
bilancio
bisonte
bisonti
bollette
britanniche
bruxelles
buchi
butta
caffeina
calcolava
cambridge
cantera
capolavori
carine
carpentiere
cartoleria
causano
caviglia
ceduto
centesimi
cereali
chiedigli
chilogrammi
chiocciola
chiodo
cicatrici
ciliegie
collegate
collegato
collezionare
collezioni
colonizzazione
colpisce
combattevano
compatibile
competitivi
complessi
complimento
comprarsi
comprati
comunisti
conchita
concordo
concorrenza
confido
conoscevi
consegnata
consentito
consideriamo
conteneva
contrasto
contribuiscono
contributo
controversa
convincente
copi
copiare
costata
costruisce
creano
credermi
credibile
criticare
critici
cronica
cubo
curato
daltonico
danzica
darlo
debolezze
decenza
decorazione
delhi
determinata
detestiamo
diarrea
dicevano
difficilmente
dima
dimenticarono
dirige
dispiaciuti
dispositivi
disturbato
diverte
dj
dondolava
draconiane
dureranno
ebbero
ebollizione
ebraica
eccolo
eclisse
effettivo
elba
elementare
elettronici
elevatore
eliminata
emozione
epidemia
eritrea
esaminando
esausta
esplicitamente
essenziali
estende
evitando
evitato
evitava
evito
fall
fantascienza
fermera
fiasco
fidata
fig
filosofi
finirono
firmware
flusso
fluttuava
forniscono
free
frustrato
fumavo
funzionalita
futile
galileo
galleggiava
galleria
garanzia
geniale
gervaise
girasole
giudicando
goal
grattacielo
greene
guidando
guidavano
hakata
handicap
hyogo
identico
ignorante
ignorate
ignorero
imbucare
impegni
impiccato
impossibili
imprese
incirca
inclino
incolperei
indico
indiretto
infinite
ingegneri
ingorghi
iniziate
insistette
insoddisfatta
intendeva
intendevo
intendono
intrattenimento
intuizione
invia
invidioso
invincibile
invitarono
ironia
irruzione
isolamento
ivan
jamal
jason
jefferson
joseph
karima
kendo
kirghizistan
lamentarvi
lamentato
lapidato
lasciarci
lattuga
lavatevi
lavavamo
lavoreranno
leccare
leggilo
liberera
linguistiche
lisca
localita
lottando
maglietta
maiali
mangera
mangiati
manifestanti
mascarpone
maschere
matt
mediche
menopausa
mentale
meraviglie
meritiamo
merkel
mescolare
mescolo
mettilo
mica
minacciati
minigonne
minima
minoranza
minoritarie
misteri
misure
miti
modesto
molecole
montecristo
mordo
moriremo
mostratemi
mutuo
nani
nazisti
nepal
novellino
nozioni
nuja
obbiettivo
occupera
offrire
oggigiorno
olfatto
orgasmi
originali
originario
ospite
osservando
ossessionati
ostile
ovvia
paella
paniere
pannolino
pappagalli
paragonata
paragonati
parecchie
parrucchiere
partecipano
partirete
passano
passarmi
passatempi
patrimonio
paula
peggiora
pellicola
penale
pensateci
pensavamo
penseresti
perdevo
pericoli
perseveranza
pinze
pitturata
porle
poteste
precedenza
precisa
predire
preferibile
preoccupano
preoccuparvi
preparativi
prescindere
prestera
prevenire
problemino
procedure
professionisti
prospettive
proteggerle
protetta
pubblicati
punteggiatura
purche
quadrati
qualificato
raggiungerlo
rango
rapidi
rapitori
reagito
realistico
recita
recupero
repubblicani
residenti
residenziale
restituiro
ricambio
ricercare
ricevo
richiedera
ricordatevi
ricordiamo
ridotta
rientrate
righelli
rilassati
rimuovere
ringiovanita
ringiovanito
ripararla
riprendera
ripristinato
rischiato
rischioso
risiede
risparmieranno
ritrovato
rivisto
rivolgermi
rompermi
rosmarino
rotonda
rovinare
rutto
saitama
salame
salava
samba
sarcastica
sbattuto
scambiano
scarica
scatarro
scendo
scheletro
schiacciate
schiaccio
schizzato
scialle
scientifici
scolastiche
sconosciuti
scordai
scrivanie
scriveranno
seller
selvaggi
sembrato
seminterrato
semplicita
sensibili
separare
serratura
sessant
sfigmomanometro
sfruttare
smetterla
sopravvissuta
sorgere
sorridono
sostanze
spaventa
spazi
spaziale
spedire
spiagge
spiegarvelo
sporgersi
sposando
starnuti
stereotipi
stesa
stoffa
struzzo
studentesco
studiavano
studiavo
stufato
stupirsi
suggeriscono
suonero
superman
supportare
surf
tamigi
tamori
tampa
targa
tatuaggi
teatrale
tecnici
temperature
terapia
terminata
terrorismo
terrorizzata
tette
tim
tina
tipica
tollerante
tono
tradurro
transizione
trascorsero
trasferite
trasportando
troveranno
tunisia
uccidendo
uccido
umida
umidita
unicellulare
usciremo
vancouver
varicella
vecchiaia
vendero
ventotto
vernice
verticale
vescica
vetrina
vicolo
vietnamita
visiteremo
vocazione
volava
voleste
vomitarono
wendy
wrestling
zezo
zone
##!
##$
##%
##&
##'
##+
##,
##.
##;
##<
##?
##@
##_
##j
##q
##£
##æ
##ø
##ı
##ł
##ɔ
##ə
##ɪ
##ʁ
##ʊ
##ʒ
##ˈ
##ˌ
##ː
##π
##а
##—
##₤
##→
##あ
##明
