start_of_sequence_id
end_of_segment_id
padding_id
mask_id
!
$
%
&
'
*
+
,
.
0
1
2
3
4
5
6
7
8
9
;
<
?
@
_
a
b
c
d
e
f
g
h
i
j
k
l
m
n
o
p
q
r
s
t
u
v
w
x
y
z
£
¥
°
×
æ
ø
ı
ł
œ
ɔ
ə
ɪ
ʁ
ʊ
ʒ
ˈ
ˌ
ː
π
а
с
—
‚
₤
€
→
あ
明
the
de
to
la
in
you
tom
en
que
je
is
of
il
that
##s
and
me
le
die
un
est
vous
he
pas
ich
was
for
les
el
ik
du
it
ne
es
der
und
et
se
tu
with
have
##e
che
het
och
den
att
van
no
my
do
this
te
they
are
she
si
as
sie
som
zu
mary
we
elle
er
ist
une
his
on
een
jag
di
nous
be
des
not
ai
qui
so
ce
##n
your
don
nicht
om
at
an
what
das
als
mi
con
dat
zijn
una
ils
will
##en
sa
dans
from
like
can
non
pour
##r
hij
det
##t
want
had
##a
if
niet
know
there
los
qu
who
del
av
by
lo
her
him
all
al
ar
dass
but
von
were
when
met
has
pa
han
inte
mit
elles
por
su
think
come
till
dem
son
##d
avec
one
ein
da
plus
suis
wie
go
about
mijn
au
ont
said
auf
med
time
would
how
mig
didn
ma
##o
op
##i
como
har
sich
mon
per
hat
ze
para
eine
avez
lui
mich
etait
las
var
very
##es
ve
ou
war
mir
re
sont
did
dit
wir
sur
here
par
man
comme
going
esta
naar
wenn
been
voor
##te
more
than
their
ha
boston
cette
##er
fait
va
moi
or
hier
habe
out
doesn
mas
aan
why
told
ll
ben
up
only
us
kan
see
many
people
votre
##de
because
fur
am
tout
which
door
##ing
vi
good
still
get
tell
never
sind
where
um
much
ihr
now
alla
einen
bien
marie
io
our
##nt
ete
mais
etre
era
them
tres
sin
hem
just
dan
alle
fran
should
wurde
over
bin
##re
wird
sig
other
too
heb
last
sein
ses
zo
wat
before
men
isn
love
nar
heeft
piu
something
mij
make
faire
aus
cosi
min
meine
quand
went
dig
honom
new
noch
two
lot
some
car
anything
im
could
into
haben
maar
werden
always
kommer
ett
ici
day
hade
french
help
hatte
waren
any
god
andere
##z
aber
without
veux
every
say
first
really
three
sus
school
##to
toen
##ta
cuando
della
nu
avait
geen
avons
uns
kann
deze
take
pero
ever
haar
mein
then
aime
##do
beaucoup
beatrice
seine
jamais
work
long
##l
deux
uit
ti
##ra
rien
grande
after
teacher
way
yo
mes
tot
wanted
years
ihn
##ed
book
nach
tan
zal
etes
leur
world
autre
este
ella
meme
vont
etais
ni
quel
sure
diese
train
dich
speak
temps
tous
waar
zou
english
ser
saw
does
encore
thought
porque
such
sono
##na
skulle
back
hans
please
friends
those
anderen
##ar
got
house
life
##ndo
##no
tomorrow
made
even
dar
quando
give
##ly
##va
money
##da
right
entre
sehr
home
mio
father
these
ihm
vu
loro
oh
gli
need
worden
won
maison
used
things
dann
einem
little
maintenant
dire
peut
sag
mal
today
monde
place
ur
well
cielo
down
einer
argent
ces
solo
meer
##ment
problem
yesterday
must
party
mehr
morning
next
##ti
wil
estaba
eat
point
dir
andra
hebben
zich
donde
everything
look
alles
sommes
##y
nos
asi
sua
comment
voir
besoin
tatoeba
weg
##le
sagte
toi
toujours
maria
understand
great
parents
tanto
its
vara
hun
mia
hast
trop
##se
ons
allez
ta
live
read
ton
uno
while
vor
aqui
already
wo
let
night
oder
talk
children
peu
asked
friend
water
zei
chose
language
ca
suo
old
most
mer
mis
cui
nog
questo
same
moment
virgil
came
ihre
put
fenetre
quelle
better
perche
wants
question
kom
keine
sans
dieu
dieser
zij
left
parle
##is
##mente
peux
##it
person
pourquoi
pense
deja
australia
took
under
vad
far
etaient
year
find
fue
oss
immer
seen
enfants
werd
aren
mot
licht
autres
buy
habia
tiene
puis
dio
since
mother
away
ci
hoe
todo
doing
notre
believe
##lo
punto
##as
todos
zien
able
avoir
livre
also
aux
room
ohne
vos
##on
aussi
play
being
eller
everyone
jullie
another
parce
apres
bist
ya
ahora
name
uber
dal
ihnen
sehen
vers
vie
durch
ecole
mycket
parler
wasn
##m
alors
nel
viel
dijo
avais
may
dei
ga
liebe
maestro
aller
christmas
hon
nur
soon
found
happy
denn
thing
dos
homme
learn
##ne
nothing
use
zum
modo
##k
leurs
personne
##me
sais
##st
estoy
hen
words
wordt
week
john
peur
avant
ging
##ia
##la
muy
around
beautiful
allons
dios
upp
wer
##et
ese
fois
zag
din
each
entonces
##ig
femme
##ie
looking
ask
lost
sah
##mos
detta
sera
quien
jetzt
auch
nella
nie
yeux
hand
cannot
dieses
gran
amour
between
done
prima
air
dell
donne
omdat
feel
called
heard
##us
hacia
himself
kind
##ro
part
trois
both
ware
best
bij
grand
celui
gibt
##an
hay
leben
terre
again
seinen
##ste
dus
yet
esperanto
haven
cet
together
uw
pere
utan
important
arrive
off
study
weil
gut
meinen
virgilio
denna
raison
ville
##in
euch
gave
schon
tegen
hui
young
hur
aujourd
##al
leave
light
quelque
essere
eyes
henne
werde
often
verso
vill
deine
otro
quella
through
books
hard
tal
vas
city
commence
veel
mina
tengo
ho
looked
restaurant
says
voiture
##ten
efter
ciel
myself
chi
dove
goed
mitt
ogni
cio
eau
plan
zoals
bon
stay
cela
etwas
fa
prendre
answer
dalla
konnte
gott
hope
puede
sagen
woman
augen
bent
estas
poco
amor
bolgia
country
dois
sina
antes
bought
##ur
bus
fu
possible
divine
esto
ver
ancora
japan
library
altro
diesem
parte
##ce
situation
couldn
gehen
high
sentence
warum
anglais
cada
poi
someone
kein
others
mai
afraid
gaan
viele
demain
soy
difficult
brother
himmel
family
konnen
moet
jusqu
sei
mere
mind
remember
times
angst
nichts
tierra
zonder
earth
having
weren
jour
knows
terra
##ung
mundo
pain
change
nunca
disse
ellos
anymore
dog
happened
turned
zeit
mientras
weet
ceux
married
sia
sol
different
few
hasta
letter
##den
busy
twee
questions
vais
##ba
face
until
##si
end
dessa
faut
trouve
true
ans
doen
grote
students
due
esa
hotel
truth
genom
interested
ogen
liefde
##ns
unter
bis
drink
enough
sade
themselves
menschen
muss
passe
job
land
tired
li
tiempo
##g
might
travail
living
nom
ojos
senza
##nte
days
hemel
ner
sentences
vid
write
gens
stop
cause
despues
ten
ut
veut
eu
late
questa
wouldn
luz
zodat
amore
become
mentre
pris
vez
alone
lumiere
palabras
porte
frau
sami
bad
computer
idea
quello
weiss
quiero
sobre
translate
nooit
tua
laat
present
##ait
heute
lei
toute
welt
hate
word
seems
eftersom
macht
##ais
vision
nada
ihren
pendant
sedan
jeder
tun
once
parole
##ez
alleen
anyone
cosa
japanese
hombre
oreille
##ge
cafe
leven
wurden
##heid
nagon
onze
sister
spend
allora
ora
wahrend
##os
accident
fais
kunde
mucho
##ons
attention
mange
nature
alto
demande
fast
food
lugar
noi
paris
eux
##ken
##ts
sourde
started
diesen
own
toutes
bonne
front
sun
##cion
gud
keep
padre
talking
dinner
tutti
favorite
soleil
working
aide
donc
tennis
francais
open
##u
five
against
bei
lange
wrong
auto
pays
##ient
age
aveva
mort
fort
france
combien
desde
vom
waiting
divina
gick
hear
onder
almost
girlfriend
meeting
regarde
soit
sulla
table
decided
girl
gora
quanto
woorden
dort
police
visto
born
contre
else
soir
sous
##sa
chambre
film
full
heaven
vida
began
coming
hacer
ord
siempre
##ade
languages
minutes
summer
##vo
estan
mismo
sea
zwei
##ble
##ent
lives
seiner
vraiment
happen
knew
occhi
mensen
zur
geboren
otros
##f
ago
gar
voulez
bitte
satt
selbst
##ado
erde
tag
tra
waarom
heilige
kwam
na
poiche
##so
chez
fin
hebt
tutto
river
##ige
chien
deras
morgen
wissen
##ion
dopo
##lich
seem
station
studying
forsta
white
achete
gusta
luce
perdu
chaque
gor
looks
sieste
jij
##ant
pouvez
wereld
##io
aarde
bed
show
aeroport
aldrig
altri
fils
heart
kon
ready
died
longer
coffee
ed
reason
tried
tva
makes
ziel
gesagt
nagot
niemand
reading
vrouw
delle
hecho
souvent
turn
##ai
##nde
##vano
machen
ook
ska
casa
four
soul
tonight
venus
call
meinem
mente
belle
gente
blick
dag
hours
desire
fosse
momento
order
usually
ge
spent
telephone
try
tuo
##mi
choses
damit
##ren
alli
child
seinem
crois
speaking
##iez
anime
nosotros
tre
##tion
ames
grosse
sjalv
grace
altra
geld
mag
souls
hace
interesting
anche
cote
marika
punkt
seemed
sonne
usted
almas
grund
puedo
seele
zielen
saying
sitt
tes
##ng
opinion
reste
venir
fille
himlen
todavia
bara
hou
niets
probably
##are
##kt
##li
##sse
ad
cual
dein
dis
iedereen
langue
loin
became
kunnen
less
moins
quale
tenia
yourself
ame
gute
ingen
nouveau
seelen
##ga
dont
during
television
avaient
boyfriend
doit
hai
mochte
plait
stato
terwijl
vidi
heures
sleep
sorry
surprised
##zione
alma
tijd
chance
erano
homework
jorden
ogon
wife
##ire
gesehen
probleme
sole
ditt
doctor
esprit
information
nuit
pronto
afternoon
manger
mann
verite
guide
side
six
meiner
watch
wieder
##ch
##mo
camino
mots
music
seul
visit
##or
berg
death
semble
bort
phrase
##ca
daar
drei
mujer
tokyo
##at
getting
small
tempo
##het
afin
heureux
mieux
wonder
fell
frere
hablar
iets
kam
lehrer
making
quelqu
wind
##h
dies
eines
eso
fui
game
goede
number
puo
worte
##ions
big
care
laisse
luego
##el
early
whole
zullen
apprendre
livres
red
song
finns
movie
willen
##p
cold
listen
office
phrases
bli
eerste
faites
lang
##aient
dall
difficile
human
ihrer
juste
komt
nombre
start
wait
walk
allt
etage
force
komen
playing
tale
hart
hizo
kommen
manera
matter
drie
fire
piano
rester
rome
##ning
altijd
behind
fortfarande
heure
matin
mondo
##que
arrived
borjade
ljus
dia
goes
jeune
laten
mr
plaats
seulement
sguardo
zon
ami
art
gaat
month
photo
anima
etiez
later
steeds
stor
verdad
goddelijke
mountain
vita
wanneer
##das
annan
bene
comes
montre
sido
tant
triste
nell
reden
vater
##co
eres
trying
##ri
begon
body
finished
kommt
partir
return
zwischen
##ux
arrete
dentro
maste
nodig
sait
shouldn
whether
demasiado
karlek
manga
wasser
amis
depuis
dollars
vande
vilken
vue
free
gjorde
linda
sprechen
aider
suoi
unsere
##los
rain
sang
##ma
ob
##ci
##za
daughter
haut
manier
net
petit
christ
head
innan
learning
fuera
mejor
otra
pizza
verlangen
aucun
problems
second
##che
birthday
bring
chiens
keinen
lire
terug
todas
decir
gegen
geht
impossible
jours
tete
evening
gingen
idee
vite
avion
known
varje
froid
leraar
thinking
colere
deseo
donna
easy
etions
gab
kannst
premier
viens
vista
##igen
among
blev
certain
ferme
form
wollte
explain
facebook
faim
horen
large
manana
mussen
travailler
tussen
weekend
beiden
persona
quoi
staat
voix
women
york
miedo
miei
park
several
snel
monte
##ve
degenen
fall
ken
sue
tienes
##je
bas
chinese
fact
nacht
vet
famous
moved
schnell
seite
vem
voi
zeggen
adore
eating
hundred
##ite
elke
nez
sarebbe
story
tus
weather
##rar
##sen
company
dess
jouer
punt
sens
##gen
etudiants
fatto
fun
lettre
nadie
rather
viene
weise
wirst
habite
jardin
verloren
along
phone
sometimes
##c
##ue
black
lado
##ir
assez
favor
foreign
herself
medan
paroles
whose
anders
hands
near
pay
stad
algo
beide
denk
entendu
class
colui
gemacht
langre
proud
wish
##der
##les
derriere
dije
dina
hatten
molto
##ka
bevor
geest
gia
iemand
agua
aven
sara
##ert
##ness
##rono
devant
san
santa
stand
terrible
angry
glaube
nachdem
nor
sage
serait
stadt
street
student
tog
visage
##ni
connais
cristo
sjalar
varlden
alsof
durante
fick
maitre
val
zuruck
##cht
##liga
decide
lived
namen
ort
partie
professeur
wij
##able
gezien
hasn
madre
position
trouble
vient
vol
##ato
boy
chat
corps
desir
mains
sicher
though
toda
vader
voordat
##ter
aucune
continue
fine
ir
joue
manniskor
menos
tue
aun
deteste
tror
wine
ainsi
concert
dark
fear
komma
lunch
naam
written
wrote
##tes
appelle
brillante
geben
graag
histoire
secret
travaille
vois
buch
creo
killed
schien
learned
marche
mine
native
oublie
prefer
saint
toe
ziet
##dos
desiderio
likes
skall
zelfs
##ine
##ure
bajo
gerade
holy
hospital
italien
piece
rio
tillbaka
tour
united
##bar
##cia
brought
felt
italie
kant
peuvent
quite
##rs
causa
ecrit
half
jeden
saga
velo
vit
broke
cosas
geven
least
main
mutter
redan
tambien
uomo
hanno
nuevo
wilde
darfor
italy
mistake
pass
regard
sent
##ers
##ke
##x
erg
fut
leek
luogo
mellan
plats
worry
writing
##ad
##ando
corazon
degene
gezicht
gone
grossen
japon
sotto
top
venu
degli
moeten
taken
##ck
##gt
##heit
bank
germany
hot
lied
parece
supposed
church
hungry
move
pauvres
pijn
stopped
whom
deinen
ecrire
internet
prefere
public
rich
tellement
trouver
autour
chemin
german
nouvelle
nuestra
pres
price
sempre
vedere
winter
allemaal
expensive
libro
maken
mano
radio
thinks
tv
vag
varfor
works
30
america
primo
prison
quickly
spreken
##ada
##go
##nen
acheter
allen
aura
bois
bruder
follow
forget
guido
hell
planning
quelques
soif
swimming
trip
wegen
donner
future
jou
regarder
taking
tard
tourne
veces
zichzelf
##ja
clothes
contra
denen
geist
hoy
kunt
tree
wenig
accord
alguien
courage
essen
florence
hour
immediately
layla
savoir
##rna
animal
everybody
famille
anos
china
devez
europe
keek
meet
seule
sohn
via
##len
appele
arbre
flowers
gij
guds
invites
libre
nuestro
sorte
cerca
gerne
hijo
justice
langs
states
window
zie
##des
color
dead
lassen
natur
voyage
arm
given
habt
haus
lernen
nun
poor
sound
town
vier
vivre
arbeit
besser
direction
kraft
nieuwe
pretty
sommeil
store
##ic
christus
driver
quiere
voice
cuore
estaban
evil
fehler
fruit
gesicht
inside
necessary
noble
respect
sick
sondern
##b
bit
chess
chicago
endroit
faisait
hora
image
laquelle
maniere
montagne
short
similar
svarade
tranen
visite
chacun
glauben
liv
master
played
seid
sky
traves
cabeza
confiance
ero
etudier
halloween
instead
lat
stora
bang
cadeaux
flamme
grandes
hair
president
real
sollte
stesso
sul
telling
thomas
university
##ont
##rt
appena
begann
cat
derniere
distance
estos
finish
heiligen
ihrem
jouw
monday
popular
proprio
semblait
seria
simple
verstehen
wahrheit
walking
##lig
##ria
##ron
bridge
fare
fino
garden
gav
lungo
parti
quieres
semaine
sjal
snart
tienen
vetements
visited
##lichen
##ono
ab
altre
bureau
vandaag
##men
##ut
accept
decision
dingen
experience
fish
font
gaf
mettre
mie
puedes
santo
##ling
##v
aquellos
eaten
leaving
muchos
##man
##rade
##ted
abandonne
alltid
alta
mistakes
morte
picture
vin
voudrais
wearing
worried
zoon
cuerpo
forma
freude
houden
intelligence
kept
malade
noche
solen
star
weten
##use
ah
aimerais
compte
diner
dix
dream
ersten
longtemps
mourir
saker
toms
vilket
alrededor
cheveux
dinge
handen
helfen
helped
ja
jesus
parecia
premiere
received
savez
trabajo
vrai
##vi
appris
clear
fatigue
frage
igen
intense
samma
test
dolor
dood
estar
ii
ouvert
tala
team
tombe
trots
vaisselle
verder
##be
allein
blik
breakfast
devrais
frame
musique
razon
rest
rose
vilja
wollen
answered
armen
ciudad
dangerous
denken
heliga
hommes
hoofd
hund
perfect
sager
sagt
scheint
sortir
##ita
##ty
allemand
beau
bougies
debe
erreur
houdt
lieu
needs
pret
repondu
smoking
vis
##sten
##tte
aviez
einmal
final
gottes
hit
listening
mirada
misma
sadan
speaks
umbrella
voz
zoveel
##il
##ique
achter
brief
enjoy
gestern
invited
nice
queste
weit
worked
##mmo
##ras
bar
cauchemars
comprendre
dormir
fece
immediatement
maakt
outside
presque
rapido
satisfied
voluntad
wall
willst
##pen
gets
golf
heel
lit
message
questi
retard
sino
sweet
within
##lijk
bientot
eran
except
geloof
jupiter
onskan
opened
stimme
##nza
af
course
dice
essa
glasses
horte
joie
leve
parmi
quatre
riviere
send
solve
strong
telle
verkade
volonte
vroeg
zult
##ura
annee
boire
fete
huis
jahre
joy
mensch
schuld
sense
sprach
watching
##nos
##pe
american
clock
jaar
king
plane
quell
takes
thirty
tutte
vino
##ate
##lle
##rsi
##um
fueron
ger
gladje
kinder
kopf
nausees
perro
sing
sobald
troppo
vive
welke
##chen
##iga
##ze
antwortete
blir
dites
douleur
elkaar
feu
forte
jemand
male
set
vivo
werk
wilt
zeker
##ban
##ry
alive
antwoordde
corpo
cut
drunk
egli
familie
kijk
lait
lits
london
pieds
ran
sabe
taxi
##dad
##nce
##th
add
attendre
aver
case
close
etudie
hel
ins
mayor
podia
seven
st
thank
tid
vraag
wann
younger
##land
##ligt
dante
engel
intention
lijkt
lite
mannen
nostra
promise
reponse
sad
village
willing
wirklich
zoo
##eren
##ieren
##zza
acqua
aimez
common
hause
hela
intelligent
leute
mira
nei
past
possa
rivier
uncle
##ies
annat
baseball
correct
elk
envie
grave
kyoto
lasst
lichaam
oude
promised
runt
spirit
sta
towards
tut
##ls
##zioni
ansikte
blood
compris
court
ende
enfant
fallen
hubiera
parlare
parlez
power
sight
tea
trust
voici
##ity
##rse
##zo
avions
bleiben
bras
cara
comenzo
cuenta
dalle
denkt
gehort
news
stupid
tort
vertiges
voulait
voyez
win
chats
cuanto
daruber
enfer
fera
gaze
infatti
largo
mens
rapidement
recht
samen
source
spreek
thousand
affection
ate
diejenigen
englisch
forgot
lucht
luft
months
neither
project
rapidamente
speech
zeg
zodra
##ande
##ido
##ker
advice
building
difference
drinking
geweest
merci
mille
os
ouvrir
petite
plusieurs
tittade
weight
##rte
annu
boite
drive
expliquer
fragen
glass
invite
leaves
leiden
musst
natural
personas
route
spoke
understood
vinden
vreugde
##era
##iert
boden
demander
essayer
genade
groot
larare
lejos
letters
montana
nome
otras
pouvais
rencontre
returned
rouge
##liche
##rai
aurais
beneden
couteaux
eten
fortune
geworden
nara
oben
older
passage
sen
shoes
sunday
venez
coup
hadden
horizon
insieme
intorno
knowledge
law
personnes
piedi
pu
rock
stayed
storm
teach
vieux
visade
waarheid
##cio
##lt
above
aire
alegria
avevo
buena
changed
cherche
completely
consider
dents
error
hele
infierno
muchas
puisse
voce
voy
##erd
attraverso
blind
boven
casse
dame
damned
esas
figure
korper
naturaleza
oft
ooit
papa
permission
poisson
pouvoir
queria
rispose
studied
tat
##tta
according
angel
beginning
bland
buen
doubt
guten
intellect
lose
mur
noticed
sembrava
serious
stars
steg
ty
##ation
##igt
amigo
asleep
battre
beetje
comprends
dictionary
doet
dolce
douche
gemaakt
goda
guerre
haber
kill
llama
presence
showed
sprache
spricht
tener
translation
using
virtu
##ische
##lar
##nti
alt
careful
closed
created
ene
escaliers
facile
freund
gold
incluso
leer
paar
pleurer
prepare
sofort
sois
stem
strange
tarde
volonta
ander
contro
deep
dezelfde
enjoyed
gift
grosser
klaar
loved
meester
ningun
player
po
sign
sucre
swim
vielleicht
wunsch
##ian
##keit
##pa
##ting
bereit
beter
camera
conduit
droit
facon
feliz
femmes
finden
fleur
football
gagne
gudomliga
herz
hjarta
holle
nahe
ninguna
paid
pierre
precis
religion
teil
ustedes
##di
##ging
##rio
##rmi
airport
animals
blessed
daarom
either
ground
habla
horde
indem
ira
kennen
likely
mars
pousse
##ful
arriba
baby
bada
bald
dance
fiume
franzosisch
kanner
kracht
means
moeder
muerte
observe
oro
passer
pensez
reve
sehe
state
unhappy
unser
volta
weiter
yes
##ive
alas
arbres
celle
cinq
cost
dulce
erste
essence
followed
gewesen
guida
guy
inizio
kvinna
langt
maakte
machte
maybe
midi
offer
presente
proche
road
sordello
therefore
vacation
vagen
virtue
20
arme
getan
kinderen
langues
lu
mean
mindre
mois
persone
photos
seeing
sett
smoke
tochter
##ens
beer
bringen
cose
dissi
frans
fuerza
glucklich
happens
italian
liet
middle
mouth
peace
peter
propre
purpose
region
snabbt
tro
tutta
wear
wees
welche
wise
devons
doch
dormi
feet
foot
fuego
fumer
itself
machine
mobile
nager
needed
oud
oui
places
plaisir
reach
report
soyez
tandis
tel
travel
uhr
verlassen
visa
voulais
wagen
zusammen
##ft
##urs
aimes
business
cirkel
creature
devenir
dietro
dress
eterna
fuerte
gracias
hermano
podria
puerta
schaute
schule
siete
snow
universe
varit
##ere
##ner
arno
bereits
cache
daran
ecoute
fanns
feeling
hennes
londres
moon
natura
nehmen
nino
novel
plans
tar
translated
tur
vent
veta
##idad
##ungen
10
carefully
conduire
cruel
dachte
danger
davanti
dinero
fluss
government
hilfe
horrible
italia
lights
meno
passed
pouvait
run
weniger
##ront
##ven
allowed
begrijpen
bicycle
cree
eternal
faith
health
journee
kande
liked
madchen
nadat
paso
senti
sola
stessa
wort
##ier
apartment
arabic
aurait
beach
cars
cours
exactly
garde
gedaan
gioia
gottliche
importance
minute
nobody
obwohl
ones
path
patient
primero
sieht
soll
stelle
vanwege
verkar
vogel
vragen
affetto
aspetto
carro
coronavirus
divino
espiritu
husband
ice
osaka
porta
pracht
pueden
sidan
sinne
##ll
bill
couple
eens
eigen
figlio
forward
giorno
gnade
however
ill
mar
numero
poder
prepared
reussir
safe
sale
shall
singing
tenemos
thanks
veulent
##ee
##igkeit
accepte
actually
amie
cinema
england
gern
halten
hunger
journal
lie
ljuset
manos
mezelf
namn
neuen
nostro
qualcuno
rapport
suivre
tomber
utiliser
vertu
walked
##he
##rlo
accompagne
beauty
detto
fondo
forest
gebracht
girls
grandi
hinter
importante
koffie
malabocia
paura
praten
prie
quelli
respondio
sit
sitting
stata
testa
traffic
vele
vertel
##isch
##sch
alte
col
countries
davon
dolore
estado
excuse
finche
flower
getroffen
guarda
hablo
inferno
interessant
klein
montrer
nessuno
rendu
rost
silence
spirito
virtud
volvio
##ien
aunque
berber
broken
catch
condition
cualquier
dai
dank
dernier
ensemble
europa
existence
fly
hombres
inmediatamente
keer
mond
movies
neue
peche
pouvons
prete
punished
spreekt
toward
utilise
volte
##ida
##ist
aria
canada
ceci
circle
hoop
jede
kunst
led
mude
nulla
occupe
sprak
subject
upon
vuur
weer
yours
##bile
##mento
abend
begin
cadeau
dazu
detras
devrait
expression
forme
forza
framfor
gedanken
gefallt
halla
heller
jeu
kleine
lever
manque
noise
ocksa
paix
primer
saber
serai
spaghetti
tills
zeer
##less
##nes
##w
abajo
advised
ganz
genau
guia
helpen
history
meister
nourriture
ormai
stone
twenty
vriend
##ata
aurez
bakom
deinem
deiner
destino
eggs
einige
ganze
genoemd
medecin
nad
nam
nervous
rom
spanish
step
talked
wandte
welcome
##rti
ancient
angeles
area
avere
bread
bu
chercher
details
dogs
green
hoeveel
hond
langer
lequel
liess
lika
moglich
pensais
realized
shop
somewhere
stolz
##ncia
##sche
##ute
actions
ali
arms
asking
band
bewegen
bron
covered
crime
crying
deel
duidelijk
etats
hoge
honor
hurry
katze
kwamen
lete
original
pictures
raining
result
riche
rief
smarta
ticket
tod
tugend
unis
weeks
weisst
##ende
##est
##mes
##tto
ait
appearance
appeler
attend
bild
blanc
boek
eye
fraga
gegeben
grond
laatste
memoria
nahm
rede
soccer
stod
tears
##res
##zen
antwort
beratta
estamos
etoiles
fram
furono
group
held
mauvais
save
seront
stond
##ern
##lla
arriver
biere
blue
conversation
dias
eeuwige
feuer
frauen
guitar
key
liegt
loves
melodie
mooie
nemen
ombre
rendre
suffering
support
tanta
woon
##erna
##ld
##ran
anderes
arte
basketball
blijven
brothers
canto
caused
cercle
dificil
grad
leren
post
pourrait
ship
steht
suelo
##end
##hen
##ous
control
dejeuner
fleurs
gegangen
general
genug
glad
gracia
heureuse
kaffee
minimum
pie
plein
prix
problemes
ring
sept
single
valsignade
vind
vrede
whatever
zuerst
##chi
##rent
across
arreter
atencion
autant
capital
chef
citta
college
cup
deugd
espere
essaye
fit
ganzen
interieur
list
medicine
qualcosa
regardez
relationship
teeth
touch
travers
trees
voit
wist
##ler
aiment
allow
aquel
ayuda
bra
celeste
chanson
conseil
cross
date
discours
eglise
esos
fuoco
gonna
hoorde
ingles
kijken
larmes
lijden
meaning
milk
neige
pommes
primera
ratt
stark
strada
thou
vivir
voelde
waarin
##endo
absolutely
berget
casi
chanter
chaussures
convinced
danser
dicho
diciendo
doute
engels
enorme
esso
exam
feelings
fini
fiore
forst
freres
gjort
gottlichen
grandfather
grazia
invitation
leid
llevo
minder
morts
papier
plutot
riep
seines
spoken
storre
throw
vaak
waste
watched
worten
zouden
##ces
##nd
000
arrives
attendu
castigo
darauf
delante
enige
folgen
following
freunde
hermosa
holl
karleken
kitchen
mauvaise
nouvelles
ognuno
pad
pena
personal
pesar
queen
raised
rond
schwer
totdat
voller
volto
##0
##ben
##gne
##rad
antwoord
appeared
cher
eigenen
eleve
entire
gedachten
grandmother
greater
haller
heavy
historia
laver
moge
ordinateur
perhaps
pont
practice
pueda
reached
recently
repondre
roma
sante
seit
stellen
sujet
veo
verita
wedding
##ina
##tions
abroad
act
allume
attenzione
built
chante
doux
etat
faisaient
ferai
flor
foi
gekauft
geschichte
guter
helt
hurt
inget
innocent
jedes
lave
meines
memoire
onda
plant
pose
posible
regen
reis
spiegel
uur
verborgen
wings
##ante
##baar
##ciones
##ssi
bellacoglienza
beyond
bucher
dare
essi
garcon
heer
lucky
lune
mostro
nagra
produit
running
sembra
senor
taught
violence
wusste
zee
##ds
##erde
##led
arrested
certainly
estrellas
eure
expect
gluck
idoles
leuk
marken
persoon
pies
roman
schmerz
selon
shopping
strength
third
type
vertellen
viande
##ito
##nis
action
alibi
allee
arco
canadian
cuisiner
eterno
fragte
gross
hold
jambes
kamen
kamer
lage
luna
malades
pasado
planet
pluie
recognize
sabes
schatten
sopra
vedi
vergessen
verschillende
zeigen
##bare
##ico
##ino
##lijke
##pt
amigos
bottle
cancion
debido
deed
droite
example
fat
finally
geef
habian
huvudet
jeunes
kiss
kropp
lake
meest
natuur
opposite
ouverte
prochaine
ragione
schwester
science
simile
special
sterren
tuoi
verlaten
visible
vriendin
##gar
##ischen
##kte
beaute
blume
bor
build
coloro
dacht
dela
draaide
floden
gang
grado
kvinnan
kwaad
misschien
normal
quindi
rules
temperature
vide
wahr
##rate
ano
banque
blivit
bloem
brauche
circulo
connait
contact
dessus
echt
eerst
ganger
guerra
hande
hield
horse
interesse
jaloux
komme
marry
note
nueva
parfois
pietro
porter
rispetto
titta
valle
vatten
vertelde
voeten
werken
worse
absent
avesse
base
binnen
bracht
center
doe
ecouter
entered
fuori
gefunden
gehe
gekommen
hiding
klar
kort
lass
lebt
lying
magasin
mire
pied
site
sugar
tillsammans
tongue
ultimo
vackra
warten
wisdom
zimmer
##ide
##rme
##ska
acuerdo
adresse
although
assis
basso
beste
bocca
bouche
buon
cats
check
choose
connaissance
google
hoffnung
honest
imagine
kingdom
konnten
legs
leicht
necessaire
nee
population
pregunta
remained
share
sjalva
talar
vilka
ziri
##gli
##rn
##vole
advantage
agree
ailes
anger
bright
clearly
dessen
devenu
donnez
fe
geeft
gods
gras
habria
herr
hidden
importe
letzten
mest
oltre
plays
prachtige
rapide
recu
satz
signe
solche
stort
surprise
##ale
##rait
admitted
anybody
apologize
ayer
believed
beni
bob
boys
break
brille
broer
chaud
committed
dagen
deur
doivent
esperanza
espoir
examination
frappe
fruits
further
gezegd
haute
hort
icke
interest
kunna
lagrimas
lower
marco
pace
pecado
respuesta
richtig
sangre
stood
tasse
universum
voglio
##arna
##ht
##tti
admire
animaux
becoming
caught
certains
denke
dichter
dygd
easily
education
eltern
embargo
energie
fama
fond
gauche
gelukkig
hielt
hulp
latin
line
mil
percio
pieces
pleasure
sell
sold
sport
suddenly
varandra
zegt
##iva
100
alcun
auront
bijna
capable
complaining
coute
creatures
dimanche
escuela
gamla
genoeg
hall
jane
japonais
mantel
memory
menselijke
minos
moving
olika
palabra
strafe
vostra
wert
##dor
##llo
##schen
##ses
##tt
##ule
abord
amo
aware
branches
certo
desto
eet
enter
extreme
guitare
gustaria
influence
international
jackson
jahr
joven
justicia
lag
lord
mercy
mogelijk
monter
mujeres
noir
orange
puisque
ride
roi
sjalen
spat
stil
straf
surface
universo
unten
##age
##ete
##ise
##jo
##nas
ambos
apporte
article
bird
calme
completement
cry
demas
einde
einzige
esse
failed
fronte
funf
gare
gives
grazie
happening
ideas
mala
meilleur
nelle
nessun
oncle
peccato
pen
pure
rijk
seguro
service
slow
suicide
unserer
vacances
vars
vart
vole
##em
##jes
bear
bord
couleur
deal
exist
faisais
fede
flying
gefallen
hohen
luften
lyssna
miss
nage
nagonsin
october
paper
peine
resultats
richtung
salary
schone
serez
solution
spielen
subito
union
vast
verstand
vond
wiens
yen
##cido
##iendo
##las
##ries
accuse
added
alcuna
anderer
bush
celestial
cerchio
clean
culpa
doden
driving
energy
foljde
friendship
gelijk
haat
hija
lady
moe
newspaper
page
protect
resoudre
roca
staan
syn
teachers
tyst
value
vieille
##ica
##ingen
##ments
##rat
address
alter
ante
avoid
bewegt
bibliotheque
chair
cities
completamente
conmigo
courir
dejo
desideri
drehte
eerder
enda
erreichen
examen
expected
figura
fishing
grateful
helemaal
helping
jahren
lentement
links
manner
million
oscuro
pale
raciste
rarement
russian
sandwich
schonen
sombre
vio
vleugels
volledig
weinig
zeichen
##ction
##iere
##rado
avrebbe
bat
bonheur
brengen
cas
descendre
drinks
entender
express
faccia
finnois
fuhrer
gewonnen
happiness
helvetet
herre
letzte
marcher
medio
names
orden
peuple
prends
prochain
projet
repondit
rule
sache
sapere
sat
unico
uomini
wohnt
zonde
##ger
##gna
##ks
##ring
alguna
bereiken
blame
borde
buiten
cantando
charge
cle
content
croire
cuatro
deberia
einfach
entendre
fame
forse
hacerlo
kanske
kindness
kreis
lacrime
laisser
lucifer
manchmal
mark
neighbor
notte
pleine
plek
rat
reise
sabia
schreiben
shining
sida
straff
struck
success
theater
urs
visar
weder
##ivo
##op
##ques
##tas
##tie
abandoned
ajoute
bella
brucke
bruit
cake
dansen
dunque
encontrar
etoile
expert
films
floor
fragade
fuhlte
gato
geschenk
halt
hoga
honger
ignore
langsam
mojligt
opportunity
parc
presto
principio
reich
rencontrer
retour
ror
royaume
songs
sorti
spreche
sunde
system
tomar
tuttavia
understanding
vivent
volgen
warst
weinen
woont
woord
zug
##lse
##nar
apparence
aspect
australie
bell
borrow
crazy
cried
envoye
etranger
fadil
fault
gerechtigkeit
giustizia
hander
herzen
largest
mani
mee
mirando
museum
nombreuses
nombreux
nuestros
origine
painting
pequeno
perdre
ponte
radd
refrigerateur
shame
starting
superior
thuis
verre
viaje
viento
viso
vosotros
##cer
##gehen
##id
##king
bosen
considered
culture
dime
disappointed
gerechtigheid
gesprochen
gezegende
hemelse
hor
humana
island
join
lleno
mare
mesure
mooi
onmiddellijk
paz
punishment
regles
resistance
sainte
singer
suite
tiden
traveling
vuelta
##bo
##kar
##ot
affaire
alten
andare
bitter
bondad
brise
cancer
carne
charles
compared
complete
curious
despite
deve
diferente
entrambi
esprits
frente
garten
grow
guess
haciendo
huilen
humaine
jemals
lis
malabocca
mike
misericordia
named
necesario
parapluie
paul
prata
presents
quei
reino
rent
rostro
sand
schonheit
silent
somebody
space
staying
steps
synd
traduire
trodde
troisieme
turning
ultima
vattnet
vrouwen
wacht
wake
##cha
##if
##kommen
##lie
##rons
##sant
##ser
##uto
allemagne
bag
beim
connaitre
cream
cuisine
danse
desires
enemy
eviga
feels
foret
geschrieben
habitude
honte
hopital
intellekt
jezelf
kijkt
koninkrijk
krank
lengua
lieben
llegar
manniskan
meinung
nachsten
parlent
rire
saturday
secrets
siehst
silencio
souvenir
spain
spends
text
thee
tidigare
vamos
verdammten
verstehe
##ero
##j
##sta
abbia
accepter
adam
adesso
apariencia
arbeiten
auparavant
begonnen
bloed
brug
butter
choisir
corona
crie
dafur
describe
ena
forstar
fout
grands
grito
gudomlig
hermana
inevitable
jedem
kenne
kobe
lead
limite
lunettes
meat
modern
ombra
paradis
preparer
prices
puso
quran
regno
siamo
sieh
signore
sista
sleeping
slowly
soient
solchen
souviens
speaker
surpris
svar
taal
view
visione
visste
volk
wachten
wendde
zehn
zingen
zit
##ados
##ckt
##cy
##om
##tet
aandacht
admit
alstublieft
ande
attitude
behover
blanco
blijft
bonte
bottom
box
centro
cima
connu
delen
direct
dochter
dressed
dure
earthquake
ervoor
forese
games
ieder
jack
kat
lent
leva
medida
ninos
nya
offre
paye
perdido
pourrais
results
rice
rosa
sangue
smaller
smile
sterne
stylo
sueno
tack
talade
tokio
vanaf
waarvan
zufrieden
##6
##amo
##bre
##nade
##nant
##ties
appel
avevano
bosque
caso
chine
cook
cousin
direccion
ervan
fing
fordomda
freundin
gids
gleichen
hjalp
imagen
india
junto
llena
local
lots
mirror
penses
possibile
posto
puente
refuse
rend
rima
sadant
sagesse
secondo
somos
sterben
succes
tante
vallen
aufmerksamkeit
aussehen
benen
blumen
borrowed
dehors
eight
existe
ferez
fier
folja
gewicht
gisteren
gros
gustan
higher
hoger
kennis
kirche
leg
libros
lieber
lysande
mari
miro
moeilijk
naturen
necesito
offered
ordered
prenez
serpent
sieben
sports
teufel
theory
unless
venue
verandert
vicino
volvi
vuole
warm
weisheit
wolf
zoete
zweifel
##am
##ccion
##ding
##ement
##gio
##ism
##uro
##ver
atteindre
ber
berattade
berlin
bete
birds
boulot
campo
carry
changer
colpa
comer
dannati
dato
desk
encuentra
extremely
finger
fleisch
flores
forced
fra
frances
impression
jealous
jean
malgre
material
menudo
mise
poet
poids
potatoes
regret
responsible
sabiduria
sac
serais
suspect
taninna
uberrascht
vaut
vielen
viennent
voler
vuelve
zeigte
##ak
##bbe
##cken
##iska
##tro
##uer
##ving
account
affinche
annoying
appartement
ausser
beginnen
bose
cafeteria
comida
comprend
delicious
diepe
divorce
erklaren
estrella
faisons
false
feront
fiel
flame
fume
hated
havet
invece
kanten
lararen
linge
loi
lumieres
members
merite
pomme
realite
redo
rue
savais
siento
sollten
sombra
spending
spring
supermarket
tomo
vare
ven
vindt
whoever
worth
##9
##ntes
##rie
##sion
##tare
atteint
braucht
celebre
cent
cinco
create
douce
encourage
epargner
familia
filled
fossero
foto
geesten
greatest
grosses
heen
hoewel
kanna
laissez
lesen
lettres
liebt
lieve
molte
mortal
pitch
produce
puoi
rand
round
salut
shadow
slechte
tall
thoughts
utseende
website
wesen
zuvor
##3
##bt
##nie
##pi
##rd
adorent
ange
arrivee
attacked
belleza
bleibt
blut
brauchen
buying
cesse
count
cravate
damnes
dano
dicht
entrer
faster
forces
frei
gegeven
george
glaubt
goods
habit
himmelska
hoch
igual
intensa
keren
kissed
kristus
laugh
murder
necessario
nuovo
observer
parties
pasos
pelo
podemos
posso
quit
reparer
saigne
salir
scared
semana
sollen
sort
stava
sterven
stolen
thus
vacker
vento
volver
woche
zorgen
##lais
##nda
attends
avessi
ball
boog
brillantes
bueno
buona
cammino
cependant
chest
cheval
choice
connaissez
contigo
debut
deshalb
disant
discovered
donkere
envers
escuchar
exactement
grew
hos
idiot
jason
journey
maggiore
milieu
paradise
parlait
penser
peso
sanningen
sauf
seigneur
sisters
sjalarna
smith
straight
tickets
twice
valeur
volgende
worthy
##ans
##bles
##gue
##imo
##ln
##per
##red
##rla
##sais
##tar
abattu
accepted
afecto
amerika
armee
blod
boca
brot
brule
campagne
carried
chinois
classe
club
credo
dancing
diferentes
difficulty
digo
duda
empty
erreicht
explanation
fahren
foljer
fusse
halte
handsome
iglesia
ihag
junge
kommit
luces
maak
materia
mund
neem
oiseau
pared
pauvre
puesto
reveille
romans
smell
social
spijt
sprachen
total
tweede
unfortunately
useful
vain
valor
verbaasd
vingt
waardoor
wohne
##ini
##kel
##po
##tive
##uta
afford
agli
arriere
ausdruck
author
boot
cambio
castle
coche
crees
dado
danke
ello
estuviera
faisiez
fest
garder
guilty
hacen
hearing
houses
intensiv
license
lidande
lies
lyser
magazine
market
motivo
musica
nonostante
omedelbart
pais
paraiso
parles
pasar
passiert
players
quali
quiet
repare
salire
sentir
seras
sex
speranza
thirteen
tier
treffen
viendra
viva
voorbij
wijsheid
woods
##amente
##ible
##iger
##mer
##ms
##sait
algunos
anjou
answers
appareil
bebe
belles
bringt
capaz
couru
differente
discuss
divided
entlang
etudiant
explained
feite
fenetres
freedom
fuhrte
gericht
gloria
himmels
hogt
huit
ifran
indietro
infor
kerk
knife
lamnade
lentamente
listened
llego
match
meglio
miroir
molti
mosque
noel
paradiso
particular
rad
recognized
richting
salle
scene
schaduw
sins
sooner
spread
stati
tien
toppen
trinken
turns
umana
unos
vecu
ventre
verguenza
vote
vrienden
wem
##elijke
##hi
##ias
ability
accent
africa
annoyed
bateau
beeld
behavior
blij
brazos
darf
destroyed
dicendo
docteur
eats
emot
ens
ensam
entree
erreurs
excellent
fel
fortuna
fou
francis
geluk
hiver
hohe
holiday
jete
lac
lazy
memes
miles
morka
nine
notice
object
oublier
padres
petto
prets
prisonniers
propres
rayo
reality
refused
rico
sabio
schlussel
sentii
siano
siendo
surrounded
tittar
unique
unseren
verruckt
video
vollig
##acion
##ara
##fe
##gang
##ration
##rez
##tra
##uren
abime
accorde
alberto
alskar
angels
arbol
aurai
calor
centre
cotes
croit
demenage
ebbe
ensuite
exemple
facilement
falls
fand
fiamma
francia
giving
groter
hide
hin
kalla
lack
luisteren
midden
monster
moves
musste
palestiniens
passo
payer
pecho
pier
realize
regel
risk
schwimmen
solange
sonido
sourire
speed
splendore
stehen
ster
symbol
taste
vijf
vlam
vorher
zuneigung
##2
##dd
##dt
##elijk
##ile
##iste
##mt
##net
##ningar
##tor
avocat
beati
beschaftigt
blicken
boat
british
chocolate
ciascuno
conference
conocimiento
davantage
earlier
effort
erinnere
escape
filles
foddes
fossi
fuhle
futuro
genegenheid
hablando
heavenly
immagine
jungen
justo
liberte
ligt
limbo
lluvia
notwendig
paradijs
piensa
problema
profonde
radsla
rug
schoonheid
sigue
sufrimiento
tarar
tragen
trompe
uses
usual
verscheen
zin
zustand
zwemmen
##1
##cho
##dra
##ss
amene
appear
auras
beobachten
bilden
bogen
brust
burning
chariot
considere
constellation
dear
derecha
diable
duro
easier
ecco
entfernt
equal
essaie
fallt
falsch
festival
forvanad
fotter
frieden
fuhrt
gekomen
geluid
habitacion
hambre
hijos
imagination
inspiration
jim
lawyer
lichter
lion
lorsque
menschliche
miserable
muur
online
placed
proposal
pueblo
quitte
retourne
rise
risposta
roccia
rode
rojo
russe
russie
shirt
siena
singen
spater
spirits
standing
stern
stories
strasse
suffer
tevreden
trotz
twitter
ves
vingar
voel
vostro
voulons
vrij
wild
witte
worst
zorg
##gi
##ins
##nto
##osa
##sti
##tre
##ves
attended
avanti
barco
becomes
bestia
bier
blomman
bonnes
caridad
century
clairement
cles
condenados
copie
cornice
defend
derjenige
differentes
farbe
fortsatte
grass
harmonie
hierher
immense
kvar
levanto
librarian
lichten
lust
melodia
misstag
mountains
neemt
ondanks
ouvre
pan
parecio
passion
piacere
plante
possono
religious
restaurants
rood
rooms
ropade
rots
sees
separated
skada
skin
smart
society
tanker
teaching
univers
verlicht
version
vertrauen
wallet
wet
zeven
##4
##ag
##gas
##tique
adoraient
americans
anda
approche
aprender
army
attentivement
attraper
avrei
beaux
bel
bellezza
boom
borst
bortom
caesar
carta
chaleur
commencer
corner
credit
dentist
destination
dishes
encontre
erhalten
examine
fuente
geloven
genommen
istanbul
jerusalem
konig
lachen
laws
mache
maisons
manskliga
missed
niemals
none
piernas
poitrine
pool
proberen
propria
raise
rang
rechts
remarque
resa
salt
savait
simplement
slut
sofferenza
sommet
starb
sterk
suficiente
termine
waaruit
yellow
zitten
zog
##azione
##nare
##nts
accelere
accustomed
affame
alsjeblieft
annees
anni
barn
based
baum
begar
board
botten
certainement
cortesia
coupe
crossed
debajo
debo
destra
dictionnaire
digne
embarrassed
engelen
erinnerung
erschien
espiritus
estudiar
eternelle
eve
flugel
geleden
glas
gleiche
hang
hemos
improve
isst
ketchup
kleinen
ladder
lebe
lingua
lorsqu
motel
nettoye
nodvandigt
occasion
omhoog
opinions
parts
pause
platz
poem
pregunto
propia
quienes
raum
realidad
regardant
reussi
rey
rorde
saranno
satisfait
saute
savent
seguito
shower
sinn
situacion
solltest
spiriti
suggested
tanzen
tausend
tiefen
torre
traverse
trente
tuvo
versucht
werdet
wunsche
zat
##7
##aba
##ano
##ats
##cher
##gado
##gebracht
##ko
##nden
##oso
##ssait
##ssen
agit
aparecio
apple
argument
atmosphere
bestaan
bestraft
brillant
compagnie
damage
dannato
darum
deseos
deuxieme
direzione
dollar
efforts
ennemi
ewigen
fahrt
figlia
foll
forgotten
fuss
gegessen
giusto
goedheid
hemisphere
hice
intenso
izquierda
joined
juiste
juntos
komm
lago
lleva
lontano
low
managed
math
moest
nationality
omkring
parla
passi
pensamientos
pensees
pleasant
pleure
poeta
political
pray
professor
promesse
receive
replied
robe
roof
sacred
sprang
stazio
stranger
stupide
tipo
tisch
traurig
werkt
wonderful
##ally
##ati
##fall
##ges
##lare
##nne
##pte
##rato
##un
aimait
appointment
appreciate
bitten
bons
braccia
calls
changes
choix
confused
derde
deren
descend
dimmi
direkt
djup
dragen
dreams
eden
factory
fleuve
folk
gas
gillar
goodness
hals
hare
judge
kaufen
koning
lasagne
levande
liest
luci
minister
murio
ofta
oi
oil
opdat
parola
porto
program
queue
realmente
reflected
remain
saints
schritt
shy
slaap
sorgen
south
statius
stralen
stuck
stunden
sull
superficie
supreme
terms
tied
tower
trova
ufer
vanda
vandaan
vegetables
verde
verdient
virus
wurdest
##ded
##eten
##eur
##kade
##komt
##let
##lia
##rais
##uti
aiguise
anges
arzt
atervander
auteur
bewegte
birth
breve
central
chapeau
dankzij
david
debes
devient
devil
devriez
dur
earthly
empezo
ex
felicidad
fight
fix
fully
gehoord
generally
hadn
hob
jong
krijgen
lamna
lance
mad
matters
metal
nachricht
nastan
neben
oscuridad
pieta
pleased
potrebbe
private
recommend
rempli
rendez
responsable
rucken
sant
spielt
studies
susse
throat
tijdens
tusen
valley
valt
veranderd
vero
wealth
wonen
zoek
##ance
##au
##ber
##cas
##dde
##det
##dia
##ek
##miento
##ningen
##nno
##nta
50
apfel
apples
apprecie
arc
begins
berges
bleef
blieb
blijf
bloemen
brachte
claramente
construir
copy
cuidado
devoirs
dotter
duits
dying
egal
empire
ended
errore
esplendor
european
facil
felsen
geh
gleich
himmlischen
honnete
ido
ihres
illegal
instrument
involved
llamas
meilleure
messages
musik
nein
nose
ogonen
oscura
placer
prend
quasi
recuerdo
remains
repas
reposer
rot
schaden
soms
spiel
stap
stones
talent
unable
vander
vede
vedo
verhaal
verstanden
verte
viejo
woede
wondered
wrapped
zul
##adas
##ei
##else
##nato
aanwezig
abaisse
agreable
algeria
algunas
amuse
angeli
appears
avenir
banjo
bekommen
bereikt
bodem
borta
chiunque
cola
colore
conozco
correctly
correcto
deeply
delete
devoir
diez
divin
documents
enseignant
erfullt
espero
estabamos
folgte
gebruiken
gelesen
gevonden
haya
heat
heisst
herum
instant
intelletto
interno
keiner
korte
kunskap
leider
mariage
mauvaises
muse
napoleon
offnete
oido
ordre
peches
poker
policeman
politics
praat
precious
prendere
profundo
pushed
rayons
rechten
regnet
schade
serviette
slog
sons
stanna
stannade
style
sussen
toch
torture
toscana
tuin
venne
vlees
voie
voll
vorm
voyager
wikipedia
##8
##ard
##dig
##glio
##heten
##hnen
##iv
##lte
##ssent
##vre
allem
angekommen
anywhere
ashamed
begrijp
boit
brown
capo
caro
charity
climb
conditions
consequences
continuer
convince
creer
dirige
distancia
echo
election
erkennen
families
fixed
friday
fuhren
gentil
gentleman
gezeigt
grat
grenzen
haces
headache
huge
ibland
immediatamente
italiano
kleur
konden
konnt
lento
lightning
lijken
locked
luister
luminoso
marriage
mouvement
moyen
ocean
oracion
pair
partner
pinocchio
poissons
pulled
raconte
rayos
rays
regardais
reine
reunion
romeo
sasom
sechs
sentido
seriously
severe
slutet
splendeur
stranden
styrka
svara
tankar
tas
teken
terrestre
timide
tio
touche
translating
unica
valise
vanster
various
vendre
verlegen
vuoi
ways
wit
zonden
zuruckkehren
##chten
##cted
##ffen
##ille
##isme
##llen
##nia
##rde
##tan
##tic
##ua
##ues
##zar
500
agradable
ahnlich
battle
beating
behalve
besteht
boeken
bos
buenos
carita
charite
computers
conclusion
conto
cuantos
denkst
desole
dirty
egen
enkele
entrance
envy
falsenbian
fate
feuilles
firenze
fliegen
fuji
gegaan
godhet
heldere
hoffe
hoofdstad
intelecto
kasteel
latt
lezen
menge
menti
mesa
mist
morir
muziek
naast
natten
neighbors
nessuna
ontvangen
orilla
parete
perfekt
pobre
points
portes
prakt
prime
purgatorio
repair
reserve
schande
schauen
schreibt
sinistra
situatie
slecht
soin
solens
spelen
stierf
stuff
suspicious
tage
tank
tillgivenhet
timore
tony
tormento
uppmarksamhet
vlammen
volgde
wald
washing
zeide
##ava
##care
##cke
##ente
##eron
##fen
##ieron
##lant
##nait
##sero
##tura
##via
amable
andern
arbeitet
atervanda
bergen
bonta
breath
brilla
button
causes
certaines
chicken
chiesa
commis
darkness
desert
dico
dite
duizend
elden
evident
fai
falta
follows
greek
guardare
healthy
hors
humble
jung
keys
llegado
llegamos
mariee
member
movimiento
neues
noga
nostri
ordinateurs
ouders
pecados
permis
plage
planeten
platsen
prego
profondo
pronounce
punition
quiconque
rattvisa
reessayer
russia
sahen
seat
seran
skogen
splendor
stella
suffered
suit
tornare
tristes
tuer
tvivel
unto
verse
versuchen
verteld
viaggio
vivant
vore
wahl
wash
wichtig
##glia
##heden
##ima
##ious
##one
##ul
##zado
##zeit
adelante
affaires
album
andar
angelo
avete
aveugle
barbariccia
believes
bigger
blitz
boss
brazil
chant
chateau
construit
corrado
coucher
coule
couronne
dod
donati
double
drinken
enemies
entrar
erlaubt
espejo
espera
event
explique
failure
falla
faux
fore
garage
gib
helder
indien
invented
kalt
keeps
klang
knowing
lade
leidde
lief
lycka
maan
map
membres
merde
mezzo
mogen
national
neighborhood
nobles
nuestras
oppose
pensieri
piccarda
qual
raggi
reception
respecte
ricordo
salaire
sarei
schicksal
schijnt
schmerzen
schrijven
search
shut
strand
stronger
sunden
tren
ugolino
utile
vallee
vanuit
varken
veranderde
vertrouwen
##bringen
##ities
##ster
##tado
##tato
##tig
##uses
##vio
##zt
aardse
access
accueilli
adding
aimer
aiuto
amico
ancien
approached
assure
autor
available
bath
begint
beings
bekend
beschreiben
bleek
boos
borjan
cheese
chocolat
cigarette
circumstances
cirkeln
classroom
climbed
conoscenza
construction
dejar
demand
demon
destin
devi
diede
directeur
dunklen
effect
enleve
entra
erkannte
erst
faute
ferais
finds
flames
frio
gatt
gekocht
giu
hitta
hjalpa
honneur
humain
intens
issue
kaum
kurz
lacheln
liefdadigheid
lift
maldito
malebranche
menschlichen
mettez
nord
nurse
ourselves
painted
partout
pensando
pensee
pensent
petits
potere
preparing
proteger
quality
reasons
regalo
retourner
rook
salio
sangen
schloss
securite
seguir
seiten
sentire
sheep
sota
stoppen
subir
sulle
tales
threw
tire
tonen
tono
twins
tydligt
universite
vecchio
venere
wand
wangen
windows
##ach
##ated
##cida
##ct
##eerd
##gaan
##geht
##gia
##iera
##kant
##lassen
##lighet
##llt
##ndosi
##nken
##ppen
##rant
##schaft
absence
absicht
afrika
aise
alcohol
amazed
anniversaire
arrigo
ascenseur
atras
attack
begrijpt
bisschen
cadre
calling
calm
captain
character
cheap
clouds
coat
compassion
costume
crier
dalen
desidera
desirs
destiny
detail
diep
dorthin
dovrebbe
drank
drog
dubbio
edge
eld
entoure
enveloppe
erinnern
erscheinen
faces
finding
flammes
florencia
forde
frankrijk
frase
gelernt
genannt
giro
groups
hanging
heet
herbe
hetzelfde
hopp
importa
injured
innocence
intencion
journaux
laga
lately
lebens
leder
leidt
listo
llamo
mahjong
monat
murs
nagoya
nota
nouveaux
obama
plezier
prit
promotion
rate
ray
responsibility
satte
schlecht
signifie
societe
sorg
stole
suono
svart
sword
tankte
tredje
twijfel
tycktes
vergogna
verschrikkelijke
vliegen
voelen
vuelto
##bel
##bia
##fa
##itat
##jd
##md
##ore
##ping
##sh
##ton
aangezien
accompagner
active
amerique
appartient
armes
arrogant
bekannt
benis
bizarre
bonjour
cachee
castello
cieli
comprar
conseils
courant
courtesy
devoted
ding
dirai
disease
dorren
east
einander
erleuchtet
eruit
fahrrad
flusses
fratello
gelooft
generation
gesetz
gusto
guys
handeln
hates
hid
hill
hogre
hoog
ignorance
inom
jemanden
jener
johannes
leader
livet
llorando
longue
lucca
maremma
meisje
merito
michele
minuten
naherte
naples
nation
north
odio
ok
opende
oppna
oreilles
parecian
pensa
petrus
pride
produced
propos
provide
remove
reves
roken
schlafen
segun
senare
sides
siquiera
sonst
souffrance
sowohl
suivi
tail
tuviera
unserem
vantar
verlieren
veuillez
volgens
wijn
ziek
zolang
##5
##alt
##aron
##bili
##cato
##chte
##eo
##gel
##ice
##kken
##mal
##mbre
##nad
##rande
##riez
##tore
accused
ahead
ahi
allergic
allo
alskade
assume
bologna
brood
buurt
capire
chico
classical
convirtio
danach
deutsch
duty
echelle
eleves
enea
enseigne
epouse
eravamo
escucha
excepto
farlo
federico
fifty
flammen
fresh
gabriel
gefuhl
geister
gek
genast
gewoon
granted
harm
herrn
insag
intend
introduced
jene
kids
lados
langzaam
lato
liberer
lucia
madrid
mail
metro
mets
minne
mirar
nobile
obtenir
ojo
perder
perfectly
plotzlich
possibility
poverty
prayer
priest
proceed
profesor
prove
quartier
raggiungere
regretter
reputation
rid
rocher
saggezza
savons
sed
shown
situazione
slechts
sounds
spesso
stallet
suche
swear
synder
tenait
tiefe
unmoglich
usa
venga
voitures
waited
woke
##and
##ele
##her
##imos
##ium
##lade
##lde
##lique
##sk
##tiva
##uw
abbiamo
amount
anfang
antworten
apart
artificial
attendez
auge
bedeckt
bett
bow
brain
brengt
brillo
cairo
cansado
cesar
chasse
clair
comincio
consejo
courses
debemos
degrees
depart
descendu
discurso
distinguish
doubts
espalda
faceva
faible
faller
feed
figur
florenz
forut
francaise
fyra
gagner
gathered
gehst
geschreven
gode
hosanna
huvud
idees
instructions
interrupt
italienne
kinds
koud
ledde
located
machst
mastare
mitte
mixed
nacio
observeren
oppnade
osservare
pencil
percorso
personen
physical
picked
planta
priere
profonda
progress
proposition
rare
request
restes
ritmo
ruhm
segui
shine
stare
stimmt
tatsache
tee
tele
tells
temple
tenian
tief
traduction
translations
vanta
verket
versteht
waarde
wel
wore
writer
yanni
zagen
##ades
##del
##ets
##ione
##lado
##lot
##ndose
##ord
##ped
##rci
##ret
##stand
##val
##var
##zig
ama
amies
approve
argine
bedeutung
befindet
bewegung
blackboard
bladeren
broder
celestes
complicated
conscience
declare
delar
dello
desidero
duitsland
ecoutez
ecris
encima
euros
facilmente
feras
fiamme
fidele
findet
flight
folle
forever
frightened
gout
guilt
harder
hattest
hogsta
inga
kun
lascia
liste
llegue
maladie
mentor
mut
nave
oportunidad
origin
paradies
paradiset
peau
piace
prevented
profunda
rende
sacre
saved
seconda
separe
sjong
skonhet
sloeg
stappen
stralar
tanden
thin
tombee
truly
tyckte
ursprung
vecchia
veranderen
verschijning
voet
voulu
vraie
walls
wears
wijze
zahne
zus
##aire
##ana
##ccio
##erte
##fahren
##ged
##hnt
##ical
##ich
##ista
##jas
##lier
##ol
##rada
##rare
##slos
##ture
##ula
accompanied
albero
alphabet
amante
ando
bade
bedeutet
beweging
branch
capacita
char
cinquieme
claro
communicate
complain
comprenez
connected
continued
coran
culpabilite
daden
deben
declared
difficulties
entends
esencia
espagnol
eut
ewige
exprimer
exterieur
fermer
foolish
forbannade
forsvann
francesco
frankreich
funny
gerichtet
geschehen
gesproken
gevoel
gira
grootste
gutes
highest
hojas
horn
israel
jobs
jordiska
leger
levde
libres
liten
medicament
meteen
mitten
mueve
muren
narmade
natt
necesidad
nieuw
nieuws
ogonblick
opening
oraciones
painful
parfait
passengers
pick
pistoia
pona
positive
prayers
problemas
profondement
protection
pude
pur
race
realise
resultat
rust
sagten
schip
seis
shines
sorge
souffle
staden
stiga
stige
sud
sudden
taller
tecken
tempel
terror
toki
torment
tourna
vendu
verdoemden
vervloekte
visie
wood
wutend
zicht
zowel
zukunft
zweiten
##cles
##ees
##elt
##ines
##lait
##lmente
##ned
##og
##ral
##rer
##rro
##saient
18
alba
amoureux
april
avis
ayez
beast
bedekt
blamed
burned
cae
childhood
closer
communication
connaissent
crown
defense
deplace
devotion
disparu
domanda
dorst
elements
energia
enligt
entiendo
espada
exams
fatiguee
faveur
fertig
field
fonte
forgive
fria
gain
gebed
gevangen
giovane
glace
grata
grido
groupe
guests
harifran
hasse
helaas
helderheid
heraus
hermanos
horizonte
jail
jaloezie
ju
judas
kent
kid
klippan
krieg
lifted
ligger
lines
llevar
mat
moral
mostly
mucha
muiriel
navire
negative
oorlog
overcome
passare
passport
patience
peint
pope
poste
presencia
profond
pudiera
record
regarda
sai
self
sentiments
serve
shoulders
silencieux
silver
software
soupe
studenten
stunde
suivant
tages
taille
theorie
tient
tomas
tombes
tristeza
utilisez
vanavond
vergelijkbaar
vergeten
veroorzaakt
verursacht
vodka
voila
washed
zahlen
##ast
##ened
##fie
##halten
##isse
##loos
##ming
##pes
##raient
##ros
##sing
##son
##tos
##ude
acerca
aie
ansiktet
avuto
bahnhof
berouw
betty
biens
bisogno
boner
brosse
canceled
chosen
cien
claimed
com
concerned
corpus
costs
cou
cousins
criminal
cuidadosamente
danno
database
decisions
decrire
differents
dijeron
dom
dormait
drew
duivel
eagle
enjoying
environment
erzahlt
espacio
espanol
essentie
evidence
fann
felice
fifth
finde
fruher
fussen
gebeden
genre
gestraft
gewalt
goud
gouvernement
haare
horas
humor
informations
ingenting
jalouse
jealousy
laut
levante
liksom
limites
linea
lumineux
lyfte
madonna
mantua
mastaren
microwave
mor
nearest
obscurite
oggi
okinawa
opera
orizzonte
parked
pedro
pflanze
pire
pleut
poesie
preghiera
providence
quattro
rachel
rappeler
recuerda
reflechir
remercie
revoir
riktning
ruhe
ruine
saggio
santi
schiff
sentiment
showing
simply
spalle
starts
suerte
tasche
taten
tenir
thema
useless
vallei
valore
verliebt
versprechen
vii
vivons
voedsel
weeping
west
wille
zeigt
##ccia
##ches
##cing
##gung
##iche
##ioso
##ish
##lles
##ose
##pel
##skap
##sos
##ssaient
##uit
##unde
##weg
25
abrio
affermo
aimais
apprends
attractive
authority
awake
beskriva
bestimmt
beweegt
biggest
canadians
card
castillo
cd
celebrate
characters
choisi
commit
compare
condemned
consent
contraire
contrario
controle
couteau
diablo
disait
discussion
distingue
dreht
duisternis
economy
enfin
epoque
erop
espagne
esperar
essenza
eternel
euer
evigt
exterior
fail
fiesole
fifteen
fil
forklara
forlorade
francisco
furent
gebeten
geschapen
gloire
haga
hara
hawaii
herbst
hermoso
hokkaido
hundra
hymne
immobile
independent
irai
keerde
konigreich
laid
leende
lessons
ligne
marke
medea
ment
miraba
mode
mom
nachste
naissance
neuf
oiseaux
oog
opnieuw
ours
passes
passing
pensiero
physics
planete
platon
politician
pond
poser
pot
poteva
prese
presenza
pretend
push
ramen
rends
respekt
revealed
revenir
rivolto
role
rora
ruimte
sadness
sauce
schaamte
schlug
slang
smiled
sonntag
specchio
stick
stjarnor
succeed
talen
telefon
tenga
threatened
tiere
tristesse
trovare
understands
utropade
vale
vengeance
venire
wang
welches
wunder
ziehen
##aal
##ales
##cal
##dag
##emos
##gare
##idos
##lande
##ranno
##rne
##sas
##tant
##tivo
##uck
##uen
##ular
##ulo
##zi
addition
admirer
adversaires
animo
anteo
ara
arbeite
articles
brost
buenas
buried
chiron
cierto
circles
coi
colle
colonialiste
colores
commande
contract
costui
crache
cuello
daher
dawn
department
deserve
devenue
disappeared
discorso
divise
donker
dunkelheit
egalement
elephant
endast
entrambe
envoyer
escaped
etrange
excited
exclaimed
expresion
falsenbiante
fatt
fenster
florens
former
gambe
gefuhrt
gegenuber
genie
gevaarlijk
golden
grotere
handle
hangt
helvetets
honeymoon
host
humanite
humano
impact
infernal
jokes
june
kennt
kommst
kopen
kroppen
kust
level
lida
liep
log
lopen
loue
luck
mach
mathematics
meant
meisten
mochtest
moderne
monsieur
montagna
motion
mount
movement
musa
nachstenliebe
naoko
nations
novels
oir
piel
pieno
planeet
politique
portuguese
preghiere
ramas
research
revele
rive
rivolse
roem
sake
sanna
satisfy
satze
schienen
schneller
schoner
schrie
segno
segundo
selten
senal
sincere
slapen
slept
snakes
solito
soup
speelt
spitze
statue
strahlen
technology
term
testament
toscane
trabajar
traite
traum
trinke
uberhaupt
varelse
veras
verkligen
verrez
verschiedenen
visdom
volle
welkom
wolken
workers
zelf
zet
##anse
##bly
##cen
##gst
##halt
##ici
##ierte
##igd
##int
##isce
##ize
##komen
##losen
##mp
##ngen
##par
##sam
##sez
##ssero
##tje
##ui
##verse
##zio
aborde
abruti
accompany
addressed
afterwards
aimons
animales
antiguo
anyway
arguments
bauch
beest
bemerkt
beschrijven
bewoog
bezahlt
bicicleta
broeder
cantar
cayo
clase
classes
creatura
criatura
cru
cuisinier
cuyo
daarna
dangereux
data
demarre
depend
distanza
durst
echte
ehre
engine
entro
etres
evidente
fanno
feit
felicita
fem
finalmente
forsoker
forstod
fridge
fuimos
gateau
geholfen
geinteresseerd
generous
genomen
gesegneten
gett
geweld
glisse
goederen
guides
habiter
hallo
himmelen
humains
humans
hunting
individual
italiens
joke
joues
katten
klagen
kvinnor
leads
lesson
likt
limited
llorar
lugares
magnifique
magra
malditos
malheureusement
mate
mien
mismos
morgens
nadde
narvarande
nimmt
ninguno
observar
obvious
offnen
osserva
portugal
prieres
principal
printemps
programme
queda
radda
rahmen
rains
rauchen
resistenza
revenu
rijkdom
rouges
sandwiches
satta
sauver
schiera
schlechte
schritte
secretary
seed
seuls
silenzio
size
skrek
snalla
sogar
soldiers
solved
sors
speakers
staring
stjarna
stock
studeren
tanke
taro
tenu
terrenal
teuer
tie
tillstand
torn
trok
trouvent
uvre
vert
violent
volontiers
voorzichtig
waarmee
web
zeiden
zijt
##amos
##ios
##mie
##nehmen
##ps
##reich
##rice
##sce
##ssais
##unen
##ures
##zed
aguas
appropriate
ardiente
arezzo
arretez
automobile
avance
baronia
baton
begreep
begrepen
beine
bible
brings
buildings
buvez
celesti
celestiales
colors
conocido
constance
continua
continuo
corre
cosicche
criaturas
cuarto
cura
danza
depends
descends
desired
development
diceva
diener
djupt
ennemis
epee
epouser
equipe
erzahlen
eviter
expres
extraordinary
faits
faro
formed
franchezza
fraude
gardez
gebet
getrouwd
gezegend
gifts
grossem
habille
habitez
harvard
hiroshima
hopes
horses
horten
houd
imagined
increase
individu
individuo
interrupted
introduce
inuti
jouait
judgment
keeping
laughing
leeft
lend
ley
literature
loco
luminosa
mashed
mening
milan
muerto
nobele
noon
obviously
ordine
parking
partes
persuade
poems
pone
portato
pouvaient
pregunte
preuve
punizione
resultado
richesse
rythme
sagst
screaming
skapade
sommige
stores
takken
talks
thick
trap
treated
uitdrukking
umgeben
uttryck
vedrai
vieil
vieni
viljan
villes
vorsichtig
waard
weak
wein
zorn
##ants
##ations
##bon
##can
##cka
##gno
##hl
##igheid
##ighet
##jan
##lio
##mas
##pre
##rei
##tica
##tico
##und
##uso
##zando
abstinence
afstand
alichino
allait
anchise
apologized
arbete
armar
armonia
australien
austria
basis
basket
beginnt
begleitet
beroemd
bienes
bodies
bound
branche
breng
brunetto
buik
buoso
christi
climate
commenca
comportement
continent
contribute
couvert
criminels
dabei
dad
debout
dejado
desormais
desperate
devraient
dientes
dimension
disent
doigts
doutes
drehen
echter
eifersucht
ejemplo
empece
entier
erklarte
erschaffen
esposa
espressione
eteint
etrangers
falling
famoso
fano
farinata
figuur
fiori
fired
flog
fog
fortsatta
fought
gammal
gebroken
gesellschaft
gherardo
guard
haria
holidays
hoppas
horizont
illness
intensamente
iron
jaune
juan
karlekens
lavinia
lecteur
leefde
levanta
lundi
magst
marte
materie
mathematiques
mention
miller
missing
necesita
neck
nembrod
nieve
nimm
nojd
nube
odeur
onore
paying
penalty
period
permet
piena
pioggia
plaatsen
poete
potuto
praise
pretes
probleem
puts
qualsiasi
qualunque
quitter
redden
regle
reina
repasser
requires
restez
riches
rinieri
rivolsi
romagna
sarai
schlaf
schlange
schwierig
seas
serons
shape
skam
stairs
stiger
stopte
strongest
subway
tache
talmente
teilen
terzo
traurigkeit
trinkt
twelve
uttrycka
vagnen
velocemente
verdriet
verdrietig
verlangens
vientre
vouloir
vuestro
waters
wicked
wide
widerstand
##af
##ah
##alde
##arse
##bra
##cate
##chung
##dre
##gde
##jer
##kta
##laient
##nge
##nze
##quant
##rando
##sent
##uille
##uur
##ya
accumule
aeneas
agir
algun
andras
apply
araignees
artiste
assise
attempt
auriez
autumn
basta
bedankt
bedroom
besten
blesse
borjar
cards
carrying
causing
cieux
collection
consequence
dagli
daniel
demonios
divorced
djupa
draaien
dry
eingeladen
erklarung
erscheint
esperando
etant
etrangeres
eurer
eventually
existencia
fahigkeit
faithful
farm
fashion
fiets
finalement
folgt
fonctionne
foule
francheza
fred
geleid
gentile
gun
habeis
height
hello
hicieron
hog
hoher
holding
ijs
incident
intensivt
kende
kocht
kristi
krone
lara
larger
lecon
liever
limit
ljusa
loyal
malheureux
mangez
maximum
mechant
mexico
michael
millions
musee
nello
noodzakelijk
observera
occuper
omger
onskar
opponent
organization
pages
pajaro
pasta
pensamiento
percent
pianta
plants
port
posizione
pourriez
proprete
raggio
resources
richtige
rising
riva
rude
ruhig
sacrifice
salvo
scendere
scenes
schreibe
schwierigkeiten
scientist
seek
seguire
semaines
seres
serpiente
servi
shore
shot
sidor
sinds
sju
skuld
sleepy
slice
sonrisa
sourit
suggest
supplie
tema
temples
tenido
texte
trae
trouw
trug
tycker
umano
unlikely
uso
vernunft
verser
verses
viendo
volume
vuestra
vus
wohl
writes
youth
##baren
##eld
##ese
##gesteld
##iamo
##ily
##iques
##isk
##iti
##ition
##kommt
##komst
##kter
##lin
##menti
##ny
##od
##rier
##ud
##uring
##ust
##wacht
12
absolument
absolut
acque
adige
advance
aguila
alcune
aleman
assurez
asunto
augmente
aunt
baja
beat
begangen
belly
bemerkte
bike
blague
briser
celos
chemise
claus
coast
cocito
complet
correcta
couche
couleurs
courte
cover
creation
curry
darin
deceive
decouvrir
definitely
demandez
deutschland
dira
diverse
document
doloroso
draait
droom
drove
eaux
eer
escribir
estara
evitar
exhausted
existenz
expressed
farg
fasse
firmament
flegeton
forehead
fourth
fuhlen
geburtstag
gefangnis
geleerd
gelosia
geschaffen
geschieht
geste
gesto
gewohnt
gezichten
glory
gouden
handerna
heilig
humanity
hunde
idioma
iniziai
inquiete
intento
interessante
interior
jugar
jugement
klattra
kleiner
kyrkan
lay
leken
libertad
losen
makt
menselijk
messer
misericorde
mysterious
nachts
nasta
obras
ordnung
paint
pardon
passants
pauvrete
pece
pensar
pequena
plonge
plotsligt
popolo
produces
product
products
property
puissance
quedo
quelles
quick
quisiera
rayon
reloj
renommee
repeat
rorelse
roses
samedi
scheen
schreien
seien
selling
sensible
serpente
sette
staart
statt
stesse
stjarnorna
structure
superiore
systeme
tanka
terreno
thermometer
tomba
trains
tunga
valgorenhet
varde
varelser
verdienste
veritable
verliess
versteckt
vice
victory
vivants
volando
vorschlag
vostri
wakker
warme
weissen
zunge
zwaard
##abile
##achtige
##arme
##aux
##car
##cata
##cca
##ced
##eben
##gan
##ggia
##ify
##licher
##nder
##rian
##rra
##sm
##sure
##tal
##teur
##vis
aanwezigheid
abandon
acht
aigle
alcuni
apri
ardente
argo
arriva
arrival
artikel
aspekt
attire
below
bernardo
berommelse
betrachten
bewusst
bouge
breaking
caminar
captured
cibo
circulos
cirkels
cleaning
colei
colpi
comfort
community
companeros
consideration
contains
cooking
croix
crudele
cute
damne
deberias
demons
desciende
devoto
dienen
diferencia
divide
eclipse
elected
embrasse
encanta
envidia
erstaunt
euren
excuser
experiencia
faisant
falso
farben
ferons
fingers
framat
freundlich
frid
gatos
gebeurt
gebied
gedacht
gedwongen
gelezen
gemakkelijk
gerion
gipfel
grabbed
groene
grows
haz
herinnering
hierba
honden
hoping
imposible
including
invidia
japans
jazz
jedoch
kallas
kate
konigin
kroon
loopt
loss
luminosita
lyssnar
malebolge
meals
mentir
milch
moments
narvaro
nest
occhio
orsaken
pasa
pengar
picasso
plotseling
pobres
pork
positie
poured
preso
principe
puni
realta
refrigerator
regardait
resistencia
rights
risposi
ritorno
robert
ropa
sadana
sarebbero
satisfaction
scala
schepsel
schreeuwen
sean
semblable
sembravano
sembro
sento
shook
siehe
sitzt
skura
someday
spanien
species
square
stai
stared
stenen
sterblichen
sto
studieren
suchen
svartsjuka
tafel
tempete
thirst
threatening
toma
tourner
tours
trade
transforme
tremble
turkish
tuve
ventana
vergnugen
vestido
victoire
visioen
voisins
waardig
welcher
wezen
willkommen
##aren
##cono
##eid
##entes
##fle
##houden
##ijk
##ira
##kten
##lat
##lden
##liches
##lon
##nat
##nten
##ok
##rli
##rre
##ssiez
##ssimo
##ual
##uf
##une
##ward
11
13
actress
adla
airplane
apenas
appetit
applaudi
aquila
aroma
artist
aube
august
ayant
babysitter
beobachtet
besuchen
bleue
bother
brand
cacher
caer
cane
cartes
cherchez
chiaramente
ciacco
condizione
continuez
corta
crea
creator
crossing
crowd
damaged
dedicated
derecho
directement
directions
diventa
diversi
djur
dodliga
dreissig
ebbi
element
eleven
email
enemigos
erfahrung
erover
erreichten
esistenza
espace
exercise
faisions
feci
fianco
fighting
figuren
finissiez
fisch
focus
foreigner
gate
gebeurd
gebleven
gewinnen
gezwungen
golpeo
gratis
griffin
grosste
habitants
heads
hinaus
hinzu
hoogte
houding
iii
impatient
infinite
intelligente
interdit
invisible
italiaans
jongen
joyeux
karl
krankenhaus
kronen
lachelte
leser
ljudet
major
mama
masse
meters
midnight
miracle
mochten
montrez
musiciens
naring
narrow
nat
nehme
nuova
ouvrez
pantano
pardonne
partis
pattes
peinture
peor
performance
permite
pienso
plain
plupart
poca
prachtig
precieux
preguntas
professional
published
quels
quieren
recherche
regeln
removed
rises
rosso
roten
ruido
ruin
sable
sakert
santos
satisfecho
seconde
semblaient
servant
serviettes
skull
sofa
solar
sommer
sorriso
spam
steal
stellte
strike
suppose
tali
telephoner
terrain
tornado
tragt
tristezza
tromper
uiterlijk
universums
vanligt
vase
vengo
verbergen
verdadera
verliefd
verliezen
verwandelt
violin
visiting
viven
vogels
westen
woher
##aar
##ain
##ea
##egen
##elen
##fulla
##ggio
##gs
##hr
##ial
##ik
##illa
##inen
##ister
##kende
##losa
##lung
##mine
##pone
##posto
##ppe
##shed
##tat
##zia
##zing
aantal
abismo
absolute
acces
ach
actor
adelaar
advanced
allows
allusion
anledning
annule
apropiado
arrivato
attrape
audience
aufmerksam
aurons
badly
bello
bet
binnenkort
boze
burn
cambia
canta
capitale
citizens
cloud
coach
complex
compter
confuse
contient
corto
creative
crisis
depression
determine
deutlich
diet
dirait
discussed
discute
distant
dokter
draagt
drar
draussen
drug
economic
ejercito
ellas
emperador
emperor
encontrado
ends
erin
escalera
escribio
estaria
events
everywhere
exception
fader
faktum
famiglia
fangen
fever
fler
flera
foglie
forblir
fortsatter
foten
fueran
gabe
gebeuren
geheimnis
geschickt
giardino
girando
glimlach
gotten
gritando
gym
heiraten
herinner
humanos
hundert
hundreds
identity
impressed
interesante
interessiert
invierno
joan
kansla
lamnar
larga
ledsen
leo
lerne
liegen
llega
luistert
luminosite
lycklig
maniera
manto
mario
mass
matiere
meal
media
melody
messo
miel
motsatta
movimento
naher
nahrung
naked
namnet
neer
nostre
notes
obey
obra
ocupado
ognuna
palace
participate
pessimistic
picnic
piedra
piensas
plumes
pollution
posicion
poter
powerful
precede
prisa
prive
production
promises
prudent
puissiez
ratta
reconnu
reichtum
resta
resterai
rike
rocky
runs
safety
satisfaire
schaut
schwimmt
season
serieusement
serieux
sneller
sorgliga
souffrir
spada
spazio
stannar
stirn
sublime
sui
supporter
tegenovergestelde
tillrackligt
toonde
tormenta
ung
unidos
utom
vera
verboten
verhalten
verheiratet
verlor
versuche
verzet
vidare
vint
vliegtuig
volgt
volo
voorhoofd
waarop
wens
wooden
zoeken
zweite
##ace
##agt
##ary
##bi
##ciendo
##cs
##dere
##ede
##ef
##elle
##ffe
##gande
##ha
##ime
##ings
##ires
##lagen
##mme
##nate
##ndomi
##punkt
##recht
##sme
##smo
##tel
##urait
##vent
##ye
2013
300
accion
agreement
alice
alimento
allergisch
analyse
angleterre
ansikten
apprend
arabe
aufgehort
bajar
bars
beispiel
betrachtet
blanche
border
bouteille
buscando
cambiar
capacite
centrum
clients
coda
confusion
conge
copies
corte
croyez
cuales
dara
dessert
devint
dicen
dido
dikke
djavulen
dna
doda
dommage
doucher
drop
ebene
emigrer
engagement
erfahren
estais
experts
exprime
fautes
finner
fruto
furniture
gebruikt
gegenwart
genezen
getotet
getrennt
giusta
globe
grab
growing
guardo
habitue
handelt
hardly
helige
hinder
hole
hore
horisonten
hubieran
iacopo
importantes
indispensable
informed
inteligente
jolie
juego
juist
kara
klettern
lagen
leda
leggen
lese
lisez
loud
lucy
manteau
mantener
marias
method
mission
nina
occupee
onskningar
opposta
orgullo
oven
pantalons
parlando
passaggio
peccati
perdio
periodo
piangere
pleuvoir
principes
prize
propio
puerto
pull
rappelle
reflektiert
reflete
regreso
relatives
repente
reso
riguardo
ruf
ryggen
schaffen
schijnen
schuhe
segunda
senso
separate
serpillere
shanghai
shouted
sicherlich
signal
significa
signs
simbolo
sitzen
sjunga
skakade
soort
sortit
soudain
souris
stands
stavo
sufrir
sushi
switzerland
task
termino
thousands
thy
toespraak
tong
totally
tough
trabaja
trusted
ubersetzen
uberwaltigt
vaggen
valdigt
veloce
venido
verdadero
verdammte
vergleich
versi
visages
voices
vrucht
waarvoor
wilden
zulke
##anza
##bility
##dores
##eken
##ering
##ess
##fer
##fied
##gekommen
##gono
##hort
##ils
##itet
##ized
##jado
##lando
##late
##lation
##ligen
##line
##mmen
##nons
##nse
##sed
##sive
##slagen
##ume
##uo
##usa
##vere
##volle
00
40
abandonner
accanto
acerco
achilles
acquire
ahime
alska
andre
angelegenheit
apparve
ardor
arena
arts
atervande
attendait
attentamente
aufhoren
azioni
barely
barmherzigkeit
bastante
bataille
beber
behalten
behave
benutzt
beobachtete
beruhmt
bewogen
blow
brighter
capture
carrots
carte
celsius
changing
chansons
climbing
condicion
considera
constelacion
contributing
corde
cualquiera
daarvan
daughters
demonio
demonstration
denied
devils
dine
dispose
doel
draw
dromen
eigene
elevator
eloigne
empeche
empfangen
endlich
epaules
erfolg
erfullen
erklart
escapar
etend
etonne
euro
exito
feathers
fer
fill
finir
finnas
firma
forklarade
forth
fretta
frukt
frutto
fumo
furchte
garningar
gebete
gefahr
gehoren
geistes
geoffnet
gestorben
gevaar
gorge
grandparents
greece
groep
gruppe
guardando
handling
hjartat
ile
informe
jumped
kennst
kindern
klimmen
konntest
lancer
lauft
lavoro
liebst
lyssnade
mantiene
matsuyama
menace
menschheit
minns
miserables
mont
mood
musical
musician
mustard
ned
nek
normalerweise
nowadays
nutzen
ode
overweight
overwhelmed
pape
passa
pecher
penis
piuttosto
plantes
precise
premiers
primavera
proceder
profit
profundamente
propose
prova
provided
pudo
puits
qualite
querido
reader
reservation
ressenti
resto
riqueza
roger
rugby
schrecklichen
schwanz
secreto
seht
seules
sharp
shone
slutade
snabb
sommigen
suffers
tagit
teaches
terminar
thebes
tillfredsstalla
ting
title
tocar
tournant
tries
truck
unterschied
vardig
vedevo
venerable
verano
vergangenheit
verloor
verzen
vine
visiter
vivere
volant
vorbei
voyant
zeggende
##aan
##amt
##arlo
##art
##cano
##cios
##cker
##ckte
##cle
##cos
##dle
##einander
##ening
##genomen
##haft
##hrt
##kam
##kers
##lichkeit
##med
##mita
##ndet
##rions
##ris
##sel
##siez
##sions
##ssant
##sus
##tine
##tten
##vita
##way
##willig
##yo
##zugehen
15
acabo
actitud
adel
amen
anxious
araignee
ascoltare
aspecto
avrai
baron
blatter
bout
bowed
bribe
cerberus
cercles
chinees
christian
colline
collo
comienza
commencons
compania
comun
concept
conditioning
confronti
consequent
corrected
costellazione
cuya
demanda
descendants
detestent
devo
devrions
dijk
directed
discover
dunkel
ecria
edad
educated
einfluss
escuchando
espana
examples
exchange
exempel
extiende
facts
fahigkeiten
faite
falschen
familj
feroce
finale
finland
flows
flyttade
forlorat
fotos
freuen
frucht
fruktan
ganas
gay
gefahrlich
geheugen
gelukkige
gentillesse
gesegnet
glada
grant
graves
grenze
groen
habiamos
hablado
hasard
hechos
hero
hoffen
holds
hoogste
huitieme
hungrig
infernale
inne
inspire
instruments
interpreter
italians
italiener
japones
jeunesse
jezus
juicio
juno
jure
kannte
katzen
kostbare
kruis
laggiu
lamm
llave
lojban
malvado
marier
massa
miembros
mijne
minds
naci
narmare
neppure
novia
nuages
offert
okay
orsu
parfaitement
parlo
particularly
password
pensi
physique
poche
possession
prevent
princess
probablement
problemen
profondita
punkten
qualche
quotidiennement
ravenna
rese
retten
ricchezza
rimase
rings
rivers
rustig
saisi
sak
salvacion
sanning
sauve
schnee
schrift
schweigen
security
sel
semblent
september
seraient
sete
setzen
shakespeare
shibuya
sicuro
sinnen
skeptical
skugga
sluta
souverain
sovrano
stealing
steen
stein
succeeded
survive
tallest
tasted
terremoto
thief
trajo
trang
trata
travaillent
ufs
urgent
utanfor
vanno
varias
veren
vermeiden
vermogen
verona
verschiedene
vijfde
violencia
voelt
voient
weitere
wenden
winnen
wishes
wraak
zaad
zapatos
##ars
##cce
##cchi
##cian
##cks
##con
##digt
##eerde
##ella
##eux
##finden
##gd
##gegangen
##gend
##gestellt
##ghet
##hin
##iers
##iet
##ieux
##imento
##lli
##mar
##my
##ntemente
##ola
##ond
##ors
##ow
##pito
##rum
##rung
##stellen
##uche
##ucht
##urt
##vato
##zco
abyss
admis
agi
ailleurs
alexander
amado
amiga
amusant
angerufen
annorlunda
answering
antico
apollo
armed
armut
arriving
arrivo
bain
baisse
banana
barba
bare
begehen
bendito
beneficio
benefit
betalen
bewust
blanches
bliksem
bookstore
brouillard
burger
butcher
carlo
cerchi
challenge
charon
chinesisch
chino
chinoise
choisis
ciertamente
cinque
coffre
comiendo
competition
concentrate
condamne
condenado
confianza
connaissait
conocer
constant
correspond
credi
cruz
degree
deprived
dices
disturb
dono
drives
droeg
dulces
echoue
eco
edle
egna
empereur
entusiasmo
equally
erba
erinnert
esperance
established
excuses
extent
fair
fara
fievre
finnish
flasche
flugeln
flugzeug
fluye
forbidden
forsokte
forty
fragor
frederick
freiheit
frost
fuhr
furcht
futur
gebruik
gefahrten
gefangen
gehad
gelegenheit
geplaatst
gestalt
gevangenis
gevolg
ghosts
giudizio
glimlachte
global
graben
graf
grain
gris
grupo
halsen
hearts
hebzucht
helderder
hellen
helps
hesitation
hinunter
humour
hunter
hut
idag
illustre
industry
influences
instinct
iran
ivre
january
jemandem
jenseits
jette
juge
kanslor
keizer
kerstmis
klart
koningin
lagga
lagger
lasciare
lascio
latona
leiding
leiter
lettore
ljud
llevado
lombardo
lonely
loup
lover
malheur
malice
manzana
moed
mortale
movio
moyens
nancy
neid
nourrir
ny
offen
offense
ontsnappen
orde
ouest
parfum
pase
paus
penso
perros
pferd
pflicht
pity
poison
prato
precies
preis
presso
probeerde
promis
putting
reflect
regrette
remercier
reside
ressemble
retire
richtigen
sachen
salvation
salvezza
sauvage
scale
schuldig
schwert
selva
sente
shalt
shorter
shows
siente
siguiente
sleutel
sneeuw
socrates
sovereign
sterrenbeeld
stessi
stimmen
stirrade
stops
svard
sweater
sweden
tendra
throughout
toca
toekomst
toren
totalmente
tradgarden
traurigen
traverser
usar
vano
venant
verwandelte
vivos
vollstandig
voordeel
voren
vormen
voyons
vriendelijkheid
washington
weinte
wezens
zes
zona
##aden
##agd
##anas
##cure
##dan
##dda
##dire
##eg
##enen
##fullt
##gaat
##gos
##hes
##iens
##im
##ined
##iteit
##lly
##lta
##mia
##mment
##nado
##nata
##nemen
##nung
##riamente
##rin
##ror
##setzen
##tais
##tigt
##tivi
##tlich
##tter
##tus
##ube
##uch
##ules
##unt
##uten
##uve
##voli
##wa
##zca
aangenaam
acciones
allees
alzo
ancetres
angefangen
anne
apparu
approprie
ardeur
areas
arrivare
arrivera
atmosfera
atto
attraktiv
aufgabe
auraient
avsikt
belofte
besides
beso
bewegten
bewundern
bianco
bidden
bienvenida
blond
brazo
brinnande
brukade
calcule
capacidad
cassee
chaise
chatiment
cheeks
chere
colour
committee
compagni
compagnons
confessed
connection
convaincu
converted
coraggio
corriendo
creador
critical
croce
cuesta
currently
curso
delay
descendant
described
desea
dessous
destined
diana
diavolo
differently
digno
dobbiamo
donnerai
dovuto
druk
dura
ears
eeuwig
effet
eis
embrasser
emploi
enfuir
enjoys
entiende
entrada
entschieden
escuche
esseri
etendu
eva
evig
exercice
exil
explosion
facendo
fehlt
firm
flegias
flew
flies
folge
folket
fumee
ganges
geblieben
gedicht
gegeten
getrunken
graven
greed
greep
grosseren
habitent
hablaba
harmony
harskare
hauptstadt
herrlichkeit
hielo
himlens
honderd
hoorden
horloge
humanidad
identical
increased
inner
interests
islam
jonge
joyful
judy
kuche
kurs
kwelling
leading
leden
lees
leest
legal
legge
lernt
leuten
lider
liknande
link
llamado
lois
manen
matins
medication
mehrere
mensonge
morgon
morkret
mun
naturlich
november
nuevas
observed
occupes
olor
operation
package
parfaite
partage
peaceful
perd
pitie
planeta
plenty
possiamo
possibilita
potrei
press
procedere
promesa
prueba
purgatory
rache
rauch
reads
realiseerde
regiert
related
relation
respondi
response
reviens
richten
roberto
rodea
roosevelt
satan
scipione
semilla
sentia
shared
shortcut
situations
skiljer
skuggan
soi
sombrero
sonno
sot
souvenez
speer
sprichst
starke
stellt
stevig
strom
stroomt
studiert
suenos
suitable
symbole
tableau
temo
teneis
ter
tiens
tiger
toestand
toewijding
toilettes
toit
tourists
traditional
traf
tranquille
travaillez
tron
tust
uberzeugt
umgibt
unas
unrecht
uppat
upset
vald
vard
varld
venganza
verdeeld
versets
versuchte
vienen
vieron
vissa
visual
voeden
voile
vurige
warte
william
wisst
wohin
wurdig
yttre
zaak
##bart
##bild
##cado
##cere
##cite
##een
##erade
##geven
##hed
##hood
##hren
##hst
##iano
##idas
##iente
##ioni
##ischer
##ists
##ites
##kend
##ktar
##ktion
##lit
##mann
##nca
##nkt
##over
##pite
##reta
##tada
##tien
##tigen
##treten
##uraient
##vant
##vor
##zas
aangekomen
aardig
abendessen
abundance
actuar
adhere
advise
alcool
alzai
americain
anblick
angeln
announced
anvanda
argue
aside
ata
autorite
avund
azione
bacchus
barca
beg
begaan
benedetto
bernard
bezocht
biblioteca
bibliotheek
billet
bishop
bite
blagues
blessures
bored
boring
bosheit
boue
briller
cade
caisse
capelli
casser
cell
chantant
chatte
chiese
chiesi
cielos
claim
code
codicia
collect
cometido
compagnia
concern
confirm
congratulations
consciente
couramment
couvrir
createur
credere
critique
damals
deceived
decouvert
decu
democracy
depth
devait
developed
disciples
discuter
disponible
diventare
doctors
dritte
ease
ecoutant
eget
egypte
emmene
ert
ervaring
etrangere
exact
excusez
explication
federn
fiesta
flesh
flow
fool
frais
gentille
gestellt
gewoonlijk
giovanni
graduated
grammar
grater
grun
halfte
haltung
harten
highly
hochsten
horreur
hotels
humo
imbecile
imperatore
indignation
interview
ipad
irdischen
italienisch
jacket
jaloers
jamfort
jones
kastade
kilometers
konst
kuste
lacht
lachte
laden
lander
lassu
lata
leche
lector
lecture
lenguaje
leuchtet
lippen
ljusare
locura
lyckliga
lyste
meets
meta
moses
mud
nearly
newspapers
nuevos
omringd
ondska
ontmoet
ontmoeten
opfer
opposee
org
origen
orlo
otherwise
ovanfor
parecer
paredes
parijs
penetre
pente
permanece
plumas
pobreza
poeme
policy
portait
practicing
presse
pretending
primeros
proved
puedas
punta
quatrieme
quinta
ram
random
reduce
refleja
remind
remorse
rennen
reno
reservations
responder
revienne
rufen
saben
sachez
satisfacer
schreckliche
schrieb
schuler
segue
sends
sichtbar
siege
signora
siguio
simon
sla
slightly
sortis
souffre
spheres
spinge
sternen
stilte
stretched
substance
sunglasses
supremo
tend
terugkeert
theatre
tiber
tienne
toegang
totalement
toten
track
treasure
trekken
tresor
uberall
uppe
vals
verbrechen
verdween
verifier
verlaat
verra
vertelt
viajar
victim
victoria
vila
violenza
voeren
voorheen
voulaient
vriendelijk
vuestros
wahrscheinlich
warmer
warning
wijs
wohnen
wollten
yokohama
zichtbaar
ziemlich
##00
##ald
##amma
##beeld
##bido
##bie
##bio
##buch
##cci
##cent
##cked
##dy
##els
##esi
##even
##for
##fte
##gando
##gato
##giez
##glie
##hy
##igung
##ijke
##ivamente
##karna
##licht
##liere
##loze
##naient
##nz
##orna
##passen
##ragen
##ram
##rda
##reifen
##right
##rnos
##rst
##rvi
##sca
##sman
##tait
##tata
##teit
##uben
##uss
##uye
##ved
##vra
##vt
##werk
##ws
##zieren
abre
acceso
accompli
accomplir
acquainted
aille
amanecer
ambas
antwoorden
anzi
apollos
arboles
ardore
arretait
assai
audacia
autos
avstand
ayudar
bedroefd
beloved
beside
beten
bewonderen
blad
bleu
bliss
blog
blommor
bond
cachees
cadere
cama
celles
charged
chuchote
claire
companions
comparacion
completed
comprendere
confidence
connaissais
connue
console
contempt
contrary
correcte
corruption
coupable
cuerpos
defeated
defendre
dense
diavoli
dichtbij
dier
digna
dile
diverso
drawn
dreamed
drole
duivels
echapper
economie
eindelijk
eisen
emmerdeur
enfui
ennuyeux
entkommen
erscheinung
ertragen
esclamo
estabas
estacion
evenement
exclamo
extra
extranjero
fahre
fan
fatti
ferma
fermee
fermes
fiche
flash
forblev
forenade
forvandlades
fromage
fruh
funktioniert
gebe
gedachte
gefuhle
geliebt
genauso
gescheiden
geschlossen
gesichter
gesu
gigante
glaubst
glorie
goal
guidance
homesick
hubo
hugel
ideologie
indiquer
insupportable
intenzione
istallet
junk
kampf
kand
kehrte
killing
kleuren
knight
kosten
labor
lagan
laves
lebte
lente
lezer
lijn
load
lobo
londen
losing
loving
maanden
magnificent
majority
malen
malvagio
martirio
medical
medicina
membra
merveilleuse
montres
motivation
mrs
muove
nachbarn
nariz
nebel
nesso
niebla
obeir
objects
objet
offers
ond
oordeel
organ
ottaviano
ought
packte
pandas
paquet
parlant
passato
pecheurs
perugia
plato
pointed
poner
presentes
pressure
proceeded
progres
quantite
quede
rajeuni
rami
reasonable
recibido
recommande
regardes
religieux
repentance
reveal
rikedom
roche
roda
rope
salue
satter
schiena
schild
schlacht
schlagen
schools
scientists
segel
sembrare
sentiero
sentito
serviteur
sevilla
shelf
souhaite
starken
straffas
stream
stretto
suave
suffit
tak
telefono
terugkeren
tillater
touchez
trad
transportation
trein
triumph
tsunami
udito
vacaciones
vand
varifran
vaste
veniva
vereint
verkeerd
verlo
vervuld
vivi
voleva
voltai
vorstellen
voudrait
vroeger
wahre
wetter
wrede
wut
zero
ziekenhuis
zong
##amento
##ani
##bas
##bes
##cide
##cre
##dido
##digen
##ene
##eri
##far
##genommen
##gesetzt
##ggi
##gte
##hip
##hne
##ib
##icht
##ified
##ilen
##iles
##innen
##issent
##kande
##lage
##lan
##lten
##nais
##ndra
##nelle
##niez
##omen
##ori
##pera
##pia
##pp
##rgen
##uel
##uelle
##uis
##ult
##uwen
##vait
##van
##visa
##zaam
##zehn
2000
aard
affair
agarro
aimee
altura
ancestors
angra
appelez
aquella
armoede
arrow
artista
ascolta
asseoir
aufstieg
ausland
balance
battu
beard
bendecidos
benutzen
bereid
bereikten
bereuen
betrubt
bezit
blonde
breast
bredvid
brilliant
caminando
cares
carlos
chaises
champagne
ciascuna
cicero
colpito
commesso
conseille
contento
corso
costa
crains
creato
creatore
crimes
crowded
custom
dankbar
derer
detective
dienaar
dient
disappear
dispuesto
doctrine
dritten
driven
dunkle
ebenso
eerlijk
effective
einzigen
elegant
elegante
ellendige
embankment
encontro
enfuie
enkel
enthousiasme
escrito
esperantists
esterno
etang
etudiez
excessive
expecting
familiar
favore
felices
figli
figures
flabbergasted
fled
flyga
forms
forran
freno
fulfilled
futbol
galen
gano
garcons
gava
gebrochen
gedachtnis
gefolgt
geloofde
gelukzaligheid
gentilezza
gesloten
giungemmo
glaubte
golpeado
guitarra
hable
handelen
handlingar
heisse
helig
hitze
hobby
hochste
hogra
hus
illumination
images
increasing
incredible
indian
inferior
intended
inutile
invente
jagen
jalousie
jamas
japonaise
jovenes
juice
kaiser
kalte
kicked
klaren
kleines
kleren
kost
kostet
langen
langsamt
lanza
lasciato
laughed
leido
libero
liepen
lista
llamada
lovers
luge
malediction
maries
markt
meestal
melk
menteur
merkte
mette
mienne
minnet
miseria
moglichkeit
mota
multitud
nauwelijks
negro
neu
niveau
noix
norte
oberflache
obstacles
oorsprong
opuesta
oubliez
paintings
parlava
parlons
passend
perdida
pflanzen
pirate
pizzeria
plie
pocos
poetry
polizei
populaire
potenza
potevo
proposito
provence
pura
purgatoire
raggiunto
raisons
rama
reaction
realitat
rechtvaardige
recibir
refuge
regels
religiosa
remaining
remblai
rentrer
require
respond
riflesso
righteous
rimane
riz
rocheux
rompio
saison
salad
scheinen
schepselen
schlechten
schreef
scientific
scorgere
scream
served
servir
singapore
sitter
sleutels
slottet
smarter
snabbare
sombras
sonrio
sortez
souffert
sources
soutien
splendente
stanno
steek
stel
sten
sterke
superieur
supplementaire
suss
synen
tagen
talat
talvolta
televisie
terraplen
thursday
traces
tratto
travels
treatment
triangle
trombone
trouvez
tvungen
unknown
unterscheiden
unterstutzen
vanligtvis
vemos
verenigd
verliet
versos
vertrok
verurteilt
verwacht
verwirrt
victims
vienne
visibile
vivante
voegde
waves
welk
wheel
wolves
worterbuch
##ane
##ap
##cina
##die
##dio
##eras
##fort
##hung
##ibile
##ics
##ids
##ief
##imi
##iser
##itre
##ives
##kst
##ktig
##logist
##lost
##mate
##mmt
##nga
##nk
##ora
##pels
##pit
##plaats
##rale
##rebbe
##ric
##sar
##ssez
##sts
##tad
##tando
##tida
##tjes
##uno
##vado
##vais
##vig
##woord
##zunehmen
##zzi
aangezicht
abbastanza
abilities
acerque
adult
afflige
agire
alain
alltfor
alternative
angelic
anxiety
arrange
asegurate
atteggiamento
autrefois
avantage
azul
azzo
balle
baratto
batalla
beatitudine
beatrices
benediction
benevento
bertran
bewijzen
bienheureux
biscuits
bisenzio
bittere
bolsa
bonagiunta
branca
broers
caco
caja
calle
calore
camilla
camion
ceremony
cielar
cincinnato
circe
citoyen
cleaned
closely
coin
columbus
comfortable
command
commun
complaints
completo
composer
comprennent
confie
consiglio
constitution
conviene
copierez
copine
cornelia
corneto
corpi
cristiano
cruelle
daily
darwin
deidamia
dejame
depending
describir
destruction
dette
deum
dienst
dignity
dik
division
donate
doria
draghignazzo
drinkt
duele
duwde
elsa
enojado
environ
envoie
erzahlte
erzeugt
especially
essay
essential
estados
experienced
falsa
farfarello
fattiga
financial
fliesst
flod
folj
forli
fouten
fucci
fuhrung
gebeurde
gedrag
geduld
gehouden
geniessen
genieten
geschafft
geschiedenis
gianni
globo
greve
grona
guardai
guglielmo
guld
habites
habitudes
hago
haleine
hauteur
heights
hinauf
hof
hombros
humilde
influencia
inhabitants
inneren
insurance
inteligencia
intentions
interlingua
jogging
keel
kindly
koken
korea
lamentations
langtan
laudamus
legte
liberty
linken
lino
linux
liri
logica
longs
lunes
maand
machten
malacoda
malo
mangent
mensheid
mentioned
military
mistaken
moeras
monferrato
montagnes
mortales
mortes
mosse
motsatt
mouse
muddy
muertos
munnen
mystery
nato
nere
netherlands
niemandem
obtener
onkel
opportuno
optimistic
orlando
overleden
palio
papst
peloro
pepper
perds
periode
permiso
perte
piangendo
pietra
pilot
plate
polish
polo
portable
poverta
preparado
principles
prisonnier
procede
promenade
properly
protected
recent
reconnaissant
respecto
rhone
rodolfo
rostros
ruego
rusticucci
saintes
samtidigt
sapienza
scende
schepper
schliessen
schliesslich
schultern
schwarz
seguendo
senses
sentenced
sentimientos
serpents
setzte
silly
silvestro
sits
sixty
skarselden
slower
smartan
soft
sorgfaltig
spark
speel
spot
sterfelijke
stolthet
storia
strijd
sufficiente
suitcase
surement
tantas
tarea
tendras
tip
titanic
tomado
trabajando
tras
traveled
trott
turquie
ubertino
ugo
umanita
undvika
ungluck
uni
unterstutzung
urteil
usando
vanni
veilig
verantwortlich
verbrachte
verdienen
verkauft
verrouille
versa
vicenza
vienna
vierde
virtues
vittore
volar
vorbereitet
wahren
wardrobe
wartet
wasting
watches
weapons
worter
zanche
zomer
##aien
##anti
##ari
##ario
##cada
##chap
##colo
##cro
##dar
##dem
##eert
##ence
##enti
##erar
##falls
##full
##gga
##ggiare
##gh
##glar
##gra
##iden
##ifran
##igne
##iten
##kent
##keren
##leden
##lied
##lijkheid
##lingar
##lingen
##lk
##lose
##melt
##mma
##nces
##nien
##nik
##onia
##punt
##rig
##rito
##rufen
##rungen
##steigen
##steigt
##teerd
##trice
##ttes
##tudine
##uele
##ugen
##ulate
##ulle
##umen
##vamo
##ware
##zada
##zze
accompagnera
achille
achten
acte
actie
adopted
aeropuerto
afgrond
afgunst
afrique
agreed
alarm
algerie
amasse
amitie
anagni
angest
anglar
angoisse
angustia
anna
arabisch
arche
armas
arrogance
asombro
aurora
autoridad
bach
bage
bananes
bathroom
baume
beato
befriedigen
begeerte
begging
belong
belongs
betekent
beundra
beweisen
bewijs
blanca
blass
boivent
bomen
braccio
bresil
brillait
caches
calma
carga
catholic
centrale
chanteur
charlie
ciudades
cocaine
coma
comence
companero
comporte
comprado
concerts
condannati
condotto
confier
conoces
conseguenza
consists
contain
converti
cooperation
coro
correctement
cravates
creado
creating
cri
croient
cultural
cumplir
daad
degno
deje
deranger
descended
desgracia
designed
determined
diccionario
dieren
diras
disappointment
disposition
dolci
dra
droevige
dronken
durant
eclaire
eifer
eindruck
eins
eleva
eloigner
emotions
empecher
empfang
entering
entirely
eraan
erkannt
errors
evento
extendio
faced
farmi
fasta
fedele
ferait
fermo
ferne
fewer
fiancee
fiere
file
firmamento
flood
flyger
fornuft
fous
froide
fruchte
fullt
funeral
gaeta
gained
gallura
gehalten
gele
geschlagen
gestohlen
geur
gevoelens
gewohnlich
glanz
haken
halo
hangivenhet
hercules
heridas
herinneren
hief
illumine
inre
inspired
intersection
invito
joe
kilo
kilos
klader
kreeg
kroppar
ladron
larm
learnt
levende
librement
liedje
lofte
longueur
lourd
luni
magic
magnifico
maman
marchait
marches
markte
mauer
mauern
medveten
mejillas
merit
merveilleux
meses
meter
metgezellen
methode
miracles
mix
montaperti
mostrare
muestra
mura
muro
nadar
noire
noms
nostalgie
noticias
nouvel
nuage
numerous
objectif
oever
official
oldest
oranges
osten
ouvrit
ovan
overge
overweldigd
parecen
parlaient
parlato
parli
passee
pastor
peccatore
pedir
perfecto
permitting
perso
pfad
pit
plaga
plantas
pockets
poetische
poupee
pregnant
preter
previous
prevu
prier
queremos
raad
racket
ramo
recommended
regnen
regular
remembered
rentre
reparieren
repeter
repond
repose
reser
restee
rod
roos
russisch
sales
salvaje
sank
sappi
saving
schau
schouders
sentado
serene
signed
siguiendo
sinners
sinon
situationen
sixth
skapar
skirt
slar
snall
soiree
solide
soportar
southern
spectacle
spider
spinnen
spinse
standen
standig
starker
starrte
steigt
steken
stelde
stemmen
stonden
stroom
sucede
suggere
suivent
suivez
sundays
sunder
surely
surrounding
tanaka
tauschen
teme
tenzij
terminado
texas
tofu
toon
tordu
totale
traurige
treat
underbara
vagevuur
vanliga
vant
vengono
venons
verdomde
verifie
verlichting
verschwand
vertrekken
vete
vieilles
villano
volare
vorfahren
wassers
weiterhin
wen
whenever
wolke
wollt
wou
wound
zand
zealand
zeitung
ziekte
zijde
zwart
##aban
##arsi
##bracht
##cito
##dom
##eth
##ghi
##gingen
##gliare
##ham
##hield
##hle
##icion
##ifie
##izia
##jn
##lang
##lata
##liez
##lita
##maient
##mio
##mite
##mmer
##nation
##nche
##nete
##nnen
##onne
##ort
##pio
##racion
##rante
##ringen
##rita
##rite
##rle
##rto
##ship
##tand
##tenido
##tert
##tid
##tif
##tische
##tung
##weh
##weise
##wind
##wingen
##zustellen
abrazo
abri
acceptera
aceptar
acto
adapted
afferro
afhankelijk
altos
amant
americaine
anciano
anciens
angenehm
ansah
anstatt
apprenait
arg
argumenten
ascoltando
augustus
automne
avermi
avra
ay
banane
battait
befreit
behold
beijing
beinen
belangrijk
bellincione
benaderde
beroende
bestaat
besucht
blessing
bowl
brave
brenta
brillaba
buone
caballo
cabello
cabo
caire
capocchio
casentino
cast
certaine
champion
chica
chiedere
cigares
citoyens
classmates
coins
composition
confident
confirmed
congratulated
corazones
cortese
cour
cria
cris
darifran
decia
declaro
decline
deeds
deines
departure
descrivere
devota
dick
directly
diro
discipline
divers
dodade
doorgang
douze
dude
duur
effetti
egypt
electricity
embassy
emerge
emergency
emme
enceinte
enthusiasm
entrare
entscheidung
epais
ergebnis
erwartet
escribe
escucho
evanouir
evitare
exactamente
exposition
expresar
extrano
faenza
fattigdom
favourite
fax
fecero
fialte
firme
fisso
fleche
fluently
formen
forntida
freunden
frontiere
frozen
fruktansvarda
gangen
gebaude
gebrek
gelebt
geliefde
gelogen
gesegnete
giant
giove
glow
gola
grenarna
groupes
grunen
guance
guerir
haft
handa
handed
handwriting
hangen
harsh
helen
hey
hierheen
hierro
hingabe
hired
hoflichkeit
hong
hug
huid
iba
idiomas
illuminated
intelligentie
interpretation
inviting
invloed
james
jaren
july
karte
kijkend
klavier
kochen
kong
lagor
lampligt
landen
laptop
lasare
lasse
latest
laufen
lavez
lebenden
leeftijd
liebhaber
linie
lisent
lottery
loudly
lugn
lysa
maakten
magnificence
manieren
meilleurs
meraviglia
midst
miras
miteinander
model
moindre
monstre
montanas
mortali
motorcycle
mozart
mt
muslim
mustn
naakt
nacionalidad
nahmen
natuurlijk
nearby
necessarily
nes
northern
nuovi
observing
omringt
ongeluk
onmogelijk
onvermijdelijk
orders
ordonne
overal
owner
paard
panda
parade
parait
parapluies
parnaso
patients
pelle
perdue
pese
petites
philosophy
pianto
pigeons
pirates
plata
pochi
policier
possede
pratar
precedenza
primi
probable
produziert
projekt
prononce
propios
prufung
quanti
quest
raging
range
ratoncitos
recordar
reflection
reflexion
regn
reisen
relief
resembles
respeto
revolution
rideau
riket
rondom
rum
ruota
rusten
saco
scandal
scattered
schizophrenia
seme
sensi
sentidos
sentivo
separa
serre
sicurezza
slag
slagen
slipped
smeek
snarare
sortie
spanisch
spanje
spass
spel
spuren
staarde
steep
straat
streng
successful
suggestion
sunset
surrounds
swamp
temprano
tengas
terreur
thebans
thrown
tolerate
tome
tradet
trage
translator
trash
traume
travailles
tricks
turen
tuscany
unga
urlaub
utilisant
varldens
vaso
vaya
vedendo
vendetta
verbrannt
verdwenen
vertraut
vervolgens
vieja
vissen
vlucht
voces
volere
voleur
vollkommen
vomi
voorbeeld
wenige
worship
ytterligare
zorgvuldig
zuzuhoren
##als
##azioni
##bado
##bara
##bla
##born
##ched
##cieron
##cita
##doen
##dora
##drar
##ehen
##ekt
##ello
##ette
##eurs
##ey
##fel
##fica
##gnant
##hundert
##icos
##jada
##jde
##kes
##lag
##lante
##lato
##lee
##lions
##logy
##mble
##meter
##miez
##mit
##ncy
##ndolo
##ote
##ou
##ously
##pie
##ple
##rieben
##rlos
##rm
##rta
##sieren
##sons
##tag
##tino
##tita
##tito
##ub
##uda
##uire
##undet
##uwd
##vat
##vie
##vit
##vol
##vola
##wegen
##wiesen
##wing
##yons
##ys
##zel
##zukommen
16
22
abierto
accueille
achieve
ack
adieu
advies
affected
affirme
ajouter
alerte
aligne
allebei
amar
ameliore
anguish
appels
appreciated
approach
ardent
ardour
assistant
assumed
attesa
augenblick
auszudrucken
autorise
average
avevamo
ayudo
barack
beantworten
believing
benie
bevrijd
bibliothek
bicyclette
bienvenue
blessee
borsa
bot
bouger
brauchst
bride
brightness
bror
brostet
brush
brutus
bulicame
busca
caballero
cash
cauchemar
certa
chantait
chiamato
closest
comments
compagno
comprehension
concede
condamnes
conduce
conoscere
constantly
courtoisie
couvre
cows
crainte
cuan
curiosity
customers
debate
deber
decorate
decorated
demeure
denti
devenus
devocion
devono
devozione
dionysius
discovery
distante
diversa
doors
doucement
douceur
douloureux
dragon
dricka
drukken
echecs
ecrivez
edison
egg
ehrlich
eigentlich
elders
elementary
emisfero
emotion
enfermo
enseignante
entrez
envuelto
erased
erschienen
escudo
estare
estudio
etabli
etendue
evolution
experiment
extraordinaire
faccio
flat
flydde
forbi
forbli
foresta
forsvinner
forutom
freddo
freed
freundlichkeit
friendly
fruhling
fulfill
fulla
garbage
garganta
geant
geburt
gedood
gegenseitig
geheiratet
genere
geschopfe
gestopt
gezogen
giunto
glanzend
gloed
glorious
goodbye
gouverne
graffiacane
greatly
gruppo
happiest
heavens
hebrew
helpt
hemisferio
herinnert
hermanas
hers
hoeft
hogere
hola
hoofden
hoort
iedere
ilska
iluminacion
imprisoned
improved
innerhalb
intelligenz
internationale
johnson
jordan
journalist
kallade
kampfen
kleid
koude
kreuz
kurzer
kwaadaardige
langsamer
legen
lenguas
lesquels
libere
lichamen
lichts
lieten
lips
litar
llanura
llaves
llevaba
madera
marido
marquis
mato
meg
melancholy
midterm
molesto
moln
montes
morire
mortels
morto
namens
natuurlijke
nimes
nobel
noirs
nuclear
nueve
nulle
nytt
objeto
obtain
odet
offensichtlich
oggetto
ogonblicket
ohren
oosten
opposto
opuesto
overwinning
painter
papel
parlais
pars
pawn
pecadores
peccatori
penetra
perfecta
persons
pink
piscine
plaine
pleinement
pleurait
pluto
podian
poema
possibilite
pratade
pratique
prende
presa
priester
prijs
profondamente
prohibited
pronuncio
proportion
prostituee
prouver
provoque
ps
puertas
puissant
reasoning
reconnais
regardent
regent
reicht
rencontres
reponds
reported
responsables
revenue
revient
riesen
rik
risplende
risque
rote
row
ruisseau
sags
sallskap
sauter
sauvages
schatzen
schlaft
schmeckt
scholar
schreeuwde
script
seche
senora
sentimiento
seraphim
sert
sexy
sienne
significado
singt
sir
skapades
slaapt
sleeps
smeekte
snake
snelle
soddisfare
soddisfatto
soldaten
soltanto
speeches
spurte
starkt
steil
stille
streets
superieure
supported
surveiller
susan
sydney
taire
tatsachlich
testamento
toegewijd
tone
tore
tourmente
trace
traduit
tranne
treden
trost
troubled
tumba
turm
tuyo
uccello
umani
unite
unseres
unterscheidet
uppfylla
upplyst
uscire
vagledning
vanlighet
veld
venuto
verdes
verk
verka
verkligheten
verlangt
verstehst
vertical
vlakte
volvieron
vorige
vorteil
vrije
vuelo
vurigheid
wandten
warf
weird
welcomed
wished
wolk
woordenboek
wounded
wounds
wrestling
yacht
yourselves
zetten
zhuangzi
zondaars
##agde
##ali
##antes
##aria
##arono
##bung
##by
##ceau
##chiez
##chtig
##cious
##cit
##coli
##ctor
##ein
##ents
##ever
##gnaient
##hing
##hmen
##iada
##ieuse
##ifier
##iko
##iner
##ismo
##izar
##izzo
##kelijk
##ki
##ktiga
##lda
##lite
##ltet
##lto
##mando
##mare
##mm
##nale
##nee
##nna
##ogen
##oi
##pade
##pira
##plica
##quer
##rage
##rata
##staat
##stan
##tamente
##tio
##uce
##ucken
##una
##uous
##urer
##vaient
##vil
##wn
##yer
##zzato
abattait
abierta
absorbed
acceptable
accidente
acheron
acting
adler
admiration
advocaat
albert
alcanzar
altezza
altrettanto
amare
amer
amuser
anden
angoscia
antigua
apparently
approchait
arret
ascension
assicurati
attendais
badminton
banks
bedrageri
begick
belief
berge
bestehen
bleibe
blinde
bolagia
bones
botschaft
brigade
buffalo
buro
butterfly
cadres
camp
careless
carries
castigado
cato
chaude
chaudes
chiaro
chopin
citizen
cleared
cocytus
colina
comforted
companion
comparison
compro
concesso
conciencia
conoce
considering
continues
contributed
cramming
crede
creee
criticism
cubierto
daliga
darunter
delicieux
demissionne
deny
description
determination
deugden
dichiaro
dichte
dictionaries
dolares
domingo
doof
dors
dov
doy
dropped
eager
earned
ecrite
elephants
emily
encontramos
endormi
enig
enlightened
entdeckt
entgegengesetzte
enthalten
entspricht
enucleer
ervaren
esperaba
essenz
estes
eternelles
eternue
etudies
ewig
exemples
existens
existieren
explore
famosa
farger
fascinated
fausse
february
feind
female
femte
finlande
fjarde
florentine
fonction
fordomd
forlora
frutti
fuhlt
gaben
galna
gaven
gegenteil
gekleed
geschmack
geschopf
getoond
geval
gevolgen
gevuld
gewartet
girare
girighet
grades
graset
grossten
guardavo
guardia
guitton
habitual
halfrond
hamnd
hannibal
heavily
herkende
heureuses
heuvel
hierarchie
hoja
illuminazione
immigrants
incapable
ingang
iniziato
intelligenza
invention
jam
jerry
jiro
jouent
joueur
judecca
jugend
karate
killer
kilometer
knees
knives
kuchen
kvinnorna
lagre
lamb
lancelot
lasted
lavabo
lents
letizia
leuchten
leyes
lieux
liggen
lisa
lucrezia
luisterde
luoghi
machines
magen
magie
malebranches
malvagia
manieres
manifeste
marijuana
marzia
mediocre
memories
memorise
memorize
mene
menor
mensaje
meurtre
minerva
miserere
moeilijke
mogelijkheid
mori
mosquitoes
muhe
multitude
muttersprache
nectar
nennen
nevertheless
niente
normale
normandie
nostalgia
noto
nummer
obsessed
obstacle
occasions
offended
oktober
opposition
orgueil
oscurita
ose
ottenere
oxygen
pagina
papal
papers
paradieses
paraplu
parnasus
passeport
passera
patron
pelicula
pensait
perceived
pescado
pfeil
pianeta
pianura
pidio
pijl
pijlen
pijnlijk
pilaf
planned
plastic
platser
pleasing
polite
polonais
portare
possibly
pozo
prefererais
preferez
presenta
presented
presenter
presenti
previously
prince
priva
profundidad
proximo
punis
qualita
queres
rarely
reaching
reconnaitre
recovered
reda
regime
regina
regresar
religios
reluctant
repasse
reply
resplandor
reue
richezza
righteousness
rivage
rocks
royal
scary
schaduwen
schones
schrei
schwarzen
scotland
searching
seconds
seguridad
seldom
seligen
semblant
shadows
sidewalk
silla
simili
sjunger
skepp
skype
soberano
sogno
solving
sometime
sos
souci
sowie
spegeln
sposa
staaten
steden
sternbild
stijgt
stracker
stralende
straw
stupore
suggestions
sumpf
suolo
super
supermarche
suprema
swedish
tander
tanti
tardi
tight
tigre
tijdje
torna
torst
touched
toucher
tradition
traducteur
treu
trunk
turkey
twin
umile
uvres
vagar
valuable
vasen
vea
vegetarian
vend
verbergt
verboden
verbunden
vergeleken
verklaarde
verleden
vermijden
verrat
verspreid
vertrek
vijanden
voci
volti
voudriez
vruchten
vues
wachst
walks
warming
wealthy
weh
wenst
wherever
wreed
zakken
zeige
zeiten
zieht
zinnen
zodiac
zone
zucker
zwarte
##ang
##bilidad
##bilmente
##bs
##bst
##celle
##chine
##cie
##cta
##deren
##dro
##elo
##eno
##euse
##eva
##eve
##evo
##faller
##ff
##fst
##gados
##gefuhrt
##gerar
##get
##gezogen
##gie
##gni
##hlt
##ibt
##ifs
##ijn
##illo
##iosa
##itto
##ji
##kad
##legen
##lera
##lls
##lor
##lust
##markt
##mbo
##messo
##met
##nacion
##nam
##nan
##nando
##nel
##oke
##orde
##oted
##pan
##porto
##rain
##rank
##rava
##rdo
##rera
##room
##sie
##sis
##stic
##sto
##table
##tent
##terna
##tical
##tiska
##tog
##tori
##uait
##uels
##uido
##uk
##ulation
##unden
##uni
##urent
##uze
##vader
##vel
##vet
##voerd
##voll
##vollen
##vons
##wandt
##wenden
##ziehen
##zone
##zug
##zuhalten
28
abandonado
abgrund
abt
acaba
accepterait
achtergelaten
actif
acts
agodelar
aides
aient
algerien
amablemente
amazing
amener
americains
amoureuse
amused
ancienne
andarna
angezogen
anglarna
animale
apparut
appelait
appelee
apporter
approuve
aragon
armarna
attendant
attente
attila
attracted
aufgrund
avvicino
backs
bags
barmhartighet
basic
bellaccoglienza
bellen
benditos
bescheiden
betaald
bevindt
bevredigen
biada
bianca
bleven
blixt
blocked
blows
bonifacio
bouquet
breaks
briareus
brott
brunnen
cafes
camminare
candidate
cansada
cantante
capacites
centaur
cents
cerveza
cheat
christen
cirklar
clever
colori
colpo
comido
compagnon
compre
conduite
confesser
contained
contiene
conversion
convertido
cool
cordero
correr
countryside
courrier
cries
croyait
crus
cuantas
cupidite
daaruit
damn
dauern
deaf
deception
demi
democratie
denmark
desaparecio
deutschen
develop
dieron
directamente
dirigio
discussing
diventato
divinita
dor
draaiden
dran
drapeau
drought
dudas
durfen
eieren
eiffel
einfallsreichtum
elandiga
elsewhere
encuentro
endure
enemigo
engano
enlever
enquete
entendido
envelope
envio
esempio
esprimere
excelente
exile
extremement
feared
fegefeuer
fellow
fiction
fiducia
fila
flag
flexible
foreigners
forfader
forgetting
fotterna
foudre
fragan
frappa
freue
fri
furchten
fussball
gardes
geglaubt
geheim
geholpen
genera
generalement
gered
geschah
geworfen
gier
gleichzeitig
gottlicher
gradualmente
gratitude
griff
grossvater
habilidades
hablas
habra
hamburger
hammer
headed
helling
hemisphare
hermosos
herren
herrscher
hire
hitte
homo
hyperion
identite
imam
impossibile
indruk
inform
inganno
ingenio
ingeniosite
ingenuity
inmitten
inquieter
insel
intellectual
interet
interfere
irdische
ireland
issues
jalouses
jambe
janeiro
kans
keyboard
koran
kusten
lache
laget
langa
laser
leaders
lehrerin
leon
leopard
leuchtete
liberta
lincoln
listens
lowen
lugen
magnifica
maldad
manage
manges
mannes
manskligheten
mantuvo
marais
measure
melodi
merites
merry
ministre
minuit
missions
misunderstanding
mittel
modena
moitie
mojlighet
monnaie
movements
nase
naturel
negli
nephew
neun
neus
neuvieme
notai
nubes
oath
oblige
observation
obst
offenbaren
offrir
opposed
ordres
oren
organic
orgulloso
ouder
ovidio
palestine
panna
passieren
paven
pedestrians
peligro
pene
peoples
perdi
permesso
philosophie
piccola
plairai
playa
pocket
poets
politica
possessions
powers
prayed
preferent
preferes
prefiero
premieres
privilege
probeer
profession
profondeur
promessa
prostitute
protege
providencia
provvidenza
prudents
psalm
qualen
quereis
querer
quiera
quinto
quinze
rahmens
recepcion
reduced
reglas
regrets
reizen
rejoindre
reminds
represente
represented
retourna
returns
riding
rit
robo
ronde
ruedas
sacro
sagrado
sali
sappia
sar
sass
schedule
schopfer
schrijf
schwestern
scissors
section
segen
sesto
shoot
sinnet
skrev
slope
smiling
sollst
sopla
soudainement
specific
squares
stamps
stomach
straal
strangers
sujets
sunlight
supporte
surpassed
tercer
terminer
tesoro
thirsty
tiefer
tiny
tiro
toilet
topic
trapped
trennen
tronco
trou
uiteindelijk
utseendet
valet
vanished
vapor
varios
vechten
venait
vendra
verbracht
verbrand
verdoemde
vereinigten
verres
vikt
villa
villain
vinna
visat
vital
vitt
vivid
volg
volvera
voorouders
vooruit
voorzienigheid
vorsehung
vostre
vrees
vrijheid
wahlen
waterloo
weerspiegeld
weisen
wheels
wirkung
wohnung
worn
wunden
wunschte
www
zahl
zegen
zilver
zweige
##achtig
##anos
##ating
##ative
##bian
##bij
##chait
##chter
##cilla
##cir
##cular
##cus
##dien
##dono
##door
##ebbe
##fallen
##fico
##gekomen
##gesloten
##gezet
##gge
##graph
##houdt
##iato
##icia
##ienne
##ierten
##igde
##igte
##inar
##ited
##jor
##jos
##kat
##keek
##lasst
##leben
##lige
##light
##lina
##llas
##locken
##lsen
##nande
##nch
##ngd
##ngono
##nisse
##ology
##osi
##oze
##pelen
##pf
##pita
##posti
##qua
##ray
##reten
##rios
##ru
##schap
##star
##stro
##sucht
##tile
##tons
##trag
##tu
##tude
##uais
##uero
##ueva
##uie
##uito
##ullt
##uoso
##uts
##versa
##vin
##vning
##wand
##wollen
##zame
##ziert
##zte
##zy
##zzo
1950
abbondanza
abogado
abondance
actual
adapt
adorait
aidera
alcmeone
aliento
allais
amargo
anciana
angeboten
angenommen
annars
antepasados
anvande
appare
apparire
approaching
arrivati
arrogante
ascolto
asks
assisi
assistance
assured
ater
attentive
attento
attorno
aufgestanden
auquel
ausseren
avsloja
baan
bambino
battaglia
bedoeling
bedrogen
begraven
bendicion
benedizione
beneficial
bereich
besitzen
bicycles
bienaventurados
blew
boiling
bojde
bolognese
bourgeois
broeders
cabezas
calcabrina
caminamos
cantare
cantidad
cassius
catalano
ceased
celebres
centuries
cera
cerveau
chauve
chiama
chiusi
chor
christians
circonda
claims
client
colpe
compiuto
considers
controler
corrio
criait
cultive
cure
current
dallo
decirle
defended
demut
denoncer
dependiendo
depressed
deriva
derselben
desagreable
destroy
detestes
detruit
deviennent
diamant
dieb
difficultes
dijiste
discouraged
dispute
divenne
donnent
draai
dreimal
drowned
echange
egenskaper
egoiste
ehe
eher
eingang
emotional
employer
endroits
ennuie
entdecken
entendue
enthalt
epoca
erlangen
erlauben
ernaar
ernst
errores
eta
etape
excellence
explaining
expose
farmer
fastest
favoriete
finna
fisico
fixe
fixes
flecha
flughafen
forgaves
formaga
fortress
francesca
francois
frate
freccia
fruktar
fuga
furchtet
furious
ganar
garras
gebaut
gebunden
geduldig
genoux
gerausch
gesundheit
geteilt
getragen
gewahrt
gewend
gradually
gratuit
greedy
greeted
growth
gruppen
grymma
guards
gustaba
gyllene
harde
helligkeit
hielp
hilft
hinterlassen
hjalper
hjartan
huilde
humility
hunt
huset
ideal
identified
illa
ilumina
impose
imposed
improvviso
incroyable
inexpensive
infinito
influenced
informacion
informationen
ingegno
irrtum
jouaient
judging
kallan
kaufte
keuken
keuze
kindergarten
kleidung
knappt
kreise
krig
kung
lager
lamberti
lamnat
lancia
langsamma
lawaai
legde
leggi
leidenschaft
leisten
limits
lions
louis
lucano
lueur
maggior
malefique
malvada
manager
massive
matelda
maudit
meetings
membre
menigte
mensonges
mental
merken
minnaar
minore
mitad
mittag
molesta
mork
moscow
mosquito
motor
motstandsrorelsen
multiple
nachmittag
nachrichten
nackt
nausee
navarra
nebbia
niemanden
njuta
nomme
normaal
nutzlich
nytta
objekt
obliged
ocho
onderwerp
onskade
oorzaak
opere
opinione
oppervlak
oriente
ossa
osservato
overvloed
pains
paire
pakte
palais
palazzo
palude
partida
passt
pecheur
peligroso
perceive
perform
permitio
persiste
persuaded
peuples
piante
piccolo
podrias
poesia
portent
poveri
pretended
privacy
process
pronta
propri
prostituta
puisqu
pupils
purple
qua
qualities
rader
rage
recemment
recevoir
regla
relacion
released
rendere
repeating
reprendre
ressemblait
restait
restant
restaurante
retired
retrouve
reward
ricordare
rifeo
riktade
robot
rocciosa
romagnoli
root
roue
roues
sabemos
sacra
santas
schrien
schudde
schwach
segura
sensitive
services
shed
ships
shortly
sicherheit
sienese
siguen
ski
skiing
skill
skrika
slatten
solcher
soldanieri
souvient
spegel
spiders
spiritual
split
sprich
stable
statement
stilla
stolt
storsta
strahl
sturm
subi
successo
sucht
sucia
suckar
suedois
supera
surgeon
suspected
syndare
tampoco
tango
tax
tear
technique
technologie
telles
tenere
texts
titre
tjanare
tormented
torno
toskana
tourist
traduis
transformed
trento
trepidation
treppe
triomphe
trompee
trotzdem
tutt
twilight
ubersetzt
uf
unternehmen
untersuchen
unusual
upprord
urgence
ursache
vacio
vada
vague
vai
vantaggio
veil
venues
verbindung
verdienst
verlichten
verstecken
vertes
verurteilten
vervullen
vicini
viendrai
vindingrijkheid
virtudes
vise
viste
voldoende
volentieri
voyages
vuelven
wartete
wateren
weekends
weisse
werke
western
whisky
witness
wonden
wondering
woonde
zerstort
zingt
zintuigen
zuhoren
##ables
##aco
##akt
##ama
##assen
##atie
##bben
##bilite
##burger
##ccare
##cciato
##cco
##chaient
##colare
##cto
##dera
##ders
##digde
##ega
##eus
##fect
##fi
##fine
##fs
##gano
##geben
##geld
##gique
##haus
##hlen
##hnung
##hre
##ibili
##ides
##iest
##ifico
##igo
##ijnen
##ilt
##ised
##ises
##ius
##izado
##izing
##kan
##ked
##kor
##ku
##larna
##lava
##lies
##lst
##mais
##mn
##nal
##nbar
##ndi
##ndome
##nds
##nischen
##nit
##nn
##onde
##oni
##pere
##pft
##pirando
##por
##puesta
##racht
##rados
##rahlen
##rasse
##rati
##rist
##rus
##sare
##sato
##sco
##see
##sliga
##sst
##stag
##tade
##tados
##tausend
##tle
##uale
##uchen
##uma
##upe
##utzt
##vade
##vist
##vs
##xe
##xt
##zelf
##zijn
##zugeben
##zung
14
20th
35
abends
abitanti
absoluto
acceptez
accidents
accompagnait
accounts
actes
activity
adem
aidez
aine
alls
almeno
angrar
antica
app
applied
aracne
arrepentimiento
ascend
ass
assurer
astinenza
attache
attaque
attract
ausgestattet
autobus
avarizia
ave
bagnole
bande
banken
barbagia
bastone
benevolent
bere
bereitet
bergets
beschouwd
betrayed
bevisa
bewohner
bezug
bieten
blaser
blau
blieben
blossoming
brillar
britain
bruid
buio
buitenland
buurman
caccia
cages
camina
cancel
carlsen
cases
cassette
causo
cease
cento
cercando
checked
cherry
chin
cigarettes
cine
clima
cloak
cloth
complained
connaissons
conscient
conscious
consecuencias
considerazione
construire
convenience
coraje
correctamente
corrige
costo
costumbre
couloir
couper
courageux
courez
couronnes
cow
croatia
cruzar
curiosite
dam
dando
darle
debil
dedo
degna
delayed
delight
demonstrate
denaro
dent
descendez
desespere
desirez
dessine
developpe
deviendra
dica
dieci
difficolta
dirigido
dislike
distinguer
dok
dorr
draag
dringt
dubbi
dutch
ebbero
eclair
edlen
effects
effile
ehebruch
elba
embrace
emerged
enfuis
enganar
enseigner
entierement
erheben
erlitten
espece
espresso
essendo
estudiando
estudiantes
eternity
etudes
eurem
exagere
exclame
exists
experte
faibles
fakta
falska
familien
fango
farmers
fatigues
faul
felicite
feuille
fierce
fiery
filling
fjadrar
fliehen
florentiner
flucht
fluent
folie
fork
formagor
formal
fragile
fralsning
freuden
fronde
fugte
fulmine
fumar
gearbeitet
gebiet
gebonden
gebouwd
gekusst
genaamd
geruch
geschaft
gesetzt
gespielt
gestorven
gevallen
gevormd
gewissen
gezelschap
ghiaccio
glod
glodande
grandpa
grandson
gravity
grec
griffes
gritos
gryningen
guided
habitantes
habituellement
hacerme
hagas
heading
heilen
helicopter
hemelen
hi
hielten
hirten
hittade
hobbies
hollywood
hoor
hostile
huidige
huilt
ideen
idiota
ignorant
impulso
increible
inde
indique
inocente
intensely
intensement
intent
inverno
inzwischen
islands
istante
italianos
jenen
joint
jord
jouais
jouiez
journaliste
keken
kings
klingon
knochen
korean
krijgt
krona
kudde
kurzen
kwade
kwijt
lamenti
landet
lands
lar
lebendig
lecons
leeuw
legumes
lektion
leuchtkraft
liar
libra
liedes
lien
lilla
lisait
lita
ljuva
llevaron
loca
loften
longest
lumineuse
lunga
mager
maggiormente
malabocha
malas
manifest
manifestiert
mankind
maravillosa
marc
margarine
marque
mayuko
medico
michol
microscope
migliore
mild
mince
misfortunes
misslyckas
moglie
morse
mostrando
motivated
movian
movido
naive
nasce
newton
nido
noemen
noggrant
notwendigkeit
nuisance
nuove
objetivo
oboe
obtenu
ochtend
offenser
ogat
opportunities
orchestre
oreste
orgoglio
originale
orolig
orte
outer
padua
pakistan
papalardia
parent
participer
passionate
patrie
peanuts
pensaba
pequenos
permitted
philosopher
phoned
piacevole
pianist
pierres
poetic
poland
pole
policia
polidoro
possibilities
preguntar
privo
probeert
proches
prodotto
promets
proof
proviene
psalmen
punito
purse
quantita
raam
rabbit
radslan
ranch
rapida
rechnung
reflechi
refuses
regne
rejoice
rendra
renove
repent
replico
republic
ressens
revenez
rim
rocosa
roja
romanian
ruder
rushed
sabbia
sagrada
sail
salud
sapeva
sapporo
sauber
schlechter
scorsi
searched
seats
seguidores
semence
sentimenti
separates
shoulder
shuttle
signes
sings
sitta
skiner
slices
slight
sloten
sma
smallest
soffrire
soixante
solch
soldats
solia
solid
solitario
sombres
souffrances
souri
spektakel
spred
stade
stadte
stopt
stopten
straffen
straffet
stuhl
stupidity
stuur
suficientemente
sumo
superbo
svansen
tahiti
talented
tantos
tanz
tattoo
tekenen
telefoon
tels
temor
tenebres
tercero
terribles
tevergeefs
throne
tonnerre
toont
tournai
trampa
trasket
treinta
trick
trifft
troost
trosta
trouwen
trovato
trovo
tuesday
tugenden
turc
twijfels
udii
uitleggen
universidad
upper
valse
vanner
vantade
vapeur
varie
vaters
vaxten
vela
verbonden
verdammt
verdoemd
vergelijking
vertus
verwendet
veste
vices
virtuoso
visas
vivido
voto
vriendelijke
weep
wege
weile
weiser
welchem
wider
wielen
winds
winning
woedend
wretched
yens
zogern
zuster
##aid
##alen
##ape
##aries
##arte
##asse
##aste
##bras
##ceso
##chio
##ciente
##cientos
##coit
##col
##cule
##dada
##dero
##diendo
##digo
##dito
##egd
##erden
##erweise
##fera
##fia
##fici
##fiel
##fo
##gegaan
##gegeben
##gegeven
##gehouden
##gende
##giato
##gor
##han
##hensible
##holt
##imate
##kelijke
##laden
##lip
##maakt
##mato
##mde
##min
##mise
##mmar
##mpe
##name
##ngt
##nimmt
##nsible
##oon
##oor
##osos
##pas
##phone
##posing
##pper
##pping
##pra
##quia
##rano
##rates
##raum
##reiche
##remo
##rity
##rten
##sable
##satz
##scono
##serna
##setzt
##skt
##spieler
##ssa
##tera
##time
##tir
##tis
##ueux
##ulieren
##ums
##urais
##uted
##vallen
##venu
##viez
##ville
##vions
##voque
##wahlt
##wed
##wein
##wl
##wort
##xen
##zer
##zie
##zimmer
##zzare
19
24
80
aantrekkelijk
abandonnez
abbandonato
aboye
abrir
absolutamente
absoluut
abstinencia
absurd
accoutume
ademas
aggrave
agneau
agrandi
albania
alert
allontano
amaba
amaro
ambidextrous
ambition
ammirare
angelica
angesicht
ankunft
aparece
appariva
approcher
aquellas
argomento
armenia
arrivent
asikt
aspiration
attraente
audace
aufstehen
avendo
avrebbero
avvolto
axe
ayudarte
bailar
bananas
baren
bark
barriere
barro
baten
baumes
bedingungen
begged
benevolente
beschermd
beschermen
beschlossen
besloten
bestemming
bestes
bid
bienveillance
bildar
bilder
billion
blancs
blauw
blesses
boses
brant
braquage
broccoli
bruto
buddhism
bug
buoni
cambiado
capacity
cargo
cariees
cerrada
chaos
cheating
checkers
cheque
chiamata
cible
civilization
clara
climat
collapsed
combination
cometer
commission
compasion
competence
comportamiento
composed
concentrer
conduisait
confus
conoci
conocia
conosciuto
conservative
considerez
considero
consulte
conte
contesto
continuar
convierte
costretto
coups
crayon
creando
criaient
criminel
crowns
cueilli
cultures
cumpleanos
curiosidad
cursed
daalt
dach
dagar
dama
damiani
dating
davvero
december
decore
dejes
demanding
depths
desayuno
despierta
detestez
detuvo
diamond
dichters
difficiles
dignite
directe
dish
disneyland
disposicion
djupet
domando
donnee
donnees
duren
eichhornchen
eighth
elderly
elena
empinada
endowed
enerver
engage
enganado
enorm
ensamma
entfernung
entreprise
erbjod
erhob
ernstige
eructe
escaleras
esfuerzo
estudiante
estuve
eterne
etonnement
evanouie
evenals
evite
exister
experiences
facing
falsk
fanden
fanga
fangt
farti
fathers
fed
fermait
flock
flowing
forenar
formas
fortaleza
fossa
fragment
frames
frases
frequent
freundschaft
froh
fru
fruta
fulle
gana
ganado
ganzes
gastheer
geboorte
gekozen
gentils
gerechten
germano
geschikt
geschlafen
gesticule
gestures
gesunden
getrokken
geweten
gewikkeld
gewoonte
giants
gisant
gjord
goldenen
gorgo
governed
gradini
gradino
grandeur
grausamen
grida
grimper
gritar
grossere
grown
grube
gunst
hab
habilidad
harda
harry
hasst
heerser
hemska
henry
herkennen
hesitant
hesitate
hjalpte
hongrois
horst
hospitality
humeur
humide
hunden
ideeen
identico
ilio
illuminato
importants
incandescente
incendie
income
indice
inevitabile
infidele
informativa
inglaterra
inse
insects
install
insult
insulte
interprete
iras
jewels
joyeuse
juda
jugando
jury
juventud
kauft
kehrt
klara
klauwen
knuffade
korpers
korrekt
korsade
kott
kou
kungen
kurzem
kus
langzamer
lasts
latter
laufe
leadership
leeg
leere
legt
letztes
levantar
levendige
leyendo
libicocco
linkerkant
listos
llanto
lombard
lovely
lugner
luigi
luminosidad
luminosity
makkelijk
mangel
manna
manquer
mansion
mantova
march
marchandises
marina
marked
massage
maths
mattino
mei
mejores
menar
mentiroso
metres
mile
misere
mitglieder
mod
mondays
morgendammerung
morker
mose
mutual
narmar
nascosto
navidad
nerveux
noisy
normalmente
noter
notig
nourrit
numbers
occurred
oculta
odia
oignons
oka
ombres
omojligt
onderscheiden
onthullen
openen
oppure
opstaan
options
ordinary
ore
organisation
ornen
orphanage
orribile
orsakade
oso
osservando
parrot
pasaje
pasion
pazzi
perdez
perfection
permettre
personally
petersburg
pharamp
philippi
pilgrim
planes
planten
plenamente
pleurs
poli
pop
praised
preavis
preferable
preferee
preferido
prefers
prepares
prezioso
princes
procession
produits
promesses
provides
proxima
puse
quegli
quieras
raide
raising
rapid
rapides
rechte
recompense
reconsiderer
recuperer
redet
reflekteras
refuser
regierung
reihe
resist
resolver
respectful
revenge
richter
rifugio
risques
ritter
rocas
rochers
romains
rookt
rotsen
rueda
rund
ruote
sanft
sanger
saoulard
sardinien
sattet
scheiden
schreibtisch
seligkeit
sells
semester
series
shops
siate
similaire
skapare
skriva
slaat
slangen
slim
sluiten
soker
solamente
solitaire
soumis
soutenir
spaans
spell
spelling
sphere
spiele
spreading
springer
stanco
standard
stegen
stromen
stuk
stupito
subio
sucedio
suede
summit
suppe
survecu
suyo
tastes
tendance
tendre
tenis
terme
termes
terres
tjocka
toegestaan
toscano
tournes
trahison
traido
traine
trank
trat
trato
tremblement
tripotes
trovavo
truc
uberzeugen
ukraine
unbedingt
unit
unterworfen
upphorde
ursprungliga
variations
vegetation
vergeblich
vergeven
verjaardag
veroordeeld
verraad
verrast
verschwinden
versen
versprochen
verwijderd
verzameld
vienes
vile
vingarna
vitesse
volgden
waardige
wachen
wachsen
waist
wetten
winkel
wisely
wochen
wochenende
worries
zamenhof
zombie
zover
zwaar
##acht
##ader
##aires
##ame
##andet
##anno
##ase
##ates
##avano
##berg
##bliche
##boom
##bot
##brar
##brechen
##cando
##cidas
##cier
##cimiento
##cons
##cusa
##damente
##dge
##dheid
##druck
##dung
##eer
##elli
##ena
##ep
##erse
##erten
##eto
##etzen
##fast
##fde
##feri
##fft
##gebrochen
##geschlagen
##gewezen
##giare
##gnais
##gnions
##gro
##gues
##heiten
##hn
##hnte
##house
##iado
##ians
##iar
##iare
##ife
##iges
##inais
##iness
##irent
##isiert
##iter
##ization
##izzato
##jarse
##juter
##komme
##kwam
##ky
##lache
##lacion
##lernen
##linge
##liques
##llement
##log
##logie
##massig
##mens
##mor
##mpa
##naren
##nati
##nches
##ngo
##nus
##oc
##ome
##paro
##pier
##pine
##port
##prache
##rated
##rative
##regen
##reut
##rior
##rlich
##rno
##ruk
##rust
##samhet
##sante
##schriften
##stal
##sy
##taient
##tain
##tano
##tering
##teurs
##tia
##tliche
##trekt
##tri
##uchten
##uckt
##udio
##uella
##uite
##uras
##uwde
##villig
##vliga
##wellen
##yed
##zzata
1988
2010
aangename
abisso
abuelo
abundancia
abundant
accesso
accordo
achetera
acteur
activities
adams
adapte
addicted
admirar
affrontare
alemania
algebra
allergique
allerhoogste
alliance
alliez
alskare
altere
amas
angelogen
angle
anno
ansia
anwalt
apennins
aperto
apostoli
apoyo
apparait
appetite
approved
aprende
architect
arroser
arroyo
ascenso
asia
asiento
athens
atmosphare
atomic
attende
attributed
ausserhalb
autore
autorita
avantages
avhallsamhet
avlagsna
bagliore
baignoire
banco
barbilla
batiment
beantwoorden
bears
beesten
begatt
behova
beloning
belva
bendita
beperkt
bericht
beschloss
besitzt
betete
bevis
beweis
bezahlen
bietet
bijoux
blommorna
boucher
boxes
braut
brazilian
breken
bryr
bryta
canal
capito
career
cathedral
cells
cercano
cesare
chacune
chances
charm
charme
chemical
chers
chevaux
chiavi
christianity
chuchotant
ciencia
clases
cocina
comenzaron
comparable
comprenais
compreso
concentre
condanna
conseguenze
contenter
conti
controlled
copient
cortes
costanza
courteous
coward
creata
creen
criant
cuchillo
dati
declaration
decoller
decouverte
dedicate
dejeune
delicate
demands
demutig
depasse
deplacer
desolee
diepte
dieselbe
dilemma
dirais
discount
disney
disposizione
dissatisfied
dolcemente
doljer
dolorosa
donated
douleurs
downstairs
drawer
dresses
drums
dumm
ear
eclat
ecrivain
ei
einst
einverstanden
elder
elections
elegido
elend
elf
embraced
emmerdeuse
enfuies
engeland
entendis
entfernen
entrusted
enttauscht
erhielt
ernstig
espaldas
esperienza
estime
estuvo
exces
exceso
explicar
fabrique
facevano
faint
fantomes
fasten
favorito
feiern
fence
fern
ferro
fijos
firent
flytta
followers
forsok
forteresse
fox
fraile
franklin
frequently
frutos
fummo
gebaren
gefahren
geliebten
gelost
gemeinsam
geneve
gesture
geweldig
ghost
gillade
girone
glader
glans
gloriosa
glucklichen
golpe
golpea
grenar
grupp
guardi
guillaume
hacerle
hant
helft
helgon
helse
hermosas
heros
hindrar
histoires
hl
hoheren
hopen
horizontal
horribles
humildad
humilite
hurried
hypothese
ignorez
illusion
imaginacion
imperial
inclino
individuals
inflytande
informatie
injuste
inspiriert
installning
inwoners
ire
janvier
japanisch
jeudi
julia
junger
justin
kamrater
kaputt
keerden
kehle
kenntnis
kin
koers
koffer
kontrolle
kraften
kristna
kummert
kurze
kussen
laag
lagorna
landes
leert
lege
lesquelles
letto
levantarse
levend
litres
llegaron
logic
logique
longing
loop
lors
lov
luminositet
lustig
magno
mamma
manche
mangeons
manifestation
manners
manniskorna
mansklig
manzanas
maravilla
marrying
matematicas
materiele
maternelle
matt
mature
melancholie
mentionne
mento
mercato
meridian
messe
metgezel
mexican
michel
mijl
mindestens
modder
moeite
momenten
morkt
morocco
mortel
morti
moto
mourut
muhammad
murdered
museums
nachdenken
nachkommen
necesitamos
nederig
negen
nennt
nervos
newly
nieder
nobili
nombres
nonsense
norman
noten
objectifs
obtained
ocasiones
odmjukhet
omdraaide
omgav
omradet
onde
onderzoeken
onthouding
onto
orient
ormen
oublierai
ovejas
pablo
pallido
pareces
partido
passagen
passione
penne
pensavo
perce
perception
percorrere
perde
perfetta
permets
permette
perspective
phenomenon
pierced
pigeon
pijnlijke
pil
pilar
pincer
planets
platform
pleins
plicht
plu
podeis
poetes
poetica
possessed
potesse
pozzo
practical
predict
prenons
prepara
preserve
primeras
principle
produceert
produire
provo
quarante
quita
quizas
rabbia
rained
rattfardighet
reaktion
rebellion
recall
recommencer
reconnaissez
redding
reflejo
regions
regola
rejected
relaxed
relieve
remarkable
remembering
representative
respected
respiro
restera
rettung
ricardo
rijst
rimasto
risen
rispondere
riuscii
romantic
rosen
roster
ruhigen
ruined
ruled
ruler
russland
sacrificio
saknar
sanden
scham
schmerzhaft
schwere
schweren
score
scorre
seger
seguii
shepherd
shout
sicura
sieg
signo
sincera
sintio
situated
skills
slutat
smal
smeken
sociedad
solely
sorrow
souriant
soutiens
soweit
spar
steget
sternly
strings
stuurt
styr
suavemente
suicider
suivit
sweetness
tackt
tankt
taub
taxes
teile
tela
tenes
terrena
terribile
thieves
thunder
tiennent
tjana
tombees
tourments
traffa
transparent
tratando
trekt
treue
trouves
trovai
tunnel
types
umbrellas
unieron
unita
universal
unlike
unpleasant
uppfinningsrikedom
uppna
upptacka
usage
users
util
utilises
uttered
vackte
vagues
vaknade
valiente
valsignad
vanlig
varen
varor
verdaderamente
verdi
verdragen
verfugung
verrai
verspreiden
verspreidt
vertalen
vertrouw
vertrouwt
vierte
vijand
vinci
vinieron
vittoria
vivait
vliegt
voglia
voiles
volleyball
voluto
vreemd
vuoto
washes
weapon
weihnachten
wellen
werfen
wijzen
wire
wunschen
yamada
ytan
zaten
zette
zuchten
zuruckgekehrt
zweimal
##ago
##ail
##ala
##aran
##bal
##bida
##biert
##board
##brengen
##bri
##bruder
##camente
##cee
##cero
##chas
##chia
##cibe
##ciera
##cional
##cis
##cole
##come
##curi
##dade
##diga
##dlich
##dringen
##durre
##eht
##eit
##elles
##emen
##emo
##encia
##enta
##enza
##erung
##ficado
##geboren
##geren
##geschlossen
##gesehen
##gning
##grade
##haften
##handel
##hme
##ho
##iata
##icas
##iete
##igheter
##inas
##ionen
##iones
##isation
##iskt
##issement
##issen
##ivt
##jon
##ket
##kommst
##kon
##laag
##laca
##lated
##lating
##lei
##logical
##logue
##look
##lu
##machen
##mel
##moeder
##mon
##ndola
##nelli
##nir
##nita
##nke
##nska
##oien
##oked
##onder
##oro
##ova
##pande
##platz
##pped
##rankt
##raten
##ratie
##rats
##ratta
##reiten
##remmo
##ress
##rezza
##rf
##rge
##rico
##riga
##rina
##rique
##rium
##rl
##rot
##ruppe
##sando
##sants
##sicht
##smus
##stre
##tee
##teen
##tible
##tido
##tragen
##trai
##ttare
##tum
##uate
##uation
##ubio
##uches
##udas
##ufen
##uht
##uin
##uir
##ulos
##undzwanzig
##urant
##urd
##usly
##usse
##utable
##uver
##veel
##vero
##vete
##vrai
##wasser
##wickelt
##work
##xual
##yard
##zeug
##zu
2h
72
abandonar
abbagliato
abbot
abgeschlossen
abraham
abuela
abuse
accepteren
accroche
accurate
achetait
acquis
acre
acted
actifs
actuellement
adopt
adults
affliction
african
aggiunse
agnello
agrees
ahnung
aiderai
aies
alcanzado
alike
alpen
amigas
andert
animali
anrufen
ansehen
ansiedad
antiguos
anwesend
apparue
aprendido
aristoteles
arles
armi
arouse
arrivammo
ascent
asian
aspects
ast
attempted
auswendig
background
bandera
barbe
bart
bedoel
befehl
begannen
begegnet
begraben
begun
behalf
beloof
belt
besloot
bestamde
betes
betrug
bezoek
bieden
blattern
boer
bone
borja
bottles
bouteilles
brachten
brak
brake
bringe
brist
burden
burst
cakes
campi
capa
caprices
carico
carottes
carpet
cassino
castles
cave
ceinture
celebrated
cena
championship
chateaux
choir
ciego
claras
cleopatra
clothing
comando
commencait
compiere
comprende
confession
conforto
consapevole
conserva
consigo
continuando
convencido
copierai
creia
crimen
criminals
crowned
croyais
crush
crushed
cuestion
culpable
custodia
dahin
daligt
daraus
dated
dealing
debarrasser
dechire
decidido
defeat
definition
dejando
dejaron
delivered
depende
derange
derive
descanso
deshabille
destinado
detalles
detectives
devote
dieux
direttamente
disco
dise
dishonest
disperse
dissero
divini
doigt
dolcezza
dolja
domda
domestic
donnera
dormiez
dovere
drawing
droits
drom
dronk
dug
dulzura
dynastie
earns
eclate
ecoutait
efterat
eigenschaften
eingesperrt
electricite
employees
enden
enfermedad
enseno
entres
entscheiden
erbe
erbjuda
erbjuder
erhebt
erreichte
espectaculo
essayez
estuvieran
etendit
eternas
etna
etrangler
euno
evangelio
fagel
fairly
faktiskt
familles
fantasy
favorable
feminism
ferite
fermez
feroz
fields
filosofo
firefox
fis
fische
fleches
flyter
fods
foljt
fora
forgiveness
formagan
forman
forsoka
fortsatt
forze
founded
fountain
franco
freely
friar
frightening
fuiste
fysieke
gangsters
garantie
garna
gebaar
gebogen
gebrauch
gedragen
geel
geheilt
gekke
gelb
gelegd
gelegenheid
generosa
genius
geschmuckt
gesten
gevolgd
gezond
girar
gladly
glorioso
gobierna
gooide
gospel
grans
granser
gratuitement
greci
greeks
grens
grifo
guardian
guillermo
hablan
hafen
halb
harp
hats
haunted
hausaufgaben
heiss
hemd
herrscht
himno
hitler
hittar
honestly
honey
hoyo
hubieras
hung
iceland
igenom
impidio
imprime
indifferent
influencers
inoltre
intelligens
intensidad
intensita
intensity
intensiver
intentionally
interieure
irish
irons
italiaanse
jaga
jenes
jerion
juden
juez
jupe
juwelen
kallar
karel
kastar
kinn
kino
klattrade
klug
knee
knights
konzert
koop
kopfen
kopfschmerzen
korta
krankheit
kuhlschrank
kwestie
kylie
labios
laissa
lama
lamp
langage
laster
lati
laurie
lavait
leaning
lebendige
leerde
lehre
lenti
lid
lido
liebte
liguria
liknar
litterature
llegada
lleve
logro
louer
loven
lucifero
luminous
lyckades
maandag
magazines
malapena
maltese
mantello
mantenere
maravilloso
marchais
marre
masa
mask
materiales
mecaniques
memorized
menage
meningen
mentes
menton
meridiano
misdaad
misura
mo
molta
monstruo
morale
mostrar
mostri
muoversi
musicien
mysteries
naderde
nagonting
naomi
naturale
necesitas
nederigheid
negativa
neighbours
neuer
neve
nick
ninth
notebook
oceano
oevers
offenen
offnet
ongles
ontdekken
onthoud
oom
operate
opprime
ordet
originally
orsakar
overflod
overger
overtuigd
overwinnen
oyeron
oyo
palo
panorama
parlions
partez
passerade
passerar
passports
pasto
pensare
perdono
perseverance
personlich
pheton
pianiste
piazza
piram
plague
planen
pleurant
plikt
porti
posee
positions
possano
postuler
potato
potrebbero
poubelle
pouvions
povero
precieuse
precioso
precisely
precision
preparando
presentation
presta
primarily
prisoners
profiter
prohibido
quantum
quietly
rakt
rara
raw
recente
redoubler
reference
refugio
refusa
regalos
regards
regione
reichen
relations
relationships
religioso
remembers
ren
rendent
replaced
repos
respire
reviendra
riefen
riepen
rimanere
rios
riuscivo
rivieren
robes
rogue
rop
roterar
roto
rotsachtige
rovina
ruins
rygg
sachiez
sacrifices
salz
sanctions
sarcastic
scelta
scelto
schach
schapen
scharfe
scheitern
schleier
schnitt
schrijft
schritten
schutz
scolded
seguono
semanas
seminar
sentenza
septieme
serbia
sereno
serian
servicio
seventh
shock
singe
sint
skal
skapa
skriver
slaves
slott
sluier
smaak
soli
sore
sorpresa
sortait
soucie
sounded
souveran
spear
spite
splendide
spoedig
stage
stalle
starka
staten
stattdessen
statues
steel
stieg
stiegen
stund
submerge
submit
sufrido
suisse
supuesto
suscite
susser
symbool
systems
taak
tegenstelling
tempels
temper
tenant
tenez
termina
tested
theme
threshold
tillbringade
toestemming
tooth
tor
torments
toro
touches
towns
tradimento
traffade
tragic
traicion
traitre
trajan
traversant
trogen
trompes
trosten
troy
trumpet
tumbas
tweeling
twintig
typical
uberleben
umarmte
uniform
unschuldig
upward
upwards
vache
vaincu
valde
vangen
vardiga
vayas
veinte
velas
venivano
ventaja
verandern
verantwortung
verbazing
verenigde
vergeben
vergeet
verkaufen
verletzt
vernietigd
vertrouwde
verursachte
verzweifelt
vestiti
viernes
vietnam
villages
vintern
virgile
vivez
volker
volviendo
voorbereid
voorbestemd
vorst
vouliez
waffen
wart
websites
welchen
werkelijkheid
wichtiger
wirft
zentrum
zondag
zozeer
zugang
zwak
zware
##12
##aat
##ache
##ached
##acy
##ager
##ages
##aking
##ark
##artig
##aten
##bed
##bet
##bled
##bringt
##bro
##bten
##cait
##ceva
##chant
##chaut
##chieden
##chlossen
##chrift
##cible
##cies
##ciso
##ckel
##crates
##crita
##cte
##dado
##data
##deln
##dent
##dern
##dizioni
##eel
##ento
##epen
##erai
##eran
##fido
##fil
##fully
##fy
##gliata
##gnez
##halen
##halla
##hand
##hrst
##ichi
##ika
##ill
##illaient
##inate
##irse
##ishes
##istas
##iza
##izo
##jar
##jenigen
##kennen
##kin
##kom
##lad
##lance
##landa
##lator
##lave
##lazione
##lf
##lic
##lice
##lico
##liep
##lips
##llos
##logen
##logia
##lom
##long
##maken
##moedig
##monos
##nazione
##neemt
##nger
##ogo
##oir
##oka
##old
##oms
##once
##onen
##ones
##ordelen
##ores
##osso
##oti
##our
##passt
##pato
##pcion
##pero
##pfen
##porna
##ppt
##puesto
##quila
##rable
##rades
##rap
##reis
##reso
##ression
##rete
##richten
##riff
##rino
##rische
##rise
##rit
##rlig
##rnas
##rrido
##ruch
##samente
##sanger
##sava
##seguir
##sita
##ssions
##stel
##stellung
##tante
##tate
##tch
##tero
##tiere
##tivos
##tono
##traal
##tritt
##ucion
##udet
##udie
##uee
##uert
##uge
##uita
##ulacion
##unge
##up
##urai
##urato
##urra
##uscule
##utare
##uter
##uwt
##vas
##vers
##vez
##water
##wekt
##wendet
##werfen
##yait
##zan
##zet
##zufuhren
##zumachen
200
2011
aardbeving
abel
accoglienza
accordait
adamo
adorned
adultery
afflicted
agatha
agile
agite
aimaient
aktion
alberi
alimentos
allah
alleine
altrui
andato
andrar
andrea
angemessen
ann
antal
antique
anxiete
anzunehmen
apertura
application
appointed
arduo
arranged
arretaient
arrows
arroz
ascender
asesinado
asombrado
aspirations
atheist
athletes
audio
aufgeben
aufgegeben
aufgeregt
ausgeloscht
autoritat
axlarna
bagages
balls
bass
bauen
beaten
bedroht
beet
befreien
begrip
behaviour
behov
beruhigt
beruhrt
besseren
bestraffing
betrugen
beval
bevara
bevat
beweise
bezig
bezittingen
bezoeken
bied
blanket
blauwe
blomma
bok
bold
bomb
boots
bougie
brandende
brasil
breathe
bruiloft
brydde
bryter
buitengewone
burns
buscar
butterflies
cadde
cage
caliente
california
camping
candles
caractere
carbon
carol
cartas
carved
causado
cede
certamente
challenges
cheaper
chiamo
chickens
chiedo
christie
christopher
cinquante
circonstances
collected
comio
commences
commettre
compito
complains
complexe
compose
comprension
compresi
conduct
conflict
conforme
consciousness
considerado
consideres
contar
contenu
continuing
coronas
corone
coscienza
courait
crachait
craint
creada
crise
cunning
cuori
dageraad
damen
davor
deberian
decus
defendait
delade
deliver
derniers
descansar
desesperee
desiderava
despair
destruido
detiene
deutsche
devais
dici
differ
dignidad
diminue
dimora
director
disagree
disposto
distract
distrait
divenni
dold
domaine
domandare
dommages
dormaient
douces
drempel
duft
dunn
ecrits
ecriture
edificio
efecto
einziges
eleccion
electric
eloignes
encouraged
encuentran
ending
enormous
entendi
entitled
envia
equipo
equivocado
erden
erfunden
ergeben
ergens
erhohen
erinnerte
erkennt
erleuchtung
erlosung
eronder
erster
estomac
estudia
etagere
eteins
etincelle
europas
evangelie
evangile
exakt
exige
fabbro
fadern
fallait
familias
fangade
fantasi
fantastic
fatica
faults
feest
fehlen
feinde
festung
fi
fianchi
fierte
finito
fisica
fiumi
fliegt
florentines
folla
follia
fordel
foremal
forklarar
formando
forsiktig
forts
forvandlade
fossato
fouille
frankrike
franse
frecce
freudig
fuerzas
fundamental
furchtete
furia
fyller
gather
gebildet
gebruikte
gegenuberliegenden
geheimnisse
gehorchen
gekweld
geopend
gerecht
gescheurd
geschichten
gesungen
getauscht
gewinnt
gezondheid
gioco
giorni
giovani
giunse
gladde
gobernante
gomde
grandma
grausam
grece
grecia
gryphon
guardava
hail
hais
hakan
haltst
hamburgers
handla
hanged
hauts
heal
heartbroken
heimat
helle
herab
herstellen
hielden
himmlische
holz
hoped
huesos
huvuden
ida
identify
ignorent
ihop
imaginer
incontro
induce
inferiore
inno
insectes
insufficient
intervene
invano
investigation
ipod
irritated
isla
izquierdo
jacob
japanse
jeanne
jenem
jesu
joli
jordens
jouerai
jouons
jumeaux
justify
kasta
kleinste
knocked
kompliziert
konzentrieren
kookt
kor
korset
lagt
laissee
lame
langweilig
laste
lauf
leccion
legend
length
leone
leuchtenden
levez
levres
lidit
lijdt
limitations
lina
linguistique
litet
lithuania
loose
losung
louder
lovade
luchar
lutte
lyda
machtig
mage
males
malicia
malvagi
manniska
marmor
marron
marvelous
materiella
medborgare
meerdere
melanie
mennad
mettere
millier
milliers
minogue
modele
monta
morgonen
mortals
mostrato
movimientos
mute
mutig
mystere
nachbar
nachfolger
naturliga
nederlands
neglected
nemici
neptune
nobility
nowhere
nus
objets
obligated
observeer
observerar
oceaan
oeste
offenbarte
oisivete
olas
onderbroken
onderworpen
onderzoek
opens
ordeno
organize
organs
oscuros
osteoporosis
oundvikligt
ouverts
overtygad
pagan
pagar
pajaros
parque
partira
passande
pastore
peces
peel
pencils
pensato
persino
personnages
pez
phase
piege
pierde
pilules
pisa
plagar
plagas
planted
pleasures
plume
poetas
poetique
politik
ponga
pony
posibilidad
potevano
potter
pourra
preocupes
principalement
producerar
profondi
pronounced
proper
propias
qualitat
questione
quito
raakt
raakte
raconter
rational
realiser
rechterhand
regenbogen
regler
reiche
reign
relative
religieus
renewed
rented
repareren
replace
reponses
reprimande
requested
resolu
respecter
restent
returning
reveiller
rever
richard
richesses
richiesta
riddare
riesci
riflette
riquezas
risposto
riss
riusci
rivieres
rivolta
robbed
robots
rodeado
roer
rojas
romulus
rosten
ruckkehr
ruse
russische
sacs
sages
sal
salee
samlades
sanker
sann
sanno
saro
scese
schafe
schatz
schlag
schlamm
schlimmer
schonste
schrecklich
schwarze
scoprire
sculpture
scura
secoue
semplice
sentencia
sentimento
sepa
server
servitore
sets
settle
setzt
seuil
severa
shaped
shares
shield
shiny
sicht
siecle
siede
sienta
signa
silber
sirve
situe
sixieme
skuggorna
skyldig
slaan
socks
sogleich
soglia
solitaria
solle
solucion
sorella
sorprende
sorties
sostiene
soviet
spectateurs
speeding
spinto
spraken
spreads
stamp
steile
stier
stift
streckte
stretch
stufen
suffisamment
sung
supper
supplies
suv
svaret
talents
tempesta
tends
teneva
tent
terrestres
terrified
terrore
testaments
themes
threat
tiempos
tillfredsstallelse
timon
timone
tint
titus
toegevoegd
tomato
tortures
totete
traffar
traidor
trained
traits
tranquilo
transformation
travaillons
treaty
trembler
trennt
trial
twisted
tystnad
ubel
uberwinden
umane
umbral
umgab
umilta
unemployed
unfall
uniforms
unio
unterbrochen
uppmarksam
upstairs
usci
utfora
utilisation
uttrycker
vacante
valid
vana
vanmorgen
vapore
varma
vaxer
veaux
velen
venger
venti
vents
verb
verbannen
verbeelding
verdict
verdwaald
verlasse
verliert
vermogens
veroorzaken
versierd
verstandnis
verteidigen
verticale
vertrag
vertrokken
vierten
vilse
virtuous
vluchtte
volevo
volgelingen
vorrei
vowels
vraagt
waiter
wande
warned
weduwe
wins
zampe
zesde
zingend
zittern
zonsopgang
zweifellos
##40
##aard
##aars
##achen
##aje
##ames
##artige
##auen
##aus
##az
##bation
##bord
##bte
##cated
##cche
##chais
##char
##chere
##chluss
##chons
##chtung
##cieux
##cimento
##ciuta
##clamando
##cura
##dare
##dela
##delity
##denken
##derd
##dies
##dita
##domen
##drai
##dreven
##du
##duizend
##dus
##eefd
##egt
##eje
##elte
##enne
##erre
##erst
##esimo
##ettre
##ferencia
##fice
##fin
##fora
##forma
##frau
##fuhrt
##gada
##gard
##garden
##gation
##gedaan
##gelost
##gera
##gg
##gible
##gnato
##gnent
##heen
##hm
##hold
##holen
##hor
##hora
##hs
##iale
##iant
##ichen
##iding
##ied
##ieten
##ieve
##iken
##ild
##iled
##isee
##issait
##itare
##ivas
##iven
##jver
##keiten
##lagt
##lasse
##laten
##leed
##lees
##lijn
##lings
##ller
##lue
##matige
##menda
##mnade
##mond
##more
##mutable
##mutig
##naire
##nap
##ncait
##ncias
##ncio
##ndront
##nellement
##nero
##nische
##nite
##nitive
##nses
##ntas
##nummer
##oco
##ole
##ona
##osas
##pare
##pense
##pido
##pijn
##plorare
##pose
##poso
##pse
##rag
##rama
##rants
##razione
##rden
##reckt
##resse
##rgo
##rida
##rido
##rieren
##ringe
##riori
##ritt
##riven
##rk
##roll
##ruzione
##sage
##sai
##sation
##setzte
##sfulla
##siert
##simo
##sivo
##stans
##stes
##stijgt
##stond
##style
##tande
##tati
##tegen
##terte
##til
##tista
##tres
##ttern
##ubt
##udo
##uez
##uhn
##uild
##uilles
##ulated
##uli
##undo
##unto
##uono
##ured
##urre
##urse
##urus
##usion
##uyait
##vare
##vento
##vera
##visar
##volgde
##volge
##volto
##von
##vrais
##vrier
##vu
##wagen
##warf
##weisen
##welt
##wijs
##yaient
##yan
##zahl
##zigen
##zusehen
1000
1945
26
aalmoezen
aanraken
abats
abattaient
abiti
absoluta
acceptent
accolto
accompagneront
accrochait
accueillant
accusee
achetez
achieved
achte
acquaintance
acquerir
acquired
acute
adopte
adoro
afdaalt
afdalen
affronter
afterward
ager
agito
akt
aktiv
alcoholic
aldste
alimenta
allaient
allant
allmahlich
allontana
allvarlig
almosen
alti
alza
ameliorer
amerikaner
amici
amistad
amusait
analysis
ancianos
andava
anfangen
angelique
annoy
anthony
anvertraut
anziana
anzuschauen
appropriee
arbetar
argentina
argento
argumentation
argumentos
ark
arrache
arrest
asegurese
assiste
assit
association
astronaut
atado
atminstone
attiree
aufhort
avond
avresti
bagen
bambini
bano
barmhartigheid
battaient
bauer
bedriegen
beggar
behandelt
beleidigt
benche
bepaalde
beraubt
bereiten
beslissing
besonders
bestemd
betet
betrugt
bevel
bieber
biography
blaue
ble
blinden
bloody
bonen
boodschapper
borda
borgo
bouton
brama
brebis
breite
brillants
brillent
buigen
buitenste
caido
cain
caina
calculate
caldo
cambiare
carriage
casquette
castigados
catching
cavalieri
celi
cenno
centauro
champagner
changement
cheek
childish
choisissez
cierra
classique
claws
closet
comenzado
comienzo
cominciai
comprenons
comprensione
concrete
conio
considerate
considerer
constante
consumed
contemplate
contente
contrairement
contrast
contribution
convert
convertirse
cookies
corrupt
costretta
courts
couverte
credendo
creuse
cristianos
cuerdas
daarvoor
dagegen
dampf
danni
dansaient
decider
decidio
decirme
decrit
defaite
defined
depechez
dependent
deposition
dergelijke
describes
desespoir
desierto
desolate
desperte
destine
deuren
diary
diepten
difficulte
dimensions
directo
dirent
disaster
discrimination
disguised
disk
distributed
disturbing
divinos
divins
divisee
doble
domande
domenico
donation
donder
donnant
dovessi
doveva
drangte
droog
duidelijker
duistere
duitse
dun
duree
durmiendo
easter
ebro
echappe
eder
eenzame
efficace
efforce
eifersuchtig
einfacher
eingeschlafen
ejemplos
elementen
elenden
ellen
emana
emporung
empuja
energi
enfance
engaged
enlightenment
entend
entendit
enterre
entiendes
entwickelt
episode
equilibre
equipment
erfarenhet
erlebt
ermee
erschlagen
erschopft
esce
esferas
europaische
europaischen
examinez
excellente
existent
existiert
explicacion
extraordinaria
exultation
fahig
farewell
feiten
fels
felsens
felsigen
fernsehen
festen
fett
fieber
fiender
fines
fissi
fitting
flechas
flee
floh
flug
focused
foods
forcee
forflutna
forsiktigt
fortjanst
fortunate
forvaning
fraud
freien
frequente
frihet
fruhstuck
function
funds
funften
funken
galler
gates
gavor
gaza
geandert
gedanke
gefragt
gel
geleidelijk
geloscht
generated
gently
gequalt
gereflecteerd
gerufen
geschenke
geschutzt
gesetze
gesprek
gesti
gevraagd
gewahlt
gewapend
glorieuze
goats
gobierno
gratande
gren
gridavano
grifone
guinea
guiscardo
guitares
gulf
haaren
habillait
hables
haiti
hamnen
hangivna
hannah
harliga
harlighet
healed
hector
helas
herde
herein
herkules
hindra
hindrade
hinzufugen
hoek
hungary
hurts
ijzer
illumina
illuminate
illustrious
illvilja
immobiles
impenetrable
imperio
importancia
improving
impuls
incense
inconnu
index
indico
industrial
inferieure
ingresso
ink
innere
insignificante
insisted
intact
intenser
intensite
interessez
intern
intuition
inutiles
iphone
iremos
iris
irse
ispirazione
ivag
jacques
januari
jersey
jesucristo
jubel
jumping
jurk
kallades
kanada
kar
kastelen
kerstman
klopt
klor
konige
kop
kopfe
kuss
kylan
lam
langsamen
larde
laundry
leal
leather
lee
leef
leidet
lets
letzter
levenden
libera
liefen
lille
linguaggio
ljusen
llenos
lob
lobos
loog
losa
luis
lura
luxembourg
madness
magician
malebolges
mancanza
manda
mando
mangd
mangiare
manual
marca
marchions
marin
marteau
mata
materials
materna
matrimonio
measured
mediterranean
meins
melange
memoriser
mercado
meriti
metier
meurs
minosse
moat
modest
moneda
monroe
monsters
montrant
mord
mostra
motstand
mottagning
mouths
mouton
muerta
mum
musulmans
naartoe
nannte
narita
naso
nass
nationale
nationalite
necessita
nederige
nees
nergens
niccolo
niederlage
nights
niks
notas
notizie
nue
numerose
nutteloos
nuttig
nuvarande
occupation
ocupada
offenbart
offne
offrire
oga
omgiven
oneindige
opgelegd
opgestaan
opportunita
oroa
orsaka
osservai
oudere
overgav
overwegen
oxford
pacific
paese
parar
pare
parviens
pasando
passez
paulus
peignaient
peignait
penna
pensons
pera
percepire
perfectamente
piedad
plagade
plaint
pleases
poeti
pointe
poke
pote
potei
precisement
prijzen
principale
prision
privilegio
pro
profundidades
programs
projekte
projets
pronunciation
proprie
prudence
prudente
publie
quaggiu
quant
quanta
quedate
rabbits
raken
rana
raus
razones
realiteit
receptie
recien
recommandais
recommence
recompensa
regeert
regering
regio
rein
rejoint
rekening
relax
rena
rennt
reparerez
repondez
repondis
reprises
resi
resonemang
reyes
ricevere
ricevuto
richest
richt
richtte
ricorda
rijden
rika
ripida
rois
roms
roommates
roots
rort
rotate
rotta
rubicante
sabor
sack
sagradas
saignait
sakerhet
salieron
saliva
sally
satisfaccion
schat
schlangen
schoon
schuttelte
schweiz
schwelle
schwierige
scipion
scirocco
seguia
seized
selection
seltsam
sembient
senbiante
separo
serie
serpientes
servants
shuttlecock
sicheo
sieges
siens
siervo
sighs
silvio
sinceres
skar
skola
slass
smartsamma
sohne
soil
soldano
somn
sonder
sorgente
sorprendas
sorrise
sospiri
sounding
sparks
spielst
spike
spontane
sprida
sprider
sprong
squirrel
stackars
starkare
stavano
steam
steniga
sterker
stervelingen
sticks
stig
stjarnan
stok
stormen
strackte
straffar
struggle
stupefait
subimos
suiker
surs
surtout
suspended
suya
svek
syfte
synden
tatami
tauschung
tegghiaio
temere
templos
tenminste
terrenales
terribly
terugkeer
terza
teste
throwing
tierras
tira
tissu
tjanst
tondo
tonto
tool
toricht
tornato
tornet
towers
traditions
trainer
tristi
triunfo
tromperie
troostte
trueno
turbato
turno
tvingade
tyvarr
ubersetzung
ucciso
udire
ugly
uitgelegd
uitgesproken
ulysses
uncertain
underground
unglucklich
unido
unisce
upplysta
usare
vampire
vandrade
vederlo
vegetable
vegetarier
veloci
verachten
verantwoordelijk
verdedigen
verge
verglichen
verkeerde
verla
verliest
vernaut
veronica
veroorzaakte
verraten
verschenen
verschijnen
verschwindet
verspreidde
verstandig
verwijderen
vientos
violento
vivimos
voegen
void
voisin
volesse
voorbeelden
voortdurend
vorne
voro
vraies
vuela
vuelva
wachtte
wanhoop
warehouse
weddings
wegging
weighs
weinend
weint
wenigen
whispered
wi
width
winner
witz
wolle
zak
zaken
zeilen
zelden
zerrissen
zoet
zoetheid
zuhause
zumindest
zuruckkehrt
zustimmung
zweig
zwijgen
zwillinge
##14
##99
##aam
##ably
##accia
##acia
##aide
##aise
##anden
##aster
##ave
##bbel
##bilita
##blich
##brengt
##broer
##burg
##cant
##cciare
##cel
##cera
##chaft
##chions
##chtet
##ciuto
##ckeln
##cking
##ckor
##crivait
##cture
##cu
##culo
##degno
##delen
##dica
##dicare
##dieron
##dite
##dligt
##draagt
##drag
##dura
##duto
##ecken
##eft
##eide
##eiend
##ellas
##ellt
##erende
##esto
##eta
##etais
##euses
##fard
##fatto
##fetto
##formeerd
##ften
##gava
##geber
##gelijk
##gens
##gions
##gkeit
##gliere
##gn
##gniez
##gora
##gua
##hafte
##haller
##hang
##hangt
##hore
##houd
##hrte
##idita
##iennent
##ift
##iker
##ila
##illes
##imiento
##inaire
##ingar
##inn
##ip
##isa
##istes
##istisch
##itation
##itazione
##itie
##itud
##itudine
##ivite
##izione
##jden
##karte
##kels
##komma
##komsten
##lada
##lavos
##lea
##legt
##lehrer
##lez
##lien
##liesslich
##lik
##lug
##luit
##mber
##meen
##mettere
##mettre
##mez
##mons
##morgen
##nahm
##ndere
##ndes
##nfa
##nions
##ocado
##oire
##ologie
##ope
##opt
##ory
##out
##pannen
##pant
##pern
##peso
##place
##position
##ppo
##pten
##punkten
##quilla
##ract
##radas
##rce
##rijft
##rken
##ruft
##ruik
##russt
##scher
##schmerzen
##sia
##sible
##sien
##spiel
##ssion
##sso
##stein
##tendo
##terd
##teria
##tez
##tial
##tiendo
##tifs
##tire
##tlichen
##tning
##tof
##tries
##uaient
##ubre
##uchte
##uela
##ueuse
##ugt
##uh
##uisce
##uja
##umi
##ummer
##uncia
##unta
##uons
##uriez
##urzt
##used
##usement
##using
##vando
##vard
##vater
##vation
##vestigd
##viar
##vida
##viel
##visor
##vlucht
##voca
##volta
##volte
##volves
##waar
##wachen
##wahre
##was
##weeg
##weer
##wikkeld
##worpen
##yiez
##zag
##zien
2h30
70
abandono
abbiano
abito
abrege
abrumado
abstinenz
accelerait
acide
adan
adecuado
admets
admired
adorais
advertising
aidiez
aimees
ajedrez
akira
akkoord
akte
akzent
alegre
alexandre
allegria
allonge
allvarligt
alpes
altes
altrimenti
altrove
alturas
ambassade
andai
anderte
andy
anoche
appela
appointments
appreciation
apprenais
approaches
appropriato
arca
archiano
arose
arreta
arten
aspirin
assembled
astronomy
attendent
attriste
audacieux
avoiding
bacio
backwards
bast
batte
beeilen
begiftigd
behovde
bekam
beklimmen
belang
bench
benevolence
benevolencia
benevolenza
benisse
benotigen
berattar
berbers
bereikte
berger
beroep
beruhren
besitz
bestimmte
betekenis
betere
bevolkerung
bewaffnet
bewegingen
bezet
biss
blek
blessings
blessure
blixten
boarding
bolgien
bolso
bood
borders
bouclier
brabant
branda
brasilien
brechen
briefe
brightest
brillava
brinner
burgers
caballeros
cacciaguida
camarade
camisa
candy
cantava
capisco
caras
casado
casar
casas
cattiva
cattivo
cavallo
caza
centaines
cesser
channel
chantaient
chanteuse
charlemagne
chatting
chretiens
cieco
ciegos
cincuenta
circular
circumference
ciudadanos
classified
cliff
closes
coince
commencement
communaute
completa
complique
concernant
concerne
concerning
confia
confronto
consolo
constamment
consuelo
contrarie
contrat
convenient
convient
convirtieron
costumes
counting
crack
creacion
creados
creates
creeren
creyendo
croissance
crops
cuerda
damm
danced
danish
dansait
dauert
debole
dedans
degre
descendit
deserves
desesperacion
desesperes
destinee
destro
detruire
devoue
dialect
differences
digas
dimman
dimostrare
dioses
divento
divides
doodde
dorment
dovresti
dr
dragged
dritta
druckte
drugs
duidelijke
dust
dwaas
dygder
dyrbara
economically
effets
effraye
eigenes
elever
emerveillement
empujo
encuentre
enorma
ensure
entero
enthusiastic
epoux
equilibrio
ereignis
erfordert
erfreut
ergebnisse
erhoht
erstaunen
esamina
escalar
esilio
especie
essayais
estate
estilo
eternamente
etwa
evenements
excess
exhorte
exilio
existen
exit
extrana
famiglie
fantastisch
fatta
fears
feurigen
fideles
flags
flights
folgten
forklaring
forstaelse
forstatt
fortes
fosco
foso
fragar
frankly
frapper
fratelli
fuertes
fuggire
fumait
furies
furieux
fysiska
garda
gardien
geantwortet
gelassen
gelegt
gemein
genereux
geraakt
germans
gest
gestes
gestos
gestuurd
getuige
giordano
goat
goden
godly
goedkoop
gouverner
gracht
grade
gradito
grandmothers
gregory
grip
grosserer
grunden
grym
gualdo
guider
haast
hablamos
hallit
halsade
handlar
harmoni
harpies
hauser
hecha
heirs
helado
helsinki
helst
herbs
hervor
hijas
hinzugefugt
hitting
hjul
hoed
hoflich
hojden
honesty
honorable
hostages
hostel
huilend
humiliated
hustru
hymn
ichiro
idioot
idiots
ignoriert
illusions
iluminado
impermeable
implacable
impresa
indicate
indienne
individuen
inert
infeliz
infirmiere
influenza
inspiracion
instinkt
intensitat
intensiteit
interes
intero
interpret
interpreted
interrompu
introduction
irez
irgendwelche
italianen
ivrig
ivriga
ivy
jaunes
jeff
jeruzalem
jews
joins
jongens
joseph
jouez
joyas
juifs
juli
juni
kalten
kamrat
klasse
kleider
koningen
koos
kopa
kreises
kreuzes
kunstler
kyss
labbra
ladies
ladrones
lampo
langsammare
lappar
lattare
laura
lautet
leaf
leed
lehren
leichter
lenta
lentos
leuchtende
levantado
levee
lichtern
lilies
liquid
lira
lock
locos
lof
lohnt
loses
lucha
lucio
lugnt
lyrics
mago
mall
mangeront
manniskans
manquais
manquent
marcello
marseille
martelaarschap
martyrdom
martyre
massachusetts
mattress
mayoria
measures
medianoche
mediterraneo
medusa
meeste
melodies
menaces
meprise
merchant
merece
merveille
milaan
militaire
milles
minnas
minor
mitgefuhl
monate
monch
monkey
monopoly
montee
montees
monton
moordenaar
mordio
mortelle
mosca
mostrado
motive
motstandare
mouilles
moverse
moviendose
muovere
mussten
nace
nachstes
nacimiento
naden
naherten
nakna
naranja
narmast
naturelle
neanche
necesaria
necessaires
necessity
necklace
neiging
nemico
nietwaar
nil
nitrogen
noemt
norwegian
noticia
nublado
numerosi
nyheter
nyligen
objection
objective
obligado
observa
observado
observando
occidente
odmjuka
ofen
offerte
offices
oficina
ofrece
ofrecer
ofrecio
oma
omrade
oncoming
onderdrukt
onschuldig
onthouden
oostenrijk
oriental
orillas
osservavo
otono
oudste
overtraffade
overvaldigad
overvinner
overwonnen
owe
palm
paminner
pants
paolo
pari
partirai
partire
partons
patas
patria
pech
peleo
perdait
perdon
performed
pericolo
permanecer
permanecio
permanent
permit
personnalite
peschiera
pferde
pia
piaccia
pido
piensan
pig
pilger
pillow
plannen
plateau
platziert
pluma
pocas
poetico
polar
polen
polenta
poles
portant
possess
potessi
potra
prennent
preocupado
pressa
pressed
preuves
prise
privi
producido
profite
profondeurs
profonds
programa
progressivement
prominente
prononcer
propriete
provai
provoca
proyecto
psychiatric
puedan
punish
punishments
purche
puro
pushes
pyrrhus
quarrel
querida
rainbow
rammarico
rank
razonamiento
reaches
receiving
rechterkant
reconforte
reconocer
reconoci
recorded
refrigerateurs
regardaient
regenschirm
regieren
reglement
rem
remplit
renard
rendant
renonce
required
resplandeciente
responde
responsabilidad
responsabilite
ressources
rested
resten
retirement
rhythm
richtete
ricordati
ricos
ridder
riesco
rimasi
rimini
ringen
ritme
robado
rocce
romanos
romeinen
romer
romney
rompe
rotswand
rough
routine
rumor
russes
rykte
sabado
sacree
saken
sakra
salomo
sapiente
saturdays
scheidde
scheidt
schenkt
scherpe
schizophrenic
schliesst
schlossen
schmucken
schoenen
schwanger
scintilla
seeking
seguido
sensacion
sentais
sentier
separation
servizio
seville
sfuggire
sharing
shooting
shortcomings
sicily
sickness
siecles
sientes
sigh
simplemente
simples
sinner
sinone
sjalvmord
sjatte
skapat
skapats
skaran
skarpa
skickar
skier
skinny
skolan
skonheten
skrik
skynda
slet
slosa
sluttningen
smala
snelheid
sodom
sohnes
sonntags
sorrowful
sortes
sosteniendo
soucis
souhaitez
speciale
spicy
spielte
staff
staren
steak
stets
stiess
stijgen
stopping
strafen
stralend
sube
sum
sunshine
supero
surpasse
surprising
syster
tacere
tacka
takahashi
takt
tamano
target
tasks
tegenover
temptation
tendency
tendria
tenendo
territory
theft
tidigt
tiende
tjanaren
todes
toegewijde
tolerance
tombent
torens
torres
tortoise
torturee
tranquillement
transported
travaillait
travelling
trionfo
trivial
trono
troosten
trostade
trostete
trotta
trouva
trouvee
trump
tues
uberlegen
umarmen
undersoka
ungeduldig
unie
uniforme
unvermeidlich
uppenbart
uppfattning
uppfor
uppgift
urlo
ursakt
utiles
utilisee
utstrackning
vacka
vagn
valsignelse
vangelo
vaxt
vaxter
vegetarien
veins
velocita
vendent
venite
verdieping
verdwijnen
verdwijnt
vergehen
vergleichen
verheugen
verloofd
verpleegster
verrater
verruckten
versailles
verschijnt
verschwunden
vigoroso
vilar
vilda
villig
vishet
visibles
visitar
vissuto
visuelle
vlag
vloog
voleurs
voorkomen
voorwaar
vorwarts
vullen
waargenomen
waarschijnlijk
wagon
wahnsinn
wandering
wapens
warmte
waschen
wasted
wave
wednesday
welwillende
wende
wensen
wept
widely
wiel
wieso
wink
wohnst
worrying
writers
yeah
yuan
zeigten
zerstoren
ziele
zogen
zondaar
zorgde
zucht
zugefugt
zunachst
zwanger
zweeg
##71
##ador
##affe
##ahn
##aine
##aker
##archy
##arla
##ateur
##atique
##atte
##aute
##awa
##bahn
##band
##berry
##beten
##bird
##boven
##breken
##cante
##cciata
##cento
##chado
##chief
##chlichen
##ciando
##cias
##cid
##cieuse
##cile
##cino
##clu
##cony
##critas
##ctual
##ctura
##cuteur
##dato
##ddag
##dischen
##duis
##ece
##ect
##eda
##eds
##efd
##eln
##eloos
##erad
##erin
##erland
##esen
##esse
##etti
##fassen
##fd
##fekt
##ferito
##fesion
##ficar
##formation
##fta
##fugen
##gelen
##geln
##gemaakt
##genoot
##ghe
##gine
##gla
##glas
##glo
##guendo
##handelen
##heben
##heven
##hie
##hig
##hique
##hrlich
##iable
##iamos
##ification
##ij
##ili
##imes
##inado
##iosi
##iro
##issaient
##isten
##its
##ivity
##izza
##izzata
##jt
##kap
##kare
##kas
##kelen
##ktigt
##lashed
##leo
##lida
##lippe
##lja
##lke
##llan
##lma
##lommen
##lser
##luta
##luter
##lvo
##maakte
##mant
##mante
##massen
##matica
##mina
##mis
##mming
##mori
##most
##nage
##ndel
##nent
##nera
##nged
##nidad
##nieren
##nire
##ode
##oge
##ood
##ophe
##ost
##ots
##ouw
##ouwen
##ovade
##pado
##pal
##parait
##pass
##pend
##pet
##phones
##piano
##pida
##pin
##pirar
##pire
##pitare
##pola
##pressive
##pricht
##pro
##pteerd
##ptible
##rans
##rbar
##reck
##ree
##reift
##reise
##rennen
##resco
##riendo
##riore
##ritten
##roepen
##rome
##roso
##rrad
##rts
##rure
##ruta
##sagen
##satt
##scheid
##schein
##sene
##sonne
##spiegelt
##spraken
##spreken
##standen
##stralen
##svard
##swert
##tale
##teht
##telling
##tend
##teren
##test
##tete
##tics
##tiez
##tina
##tira
##torio
##treden
##trekken
##tted
##uable
##ualmente
##uber
##ueel
##uft
##ug
##uiera
##uiez
##uizen
##ullen
##unti
##urado
##uste
##uttert
##utze
##uya
##vada
##valt
##vand
##vd
##veerd
##versee
##vista
##vront
##vrouw
##warts
##weckt
##wege
##wendung
##wer
##yama
##yendo
##zable
##zados
##zeichen
##zin
1266
1980
3000
580
abbandonare
abbondante
abido
accepting
accidentally
accomplish
accomplished
accorso
accumulated
accuracy
accusation
acquacheta
acquasparta
actors
actuelle
adorer
adornado
adversaire
afferma
affermi
afflitto
afgelopen
afuera
agarrar
agent
agera
agnus
aguglione
aidait
aiderons
aillent
aim
aimable
aimera
alagia
alardo
aldobrandeschi
alessio
aletto
alighieri
aliments
alivio
allemande
almi
alms
alpe
altavilla
amato
ambassador
amenaza
amomo
ampiezza
amusement
amuses
anadio
anadir
anastasio
ancestor
andrew
anhelo
anillo
annehmen
annonce
anselmuccio
ansicht
antandro
antidote
antiques
antun
anwesenheit
aoi
aprire
arbeitete
ardentemente
aretusa
argia
argus
arnaut
aro
arrigucci
arriveront
arthur
artigli
arunte
askan
assolutamente
astri
atamante
aufgewachsen
aumento
ausciano
ausgesprochen
aussah
aussergewohnliche
austro
autentica
averroe
aveugles
avgrunden
azules
baard
bagnacavallo
bagnoregio
baiser
baked
ban
bana
barga
bari
barucci
bassa
bathed
bats
batteries
battiez
beasts
beda
bedauern
bedekken
beeinflusst
beendet
befand
behaupten
belacqua
belde
belisario
belzebu
benefique
benefits
benevolo
berengario
bergamaschi
bernardino
berta
berti
beruf
besluit
bessere
besseres
bestie
bethlehem
betteln
beurre
bevrijden
bewahren
bewahrt
bewakers
bewegungen
bewunderung
beziehung
bindi
biology
bismantova
bitteren
blancos
blast
bliva
bloss
boja
bolge
bologne
bonaparte
bonatti
bonconte
bonturo
borea
borrows
borsiere
bouillir
branden
brennt
brescia
bresciani
brillando
brindisi
bringing
broad
brod
brulant
bruler
buggea
buglione
bulgaria
bull
buondelmonte
buondelmonti
burg
buses
cacume
cagnano
calcante
calliope
callisto
camaldoli
campaldino
canciones
cani
canzone
caorsini
capaneo
capeto
caponsacchi
capraia
caprona
cariddi
carlino
carpegna
carraresi
casale
castelli
castrocaro
catalog
catellini
catona
catria
cavaliere
cecina
cellphone
cerbero
cercare
certaldo
cervia
ceuta
ch
chaine
chairs
champ
changez
chapters
charakter
charges
cherchais
cherches
chevalier
chiavari
chilean
chilli
chirone
chispa
chute
cianghella
cicognino
cimabue
cirra
cittadini
claires
clarinet
clio
clitoris
clothed
colpisce
commitment
commune
companies
compassione
competitive
comprender
compromiso
conclusione
cone
confiar
confini
connaisse
consacre
considerato
constitue
contempler
continuare
conviction
copieras
cordes
corradino
corriente
corse
cos
cosenza
costretti
coulait
courent
courtes
covers
cracked
creatief
credevo
creusa
croyant
cualidades
cunizza
curieux
cuyas
daarboven
dags
dalig
dames
damietta
danken
danos
darefter
darts
deci
decida
declarations
decourage
decreto
dedos
defauts
defendu
deianira
delo
demarrer
demone
demonstrated
densa
departed
depense
deprime
descendait
descender
descendus
descubrir
deseaba
deserts
desiderare
design
desperto
dessiner
destinazione
detourne
deviens
diente
dignes
dignita
diletto
dimanches
dimensione
dimma
discendente
discorsi
disfrutar
distinct
distinction
distinguir
divorcer
djavlar
doll
doos
dormais
dote
douai
dovesse
drag
draws
dreaming
drehten
dresse
drev
drogue
duera
duquel
durata
durazzo
durchbohrt
durchgang
durfde
dwong
dygden
ecce
economics
ecoutes
ecritures
ecuba
eenmaal
eenvoudig
efectos
egale
egendom
egidio
ehemann
eigentum
einigen
einklang
einladung
elementos
elettra
eli
elia
eliminate
eliodoro
eminente
endured
enferma
englische
ennuis
enormes
ensalada
enseignantes
enseignants
entere
entfernte
entry
envious
environnement
eolo
erben
erdbeben
ereignisse
eri
erinni
eritone
ertoe
esau
esclamai
escondido
esperan
essentially
establecido
establecio
estatua
estrecho
estremo
euripilo
europeenne
evanoui
expelled
explanations
explica
extends
extinction
extrema
extremadamente
extremo
ezzelino
fabi
fabrizio
fageln
fahrenheit
fairy
falafel
falen
falterona
fantolini
farsalo
februar
federigo
ferien
fermi
fernseher
feuers
fiable
fiasco
fiers
fieschi
fifanti
figline
figuras
filipino
filippo
fillide
filme
findest
finit
finsternis
fiora
fires
firmly
flattery
flegetonte
flegra
florins
flykt
flyr
folco
folo
fonctionnent
footsteps
forgave
forlorar
forment
formes
forsvara
fortezza
fossati
foster
fotino
founder
fragt
francesi
franchement
freut
fries
frisch
frontieres
funciona
galeotto
galigai
galluzzo
garisenda
garza
gast
gaville
gebadet
gebeurtenis
gecreeerd
geeignet
gehabt
geheimen
gehoorzamen
geinspireerd
geistern
gelaten
gelegen
gelitten
gelobt
genuine
gepast
geprobeerd
geproduceerd
geri
gerusalemme
geschwindigkeit
gesprach
gester
gewaardeerd
gewerkt
gewidmet
gewusst
ghino
gielosia
giotto
gitarre
giulia
glanzende
glaubens
glomma
gnista
goals
goffredo
golven
gorgona
gorgone
gota
governa
governolo
graden
grandeza
gransen
gratte
grav
gridando
gridare
griekenland
griffolino
grossmutter
grunde
gualandi
gualterotti
guarantee
guardias
guardie
guaschi
guasco
guinizelli
gunstig
habito
hacerte
haiku
haired
hait
halen
handlung
handlungen
harpe
harte
haughty
hautefort
heben
heir
herbes
heritage
hiervoor
hinab
hindernis
hoppet
humaines
hungarian
hurting
huyo
hydrogen
icelandic
identifier
igualmente
illustere
imbarazzo
immediate
immigration
impide
incline
include
indica
indusse
initial
initially
inizia
injustice
inmiddels
innerlijke
insatiable
insecten
inspiratie
installer
instance
instantly
instructor
intensitet
internal
intraprendere
invest
investigating
inviato
iole
ippolito
irgendwo
irme
isere
isidoro
islamabad
iss
januar
jerusalen
jeta
jeter
jeugd
jimmy
joking
joshua
jouera
joyeusement
judios
jungle
juvenile
kazakhstan
kebab
kejsaren
kenji
keyboards
kick
kills
kinderna
klooster
kloster
knot
konstellation
kontakt
koorts
korsa
krafte
krallen
kreatur
krijg
kring
kummern
kusste
kvall
kvallen
kyrkans
lagg
laissant
laissera
laisses
lambertazzi
lamone
landern
lanfranchi
langzame
lano
lapi
lapo
largeur
largheza
latini
laughs
laune
laurel
lebendigen
legame
legerement
lekker
lemno
leran
lesser
levai
levait
leves
liberato
lieder
lieto
lighter
lijst
linguistics
lisais
livio
lizio
llamar
loderingo
logudoro
longa
loser
loups
loyalty
lucis
luid
luminose
lunar
lung
lungs
luscinio
maaltijd
macario
madame
maganza
mainly
majestat
malabossa
malaspina
maldita
malizia
malos
manfredi
mangerai
mangiadore
manifesta
manifested
manniskors
marcabo
marchaient
marchant
marcia
marine
marsia
martino
mascheroni
masks
massimo
masters
materielle
mauro
mechancete
medelijden
medios
megera
meinst
meleagro
menalippo
mentent
mentira
merze
meurt
minachting
mincio
mintiendo
miran
mirrors
misleid
misleiden
mittagessen
moesten
monaldi
montait
montefeltro
montemurlo
monviso
moque
morder
moro
moronto
mostrara
mouvements
mover
mucio
muere
naderen
nagent
nahern
nascere
nascosta
natale
naturally
naturelles
naturlichen
necessite
nehmt
neigt
nemmeno
nerli
network
ninety
niobe
niso
nocera
noches
noemde
noli
noodzaak
noord
norway
novelist
novello
nubi
oandliga
objectief
objetos
observant
obsession
occupied
ocupados
oderisi
odjuret
oferta
ol
olycka
olyckliga
olympic
omberto
omelet
omfamnade
omtrek
onions
ontdekt
orazi
ordenador
ordning
orecchie
organen
organo
oriago
originaire
origins
orten
orvieto
osservi
overens
overvaldigade
overvinna
overwint
owns
oye
pachino
paciente
pack
paduans
paie
palido
palladio
palma
pania
papale
paresseux
parezca
parve
pasaporte
paulo
pavese
paysage
pecador
pecore
pedido
pekin
pendiente
penelope
penetrated
penetrates
pensant
pentesilea
percu
perdais
perdent
perdiez
perdra
persio
personnage
persoonlijk
pesa
peticion
photograph
photographer
piaceva
piede
pienamente
pietole
pieve
pila
piso
plaindre
planetes
plat
pleegde
plotselinge
poderoso
podrian
poeten
poetiska
polimnia
polissena
politie
ponthieu
popoli
populations
portugiesisch
potential
pratomagno
praxis
preocupacion
preparo
prey
prisciano
privee
probar
procedeva
procedi
productive
profile
projects
propiedad
proposed
proprietaire
proserpina
provato
provenzan
puccio
puniti
purifie
purposes
qualcos
qualites
quarto
quintavalle
quinzio
rabano
ragionamento
raises
raisonnement
raphel
raton
rattfardiga
rea
reale
rechtzeitig
redest
reduit
reflechis
reflektierte
refugees
regardai
regenen
regrese
reist
relatie
reliable
religieuse
remote
renaissance
repentir
repete
reputatie
rescued
reserved
reserver
resonne
respektiert
restees
retenir
retraite
reus
reveler
rhythmus
rialto
riccardo
richer
richeza
richte
riconobbi
rieti
rijke
rinoardo
risorgi
rivolti
roccioso
rodillas
romper
romualdo
rossa
rubaconte
ruht
ruines
rummet
runter
ruthless
sadako
sails
salvani
sam
sana
sanleo
santerno
sapia
sassolo
satzes
savena
savio
scarmiglione
scevola
schenken
scherp
schicchi
schicken
schickte
schlafrig
schlagt
schneider
schutzen
schwieg
sciancato
scotto
scritto
scudo
secondhand
segne
sehnsucht
seins
semblez
semifonte
sending
seneca
senigallia
sere
serving
sestri
seufzer
sguardi
shirts
sighier
significant
significato
sile
similares
simoenta
sipa
sismondi
situee
sixteen
sizi
skickade
skip
slowed
slutar
smalle
smartsamt
smells
snowman
soddisfazione
soigneusement
sokrates
soldados
soldat
soldier
somnen
sonnenuntergang
soratte
sorga
soupirs
spare
specie
spjut
sponda
spure
stabilito
stammen
steh
steilen
steun
stjarnbilden
stolta
stoom
storen
storhet
strekte
streven
stricca
strid
strikes
stroomde
struktur
stuurde
subiendo
successivo
successor
sufficient
sugli
suivis
sunburn
sunscreen
superbia
surveille
survived
suscita
suspiro
suspiros
suzuki
swabia
syrie
tacker
tadino
tafani
tagliacozzo
tagliagola
tagliamento
tags
taide
tais
taiwan
talamone
tambura
tamiri
tanken
tap
tarquinio
taureau
tebaldello
ted
tegelijkertijd
temia
tempie
temporary
tempura
tension
teoria
tercera
terenzio
teresa
territorio
tesauro
tetes
thai
tignoso
timeo
timmen
tiresia
titone
tommaso
toonhoogte
torri
tourment
towel
toy
toyota
traag
tragedy
tramontana
transforma
trappan
tratar
traversaro
treize
trembles
trennte
trespiano
trevigiana
tristan
tronto
tropfen
tropo
troskeln
troubles
trovava
truthful
tune
turks
tvekan
typheus
ubaldini
ubaldino
ubaldo
uberqueren
uberti
ublich
uccellatoio
ughi
uguccione
uhi
uiten
uitleg
uitnodiging
uitstekende
umbra
underneath
ungefahr
unglaublich
unisono
unites
unteren
uppforande
uticense
vaknar
valable
valcamonica
valdarno
valdichiana
valdsamma
valpadana
valvilja
vanstra
variation
varrone
vasten
veas
velocidad
venia
venice
vercelli
verfolgen
vergewissern
verhogen
verhuisde
verlasst
verlies
verlossing
verme
verna
vernaccia
verpakt
versammelt
verschrikkelijk
verschwenden
versta
verstoken
verward
verwerven
verwondering
vestidos
vetement
vetta
vicina
vierge
vil
villanova
vinto
vitre
vives
vivida
vocabulary
voedt
volapuk
vonden
vonk
voted
vreesde
vreugdevol
vreugdevolle
vurig
waardigheid
waarnemen
waartoe
wascht
wecken
weggenommen
weinten
wenigstens
wetenschap
wickedness
wien
wissant
wissenschaftler
woeste
wolltest
wonderen
woruber
wussten
wuste
yelled
yttrade
zabi
zambrasi
zanger
zara
zelda
zeno
zita
zodiaco
zonen
zongen
zoologico
zuruckgelassen
zuruckzukehren
zweigen
##15
##acher
##aci
##alden
##almente
##ami
##aneamente
##ange
##arden
##ardo
##arten
##ativa
##bei
##bien
##bieten
##bleiben
##boden
##bow
##brachte
##bria
##card
##carus
##ceda
##cement
##cendo
##charge
##cial
##ciano
##cibio
##cidence
##ciende
##ckade
##ckey
##cklighet
##cling
##colte
##corse
##craft
##creen
##ctie
##cts
##cuit
##curata
##daigne
##dendo
##dert
##detti
##didas
##dieren
##eca
##efenen
##eil
##eilen
##eja
##eke
##eks
##eller
##enden
##eres
##eria
##erlich
##este
##esten
##falt
##fassung
##felijk
##ffa
##ffer
##ffeur
##ffre
##fida
##fing
##fluss
##gangen
##gefallen
##gefunden
##gelaten
##gemacht
##gere
##gers
##gevallen
##ggetti
##ggiante
##ght
##gil
##gitto
##glarna
##gnait
##gnata
##grafia
##gramm
##grams
##greifen
##grund
##guire
##gura
##haben
##halte
##hon
##honderd
##horen
##ices
##ience
##ieuze
##igenia
##imenti
##inee
##ining
##irrt
##isen
##ished
##ising
##isons
##iss
##istet
##ital
##itar
##ith
##iviert
##ivos
##ix
##jante
##jection
##judiced
##kand
##keln
##kerna
##kins
##kles
##ktad
##ktioner
##kunde
##laar
##lem
##lement
##lessly
##lics
##ligo
##linkt
##lino
##lis
##lische
##llar
##loser
##lous
##lve
##macht
##mad
##mary
##mb
##meln
##menso
##mica
##minent
##miner
##mischen
##mitted
##mittel
##mmade
##mod
##modiga
##moto
##mper
##mut
##naam
##naar
##nahmen
##nava
##nelt
##ners
##ngere
##none
##nso
##nst
##ntino
##nya
##of
##ofd
##olish
##olo
##open
##ordinario
##ouille
##ours
##peglar
##pers
##pesa
##pic
##pice
##piega
##plico
##poli
##ports
##posta
##pot
##ppa
##presso
##print
##proken
##py
##quement
##quis
##raba
##rador
##raine
##rara
##rarlo
##rary
##rdi
##reek
##reet
##reichen
##reitet
##rend
##rene
##reo
##rets
##rias
##ribili
##rief
##rieron
##rift
##rime
##risch
##roken
##rria
##rso
##ruyo
##sal
##schrift
##schwester
##seite
##sers
##sikt
##siste
##sit
##slied
##sna
##spraak
##stelling
##strated
##suchen
##tagen
##tation
##tenuto
##terie
##tese
##tieve
##tik
##tisch
##trade
##trare
##tribue
##tur
##uato
##uette
##ufe
##ughter
##ugte
##uio
##ulas
##ulations
##uldig
##uldigen
##ulent
##ulla
##ullo
##unciando
##urar
##urige
##urteilen
##utato
##ution
##utions
##vide
##vile
##villiga
##visions
##volezza
##vraient
##vue
##walen
##welling
##weren
##wert
##wohnt
##xion
##zang
##zeiten
##ziet
##zij
##zon
##zorgd
##zubringen
60
aangeboden
abandonnera
abandonnes
abbandono
abilita
absolue
abstinenza
abundante
abwesenheit
accade
acceleraient
acceptait
accompagna
accompagnato
accompagniez
accorsi
accueillait
accueillir
acepto
achterliet
achtste
actives
adlers
admits
admitting
adorez
adquirir
advancing
affronte
afghanistan
afkomstig
ages
agissait
agradables
agriculture
aid
aidaient
aident
akiko
alkohol
allmosor
allontanarsi
allting
allumer
allumera
allumez
altesten
amata
ambiente
ampio
ancor
andliga
angolo
anhangare
anhanger
anledningen
announcement
ansiehst
antenati
antiche
antichi
antigone
antiguas
antipurgatory
anziano
apellido
apennines
apetito
appeal
appelles
applaudissait
applique
apportez
appreniez
aquarium
arbetet
arbia
arch
argenti
argomenti
argued
ascended
asche
aska
assises
asthma
astro
atem
atractiva
atrae
attached
attendaient
attendance
attendra
attendue
attenti
attic
auberge
aufzustehen
aufzusteigen
augustinus
aumone
aunts
ausbreitet
ausdrucken
ausgehen
ausserst
aussieht
australian
autochtones
autriche
aventure
avide
avril
avvicina
axlar
ayude
azucar
baila
baile
baje
ballon
banned
bapteme
barbarossa
barcelona
basement
bauern
bebo
bedekte
befahl
befann
befriedigt
begegnen
begeleidt
begleiten
behandeld
beigebracht
beisbol
beispiele
belgium
bend
bepaald
berichten
bernardone
beschrieben
besorgt
bestammer
bestatigt
bestias
bestimmten
betrayal
betrekking
betyder
bevroren
bewaakt
bezitten
bil
billets
bills
blade
blancas
blandande
blatt
blessees
bleus
blinda
block
boasts
bodde
bol
bolsena
bonaventura
bouwen
brabante
bravo
breedte
breitete
brennenden
bricht
bridges
brillare
bruges
buchstaben
cab
cachait
cadiz
calaruega
calboli
calidad
calles
caminos
campagnatico
campaign
campus
canavese
cantavano
capables
capace
capii
carignano
carriere
casalodi
cassero
castiga
castillos
causato
causer
cayendo
cds
cecilio
cendres
ceprano
cerrado
chantent
chauds
chemistry
chiana
chiare
chiarore
chiascio
chicos
chief
chuchotait
cierta
cigare
circonference
cirklarna
clef
click
climene
cocinar
coincee
combat
comedy
comic
commencent
commerce
committing
compagna
comporta
comportamento
compreniez
comptes
comte
comunque
confine
connect
conquered
conserver
consideracion
consomme
consume
consumption
contadino
contemplare
contenido
context
continuamente
contradiction
conversations
cookie
corno
corriger
corrigez
corrisponde
couches
couilles
counsel
courageous
couraient
courtois
cousine
cout
craignait
craindre
creazione
credito
creeerde
cricket
cristiani
croyance
cumbre
cumplido
cups
curiazi
custody
dansa
dansons
dared
daro
darte
dasselbe
dauerte
dazzling
deberes
decides
deden
dedicacion
deeper
deepest
deifile
dejara
demenageait
demonen
demora
denkend
denne
dennoch
dentiste
dernieres
dertig
descendientes
deserto
despertar
destinato
devoid
dicevano
dicha
dichten
dichtst
dicken
diera
dikwijls
dinosaurs
disappoint
disgusting
disperazione
disposal
disposed
disques
dissipated
distinguished
distressed
ditches
dito
diventano
diverses
divertido
dividida
dividido
dolores
domandai
donare
doni
donnes
doomed
dormido
douves
dovra
drang
drangt
drivers
droegen
drommar
drunken
duurde
duwen
dwaling
easiest
eastern
eben
eed
eenheid
effondre
egipto
eier
eind
einstein
elementi
elevee
ellende
eloignee
emet
emilia
emmener
empezar
empieza
enamorado
encontraron
eng
ensena
entourent
entschuldigen
entschuldigung
entwickeln
entwicklung
envisage
epaisses
eramos
eredi
erinnerst
erkanner
erklare
erre
escena
esempi
esercito
especial
espiritual
essentiel
eternellement
eternite
etude
eurialo
europeans
evangelium
eveille
examined
exciting
exercices
existerar
expectation
expectations
experto
exploite
exploits
explorer
expressions
extrem
facesse
facolta
fake
faren
fascinating
fasziniert
faudra
fbi
fees
feltre
fenomeno
fermaient
feroces
fiebre
fielen
fiera
fills
filosofia
firmemente
flaschen
flashed
fles
fliessen
flottait
flusse
foljeslagare
forakt
forecast
forgiven
forlorad
formano
formidable
forming
forsaken
fortjanster
forutsatt
fosses
fourmis
fourni
framsteg
framtradde
franzosische
freundliche
frisons
frukten
fuck
fuese
fuite
functions
furieusement
fury
gaddo
galet
gange
gardingo
gebouw
gebt
gefixeerd
gegner
gegooid
gehirn
gehoorzaam
gekannt
geliefden
gelijke
generalmente
generando
generates
genti
gentilmente
geopenbaard
geplant
gesamten
geschatzt
gesteld
gevoed
gewisse
gezet
ghibelline
ghisolabella
gigantes
gioielli
giudice
giungere
giurato
glatt
glowing
goddelijk
gommer
gotter
goute
gradvis
grandezza
gravarna
gray
greatness
griegos
grimpe
groeien
guardar
guardato
guelphs
guitarist
haastte
habillee
habits
hablarme
habrias
hagel
halcon
hallet
hamnas
handel
hansyn
hassen
hath
hatred
hauteurs
heiliger
heissen
helm
herausforderung
herd
herder
herinnerde
hermitage
herrschaft
hesite
hierbas
hiervan
hing
hinzugehen
hoeveelheid
hojd
hojde
hommage
honesto
hood
hordes
hud
hueste
humiliation
hundar
hurricane
identificeren
iemands
iers
ilerda
illustrated
imaginez
immeuble
impegno
impitoyable
impressionne
improvvisamente
incorrect
independence
indicates
indiens
indirect
individ
infelice
inferieur
infini
infinita
inflige
informative
ingangen
ingrats
innate
inser
inspirerade
intendo
intensiva
intentie
interessee
intervention
intresse
inutil
invanare
invisibles
iraq
iride
irritation
ismene
italienische
italienischen
jahres
jefe
jewelry
joden
joining
jongeman
juillet
jump
jus
justinian
juweel
juwel
kalm
karten
kato
kaufe
kennengelernt
kerl
kissing
klaga
klagar
kleding
klinge
klonk
koelkast
konigs
koninklijke
korruption
kottet
krachten
krachtig
kraver
kreativ
kruiden
kullen
kunstenaar
kwaliteiten
lamplig
landscape
langia
lapin
laps
laurier
lavaient
lealtad
ledare
licencie
lilien
llevan
lode
lograr
lojal
lombardia
luisterend
lume
lupo
luxe
luzifer
lyft
lyon
magnus
mainardi
malvados
manifiesta
manskligt
marathon
margaret
marilyn
martyr
martyrium
mayonnaise
mechants
medlemmarna
mehrmals
meilen
meisjes
mentait
mentez
merely
merits
metall
mettent
meubles
mezcla
middelen
miembro
mierda
millionaire
mitgebracht
mitternacht
modeste
modet
mojligheten
momentos
monaten
mondes
mondiale
monteriggioni
morada
mordu
moter
mothers
motsvarar
mouille
moyenne
muestras
murmure
museo
muslims
musulman
mynt
nagels
nails
narma
nasconde
nasidio
neglect
nektar
nerfor
niece
nient
nilo
nivel
nod
noe
normales
nou
novela
nuance
nul
nuovamente
obedecer
obeis
observes
odds
offering
officer
offri
oidos
ojala
okade
omfamna
ongelukkig
onrecht
ontstaan
ontstoken
oorspronkelijke
oplossing
opstond
orbisaglia
ordenes
orgullosa
orleans
orm
ormanni
orsakat
osanna
ostiense
oublient
ouie
ouvrait
padrone
pago
paises
palermo
palomas
pane
pannan
paradisets
pareja
parks
paro
parted
pasada
pastores
patto
pauze
pawns
pegasea
pelgrim
pensado
percevoir
percibir
perdere
perfume
personer
personnel
pescar
peste
petals
pettinaio
pfeilen
physischen
piacque
piave
piccoli
pieni
pinamonte
pique
pirro
plaisirs
platos
plaza
plongeait
poblacion
podamos
poignee
pointing
politicians
politischen
pon
pongas
popularity
portava
portugais
posesiones
posez
possedait
potable
potresti
pounds
pousser
pouviez
prasident
prast
prendi
prendrai
preparar
pressade
priests
principios
printed
prinzessin
prinzip
privado
procedendo
procedevano
proceeding
producir
produjo
profumo
promene
promener
promesas
promote
pronunciare
prophet
proteccion
protegido
provocato
proximite
pub
punk
punktlich
pursue
putzen
qualcun
quantity
quedarme
quienquiera
raconterai
raices
rainy
raisonnable
rapidly
rassemble
ravignani
reactie
recession
rechter
rechtvaardig
referred
referring
reflekterade
regeren
regna
reinigen
release
remordimiento
rendait
rendi
repaired
repeated
repeatedly
repeint
represent
reputacion
resan
respectent
respecteren
responsabile
ressemblaient
ressemblent
restare
resting
rests
retrouver
ricca
ricerca
ricomincio
rie
riesce
riesige
riferire
riflessa
rimorso
rives
roads
robusto
rocoso
rodeaba
rodret
roepen
rok
romance
romani
romano
ros
rotation
rotes
rott
rufe
ruggieri
rumors
runden
ruotare
ryck
sabello
sacerdote
sakta
salendo
saludo
samlas
samman
samuel
sano
sassen
satisfactory
satisfaite
satisfaits
saturn
sbagliato
scenic
scent
schaue
schaust
schepping
schizophrenie
schmutzig
schurk
sciences
scintille
scorpion
scriptures
secretly
sections
secure
seeming
seguramente
semblables
sembrano
sennaar
sentent
separes
serchio
serves
settled
sfere
shake
shaking
shelves
shinjuku
shortage
shouting
sinistro
sjonk
skilja
skrattar
skydda
slaagde
sloot
smarrito
sobbing
soborno
soep
soeverein
sofferto
soffio
soka
solaire
solches
sollevo
somewhat
soplo
sopportare
sorprendio
sortira
sotma
sottostante
souleve
sova
spade
sparta
spazieren
speciaal
spharen
splendida
spoiled
spoon
stadtviertel
stake
stal
status
steigen
stelt
stew
stoel
straalde
stracka
straft
streben
studiere
stylos
styrkan
subtitles
sujeto
superato
surgery
surmonte
surrender
suspects
svarta
sweat
synlig
tacco
tackta
tanzt
tarpea
tarte
taurus
tausende
teenager
tegenstanders
telefonnummer
teleurgesteld
tempted
tenebre
tenta
territoires
thanksgiving
tigers
tilde
tillade
timido
tips
toco
toekomstige
topino
toppo
toulouse
tournament
tournez
touw
traducir
tranger
transcribe
trasformo
treating
trieste
triomf
tristemente
troja
troops
troupeau
trovi
trugen
trusts
tuono
tuttora
twentieth
tydligare
tysta
uberraschung
uberwindet
ufo
uguale
uitgeput
uitstraalt
uncertainty
uncomfortable
undersok
undersoker
unge
universelle
unterdruckt
updated
uppfatta
uppfyllas
upplyste
urbino
urged
urlare
usado
usb
utica
vaca
vacant
vackert
vado
vagade
vaio
vakterna
vapen
varelsen
varmen
vasto
vende
verbinden
verbringen
verbs
verdediging
verdiensten
vergadering
vergezeld
vergiss
verhindert
verhuisden
verklaring
verkliga
verkocht
verletzen
verlichtte
verneigte
veroordeelde
veroordeelden
verrader
verrucchio
verschil
verslagen
verzoek
verzweiflung
vessel
victime
vidas
videos
videro
vides
viejos
vieler
vieren
vies
viktigt
vimos
vinculo
vinger
visuele
viuda
vivia
vluchten
volent
volvere
voort
vooruitgang
vorhanden
vulgar
vunnit
waage
wache
wahnsinnig
walnut
warmen
wars
wasche
weigeren
welwillendheid
wiederholen
winde
winters
wiskunde
wolven
wortels
wrath
wundern
wurzeln
yard
youngest
zachtjes
zama
zanjas
zeitungen
zelfmoord
zout
zuid
zwanzig
##68
##ads
##aked
##all
##allt
##alte
##alter
##ancia
##antie
##anz
##arnas
##atar
##atta
##atz
##aufen
##back
##bano
##bata
##bert
##bonden
##brina
##cade
##cais
##case
##cati
##cava
##ccata
##cchio
##ceduto
##censo
##cesa
##cesion
##chie
##chiere
##chino
##chlich
##chnen
##chungen
##cibi
##cidos
##cierto
##cionado
##city
##ckers
##cknet
##claim
##clus
##conta
##corsi
##cres
##cribo
##crite
##crivere
##cteur
##culait
##culte
##cution
##danig
##dant
##dation
##deva
##dian
##dicate
##dict
##digd
##digung
##dingen
##dir
##dis
##dische
##doors
##drigen
##duit
##durende
##ebt
##ected
##eien
##eile
##ell
##eme
##ered
##erie
##fahrt
##farer
##fecte
##fezione
##ffad
##ffee
##fflighet
##fiant
##ficare
##fiere
##flict
##flitta
##fois
##front
##gacion
##gamos
##gate
##gee
##geeft
##gekeerd
##gelegt
##gene
##genoten
##gerat
##ggere
##ggiato
##givande
##gliato
##gnit
##gnons
##goten
##graben
##grado
##graphy
##gure
##gy
##haglig
##hal
##hale
##hallande
##hielt
##hof
##hoon
##hrung
##hte
##iando
##icher
##ieen
##iel
##iendose
##ienen
##igate
##ii
##ije
##iler
##illant
##irer
##irlo
##ischt
##ismus
##istic
##itor
##izzare
##jahr
##ject
##jen
##jet
##jilla
##jur
##justa
##kamen
##kanten
##kehren
##kenbaar
##kenen
##kingen
##klimming
##kracht
##kunden
##laces
##lai
##laire
##laise
##lama
##lame
##lamo
##lanken
##latable
##leiding
##lerant
##lets
##lge
##lici
##lieben
##liegen
##life
##llable
##llor
##lock
##loden
##lons
##loss
##lossen
##lpa
##luia
##maal
##matic
##mda
##meerd
##melte
##mensa
##messa
##miendo
##mige
##mique
##mische
##mission
##mna
##mpt
##mune
##mung
##mus
##nano
##nappe
##natural
##ncies
##nciez
##ndade
##ndante
##nded
##ndigt
##ndrade
##ndre
##neerd
##neigt
##nels
##nement
##neming
##nere
##ngst
##ngue
##nier
##nig
##nni
##nnois
##nomen
##nser
##nterna
##ocio
##ogio
##ogne
##olation
##opia
##ops
##orata
##ostro
##otras
##ott
##ovar
##oyaient
##pace
##pad
##panning
##pelt
##perti
##ph
##pion
##pisce
##play
##ponge
##poten
##pressa
##prime
##prochen
##pta
##puestos
##pus
##ragt
##raire
##rappato
##rastra
##rations
##raue
##rcia
##rdia
##reiben
##rence
##repp
##rero
##ressen
##reste
##rigo
##rij
##riormente
##rissait
##risten
##rius
##riz
##rks
##rni
##roatie
##roet
##rol
##rollo
##rop
##rose
##rp
##rting
##ruccion
##ruido
##ruito
##sade
##sado
##saft
##samt
##san
##sate
##seau
##sehen
##set
##shima
##sichtigen
##sin
##sione
##skapet
##slag
##slose
##sprak
##sprechen
##ssig
##staende
##standing
##steht
##strale
##sura
##tala
##tance
##tava
##teilt
##telt
##tenga
##tenne
##tere
##terten
##tezza
##the
##ther
##tieren
##tionen
##tner
##tory
##trar
##trat
##tria
##uario
##uata
##udi
##uern
##uevo
##ugnen
##uillee
##ulates
##uld
##uler
##ulous
##uncing
##unse
##urig
##uset
##utons
##utzen
##uzen
##vamente
##venuta
##vey
##vidad
##viert
##vik
##villigt
##voco
##volved
##vrons
##waardig
##weicht
##weis
##werden
##xes
##xuel
##yant
##zahle
##zare
##zelt
##ziosa
##zocht
##zos
##zoso
##zuhoren
1975
21
4000
aanbieden
abaissaient
abandonnait
abattra
abbi
abhangig
abiertos
abimait
aboie
abreisen
abrutira
abrutit
absents
aca
accepteraient
accompagnaient
accompagnes
accorded
accueillera
acento
achetaient
achetent
achetes
achetiez
achterlaten
acompano
acone
acostumbrado
actua
admirent
adolescents
adorera
adoriez
adorn
adresser
affairs
affamait
affamera
affames
affermando
afgeleid
afirma
afirmo
agatones
agee
aggressive
agitation
agypten
aida
aires
airports
ajoutait
akzeptieren
alaska
aldobrandi
alegremente
alien
allumait
aloud
altas
altitude
amica
amiclate
ammonia
amorosa
ananias
anassagoras
angela
angeliques
angio
angiolello
anglaise
angrade
angrily
ankam
annanstans
antaeus
antalet
anterior
antipurgatorio
antonio
antworte
anzahl
anzeichen
aosta
apologies
apparaitre
apprenaient
approchaient
arab
arbitre
arga
arguing
aries
arnold
arretiez
arrivees
artighet
artimon
artistic
artists
ascoltato
asesino
ashes
asopus
aspettare
assassine
assieme
assigned
associated
assoluta
assommait
assoupli
astonishment
astrale
aten
athen
atmosfaren
attaches
attent
attirer
attityd
attonde
attraction
attribute
audaz
aufgenommen
aufhorte
augmenter
augustine
auktoritet
aulide
ausgedruckt
ausnahme
aussere
automovil
autorijden
avancer
avances
averlo
avgrund
aviv
avvicinai
avvicinarsi
baissez
bajando
baksidan
basque
batterie
bautismo
beatles
beccheria
bedecken
bedrar
bedrog
beefde
beeindruckt
beelden
beenden
bees
befehle
befinner
bega
begeisterung
beginner
begleitete
begrusste
behagar
behandeln
behoefte
bekraftar
beleefdheid
bells
beloofde
bemuhungen
beobachte
beroofd
beruhigen
beschaamd
bescheidenen
bescherming
besiegt
besoins
bestand
bester
beute
bewolkt
bienvenido
bildet
biologie
bisanti
bisogna
bites
bleib
bloeien
blossom
blossoms
blues
blute
boligrafo
bonden
boodschap
bordo
boter
bougeait
brach
brandt
brannte
brauchte
brian
brud
brutal
buches
bugade
buono
buys
byggde
byta
cadmos
calendar
calmes
cambiando
camminando
camminavo
cancelled
candle
cansados
cantaba
cappelletti
capturing
caracter
cared
caron
casos
catalan
ceiling
centaurs
cerebro
certificate
chain
champs
chapter
chased
chasing
checkmate
chiarezza
chiave
chie
chiedi
chili
chispas
choices
circondato
circonferenza
circunferencia
clouded
clown
coderon
codes
colchis
comen
comete
comi
commanded
communiquer
compete
competed
comprendi
condamnation
condannato
condemnation
condena
conduira
confectionne
confio
confirme
connaissaient
connaissances
conocen
conserve
contenuto
contrec
controllo
convento
convinzione
copia
copiez
corne
corresponde
corretto
corsica
costoro
coupables
coutume
cowboy
crachaient
crash
creati
crece
creencia
cuerno
cupido
curtains
dale
damon
dancer
dansent
dansera
daring
darrade
deals
deberiamos
decirte
decise
decourageait
decouvre
dedie
defends
defensa
degats
dejare
deleted
demandant
demarrais
density
deporte
desagradable
desaparecido
desastre
descendiente
descendio
desesperees
desnudo
desnudos
desperately
destinata
determiner
devoti
devra
devrez
diamante
diedi
dief
diga
dimostro
dinos
diogenes
diomedes
dioscorides
diplomat
direcciones
dirmi
discreet
discursos
district
divinite
divisa
djupare
doce
dochters
doctrina
documentary
dolda
dominated
donald
donau
doorboord
dorf
dotato
dottrina
douloureuse
dovrebbero
dozens
droefheid
drottning
drowning
duerme
dummheit
ecarte
eccesso
ecluse
edgar
edite
eftertradare
ehren
eifrig
eigenlijk
eiland
eilanden
einfachen
einsamen
einstellung
ejercicio
electronic
elemente
eliminated
eloignait
embarras
empresa
emu
encantadora
enclosed
encouragement
entendais
entendimiento
entendio
entusiasm
entweder
envahi
epaule
epousa
epuise
ere
erfgenamen
ergibt
erhoben
erlangt
ermutigen
erwartung
esconde
escrituras
esfuerzos
esperons
esperta
essayait
essayons
esser
essersi
esten
estende
estonia
estremita
estupido
ethiopie
etincelles
etonnant
etonnee
etroite
eunoe
eurent
euripides
evangeliet
everest
ewiges
exchanged
excluded
explode
exporte
expresa
expressing
expulse
extinct
extinguished
facciamo
facons
failures
falle
fange
farai
fardeau
favorita
feature
fedelta
federal
fee
feriez
fermarsi
feste
festivals
fidelidad
fig
floating
florentijnen
florentinos
florida
flowed
fluency
flyttat
ford
forklift
forlatelse
formar
formeel
forneka
fornuftet
forsvunnit
forsynen
fortjanar
fortschritt
fortschritte
fortunately
foundation
frambringar
framtiden
franciscan
frederic
freitag
fritt
frukta
fruktade
fuggi
fuhre
fulgore
fullen
funerals
funfte
furnished
futtern
gafas
galaxies
gangster
geants
gebeurtenissen
geduwd
geestelijke
gefeiert
gefiel
gehandelt
gehorsam
gelang
gelingt
gelubde
genaue
generate
generosity
geneva
genial
genio
genomborrade
gentucca
geometrie
geroepen
geschilderd
gesucht
gewahren
giace
gibst
gierig
giggle
gigli
giornata
girlfriends
gisteravond
giuochi
glanzte
golpeada
gorgeous
gouvernail
grammaire
grammatik
grano
grasp
grausame
grijs
grippe
gritaba
groeit
grogne
grootte
grosszugigkeit
grundlage
gualdrada
gubbio
gudomligt
guerres
guidare
guiscard
gunstige
gurtel
habituee
habrian
hacemos
hacerse
hades
haine
halve
halvklotet
hanako
hangiven
happily
harbor
haren
harmful
harvest
hautes
helpful
hemels
hemispheres
herederos
heritiers
herkend
herzens
hette
heupen
heureusement
hiciste
hierhergekommen
himmelsk
hinein
hinsicht
hinten
hits
hogar
honored
hook
hoorn
hoss
hote
houten
huddle
huile
humid
ide
identifie
identique
ignorieren
illuminates
iluminada
iluminados
imagenes
immaginazione
immagini
immerse
implique
impostor
impresion
inclined
incontrato
independant
indignacion
individus
ineffective
inexorable
infection
infirmier
inflicted
influencias
informazioni
informiert
ingannare
initiative
iniziale
injuries
injustement
inmediato
innata
innocente
inquietez
insultait
insulto
intellektet
intera
interna
inventa
inventor
invitacion
invitations
invloeden
isifile
isott
italiana
items
jagade
jakob
jarn
jeux
josue
juba
juger
julius
jungfrau
juro
kallt
kanadier
kante
kehren
keiko
keinem
kenmerken
kiefer
kioto
klap
klima
klingt
knieen
konflikt
konigreiches
kontrollera
krawatte
kreaturen
kronan
lagar
lamenta
lampe
landed
landschaft
langtar
lart
lasciava
lateran
latit
lattnad
laviez
lawyers
learcus
lebten
leefden
legno
lelies
leugenaar
limiet
limiti
limousin
linje
lirios
listless
ljusstyrka
llegando
llegara
llenas
llevando
llevara
llover
logical
lojalitet
longues
louange
lova
lovar
lowest
luke
lyckas
maagd
maestra
maestros
magnificencia
magnificenza
magnifika
magnifiques
mailand
maintain
maitriser
majestic
makten
malebronches
manifesto
marchez
mardi
marins
mariposa
marzucco
matar
matches
maten
materiale
materiali
materiaux
mcdonald
medaille
mededogen
mediante
medkansla
meeres
melbourne
meneer
mensajero
mentais
mentiras
messager
messaggio
messenger
miami
midas
middernacht
migliori
minutos
miraron
misfortune
mixture
mobiltelefon
moderna
modos
molecule
montag
montague
monument
mordre
moscou
mostrava
moteur
mouillees
mp3
muda
muet
munt
muovevano
murderer
museau
muso
nadenkt
nadert
nascita
naturligtvis
navarrese
neapel
needn
neglige
nego
neigung
nero
nerves
nettoyait
nettoyer
nicolas
nightcap
nikko
nodvandiga
nomi
normandia
novaras
novo
nutrimento
nutzt
obedient
obscurci
observez
octobre
odmjuk
odmjukt
offerto
olvido
omhelsde
omstandigheden
ondergedompeld
onderscheid
onderwerpen
ongelukkige
ontbreekt
operare
oppet
oprechte
orbit
organe
organes
orientale
orne
orphelin
oslo
osservo
osterut
outrage
ouverture
ouvriront
overallt
overlagsen
paierai
palacio
paladin
palats
palestrina
pallas
pandemic
panier
pantalon
papillon
paraitre
pardonnerai
parlarmi
partager
partenaire
participe
particolare
parviendrez
passagers
passant
passeren
pavens
peanut
peculiar
pedi
peking
pelerin
pequenas
perdus
peregrino
perfeccion
perfettamente
permitido
perplexe
personajes
pertanto
pesado
phases
piange
piangeva
pidiendo
pieux
pikes
piume
planetas
plongeais
plot
polyclete
pongo
popcorn
portaient
portee
potete
potrai
pourraient
pourras
poursuivre
pourtant
practica
praktisch
praying
precio
preciso
prenant
prenda
prenne
prenom
preparez
prescription
presi
presidente
prestar
prestige
prevents
primary
print
prisoner
procedure
procrastinator
profound
programmer
proie
prophetie
proprieta
protest
proudly
provare
provenza
prudenza
publico
pueblos
puissante
puissent
pula
purete
purifica
purified
quai
qualified
qualt
quart
quassu
quatorze
quedado
quedaron
quieto
races
racheter
racines
racistes
rahab
railroad
rame
rappelez
rapporte
rapproche
raseri
ratschlage
reagi
reagiert
reales
rebuke
rechauffe
rechercher
rechtsanwalt
reconnaissance
reconnue
recuperar
redenen
redenering
redete
redondo
reed
reeds
refined
reflecteren
reflejada
reflektieren
regarded
regenboog
regionen
register
regole
regularly
relatively
religie
religione
religions
remords
remplie
renew
repariez
requiere
rescue
residence
responsabilita
respuestas
reunieron
reussit
revelado
revelo
reverence
reverencia
revive
rhume
ri
richiamo
ridiculous
riflettere
rifletti
rimanga
rinner
riprese
risiko
risks
rivolge
rodano
roep
romain
romantique
romena
rota
rotten
rudder
rudeness
ruina
rumore
ruta
sabeis
sachant
sacrificed
sacrifie
saggia
saignent
saignera
salen
salia
salmo
salomon
salto
saluto
salvar
samlade
sao
sardonapalo
saresti
sarskilt
satire
sauerstoff
savaient
savior
schachtel
scheur
schickt
schilderij
schirm
schlafe
schlage
schlief
schneit
schnelle
schreeuwend
schulde
schwarzenegger
schweigend
schwierigen
schwul
scintillante
scoprirai
scritture
scylla
sechsten
secretaire
seduta
seguaci
sejour
selfishness
sembler
sembri
senales
senalo
separado
separer
seriez
serio
servo
sexto
sforzo
shelter
shoreline
siblings
sicheus
sicilia
sienten
sighing
siguieron
simonides
sincerite
sink
sirene
sitz
sitze
sjomannen
sjuk
skala
skinande
skrammande
skriker
skydd
slavery
smicker
smokes
socrate
soggetto
sogni
soins
solida
solos
sonnenlicht
sorgsna
sortent
sosta
sostener
souhait
speise
spero
spettacolo
sphinx
spirituale
spoonfuls
stadera
stadium
stadtteil
stained
staio
stalla
stamm
stated
stavamo
stazius
stege
stehe
stephen
stirred
stof
stove
strenge
stretti
strict
strictly
string
stripes
strongly
subtle
successivamente
suck
suiza
sultan
surse
svag
svani
svarar
svardet
swimmer
swore
symbolen
szene
tagalog
taget
taglich
tana
tararna
technical
telefonleitung
teller
temas
temoin
temperatures
templo
tenaient
tender
tenue
terminal
textbook
theban
threats
throbbing
tieni
tigris
tillfallen
tillracklig
tilltalande
tisbe
tobias
toestaat
togs
toloma
tomates
tomatoes
toorn
torto
torturees
tradgard
traer
tragische
transfer
transformee
transport
tratado
traumen
trillen
trinidad
triple
tuberculose
tuvieron
tuya
tvinga
tvingades
tvivlar
tycks
ubertraf
uccise
uitdrukken
uitgaan
uitzicht
ultimos
umfang
umschlag
unbearable
unconscious
unemployment
unexpected
ungerecht
unghie
universitat
unnotig
unschuld
uppleva
uppmanade
upptackte
urania
uren
urumqi
user
utsidan
vagleder
vaincre
values
valvilliga
variable
variety
varme
varus
vaska
vaskan
vaxa
vecino
vederla
vehicle
veia
veis
venaient
vendredi
verandering
verband
verbirgt
verblind
verbreiten
verdammter
verdeelde
verdreht
vergebung
vergossen
verkrijgen
verlegenheit
vernachlassigt
vernunftig
verontwaardiging
veroordeling
versammelten
verschillend
verspillen
versteckten
vertaal
verteidigung
vertrieben
verwachting
verwenden
verzamelen
veteran
vicenda
viewed
vigile
vigore
violenta
visionen
visita
vivaient
vleierij
voeding
voeg
voegden
volait
volverse
vonken
vooraf
voraus
vorrebbe
voyait
vrais
vreemde
vreest
vrezen
vriendschap
vuelan
vuelvas
vulnerable
waait
waarover
wach
wage
wagens
waitress
waldes
wanhopig
warmth
watered
wax
wechseln
weggenomen
weine
weiteren
welzijn
werkte
wichtige
wiedersehen
willingly
winden
wint
wirkt
wissenschaft
witwe
woran
wunsches
wunscht
zerstorung
zevende
zonlicht
zoppo
zustimmen
zweck
##aca
##active
##akel
##alla
##alten
##arbeit
##arde
##arm
##armi
##ath
##avier
##bade
##bai
##bak
##banon
##baum
##bels
##bians
##biendo
##bil
##bildung
##bilities
##bito
##blad
##bres
##brot
##bud
##bungen
##burgo
##canto
##ccato
##cchia
##cciones
##cciono
##ccorse
##cepcion
##ceptisch
##cerse
##chied
##chita
##chnitten
##choso
##chreven
##chuchtern
##chuldigd
##cifique
##cilie
##cioso
##cise
##cision
##ckas
##ckling
##clara
##clina
##clude
##clut
##cognizable
##cott
##cqui
##crete
##cri
##cribed
##cribi
##cripcion
##critto
##crive
##croc
##cteerd
##ctions
##ctiva
##ctive
##cuencia
##culaient
##culaire
##cultura
##curato
##cuta
##cycle
##dacht
##dding
##dele
##denkt
##derar
##derde
##derno
##dibile
##dicado
##digte
##dings
##dit
##diti
##dlichen
##dosi
##drade
##dras
##duras
##edig
##eered
##egangen
##eging
##eige
##eigne
##emment
##erei
##ermi
##eso
##eter
##ezie
##falle
##fallt
##fardig
##fasst
##fatte
##fere
##feren
##ferma
##fers
##fes
##fidare
##fiee
##fies
##fines
##firo
##fizieren
##foljare
##gador
##ganda
##gans
##garon
##gehalten
##gels
##geri
##gerichtet
##gesagt
##getaucht
##gevonden
##ggiando
##gido
##gistre
##givna
##gle
##gnes
##gone
##grond
##haga
##hall
##hend
##hero
##hnlich
##hov
##huis
##huld
##iat
##iate
##iben
##icielle
##icioso
##iede
##iek
##ieme
##iento
##ierde
##ierst
##ievable
##ifica
##igkeiten
##ignit
##ijken
##ikt
##illais
##illas
##ilmente
##imen
##inada
##inos
##inte
##iosos
##ippi
##irant
##iron
##isait
##isca
##isco
##isent
##itent
##itimate
##ivi
##iz
##izzate
##jda
##jeron
##jod
##jorden
##juder
##juk
##juka
##just
##juta
##kannt
##keken
##kering
##kijken
##klagar
##komna
##kraft
##ksam
##ktade
##ktionen
##laars
##lano
##lart
##lashes
##last
##lder
##leept
##lena
##lett
##leva
##levde
##leven
##lgen
##licka
##liehen
##liess
##liesst
##lijken
##lines
##liness
##lir
##liseerd
##lken
##lm
##loeit
##lore
##lskade
##lutet
##lzen
##made
##mage
##maning
##mass
##mba
##mee
##melo
##mering
##metre
##mila
##mmel
##mmi
##mmung
##mning
##mpen
##mps
##mpte
##mutige
##nahrt
##nails
##namen
##nante
##napped
##ndoci
##neiden
##neur
##ngar
##nian
##niere
##ningarna
##nio
##nja
##nka
##nnata
##noi
##nsi
##ntan
##ntiek
##nym
##occo
##oce
##ogt
##olazione
##omer
##oncee
##ong
##oque
##orea
##oren
##orie
##orio
##orta
##oto
##oule
##owed
##page
##pand
##partir
##passait
##pat
##pata
##pathie
##pation
##penser
##perare
##pettato
##phins
##pinta
##pirai
##pisci
##pitato
##plicit
##point
##pore
##porta
##posizione
##prach
##preche
##precia
##prendio
##prendre
##press
##pri
##prints
##pris
##prit
##ptie
##pulated
##q
##quate
##quator
##quem
##quert
##quin
##quina
##raal
##rabile
##rackt
##racy
##rala
##ralen
##rams
##rane
##rang
##rangle
##rarna
##razada
##rds
##recido
##reciendo
##reibt
##renda
##repa
##rey
##rieb
##riegt
##ringar
##riva
##rivet
##rmd
##roeten
##rschen
##rtig
##rue
##rummet
##run
##rut
##rva
##rve
##ryck
##ryckt
##sagt
##samen
##sat
##scinante
##seln
##servo
##smos
##solve
##some
##ssed
##ssima
##staan
##stande
##standigt
##stocht
##stod
##svoll
##swurdig
##tage
##temi
##tern
##ters
##ths
##tient
##tier
##tit
##titi
##tivamente
##tligen
##tors
##torted
##trauen
##treffen
##truzione
##ttering
##tzt
##uba
##uchi
##uere
##ugnet
##uhe
##uhr
##uhren
##uil
##uilli
##uim
##ulaire
##ulen
##uliert
##ulin
##uming
##umo
##unar
##undete
##uosa
##upt
##ural
##urare
##urro
##usta
##usto
##utes
##utigen
##uva
##uven
##uwe
##vag
##vart
##verk
##vermogen
##verra
##vid
##viendo
##vinden
##vlekt
##vligt
##voegen
##volgen
##volve
##vour
##warmen
##waschen
##weden
##wel
##wende
##wig
##yez
##yn
##zeer
##zept
##ziale
##zurufen
##zuziehen
120
18th
1939
1941
1990
23
aanbidden
aangetrokken
aankwam
aanval
abad
abandona
abandonnent
abat
abate
abbatte
abbe
abgeschnitten
aboyer
abreise
abrupt
absente
absichten
abstieg
accaduto
acceder
accettare
accommodate
accompanies
accueil
accuses
acercamos
achievement
acknowledge
acompana
acompanado
acquisito
adulto
advantages
adventure
advertise
afrikaans
aggiungere
aideront
aimant
alabanza
alarme
albanie
alce
algerian
allan
allerent
allergies
allions
allontanati
allontanato
ambrosia
ambulance
amoroso
amphiaraus
ancetre
andarono
andas
andata
andate
andatura
andrade
anfortrodde
anguille
anka
anniversary
anser
anthem
aout
apennijnen
aperta
appelaient
appelons
apprentissage
approches
arabia
arbeta
arcos
arcs
arde
arma
arnia
arpa
arrepiento
arrivait
arriverai
articulo
ascenderen
ascesa
ascolti
aspetta
aspettando
aspire
asseyez
astrology
astronomers
astucia
astuzia
asuntos
asustado
atentamente
aterigen
athlete
atormenta
atrevi
attaquer
attentifs
attira
audible
aumenta
aurions
ausgangspunkt
auslander
ausreichend
ausstrahlt
authentic
autorises
aves
avgora
avicenna
avonds
avvicinava
avviker
awaits
axel
ayako
ayudarme
bakery
bamboo
banaan
banished
banner
baptism
baptiste
barre
basse
battesimo
bau
bec
bediende
bedoelde
bedrijf
bedrovad
beethoven
befleckt
befria
begaran
behagen
beklommen
bekymmer
belangrijkste
belo
belohnt
beloningen
beloofd
benaco
beneficios
benehmen
benessere
benutzte
bereut
bergers
beschadigt
beschreven
beschweren
besefte
beslut
beundran
bevapnade
beweerde
bewondering
bienaventuranza
bienestar
bilancia
bildung
bleibst
blinded
blonds
bloom
bo
bolonia
bonita
borsten
boser
bougez
bracelet
brattom
brazilie
breekt
breeze
bref
bremse
brev
brisa
bronze
brushed
brushing
brutale
budbarare
budget
buren
cadena
cafetiere
cai
caida
californie
calvino
cambiato
cambie
camminavamo
cancellato
candore
canvas
capaces
capitals
carajo
caronte
carrera
casada
catalaans
cautela
cayeron
cenar
centimeters
cerrar
changea
changent
charming
chasm
chasser
cheated
chemises
cherchent
chevaliers
chiara
chile
chimney
chomage
chopsticks
christendom
christenen
chut
cielare
cils
cire
ciseaux
citizenship
clairs
classmate
claustrophobic
clin
coeur
coger
colons
combine
cometio
commented
commettere
compie
complicado
comprenait
comprendo
comprendrez
compromis
concentree
concentrez
concours
condenacion
condiciones
conditioner
conducta
condusse
congress
conmovio
conosco
consequently
consolation
constructed
consulter
contemplar
contemplation
contener
contents
contes
contexte
contingent
continuait
convicted
corda
cosmos
cottage
coupee
couvertures
cradle
crear
creas
crecer
creduto
crete
crochets
cubierta
curar
cutting
cycle
daarheen
damnation
dankbaar
dansade
dansar
dapprima
dates
datos
deadly
debba
debt
deceased
deciding
deckel
decrease
decue
defect
defendaient
defenses
deference
degas
degres
demandent
demandes
demie
democratic
densite
depeche
deplacent
derived
desafortunadamente
desaparece
descente
desks
despised
dessutom
destruccion
detaljer
detestait
detourner
detuvieron
devastated
developing
devenait
devenues
diffonde
dificultades
dignified
diligent
dinastia
diretto
dirigee
diriger
diriges
dirigida
discesa
disdain
diskussion
disorder
disparaitre
disprezzo
dissipe
disturbed
diventata
diversamente
diversas
dock
dolente
dolt
donatus
donnait
dop
doubtful
drauf
drinnen
drojer
dubbele
dunkeln
durable
duramente
dures
durft
durs
duurt
dwazen
earthquakes
eccellenza
ecke
ecrivais
educacion
eerbied
eerbiedwaardige
eeuwen
eh
eindigde
einfache
eingehullt
einiger
einkaufen
einsam
einzelnen
elevato
eliminera
ellendig
embrasses
empfinde
employee
encantan
encuentras
endet
endless
enferme
enfermera
enfuit
englander
engraved
enkelt
entendant
entendez
enters
entschuldige
enviado
epaisse
ephemeral
erduldet
erfullte
erge
ergriffen
erkenntnis
erlaubte
erleben
ernahren
erneuert
erwahnt
erwarmt
erwarten
erzengel
erzeugen
esaminare
escalade
escondio
escritorio
escritura
escuchas
esiste
espejos
esperer
essaya
essens
establish
estudias
eteindre
eternidad
etiopia
etroit
evangelist
evidencia
excelencia
excusa
exercises
existir
expense
expenses
expliquerai
expliquez
exterieure
fach
failli
fakten
fallet
fallu
falsche
familjer
farebbe
fascine
fatal
fatiga
fatiguees
fattig
faucon
felici
females
fermees
fermement
fertile
festa
fetonte
fichier
fidelite
fiende
filosoof
filthy
fingen
fiorentini
fissare
fissure
flaming
flammande
flehte
flits
flotte
flute
footprints
foraktade
foraldrar
forandras
fordelar
foreslog
forgets
forr
forra
forslag
forsvar
fortroende
fortuin
forvandla
forvantan
fourchette
fourteen
franziskus
frappee
frecuencia
freezer
freie
freier
frein
freudigen
friedrich
frog
frondas
fruktansvart
fulfilling
fumez
fureur
fus
futura
fylld
gallows
gaste
gat
gaz
gebaseerd
gebruikelijk
gedreven
gedroomd
gedruckt
gegensatz
gegenstand
gegenwartig
gegraven
geheel
gehuwd
gekleidet
gekostet
gekregen
gekust
gelehrt
geliefert
gemalt
gemelos
gemuse
geneigd
generale
generosidad
generosita
genetic
genitori
geometry
geraten
gerechte
gereinigt
ges
gesamte
geschenken
geschenkt
geschossen
gewachsen
geweldige
gewist
gewohnheit
gezeichnet
gezonde
giganti
giriga
giunti
gladjen
gleichgewicht
glorieuse
gloves
glucks
godere
goldene
golpes
gomma
goutte
graaf
grabern
graduating
graine
grandchildren
grandir
graziano
grecs
gregorio
grieks
grieved
gritaron
gron
grop
gropen
grosszugig
grune
gudfruktiga
gueri
guessing
gutem
gutern
habituel
halls
haltet
handy
hardest
hardop
hardware
harmonica
harstammar
haste
hattet
haufig
hava
heated
heerscharen
heftig
hej
helium
hellish
helmet
herauskam
herders
herida
herinneringen
hersteld
heutzutage
hieruit
highway
hills
himlavalvet
historical
historien
hjulen
hocico
hoef
hoer
hoeven
honig
honkbal
honore
horns
horror
hospitals
hugged
humanas
humbles
hure
identitat
ignorancia
iguales
illuminata
ilumino
imbeciles
imitate
immersed
immigrant
impacto
imported
impronta
incarico
incendio
incertidumbre
increases
indeed
individui
indonesia
indus
infaillible
infallible
ingenieur
inheritance
[...]
