start_of_sequence_id
end_of_segment_id
padding_id
mask_id
!
'
,
.
0
1
2
3
4
5
6
8
;
?
a
b
c
d
e
f
g
h
i
j
k
l
m
n
o
p
q
r
s
t
u
v
w
x
y
z
de
la
en
que
the
in
die
##s
il
che
le
och
und
un
att
me
to
and
je
et
el
of
den
der
van
som
se
het
di
du
##e
si
ik
jag
ich
that
te
for
om
qui
is
was
zu
con
als
een
##n
mi
es
you
er
sie
dat
les
non
det
no
so
una
zijn
av
sa
##en
##r
des
##t
del
pa
vous
ar
han
inte
he
till
est
hij
lo
ne
al
##a
los
pas
da
it
dass
von
su
med
niet
nicht
mig
dem
met
das
por
tu
##d
with
mit
dans
une
per
an
as
var
har
come
como
my
wie
ai
pour
mijn
op
ist
##i
para
who
auf
qu
##o
had
avec
ce
##te
his
naar
las
wenn
sich
not
from
we
voor
ze
lui
comme
ma
ha
mich
son
vi
io
if
##es
alla
on
all
plus
##de
dit
nous
aan
fran
be
##re
mas
war
will
##er
kan
door
ein
sig
mir
sin
piu
him
nar
hem
cosi
era
par
by
honom
min
this
zo
dig
ou
sur
your
hade
kommer
eine
have
um
ett
##ing
au
men
mij
della
at
they
##ta
##nt
toen
maar
mon
andere
beatrice
wurde
man
etait
fur
##to
but
which
ils
mais
one
esta
sus
waren
alle
god
ti
hier
##do
are
wird
wat
cuando
elle
nu
when
werden
sono
wir
hatte
aber
pero
skulle
hans
tan
quando
dan
hat
deze
porque
loro
aus
gli
##no
##va
##ra
ihr
dar
haar
mio
ete
quand
what
moi
over
them
##ndo
sein
were
seine
ont
anderen
zou
want
noch
##l
cielo
ser
ni
andra
sag
then
uit
sua
bien
##na
cette
her
##da
zal
meine
##z
##ti
dann
oh
tot
einen
worden
mia
said
vara
tanto
##ar
asi
there
uns
zich
suo
grande
ihn
their
hun
cui
questo
virgil
sont
autre
like
perche
im
##se
sagte
tout
uno
votre
would
weg
has
zei
ses
ons
sind
other
meer
oss
ben
ihm
waar
##ly
because
suis
##ed
##le
entre
fait
solo
avait
etre
vad
geen
do
einem
##mente
punto
dio
eller
meme
dal
licht
more
nel
or
estaba
habia
can
este
nach
dei
werd
##ment
see
diese
maestro
dich
those
mer
us
mycket
point
kom
ci
modo
heeft
mein
einer
am
yo
aqui
donde
zien
mis
quel
dijo
oder
upp
##ne
alors
durch
where
din
mot
nella
vers
here
denn
hen
autres
detta
haben
nog
entonces
mehr
##et
parce
dell
fue
leur
ihre
prima
##on
ella
habe
##la
omdat
dios
now
zag
ces
dieu
hebben
hon
##lo
up
##st
dus
love
##as
virgilio
ahora
hoe
denna
##ro
hacia
utan
vu
nos
essere
she
mes
heb
verso
ya
sah
quella
ga
under
##y
ese
ihnen
wo
how
ho
chi
ogni
cio
dove
##it
efter
kann
dalla
hur
henne
ici
before
mina
tegen
bolgia
fa
gran
fu
saw
todo
zoals
sina
##me
puis
sehen
wordt
ancora
altro
divine
vor
poi
mitt
maintenant
out
tal
todos
##ig
otro
vill
its
don
terra
weil
dieser
disse
ging
liebe
sans
dire
great
deux
jullie
mai
dir
parte
sia
##ia
celui
##ten
monde
##ce
than
tous
wil
##mos
ciel
##ste
uw
dessa
mal
far
genom
himmel
alles
much
ware
sade
amor
terre
li
senza
also
gott
mientras
vid
##k
ner
bij
amour
questa
seinen
amore
car
zodat
mentre
down
hemel
ohne
poco
quello
##nte
dos
liefde
into
antes
tierra
uber
ogen
zonder
##m
augen
eftersom
jamais
moment
tua
ut
way
zij
yeux
grote
sol
lei
##si
allora
hasta
immer
ora
without
our
sedan
ver
cada
luz
noi
such
avant
ur
quien
eyes
kunde
meinen
ojos
apres
ceux
etaient
vision
##is
##ung
gud
light
tutti
sei
parole
quelle
##us
know
nagon
still
##g
aveva
encore
##ba
konnte
away
divina
goed
good
sulla
zum
##heid
bin
place
quanto
##den
##ken
lumiere
peut
been
gick
##ge
##ie
despues
esa
due
##an
occhi
alto
diesem
ord
palabras
##ade
wer
woorden
words
cosa
even
lugar
mundo
wahrend
keine
poiche
tra
sehr
sera
tutto
hast
jetzt
angst
auch
dopo
heilige
after
deras
ellos
gora
luce
faire
unter
bis
forsta
time
wurden
##sa
first
hand
altri
puede
etais
satt
ed
euch
gor
onder
##vo
could
voir
make
about
delle
heaven
these
tres
viel
made
##nde
nunca
##so
esto
otros
came
sagen
turned
##vano
estas
aarde
ihren
tuo
fosse
go
nagot
##ble
sobre
cela
earth
ta
aldrig
avez
long
ziel
##ige
tva
twee
two
water
altra
ames
mente
##li
anche
nooit
mensen
almas
desde
did
never
souls
donne
erde
sjalv
zielen
himlen
onze
gaan
kon
##f
blick
punkt
quale
tre
anime
##al
##mi
ad
jeder
seelen
stato
vidi
doen
donc
hai
nur
##cion
erano
homme
kwam
ogon
venus
##sse
every
jorden
leurs
nie
werde
mismo
momento
na
sitt
ska
grace
look
menschen
ditt
visto
bara
people
soleil
avoir
eux
notre
terwijl
sole
deine
ame
vez
alli
soul
bort
puo
seele
veel
##in
alma
aux
tempo
##lich
wereld
##ng
##ns
welt
only
face
hombre
ingen
tiempo
damit
seiner
dall
deja
cause
alleen
camino
gar
luego
##ren
esprit
##ur
##zione
aussi
land
mondo
while
world
##das
bli
diesen
guide
laat
vom
##ri
ljus
sguardo
comment
finns
moet
tale
##het
anima
##at
fortfarande
goddelijke
nature
bene
berg
borjade
vita
##io
bent
nell
ook
stor
##are
grund
leven
allt
annan
karlek
vande
##gen
##mo
air
lange
maria
femme
suoi
vrouw
jusqu
leben
sun
pronto
frau
avais
ca
manera
toujours
gjorde
just
seinem
tell
well
##ve
desire
padre
##tion
back
pourquoi
say
verlangen
afin
daar
dentro
hart
selbst
worte
##ci
re
vilken
##ant
any
innan
vie
##co
grand
plaats
zon
##kt
##ning
gente
manga
macht
varje
sonne
vos
each
hecho
manier
##ca
gibt
##che
hay
miei
went
degenen
ville
##ts
fui
gehen
temps
##ait
bist
commence
maste
voi
another
fois
begon
blev
hebt
others
sarebbe
zullen
dess
fatto
hizo
kunnen
nosotros
zeit
sue
punt
soit
why
beaucoup
eerste
peu
take
tenia
todavia
weet
##ga
##rar
deseo
komen
toute
woman
##ert
christ
dag
goede
medan
through
##rna
colui
pendant
sido
tussen
va
vem
fin
many
molto
sea
vista
dort
gia
steeds
##ado
ge
haut
konnen
soon
##rono
etes
vet
aven
gut
does
sjalar
tijd
geest
lehrer
little
otra
##os
estan
grosse
langre
person
dina
val
varlden
##p
vida
donna
gingen
give
manniskor
terug
tog
##dos
##za
tant
kam
lado
teacher
wind
chose
dieses
dont
leraar
maitre
voordat
willen
##cia
##ire
alsof
seemed
##igen
##ion
cote
cristo
desiderio
looked
meinem
sara
##ent
fick
skall
##u
desir
ort
paroles
sous
weise
estoy
etwas
mujer
nachdem
net
siempre
tun
##ni
around
fast
too
uomo
##liga
geboren
hanno
seite
##sen
brillante
darfor
mucho
##que
dije
hacer
luogo
parler
redan
toi
waarom
causa
elke
iedereen
laten
let
saga
sotto
usted
##nen
degene
full
kant
snel
think
tiene
todas
degli
didn
tror
##ir
beiden
force
komma
right
##c
already
fuera
mellan
wanneer
warum
zwischen
##h
between
nada
schien
sempre
ve
vedere
fort
name
tillbaka
ton
##or
iets
leek
began
bevor
ihrer
personne
put
same
zeggen
gezicht
life
regarde
##cht
zur
cet
guido
left
meiner
wissen
jij
muy
sang
zelfs
zichzelf
durante
may
primo
reden
viene
##les
horen
san
toutes
guds
vag
varfor
very
##gt
##rsi
eines
iemand
nombre
persona
holy
langs
mann
##ure
gute
hace
ll
bajo
keek
visage
##ue
##ux
anders
christus
eso
triste
veux
wieder
wirst
##ai
avons
cuore
##ient
peur
saint
##ato
##el
##vi
devant
geist
staat
svarade
toe
##lig
corps
ero
himself
altijd
bon
decir
heard
ob
pijn
side
stesso
sul
traves
appena
aun
cual
hatten
komt
lat
proprio
stora
##rt
fino
gav
heiligen
lungo
regard
sjal
##ez
ainsi
altre
beide
gesicht
heart
rien
toda
via
##ad
fare
liv
mie
plats
schnell
trop
tus
both
chemin
corazon
gegen
kraft
##ka
chaque
santo
situation
viele
##ch
##ja
##ma
##tes
denen
gens
geven
##ono
mano
monte
sage
snart
tourne
mind
part
tranen
##ter
bas
gave
get
pense
serait
##ada
high
solen
##ck
##len
being
blik
gaat
miedo
natur
niemand
nom
samma
santa
##eren
heliga
hell
vilket
grossen
tete
voix
autour
dis
frame
hablar
nor
since
sommes
##mmo
endroit
form
gij
mirada
queste
sadan
saker
schon
seria
tala
##ando
fece
gab
nichts
noble
took
until
attention
contre
myself
niets
questi
sager
sorte
aquellos
beautiful
contra
igen
moins
pain
semblait
vilja
##des
##ron
essa
namen
onskan
ziet
alltid
dingen
geben
menos
possible
verkade
##ura
##zza
always
gottes
loin
maken
quell
tutte
unsere
verder
##era
##ido
##ty
body
gladje
kunt
must
speak
troppo
voluntad
wegen
##los
begann
intense
volonte
zwei
corpo
different
egli
freude
hoofd
zoveel
zuruck
##ande
achter
alrededor
aver
cuerpo
dein
eau
everyone
ger
wilde
dia
gezien
handen
justice
naam
nostra
trois
##iga
##ke
acqua
alta
demande
dies
drie
kommen
nei
possa
quelqu
tellement
three
##zioni
antwortete
cabeza
parecia
rio
should
##dad
##erd
##lichen
##rade
##rmi
ansikte
cerca
cosas
demasiado
estaban
gesagt
parlare
understand
##di
##igt
annat
dante
fear
gesehen
lichaam
machen
nacht
runt
##der
##v
agua
antwoordde
elk
hel
infatti
lang
mort
tag
##lijk
##ons
##rte
diejenigen
dolor
lite
montagne
river
sobald
soy
voz
##bile
among
bei
chacun
gaf
hela
maniere
nun
sta
tid
told
##bar
##nza
armen
blir
fils
parle
things
tittade
vreugde
zie
zodra
aller
dalle
genade
hubiera
ihrem
nome
pouvez
sino
sprach
zult
##ras
##rse
aucun
engel
evil
florence
mountain
rapidamente
st
##rlo
##ted
##ze
anything
deinen
gaze
insieme
intorno
joie
jupiter
larare
piedi
sen
visade
##ite
##men
against
alguien
annu
avevo
day
human
last
nuestra
sweet
voce
wollte
##heit
##pen
ah
attraverso
beneden
choses
forma
head
raison
rispose
seen
semble
tambien
wenig
##liche
##tte
af
allen
bad
damned
direction
douleur
flamme
hijo
joy
mannen
misma
sembrava
telle
ty
##ging
##go
##nce
##ria
affection
dolce
enfer
steg
stimme
veces
virtu
whom
##be
##ita
##rs
goda
laquelle
nuestro
podia
reste
stand
volonta
##je
contro
infierno
intellect
master
meester
pere
rivier
verloren
again
algo
boden
gudomliga
image
kopf
lucht
oben
top
wasser
wilt
##nd
##ness
##tta
alegria
cara
comenzo
ene
eres
hjarta
horde
oude
po
pris
sondern
wunsch
##ens
bland
born
fiume
fueron
ii
kein
kijk
moeten
mots
otras
porte
quiero
razon
vol
volta
##ft
##ligt
##ven
ander
bada
daarom
guida
inizio
kommt
kracht
moved
parmi
sordello
##nti
father
horizon
kvinna
nuevo
persone
stad
star
stem
voice
##sten
alas
cose
male
mira
position
tutta
vagen
weit
##x
allemaal
dezelfde
dissi
drei
eran
esas
hadden
horte
keinen
langt
montana
peux
verdad
weiss
zoon
cannot
dietro
geloof
glauben
mindre
question
schuld
tro
##mento
angel
arno
arriba
blessed
elkaar
eterna
madre
passage
rapido
snabbt
##chen
##ful
aucune
behind
davanti
denk
fanns
indem
keep
leiden
meno
natura
naturaleza
reason
spirit
trots
tue
##rti
avaient
cirkel
ersten
jou
kande
stessa
weten
##ata
##lle
along
art
dulce
gioia
gottliche
holle
quelque
return
sett
sure
tandis
veta
zeker
##lar
##ling
affetto
aspetto
creo
divino
doesn
estos
front
incluso
kind
korper
muss
nadat
oro
pracht
some
spreken
tienes
##ive
##ry
figlio
giorno
gnade
grandes
hennes
maakt
new
precis
rome
sinne
vader
##ting
ask
creature
forte
liet
lijkt
ljuset
luft
montre
namn
nostro
own
qualcuno
sidan
varit
zeg
cuenta
detto
lejos
lied
malabocia
paura
porta
quelli
sohn
stata
testa
thought
trouve
vue
##ate
##ls
##zen
col
dolore
elles
espiritu
finche
fire
help
inferno
mezelf
nessuno
puedes
samen
spirito
tar
vais
vater
virtue
vroeg
##lt
battre
derriere
dood
entendu
feu
fine
fuerza
kanner
virtud
volte
##ban
##ies
asked
dai
eternal
fact
hora
largo
longer
maakte
nulla
parece
passe
rost
schaute
seulement
##pa
aire
aria
fondo
forza
framfor
fuego
guarda
jour
makes
mejor
most
ninguna
show
verkar
vertu
vinden
##nos
##pe
dark
else
estar
nara
ormai
respondio
senti
something
visa
wees
##tto
boven
debe
heller
lost
mens
nad
ocksa
open
premier
tills
vino
wanted
answered
avere
bonne
denken
everything
guia
halla
herz
hope
houden
jesus
lassen
morte
nadie
ooit
path
saying
sprechen
##iert
##res
bron
end
ever
lete
professeur
quieres
smarta
wandte
##cio
##ida
abajo
aunque
bakom
gemacht
hoge
puedo
seul
##rai
##rent
##ssi
believe
furono
grave
lika
tugend
verite
beratta
eeuwige
fram
immediately
inmediatamente
partie
sicher
sky
sofort
source
stod
tat
##est
begrijpen
carro
eigen
gemaakt
grond
hinter
kannst
meister
nam
present
similar
someone
deel
destino
gracia
immediatement
puisse
sola
tanta
tengo
valsignade
waarheid
##aient
##ine
##lla
citta
donner
fraga
kwamen
lieu
paso
presente
qualcosa
quickly
stelle
vanwege
vivo
vuur
##ais
##ende
belle
better
denkt
detras
find
fuoco
gebracht
geht
observe
primero
siete
strada
together
truth
turn
venir
verstehen
wahrheit
berget
bewegen
canto
deugd
dinge
esso
fiore
gottlichen
grazia
guten
hit
less
ningun
obwohl
rose
sollte
storre
suelo
vele
weiter
##erna
##ker
##lijke
##nas
able
ali
holl
jemand
juste
karleken
led
lijden
ognuno
riep
totdat
volto
weniger
##sche
ende
facon
gjort
hele
pad
poder
podria
sprak
stond
verita
vragen
attenzione
celeste
dites
forst
ground
hoorde
nieuwe
old
veut
volvio
##b
##tie
arrive
bellacoglienza
bitte
essi
grad
helt
lasst
muerte
onda
sembra
therefore
verborgen
voyez
##ht
arm
arme
castigo
circle
cuanto
deep
fall
figure
final
found
looking
marken
mille
pouvais
ratt
ten
times
vertel
waarin
##cken
##ll
##ner
##tt
##uto
##w
cercle
felt
gedachten
groot
itself
later
melodie
nemen
noche
sopra
teil
tombe
vedi
zouden
zusammen
##ld
##zo
arco
become
beetje
beter
celle
death
dice
doet
eterno
feel
haller
kropp
mayor
moge
pres
queria
ragione
scheint
simile
tuoi
voelde
##bare
coloro
floden
flower
grado
jede
llama
mars
memoria
nouveau
quindi
respect
rief
riviere
travers
##ieren
aime
bild
draaide
duidelijk
geweest
ira
laisse
machte
peter
pieds
pietro
rispetto
valle
yet
##ale
##ers
##gar
##hen
avesse
bang
delante
fuerte
fuori
halten
minder
natuur
once
pueda
themselves
thou
venu
verschillende
vrede
welke
##ger
##sion
answer
basso
blivit
bocca
buon
cualquier
dela
diciendo
eu
haber
habian
huvudet
mar
personas
sjalva
song
towards
vackra
vraag
wij
zuerst
##idad
##less
##llo
##rme
##ses
##ut
anderes
bereits
buen
circulo
debido
kvinnan
laatste
liess
mest
oltre
pena
tillsammans
true
vier
##able
##ben
##ern
##rio
change
comes
cruel
daruber
doux
follow
icke
jeden
kamen
kijken
lever
mire
mostro
nahe
night
peche
pesar
pies
prachtige
primer
rede
rond
schatten
verlassen
vilka
vite
voglio
##ito
##rad
bereit
ciudad
color
dygd
eerst
fluss
folgen
hommes
leve
meest
nagra
percio
saber
tel
titta
toward
weer
##arna
##ction
##ian
##use
alcun
combien
cree
ganger
grandi
grosser
heer
hermosa
hombres
menselijke
minos
nodig
nuit
olika
ombre
schmerz
voeten
vostra
worten
##gne
##ungen
besser
bringen
certo
city
error
erste
feet
foi
gang
hard
ir
jardin
main
mieux
mond
nothing
order
pecado
pouvait
sjalen
straf
tienen
varandra
vatten
whose
zee
zeer
##ces
##end
##gli
##ute
became
dazu
fama
flor
fronte
glaube
grazie
hield
idea
mobile
nelle
nessun
peccato
premiere
pueden
sad
spiegel
stadt
tener
vars
vient
##chi
##he
##id
##led
##ran
##tti
arte
bras
colere
esos
essence
estrellas
etoiles
fe
fede
feuer
fleur
gamla
hands
inget
kunna
luften
muchos
nagonsin
nahm
quiere
sterren
stort
subito
tears
unten
yourself
##keit
##ska
alcuna
appearance
bra
brought
cerchio
faith
foljde
gods
justicia
kwaad
langer
lequel
llevo
lyssna
mag
mussen
praten
presence
puisque
sagt
stars
strafe
syn
ustedes
vertellen
##baar
##ement
##ische
##pt
##um
atencion
bald
blijven
coming
comprendre
desideri
figura
genau
geworden
hoop
interieur
manos
pace
partir
repondu
visible
wings
##ds
##mer
##nes
##vole
avrebbe
called
celestial
daran
deed
enda
enige
faccia
fragen
fuhrer
greater
hear
helvetet
herre
houdt
larmes
lot
remember
roca
sapere
seines
sight
talar
though
tyst
uomini
vart
voulez
wagen
##lse
ailes
aurait
bereiken
bloem
bright
embargo
forse
garde
klaar
lacrime
lagrimas
lucifer
need
notte
power
straff
universum
visar
zonde
##bt
##jo
##nar
##rn
above
aide
ante
bewegt
buena
dame
distance
dunque
eleve
geeft
heureux
hoga
kleine
kort
longtemps
mains
mantel
mochte
os
rock
stark
tuttavia
wiens
willst
wollen
##ee
##ete
##las
##ques
##sti
ambos
created
creatures
demas
drehte
fragade
fragte
fruit
giustizia
ja
kunst
misschien
mojligt
move
muchas
pierre
pousse
richtung
savoir
sida
soyez
terrible
vertelde
viso
vleugels
##ante
##gna
##ide
##tare
blume
brengen
dacht
deiner
doden
einde
forme
gezegende
hemelse
hohen
idee
keer
lag
mani
oscuro
regarder
roma
seid
ultimo
vent
##am
##bre
##erde
##ica
abord
andare
bar
besoin
bosen
branches
cantando
deve
dichter
doit
entrambi
expression
gedanken
going
gonna
kanske
kreis
malabocca
misericordia
mur
ponte
posible
quei
rapidement
ror
sainte
sais
volgen
##ckt
##endo
##iska
##om
##op
alone
apparence
beni
bondad
borde
continue
depuis
difficile
eviga
fame
favor
followed
gerechtigkeit
getroffen
gras
hielt
intellekt
leave
manniskan
nehmen
orden
seems
sehe
senor
solche
suffering
synd
tiden
tur
universo
vas
vattnet
verdammten
vielleicht
word
##bbe
##ere
##ges
##ischen
##schen
##ver
abbia
adesso
anyone
appeared
bor
dachte
eerder
esprits
gedaan
gudomlig
habria
jezelf
mooie
necessary
ombra
peuvent
pie
plant
presto
radd
regen
regno
rostro
siamo
signore
sista
stop
sunde
verlaten
visione
vois
wendde
werk
##ct
##il
##man
##tas
alive
ande
apariencia
bleiben
blood
cancion
clear
conduit
couldn
dessen
forese
ganze
honor
mercy
mogelijk
pouvoir
sangre
sangue
second
seule
stellen
stil
svar
tidigare
waarvan
wise
work
zeigen
##ciones
##ico
##land
##tet
##urs
allein
arms
avevano
beyond
binnen
bonte
dessus
desto
ena
erreichen
familie
fille
fordomda
gegeben
gerechtigheid
horrible
persoon
plek
possibile
posto
prata
primera
repondit
route
sadant
secondo
talade
tod
verstand
volledig
voller
##age
##ier
##jes
##ler
##nis
##ous
dank
deinem
eigenen
erg
frappe
hander
lysande
naturen
nya
region
reino
rest
seem
trodde
vanaf
vicino
voici
vuole
##bo
##ity
##j
##kte
##ments
##rat
##sch
##ss
alte
ber
colpa
dannati
enorme
ervoor
fais
fra
gids
gracias
haute
mare
mensch
mirando
near
opinion
resistance
stood
vallen
vast
visste
zoete
##amo
##ice
affinche
bientot
cima
dato
diepe
dime
einige
finden
folja
grito
herzen
ieder
intelligence
invece
klar
koninkrijk
lararen
listen
luna
moglich
punishment
royaume
sens
sieh
vare
vide
viento
##igkeit
##imo
##rait
##sta
aquel
autant
certain
dare
delen
fossero
fuhlte
geesten
havet
hoger
hort
humana
inside
kingdom
lieve
mala
medida
molte
nino
prendre
puoi
recht
showed
utseende
wants
##iez
##ningen
##ring
##uta
ait
antwoord
benen
berattade
bloed
confiance
corona
damnes
diferente
faites
ganzen
got
himmelska
huilen
intensa
jeune
junto
kanna
kristus
leva
lord
mere
necessario
nuovo
onmiddellijk
posso
rand
ready
selon
silencio
sombre
stava
vento
vio
vond
wall
weinig
won
##ados
##ati
##lie
##th
anderer
bridge
buona
cammino
casa
darauf
erreur
estado
limite
maggiore
miro
pasos
perdu
principio
puente
puerta
singing
sjalarna
started
superior
tack
unser
vogel
vuelta
##gi
anger
aspect
avessi
bruder
completamente
credo
dagen
ervan
esperanza
existence
flame
frere
gewesen
having
honte
jouw
kanten
keren
pont
propre
sabiduria
sagesse
seigneur
solchen
state
used
vaak
veo
vis
weisheit
wisdom
agli
aussehen
bella
brillantes
bring
brug
davon
droite
entender
forstar
fusse
gauche
hjalp
hoewel
humaine
intensiv
kennen
lidande
lights
links
lyser
materia
mesure
mortal
nonostante
omedelbart
quali
reached
redo
salire
sanningen
sieht
speranza
steps
volk
voulait
waardoor
wijsheid
young
##erte
##ique
##iva
##mt
anjou
blijft
disant
douce
etoile
feite
fiel
gehort
gloria
ihag
indietro
infor
jedem
kommit
meglio
molti
monter
necessaire
papa
paradis
paradiso
peso
pitch
regardez
shining
sombra
stati
taken
tarde
toppen
umana
volvi
vuelve
wert
white
##em
##ins
##oso
##red
##ser
afecto
beeld
centro
culpa
desires
dicendo
emot
ensam
gleichen
ifran
imagen
konnten
lamnade
live
memory
morka
parti
paz
pensez
red
richting
rom
schaduw
sentii
shadow
siano
strength
thomas
verbaasd
weder
women
##ente
##osa
atteindre
atteint
brucke
carefully
dog
ebbe
estrella
fallen
fiamma
foljer
frente
hogt
hunger
kalla
lage
luces
mary
medio
mil
moeder
mother
mutter
paradise
passo
petto
rayo
respuesta
splendore
talk
verguenza
##ation
##ats
##ava
##nade
##nda
##rla
##tar
##ves
aandacht
adam
animal
base
beati
blicken
ciascuno
direccion
eure
fell
foddes
fossi
genoeg
gold
hande
happy
hoffnung
hos
however
immagine
intention
lumieres
neither
note
oft
origine
paix
peace
pecho
radsla
reponse
schonen
sent
serpent
sufrimiento
ultima
vacker
vlam
zegt
##nare
##sant
##ssen
##tions
afraid
ancient
anos
band
bracht
caused
chariot
constellation
descendre
diferentes
donkere
ecco
ens
fel
forvanad
fotter
frage
genegenheid
given
heen
himmels
hor
italia
italie
mee
offer
paraiso
pared
plaisir
please
rendu
risposta
roccia
sale
seguro
siena
souvent
tarar
tittar
vingar
vostro
within
zeigte
##ano
##cer
##chten
##cke
##gang
##ille
##pi
ab
alberto
alten
angels
avanti
beaute
beauty
bell
bestia
bogen
boog
bosque
buiten
cornice
doe
estuviera
fortsatte
fout
geluid
guerra
hohe
jedes
lichten
llegar
mujeres
necesario
opposite
paradijs
piacere
possono
ropade
rosa
rots
schonheit
schoonheid
seeing
shame
skada
struck
thousand
tomo
valor
ventre
verlicht
vrouwen
wesen
years
zuneigung
##fe
##gio
##hnt
##iendo
##ino
##kar
##kommen
##ront
##tra
attitude
avrei
behover
bellezza
blomman
bortom
bose
brazos
brust
compris
condenados
condition
doubt
eens
entlang
femmes
fortuna
francis
frauen
geld
gewicht
glad
heavenly
igual
jason
kennis
kijkt
knowledge
manskliga
melodia
pier
poor
propria
sabio
sofferenza
ster
sterne
tochter
upon
verscheen
waaruit
wist
zweifel
##adas
##cido
##mes
##nato
##ningar
##rado
anni
ayuda
begar
belleza
bitter
capaz
caridad
casi
cortesia
dano
dejo
destra
doute
einmal
engelen
espiritus
fing
leute
libre
marco
motivo
nodvandigt
ondanks
parecio
poitrine
profonde
puso
resa
rorde
saranno
seguito
spiriti
spirits
teufel
thanks
tree
welche
zeichen
##ingen
##ln
##nant
##ont
##per
action
ami
amo
bijna
blod
borst
botten
cependant
courage
dannato
daughter
despite
deur
direzione
erschien
ewigen
fest
figlia
fut
gericht
getan
giusto
goedheid
harmonie
herr
kvar
lichter
llena
lontano
matter
meines
omkring
passi
pourrait
questions
reis
seront
siehst
sound
stazio
step
stopped
surface
tiefen
understood
voyage
worthy
zorgen
##ak
##lmente
##uer
actions
ausdruck
beobachten
blut
braccia
campo
carne
cotes
derecha
dimmi
djup
enough
erinnerung
escuchar
fehler
further
geef
geluk
inevitable
intenso
jaar
knew
known
limbo
lleno
luci
malgre
numero
opdat
parola
produit
rad
soient
staan
statius
stralen
sull
trova
vanda
winter
zuvor
##rate
##uti
alskar
bewegte
cambio
chance
charles
conocimiento
dankzij
demander
derjenige
deshalb
dochter
duda
eden
ensuite
eternelle
etions
flugel
foll
fond
free
gegeven
gekommen
gluck
hija
jemals
juiste
levande
pale
pieta
potrebbe
pret
pure
reach
remained
saints
strong
superficie
tard
tusen
vero
viaje
vindt
voy
zorg
##ero
##ina
##ions
##kken
##lio
##nto
##rer
##sk
##tato
anges
aparecio
atervander
bat
boot
brille
cache
caesar
cried
debajo
direkt
discours
earthly
ello
entendre
errore
extreme
fly
fuente
goes
goodness
kept
legs
lentamente
luisteren
misstag
notwendig
nuestros
off
ogonen
produce
pu
rechts
replied
silence
sommet
stern
torre
tweede
vander
vede
vedo
ves
violence
woede
woord
zul
##azione
##bles
##ccia
##elijke
##kade
##komt
##ks
##lighet
##nta
##uren
allez
angeles
angeli
antwort
bestraft
bilden
chiunque
done
droit
except
felsen
fuhrte
gusta
hou
intelletto
kunskap
langsam
midden
mouth
muur
nourriture
omhoog
palabra
prendere
reflected
regardant
silent
slechte
sois
stay
tes
tevreden
thing
toscana
venne
vit
wacht
##cha
##glio
##lde
##nden
##po
##rande
##tro
##ul
act
alguna
almost
arrived
bank
barn
bestaan
bouche
breve
capo
derde
digne
esplendor
feliz
guter
hidden
himmlischen
immediatamente
interno
izquierda
lamna
leuk
luminoso
nastan
opened
oscura
paar
pensamientos
porto
quasi
real
remarque
richtig
sasom
spijt
susse
sussen
tankar
tanker
third
ufer
valt
ven
vuoi
walked
weinen
wolf
##iere
##ncia
##ndosi
##net
##uro
ausser
bereikt
boca
bodem
carita
charite
charity
close
descend
deseos
encontrar
encuentra
falsenbian
forest
foret
fortune
four
godhet
graag
grat
italien
jambes
langue
levanto
llamas
menschliche
nessuna
ofta
parete
pensees
poeta
prakt
purgatorio
quienes
rug
sand
schritt
short
sinistra
slog
slutet
solens
stannade
styrka
sujet
thoughts
tillgivenhet
timore
tormento
turning
uppmarksamhet
vanster
whole
zeide
zonden
##ades
##alt
##ans
##ek
##king
##rato
##sas
amigo
ange
arc
arrives
atervanda
aufmerksamkeit
aura
barco
begin
berges
blij
bonta
borta
bringt
brother
chiesa
church
compte
correcto
court
devenu
dico
divin
dotter
egen
eglise
ensemble
fai
glucklich
guardare
heldere
hermano
iglesia
ins
intelecto
konden
lingua
marie
miserable
muse
noga
nostri
orilla
piernas
prego
pregunta
profondo
rattvisa
religion
sabe
sant
schone
slut
sonido
splendeur
splendor
spoke
stap
thee
tornare
viaggio
vlammen
voorbij
vorm
vrai
zingen
##ccion
##elt
##gaan
##glia
##ic
##ile
##ned
##nno
##ntes
##one
##tus
according
armee
avete
barbariccia
begonnen
bleef
bottom
clairement
colore
connaissance
corrado
darum
digo
dite
donati
elden
erreicht
firenze
hablo
hacerlo
held
herum
hoch
ibland
journey
justo
kerk
making
marche
menudo
mezzo
monster
musst
natten
often
oi
pensieri
petit
piccarda
plait
qual
quatre
raggi
rayons
rayos
reise
ricordo
sarei
stranden
tour
trotz
ugolino
unico
viva
vive
vorher
werdet
##igd
##jas
##nts
##rd
aardse
aiuto
amico
angelo
aurais
bete
bleibt
blind
borjan
certains
cirkeln
clearly
conoscenza
devez
devi
diede
differente
dod
dragen
erfullt
food
frieden
friend
gatt
gekomen
giu
grenzen
hacen
halt
helder
hierher
hilfe
hoeveel
humble
intens
kirche
leidde
lento
liefdadigheid
maldito
malebranche
neuen
peches
placer
plein
potere
rays
sabia
schaden
sentir
sentire
set
signe
sigue
sins
skogen
solange
stanna
stella
suivre
sulle
supreme
svara
talking
tono
troisieme
tvivel
unto
valley
varken
vecchio
vore
weisst
wort
zustand
##ber
##bili
##elijk
##gare
##lare
##ose
##sce
##shed
##vio
appele
arbeit
argent
bos
course
dado
dalen
deren
describe
desidera
devrait
dirige
dovrebbe
dubbio
duizend
dunklen
entfernt
forde
gift
hair
helpen
hopp
lade
large
leid
lieben
listening
lycka
milieu
neemt
noticed
oracion
pecados
profundo
rechten
rucken
schande
seguir
seran
speaking
speech
sunden
suono
terrestre
tredje
tut
tycktes
tydligt
unserer
vain
vallee
vergogna
volgde
wangen
##acion
##bel
##dre
##gas
##gehen
##hnen
##iche
##ot
##zar
algunos
anda
ans
arrigo
attentivement
bonheur
brilla
castello
cheveux
cieli
conmigo
conto
dificil
falla
flames
flammes
folk
forced
fratello
gezegd
gezeigt
hals
helemaal
hitta
hob
hogre
hulp
inom
krijgen
laga
maak
maremma
merito
michele
mouvement
mund
nota
oscuridad
parecian
parla
pasado
pasar
pelo
petrus
platsen
pleasure
presque
puesto
regardais
retourne
rouge
sabes
satte
schijnt
sorg
sota
subir
teken
vantar
verschrikkelijke
vosotros
wonder
zolang
##ckte
##heden
##ias
##ible
##ise
##nad
##ol
##rci
##ties
##tiva
##tre
aangezien
agreable
approached
arrete
beau
capire
chest
claramente
couleur
crees
cuidado
dead
deberia
demon
desirs
drog
enea
energie
envy
eravamo
erleuchtet
farlo
fore
futuro
geloven
gelukkig
genast
gerade
giro
higher
inspiration
jerusalem
lato
leder
leidt
llegamos
lucca
minne
movimiento
nobile
nouvelle
passer
piensa
pleurer
propia
raggiungere
realized
reception
rocher
saggezza
schicksal
sign
situazione
souffrance
spesso
spread
storm
sueno
tankte
tonen
use
verandert
vielen
vind
wusste
zog
zufrieden
##ag
##au
##cca
##dia
##dra
##fen
##heten
##ivo
##ppe
##pte
##ule
abandonne
abbiamo
acuerdo
adelante
arbol
bord
cadre
cesse
comincio
during
envers
erscheinen
estabamos
faceva
faller
federico
flammen
folgte
font
freund
gehoord
geister
genug
gode
huvud
ihres
importe
insag
instead
john
joven
king
klang
korte
ladder
lady
ledde
manchmal
manner
mastare
material
memoire
miroir
moving
neem
observeren
osservare
percorso
prayer
priere
profonda
rend
sacred
situacion
souvenir
stallet
surpris
synder
tank
tijdens
tomar
value
venere
veranderde
verde
verket
voelen
voll
wald
wunsche
##aba
##anza
##gebracht
##gel
##hes
##hi
##iera
##if
##kel
##lant
##ps
##uit
ahnlich
alskade
argine
atras
behalve
bekend
benis
bologna
brillo
caso
chant
cuatro
delar
dello
desidero
died
ding
discurso
distancia
duro
eld
escape
excepto
fiamme
forut
fyra
gillar
hemisphere
hogsta
hosanna
influence
kleur
lascia
leaves
lijken
looks
mentor
moest
observer
oppnade
paradiset
parfois
passed
peine
personnes
peuple
piace
pied
punition
recuerdo
rendre
roi
sahen
schauen
schmerzen
seconda
senare
situatie
sjong
skonhet
slecht
sometimes
soms
stehen
stralar
tiefe
tomber
tragen
travail
twijfel
valeur
vecchia
verschijning
waarde
wish
##cka
##cted
##geht
##ieron
##iger
##kten
##loos
##lte
##menti
##sero
##ssero
##tura
albero
andar
ando
assez
bade
blieb
capacita
care
courtesy
covered
cross
debut
enkele
enleve
erhalten
erkannte
examine
experience
expert
following
forbannade
fuhren
fuhrt
genommen
hablando
hjalpa
hold
jene
jordiska
koning
lados
latt
letzten
levde
liten
livet
living
lucia
mauvais
meteen
narmade
next
nobles
ones
pensa
perdido
pistoia
plezier
profunda
rey
ritmo
seiten
smile
stappen
stiga
stige
tausend
tenait
tier
trouver
tyckte
vanuit
verdoemden
vervloekte
visie
wild
zicht
zuruckkehren
##cato
##ccio
##del
##else
##hrt
##ish
##kant
##nge
##rne
##stand
##zt
alba
arbre
auparavant
char
devotion
dicho
diep
differentes
difficult
dois
domanda
enligt
envie
erlaubt
espejo
express
famille
felicidad
figur
fleurs
florencia
florenz
fonte
forsvann
gebed
giovane
grido
groter
habt
hall
haya
helderheid
helfen
heute
hoog
impossible
jahre
klippan
langzaam
nachsten
naherte
natt
nave
ogonblick
ontvangen
passare
passion
pensando
perhaps
quelques
rapide
regel
sai
segui
sloeg
sprang
suficiente
surprised
tuviera
venez
volver
vriend
wijze
wouldn
##idos
##llt
##ms
##sam
##und
allo
ansiktet
avuto
berouw
beschreiben
beweging
big
bisogno
bladeren
boner
bow
brengt
celestes
chanson
convirtio
crois
daden
danno
darkness
deplace
dernier
duivel
encontre
entoure
etat
ewige
farbe
felice
forward
gabriel
garden
gebeden
gerichtet
gestraft
gevoel
horizonte
jaloezie
joined
lief
liksom
lumineux
lune
lyfte
mastaren
menschlichen
mirar
mirror
oggi
orizzonte
perfect
plusieurs
preghiera
proceed
providence
punished
quattro
rather
ray
regret
rende
riktning
rise
road
saggio
sagten
santi
serais
singen
spalle
stolz
stoppen
tecken
try
unseren
ursprung
vallei
valore
vandaan
vergelijkbaar
vertrouwen
viens
vii
voedsel
vollig
wrong
zitten
##cs
##ding
##ffen
##ici
##igheid
##lat
##lden
##ndose
##ranno
##rie
##ud
##ues
##zio
affermo
anymore
approche
arriere
bedekt
bergen
beskriva
bewegung
biens
boom
brillant
calme
couronne
devil
diable
duisternis
encima
erkennen
esencia
espada
espera
essentie
essenza
eternel
evigt
false
family
fann
few
fiesole
flores
france
francia
ganz
gevangen
gira
grata
green
haciendo
harifran
heel
johannes
ju
lead
llegado
llorando
mantua
mat
might
mist
moves
neue
nuestras
oppna
pensais
pensiero
pequeno
places
planet
planeten
planta
pluie
poet
poteva
prese
presencia
presenza
pudiera
raised
returned
rivolto
rora
ruhm
sauf
schaamte
shines
specchio
staden
sterk
stjarnor
svart
tales
tristes
trovare
unos
utropade
venire
veroorzaakt
verteld
voie
volgens
wand
werken
zagen
zowel
##bido
##cono
##dde
##ded
##dor
##ious
##miento
##ndet
##ngen
##par
##ppen
##skap
##ssent
##tive
##ual
##ures
##ust
allow
amable
amante
ancien
anteo
ara
area
bekannt
capable
chiron
cinq
coi
cold
costui
crazy
crying
dafur
destin
dicht
discorso
edge
einzige
endast
entrambe
espalda
falsenbiante
fatt
finger
five
florens
forklara
forlorade
gambe
geschapen
grotere
helaas
helvetets
hetzelfde
historia
hoy
hui
huis
hundred
infernal
intencion
kinder
kroppen
lass
leicht
liep
lifted
marke
miraba
montagna
mueve
muren
nachstenliebe
nombreuses
outside
pieno
prayers
preghiere
pregunto
pude
quoi
rain
realidad
rive
rivolse
sangen
sanna
schwer
segno
slow
solito
spreekt
stare
strahlen
tas
tourna
unica
varelse
verrez
visdom
voit
wille
zat
##care
##cchi
##dere
##dom
##eo
##ima
##ione
##isce
##ist
##md
##rant
##sos
##via
##ving
aanwezig
agradable
animo
apporte
beast
beschrijven
bewoog
bitten
broeder
brost
completely
creatura
criatura
culpabilite
distanza
echo
ecouter
enfants
erklaren
explain
falsch
fanno
flusses
foot
forstod
fruits
gelijk
gesegneten
gett
gleiche
gloire
goederen
goods
guilt
habla
handeln
hice
himmelen
jener
kinderen
konigreich
leende
lida
likt
lleva
magra
mine
mitte
mitten
montrer
mor
nadde
narvarande
offnete
oido
oraciones
osserva
paris
plutot
prieres
queen
resistenza
rester
roem
schiera
schip
shall
shine
silenzio
snalla
soll
suffer
suivi
takes
tanke
taten
terrenal
tillstand
toscane
tristesse
vanta
verursacht
voulais
vuelto
waiting
weeping
##aan
##ach
##aron
##ated
##dt
##ggia
##lung
##od
##ret
##sed
##sh
##tado
aguas
aujourd
baronia
beest
beweegt
blanco
bloemen
celesti
celestiales
claro
constance
cosicche
criaturas
cry
cuidadosamente
daarna
danach
danza
devient
diablo
diceva
diener
djupt
dorren
espoir
essen
exclaimed
fallt
familia
faro
felicita
flowers
forsoker
franchezza
fussen
garder
gebet
gefuhrt
gezegend
happiness
hundra
hymne
individuo
inuti
juntos
keerde
komm
kvinnor
leer
ligger
linea
lluvia
luminosa
malditos
manana
mise
moon
morgen
murs
nobele
ordine
ouvert
paradies
pass
portato
precious
pregunte
promise
punizione
remains
salir
satisfied
separe
simple
spitze
stjarna
symbol
takken
tempel
tenian
today
torn
trabajo
tristeza
tuin
tuvo
vedrai
venga
vieni
viljan
voet
wahr
wait
walk
zorn
##agt
##and
##chte
##cida
##eerd
##eten
##gado
##gue
##ighet
##kommt
##lia
##nait
##nken
##rare
##rei
##sar
##ture
##uen
##ult
##un
##zia
alichino
anchise
arezzo
armar
becomes
bienes
broder
brunetto
buoso
cesar
children
christi
cuyo
dijeron
divided
eagle
ecoute
espressione
fand
fano
farinata
fate
fatigue
feit
figuur
fiori
fit
fortsatta
garten
gefuhl
geh
genannt
gherardo
horn
immense
inga
ingenting
intensamente
judas
karlekens
lago
lavinia
lentement
naast
natural
nembrod
nojd
onore
pensee
piena
pioggia
plante
platon
potuto
proche
produced
pur
qualsiasi
qualunque
rahmen
ramas
rapport
rat
recuerda
reich
respekt
rinieri
rivolsi
rojo
romagna
sait
sarai
satta
schade
ship
siendo
siento
skapade
skrek
sorge
sowohl
sterben
surrounded
talmente
terror
terzo
uberrascht
uitdrukking
univers
universe
uttryck
uttrycka
vagnen
vandaag
velocemente
verkligen
verlangens
vientre
vivre
waarmee
warm
warten
witte
zelf
zit
##bia
##cata
##ciendo
##cing
##dig
##fs
##gde
##gno
##ien
##isk
##isse
##iti
##iv
##jer
##komst
##lier
##llen
##nado
##nata
##nate
##rli
##rto
##ster
##ua
##unt
abstinence
afstand
andras
ardiente
assis
bedeckt
blanc
cae
caro
chateau
comida
condemned
dagli
declare
decrire
dejar
djupa
draaien
drehen
empezo
erop
erschaffen
expresion
eye
faces
feeling
francesco
francheza
frei
future
geleden
geleid
gelooft
gentile
gesprochen
gives
grossem
indien
intensivt
jealousy
kristi
kust
leefde
levante
ljusa
lorsqu
loved
mauvaise
medea
membres
mening
mistake
moeilijk
musa
nello
nube
nueva
observar
observera
omger
oog
opende
ordre
partner
pflanze
pianta
posizione
pueblo
rachel
raggio
rijkdom
riva
sac
sache
satisfait
scendere
schlug
sidor
single
skuld
small
souffle
sourire
spreek
subject
umano
umgeben
verdriet
verser
volle
voorzichtig
walls
whoever
widerstand
##cen
##ei
##emos
##ene
##ened
##ening
##ese
##gesteld
##ggio
##gor
##iden
##ligen
##nia
##nung
##rada
##tat
##ude
##ui
##unde
##val
##var
##vt
abrio
acerca
acque
adige
age
alcune
armonia
bear
best
brachte
buik
castillo
cieux
cocito
completement
continuo
contrario
dear
echt
eer
empece
eruit
facile
facilmente
fem
firmament
flegeton
fleuve
gek
gelosia
geweld
gezichten
grands
handerna
herrn
hicieron
hojas
honneur
hoppas
horten
iniziai
klattra
knows
konig
leger
leken
llego
lopen
lower
lugares
maan
maison
makt
mark
marte
misericorde
oir
ojo
onskar
partes
pays
pece
pleine
poids
popolo
pray
quiconque
radda
ramen
rencontre
rijk
romeo
rorelse
rust
salio
salut
schienen
schrie
schritte
sed
seed
seguire
senal
sept
serpente
sette
seven
sides
six
sju
skam
stesse
stiger
stjarnorna
superiore
tanka
tatsache
traurigkeit
tunga
valgorenhet
varde
varelser
verdienste
verschiedenen
vivir
vliegen
vostri
wachten
watched
wealth
zeven
##achtige
##aten
##bi
##cco
##dd
##enen
##fie
##fullt
##ghet
##gia
##hlen
##ives
##komen
##med
##mmen
##nehmen
##recht
##rez
##rre
##tor
##uw
##zi
aanwezigheid
aeneas
aguila
alcuni
apri
ardente
argo
begreep
bernardo
berommelse
bestimmt
blumen
borjar
castle
certainement
chef
cibo
circles
circulos
cirkels
clair
colei
colpi
connaitre
consider
considere
contigo
creer
crudele
cura
damne
desciende
details
devoto
doloroso
echter
ehre
eifersucht
farg
framat
gedwongen
gerion
gross
herinnering
information
invidia
kasteel
kleinen
kyrkan
lacheln
lara
lie
liegt
llevar
loyal
luminosita
malebolge
narvaro
occhio
opera
orsaken
past
plotsligt
pose
positie
preso
profond
realta
risposi
ritorno
sadana
sarebbero
satisfy
scala
scheen
schepsel
segun
segundo
sembravano
sembro
severe
sieben
slechts
sleep
sorgen
sortir
spater
stai
sterblichen
stierf
testament
tipo
trok
velo
verse
visioen
voel
voler
vorsichtig
vrij
waardig
wrapped
##ah
##amente
##aren
##gd
##hren
##ioso
##kter
##lando
##lot
##nie
##ore
##pes
##ros
##sst
##tten
##uur
##vre
absicht
adla
aigle
antiguo
appear
aquila
arbete
aware
belly
blitz
brise
carry
celos
changed
chiaramente
ciacco
cinco
cola
committed
companeros
condizione
conocido
consejo
consequences
dance
decide
demonios
destination
destiny
diventa
diversi
dodliga
dunkelheit
eaux
ebbi
enter
envidia
erinnern
escucha
esistenza
esse
existenz
exterieur
falls
feci
ferme
feuilles
fianco
fraude
gegangen
gewalt
griffin
habitude
happened
heilig
hermoso
hin
hog
horizont
houding
kallas
kronen
lengua
letzte
limites
lived
ljudet
llegue
lyssnar
marcher
menge
mettre
naring
necesidad
noodzakelijk
nuova
oportunidad
painful
pantano
pedro
pensamiento
plaatsen
pone
renommee
resistencia
revenir
rosso
sacre
sadness
sante
schlange
schreeuwen
serpiente
siehe
silver
siquiera
slang
sorriso
staart
steht
straight
svartsjuka
tali
tenga
terreno
tief
tours
tower
tristezza
trouw
uur
vanligt
vengeance
walking
waters
weight
wet
zeiden
zwaard
##akt
##ara
##ard
##egen
##eron
##imos
##jn
##lado
##losen
##mal
##ndomi
##ror
##tore
##uch
##ws
abismo
aider
allem
alsjeblieft
amene
anledning
apropiado
arrivato
bauch
boze
call
carried
compared
coule
crown
cuello
demons
derniere
doing
drar
entrar
erstaunt
eten
evidente
evitar
existencia
fader
faktum
famiglia
figuren
fler
fliegen
foglie
forblir
fortsatter
genomen
geschaffen
giardino
girando
haces
haga
heure
humain
individu
kansla
killed
lamnar
ledsen
lightning
lorsque
luminosite
maniera
materie
matin
messo
morir
morning
motsatta
movimento
naher
namnet
nat
navire
neben
nostre
object
ognuna
oiseau
parlait
placed
plan
pleasant
poter
praise
ratta
read
realise
retourner
rike
robe
ruimte
santos
schiff
schreien
sean
sees
sentiment
shore
soif
sonrisa
sorgliga
spada
spazio
stannar
stenen
sterven
sto
suffered
sui
tegenovergestelde
thick
torment
tourner
trae
uiterlijk
veranderen
verdrietig
vernunft
verwandelt
verzet
volgende
volgt
wurdest
##anse
##ants
##bly
##cado
##can
##dita
##entes
##eve
##full
##halt
##houden
##ini
##isch
##itet
##lita
##losa
##nga
##ped
##pre
##rera
##ries
##tad
##tico
##tos
##ume
##zed
##zing
adelaar
admire
angry
ansikten
aspekt
autor
bemerkte
cayo
coda
connu
cou
crie
daher
dejado
dido
direct
djavulen
djur
entro
epee
faisant
finner
fixed
folle
foten
frid
fruto
gefunden
gesproken
gesto
gets
gewonnen
giusta
grass
grosses
guides
halte
helige
herbe
hierba
horisonten
hubieran
humano
iacopo
kara
lagen
law
leaving
lebens
leda
libro
log
lose
madonna
ninguno
onskningar
opposta
original
parlando
passaggio
peccati
piangere
plotseling
posicion
precede
prison
queue
quitte
rayon
reso
riguardo
rocky
ryggen
rythme
sakert
schijnen
schloss
senso
sentence
sento
silencieux
sinn
slaap
slowly
sommige
sonst
stavo
stopte
sword
tema
traurig
uberwaltigt
utom
vaggen
veloce
veras
verses
versi
visages
volando
volo
warst
weissen
westen
wunder
zeigt
##ales
##cher
##cle
##fall
##fulla
##gte
##ieux
##ira
##jan
##kta
##mma
##mment
##nnen
##nze
##pito
##rde
##ringen
##une
##zze
aantal
absolut
accanto
ahime
alska
apparve
ardor
atervande
attentamente
auteur
avoid
azioni
barmherzigkeit
begleitet
beste
binnenkort
boos
bueno
calor
cas
cent
certainly
chaleur
comfort
cut
daarvan
danger
danse
devoted
diverse
doda
dorst
europa
fahigkeit
falso
finnas
forklarade
fretta
frukt
frutto
gathered
gebied
geistes
geschenk
geste
glaubt
glimlach
golpeo
guardando
guardo
gusto
hambre
hide
hinaus
hjartat
hoher
hoogte
iii
joan
judgment
jugement
lavoro
lust
lying
manto
miserables
mismos
money
mude
neck
neer
obscurite
ode
offered
orgullo
piuttosto
plotzlich
podemos
pride
proceder
promesse
prova
pushed
ran
reflektiert
resultado
rode
semblable
sentido
separated
seres
serve
shown
snabb
sorti
starb
tagit
thebes
thinking
thus
tillfredsstalla
tillrackligt
ting
toespraak
tongue
tormenta
treffen
trust
usually
vardig
vedevo
venerable
vertrauen
verzen
vidare
vivant
vivere
vlees
voorhoofd
waarvoor
wicked
zeggende
zunge
##alen
##ance
##baren
##cker
##cto
##ede
##eld
##elen
##ets
##gga
##hl
##iamo
##ich
##ioni
##lag
##lichkeit
##lidad
##ny
##ord
##ration
##ssimo
##sto
##tig
##unden
##zado
ahi
algunas
alimento
ama
amazed
ascoltare
assurez
attire
auge
avrai
bajar
baron
beginning
begrepen
beine
beobachtete
betrachten
bewogen
blijf
bowed
burning
caer
cerberus
cercles
chasse
collo
confronti
consequent
constelacion
control
costellazione
croix
deben
demonio
devo
dienen
dikke
dimension
dinero
distingue
divise
doel
donker
draait
echelle
ecria
ecrit
einander
energia
entra
erfullen
erin
erscheint
espacio
estaria
exempel
faim
filled
findet
flyttade
fruktan
fueran
gammal
garningar
gesegnet
gipfel
glory
hare
hinder
hoogste
host
immobile
interior
italy
klettern
klimmen
kostbare
kroon
lachen
laggiu
leser
lies
listo
lyssnade
mate
merite
minns
mourir
musste
narmare
nasta
nek
neppure
nimmt
orsu
parlo
pensi
permite
petite
pouvons
prepare
proberen
profondita
prove
puissance
puissiez
punkten
qualche
quedo
raum
recognize
rese
ricchezza
rich
rimase
sak
salvo
sanning
scene
sense
sete
sicuro
sinnen
sjunga
skugga
sollten
sommigen
souviens
sovrano
spoken
stirn
sublime
tail
teilen
tenu
terrain
thirst
toch
tong
turns
universums
unserem
uso
vanno
venue
veranderd
vergleich
verona
verruckt
verstanden
waard
zaad
zet
##af
##ast
##aus
##bart
##cce
##cho
##cie
##damente
##eben
##ekt
##ele
##els
##esi
##gung
##iente
##imento
##jd
##lite
##lly
##loze
##mas
##mita
##mme
##nus
##ond
##oro
##pcion
##pite
##posto
##punkt
##rra
##sca
##slos
##stellen
##tando
##teit
##tique
##unen
##vita
##zaam
acerco
actitud
adel
annorlunda
antico
appropriate
arrivo
aspecto
avions
baja
begangen
begrijpt
believed
bendito
bewust
bliksem
brighter
brings
causes
cerchi
charon
cher
ciertamente
cinque
colle
condicion
conduire
considera
corte
cours
credi
daniel
deceive
denke
denkst
descends
dreht
ebene
entrer
enveloppe
erba
estamos
etend
etres
exprimer
extiende
feroce
finds
flera
flugeln
forehead
frederick
gebete
gegenuber
gevonden
giudizio
glada
goud
grabbed
groep
gustaria
habiamos
heads
helderder
heraus
illustre
jenseits
juicio
juno
kindness
klagen
kruis
lagga
lagger
language
lasciare
lascio
late
latona
leeft
leiding
lettore
ligt
ljud
lombardo
lycklig
malheureux
malice
malvado
massa
melody
mortale
mount
movement
movio
nahrung
neid
nouvelles
ny
obras
overwhelmed
periodo
personen
platz
pobre
porter
prato
presso
prete
prie
received
reichtum
reina
ressenti
resto
revele
richesse
riqueza
ropa
round
salvacion
salvation
salvezza
satisfaction
schrecklichen
schwanz
seit
sincere
skull
souffrir
spricht
sterrenbeeld
stessi
stirrade
supplie
svard
tenir
tired
toonde
tournant
ung
utanfor
vera
verbergen
verdammte
vijf
vormen
vraiment
vriendelijkheid
waarop
wirklich
##aden
##chung
##cre
##cy
##dido
##ggi
##ggiare
##ijn
##jado
##lade
##licher
##lto
##mia
##mmer
##ndere
##nger
##ora
##ping
##reta
##rta
##rum
##skt
##tudine
##uf
##uie
##uito
##uste
##uve
##voli
abyss
accion
accord
achilles
although
alzo
ardeur
aroma
arrivare
arriver
asking
atto
avsikt
bateau
beneficio
beobachtet
bewegten
bianco
bird
boat
brinnande
capacite
carlo
centre
centrum
chatiment
compagni
company
compassion
conscience
coraggio
correct
croce
cruz
cualquiera
cuya
dansen
dara
diavolo
dobbiamo
dovuto
edle
eeuwig
egna
empeche
empfangen
enjoy
erinnere
erover
erreichten
escalera
esseri
eut
eva
evig
exil
facendo
familj
fara
flegias
fleisch
folket
forces
fou
fragor
freundlich
fria
gefahrten
gegenwart
genezen
geplaatst
gevolg
gezwungen
gone
graben
group
groupe
grupo
gruppe
handling
harskare
hattest
haz
hebzucht
herrlichkeit
himlens
hinunter
histoire
idag
infernale
interesse
jungen
kanslor
krone
kwelling
laissez
legge
lieber
liknande
line
llevado
llorar
luister
manen
mean
middle
miembros
moed
mogen
morkret
moyen
mun
ned
nest
number
occasion
paus
penso
plumes
pobres
port
possiamo
potrei
prend
procedere
purgatory
quiet
ravenna
realiseerde
reflete
regarda
respondi
result
resultat
richten
rises
satisfaire
savez
scipione
semblaient
semilla
shone
simbolo
sinds
skiljer
skuggan
slutade
sonno
sot
speer
sprache
stevig
suddenly
taal
temples
toewijding
toma
toren
tradgarden
trap
tron
uppat
vald
vamos
varld
venant
verdeeld
veren
vermogen
versuchen
versucht
verte
verwandelte
vieille
vieux
voelt
vont
voren
vurige
wezens
wraak
yttre
zulke
##aine
##arse
##bracht
##car
##cas
##cks
##dar
##eerde
##eid
##fa
##gando
##gato
##genomen
##gono
##halten
##hort
##ichen
##idas
##ierte
##iet
##ik
##ilt
##issen
##iteit
##iten
##kam
##kende
##nk
##pp
##quer
##rebbe
##reten
##schaft
##tivo
##ulle
##uso
##wacht
##ya
##ziert
abandon
allowed
alzai
andre
anvanda
approprie
avund
azione
basta
bel
benedetto
bonnes
bosheit
briller
brukade
buurt
cade
capelli
center
chair
charge
chiese
chiesi
cien
climb
codicia
compagnia
compagnie
confianza
continua
credere
descendant
devrais
digno
dira
disparu
diventare
dono
dream
durst
eco
egal
eget
emperador
empereur
emperor
empire
ert
espace
etiez
exterior
families
flying
folgt
forlorat
fuimos
funf
fuss
gagne
gardez
gebeurt
gebruiken
gefallen
geschichte
gestalt
golden
gritando
groene
half
haria
hearing
hellen
hoorden
humains
imagination
imperatore
indignation
irdischen
jamfort
joyful
kastade
keizer
klart
klein
konst
lachelte
laisser
lassu
lecteur
lector
leuchtet
lider
ligne
lion
ljusare
llamado
lyckliga
lyste
meinung
members
memes
menselijk
moses
mut
ninos
obra
obtenir
ondska
opnieuw
oppose
orlo
ovanfor
overcome
pasa
passa
pauvres
perfekt
permanece
permet
piedra
piel
possibilita
precieux
profundamente
pudo
quinta
reader
realite
reality
realmente
recognized
regalo
regardait
regiert
regreso
remain
repente
reve
revealed
ring
rodea
rot
satisfecho
savait
schneller
seas
segue
selva
servant
service
several
signora
smoke
space
spheres
spinge
strasse
sufrir
suivant
support
termine
terugkeert
tire
traurigen
uppe
vard
versets
vetements
viejo
vieron
violencia
violenza
vissa
vivants
voeden
voorheen
voyant
wakker
wens
wezen
wit
wutend
zin
zona
##aar
##bra
##cal
##cate
##cci
##cian
##cure
##dan
##det
##ein
##ep
##for
##gende
##ijk
##ime
##iques
##lassen
##lato
##lijkheid
##mato
##mmar
##raient
##rijft
##rite
##sare
##sent
##sive
##tata
##tio
##uche
##ula
##ution
##uwen
##vant
##ved
##vel
##verse
##yo
##zunehmen
abandoned
accompagne
accorde
ach
added
agir
anfang
anzi
apollos
apparu
appelle
ardore
assai
atmosphere
attraktiv
audacia
aufmerksam
bacchus
basis
begrijp
bewonderen
bewundern
bienvenida
black
bleek
bodies
bois
broken
brot
brule
cadere
caminar
careful
chantant
colores
compagnons
compania
comparacion
comprendere
corre
creator
damage
declared
dehors
descendants
desea
destined
deutlich
devenir
devils
devons
diavoli
dijk
doch
doivent
driver
duivels
entier
esclamo
eurer
exclamo
explique
faithful
fatti
feathers
federn
finalmente
fluye
forblev
forenade
forvandlades
freres
frucht
fumo
ganges
gedachte
gelukkige
gemakkelijk
gentleman
gerne
geschehen
gesichter
gesu
giovanni
globe
glorie
graf
grater
graven
grosseren
halsen
haltung
happen
happens
harm
herinner
highest
honger
house
humanos
hund
importa
inne
intenzione
istallet
jedoch
jemanden
jezus
jonge
kand
karl
kun
lagan
lamm
lata
leden
levanta
lezer
lippen
lives
malvagio
manteau
martirio
meisten
membra
mooi
muove
nesso
nombreux
omringd
ond
oordeel
opposee
origen
ottaviano
paredes
passato
pauvre
pay
pengar
pente
plumas
pouvaient
principe
propres
ram
rami
repentance
resta
riche
rikedom
rood
ruhig
sable
sachez
satter
schiena
schild
segel
sembrare
sentiero
sentito
servi
shouted
sitting
slice
sneller
start
steen
stone
straffas
stretto
stroomt
suerte
suit
tak
tenemos
tillater
tomba
transforme
udito
umgibt
usual
valdigt
vand
vano
veniva
vereint
verlieren
verliezen
versprechen
vervuld
vivos
voleva
voltai
vrucht
wasn
wilden
wolken
wrede
wurdig
zichtbaar
##ala
##ang
##ars
##ased
##cked
##cos
##ghi
##gingen
##gra
##hnte
##hr
##iste
##kers
##ktig
##lan
##lante
##let
##lige
##nat
##nelle
##nemen
##ok
##pade
##rle
##rons
##rro
##tica
##ugen
##uido
##volle
##willig
##zando
aangenaam
acciones
accompanied
admirer
amanecer
andern
angra
arena
argument
armoede
armut
arriva
ascolta
aube
aufstieg
avstand
barba
bedroefd
bendecidos
bereikten
bernard
bewusst
bliss
bruit
buenas
ciascuna
closer
colpito
commesso
commis
considered
corso
creador
createur
creato
creatore
croire
cuales
cuerpos
dawn
depart
dienaar
digna
dile
diverso
ellendige
embankment
entree
entusiasmo
erklarte
esperando
espero
esterno
etant
euren
favore
figli
flyga
forran
freno
frost
fumee
furcht
gabe
gebeten
geheugen
gelukzaligheid
genieten
gentilezza
getrennt
giungemmo
glimlachte
grenze
guerre
helig
hochsten
hour
humanidad
humanite
ido
illumination
jete
jeunes
langsamt
lasciato
lebt
leider
liked
luistert
mantener
mantiene
merkte
mette
miles
minnet
morts
mota
naissance
offre
ontsnappen
opuesta
orde
packte
pajaro
parents
parlava
passend
pauvrete
pobreza
poete
potenza
potevo
pourrais
poverty
prisa
profondement
provence
punta
purgatoire
querido
rache
raggiunto
really
rechtvaardige
refleja
remblai
remorse
restes
riflesso
rimane
roda
rook
run
satisfacer
schaut
schepselen
schlussel
schrift
schwert
scorgere
screaming
seraient
shalt
sicherlich
slottet
sluta
smiled
snabbare
sogar
soort
souverain
spat
splendente
stanno
starke
store
stunde
supremo
synen
talat
talvolta
tanden
terraplen
trajo
trata
tratto
trekken
trug
varifran
vaste
verhalten
verliess
vermeiden
versos
visibile
voile
whether
zaak
zoek
zweite
##aal
##aid
##arlo
##ase
##bild
##cada
##ccare
##colo
##dio
##ello
##far
##gaat
##get
##gnant
##halen
##hlt
##ief
##illes
##jar
##mar
##met
##mit
##mp
##nando
##nder
##nit
##nkt
##ori
##pera
##quant
##rando
##rante
##riamente
##rito
##rlos
##rnos
##schap
##sel
##sing
##smo
##tan
##tanden
##tant
##ttes
##uo
##uoso
##urg
##vat
##vero
##visa
##zca
##zeit
##zugehen
##zzato
##zzi
##zzo
aangezicht
aard
abbastanza
abime
agi
agire
aimer
alter
amen
angelic
arguments
arrogant
asegurate
asunto
atmosfera
atteggiamento
attend
azzo
baratto
barca
baum
beatitudine
beatrices
beginnen
begint
beings
belofte
bemerkt
benevento
bereid
bereuen
bertran
beten
bisenzio
blad
bonagiunta
bons
branca
bredvid
breng
broer
caco
calore
camilla
capacidad
central
child
cielar
cielos
cincinnato
circe
companions
condenado
consciente
consequence
consiglio
conviene
cornelia
corneto
corpi
corto
crea
crossed
david
deidamia
derecho
describir
desired
deum
devenue
diana
dirai
directed
divide
doctrine
doria
dorthin
draghignazzo
dure
duwde
echapper
ecoutez
elsa
enfant
equal
escapar
esperance
esperar
esposa
euer
eviter
falta
farfarello
ferai
flesh
flod
flog
forli
formed
forsokte
fred
froid
fucci
fulfilled
gava
gebroken
gefallt
gianni
globo
gouden
graves
greed
grona
guardai
guglielmo
guidance
gutes
hablaba
handelen
handlingar
harten
haus
haven
hemos
humo
jagen
joues
juist
lamentations
lance
langtan
lanza
laudamus
leads
lino
liri
low
malacoda
malen
manque
menschheit
mensheid
messer
meta
miseria
moe
moeras
monferrato
mosse
motsatt
nere
nieuws
nouveaux
oberflache
oorsprong
opportuno
origin
orlando
palio
pape
parties
peloro
penetre
perdre
perugia
piangendo
pietra
pleased
pleure
poca
pope
poverta
prenez
prepared
primeros
proceeded
propio
proud
queda
realitat
repondre
responsable
rhone
rocheux
rodolfo
rostros
ruhe
ruine
running
rusticucci
saintes
samtidigt
sapienza
save
says
scende
schepper
schlaf
seguendo
sente
signal
silvestro
simon
sing
skarselden
smartan
sommeil
sovereign
sterfelijke
storia
strand
sufficiente
tiber
totalmente
toten
trad
trompe
trouble
tvungen
ubertino
ugo
umanita
undvika
vanligtvis
vanni
venganza
verdween
vila
vittore
vivi
vollstandig
vraie
welcome
wife
wijs
zanche
zoeken
zweiten
##amos
##bringen
##digen
##digt
##einander
##ento
##eri
##eur
##fer
##gan
##gend
##hn
##ifie
##ifran
##iken
##im
##karna
##kend
##lasse
##liches
##lk
##lli
##nst
##og
##oni
##ote
##pia
##pose
##ral
##rvi
##son
##ssez
##steigt
##tal
##uchen
##uno
##uses
##vis
ability
abundance
acerque
actuar
afflige
afgrond
afgunst
aimes
alltfor
amado
anagni
angest
anglar
angustia
apenas
arrivee
asombro
aurora
ayant
bag
bage
beato
befriedigen
begeerte
betrubt
beundra
bidden
bouge
braccio
breath
carga
cheeks
chien
cicero
cloud
comienza
conclusion
condannati
condotto
conseguenza
controle
couleurs
creation
cumplir
deal
deeply
degno
derer
differents
dolci
dom
dritte
droevige
ejercito
eleva
empfang
entered
epaules
erzeugt
escuche
evident
exprime
faits
farben
farmi
fasta
faster
fattiga
faut
fedele
fermo
fidele
finale
firmamento
flyger
fornuft
freuen
frio
fuhlen
fuhrung
fullt
fully
gaeta
gallura
gefangen
gegaan
gehe
getotet
geur
gewoon
gigante
glanz
golpeado
gorge
halo
handelt
hangivenhet
hara
hechos
hief
hijos
hof
hogra
holding
hombros
honderd
houd
ice
inre
instinct
klader
kleuren
kroppar
kurz
laut
lebte
leggen
leiter
libero
linken
locura
lofte
luni
markte
medveten
meet
mejillas
metgezellen
montaperti
mortales
multitud
mura
nacio
nato
oever
opportunity
ovan
overge
overweldigd
parlato
parli
peau
peccatore
perso
plaga
poetische
prachtig
primavera
procede
promesa
puedas
redden
refuge
reser
rico
roche
rule
sagst
sappi
schouders
schultern
seien
seras
serene
serviteur
shoulders
skakade
skapar
skin
slar
sort
spent
spinse
spreche
spring
standing
stared
starrte
statt
sten
stick
stolthet
stonden
stream
strijd
suite
sunder
superieur
tache
tages
tasche
tendra
tenido
tenzij
thy
tient
tombes
toon
tuve
understanding
unless
unrecht
vagevuur
vals
vanliga
vant
varias
vecu
vengono
verdomde
verlichting
verre
verstehe
vicenza
villano
virtues
voegde
volare
volume
voordeel
vriendelijk
warme
weinte
wenden
##ain
##atie
##bas
##bed
##bio
##cano
##cles
##die
##dores
##egd
##fiel
##form
##gande
##ged
##glar
##gle
##her
##hield
##hung
##iante
##ify
##igung
##illa
##ines
##izia
##kan
##keren
##ktar
##lande
##liere
##mbre
##mde
##mie
##nan
##ndola
##nse
##ode
##of
##opt
##rge
##sante
##sato
##ssant
##sus
##tain
##tito
##tri
##tter
##tude
##ufen
##usa
##weg
##wingen
achille
afferro
afhankelijk
agarro
aimait
ajoute
altura
anblick
angeln
angoisse
annees
ansah
appears
ascoltando
avermi
avra
ay
beaux
befreit
beg
begaan
begging
beginnt
beispiel
bellincione
bello
below
benaderde
beroende
bienheureux
birth
blommor
boue
branch
brenta
brillaba
buone
burned
cambia
capocchio
casentino
chanter
chiedere
choisi
cierto
cinquieme
closed
comence
comprends
corta
cortese
croyez
darifran
darin
descended
descrivere
dessous
devota
dientes
diro
doorgang
dra
drink
dritten
dulces
dunkel
eclaire
effetti
eifer
emme
enthousiasme
entrare
escuchando
evitare
expliquer
faenza
fecero
ferne
fialte
fifth
fisso
fliesst
folge
folj
follows
forntida
fruktansvarda
galen
gebeuren
gedrag
geliefde
general
geniessen
geschieht
gesegnete
giove
gola
grant
greep
grootste
grunen
guance
guld
haken
handa
hearts
height
helped
hierheen
hingabe
hoflichkeit
humilde
importante
impression
kaum
kehrte
keiner
kijkend
klaren
konnt
kurs
lagor
lake
lampligt
lasare
legte
lent
liepen
lijn
lit
lysa
machten
magnificence
masse
matiere
meestal
meraviglia
mijne
miras
mortali
nauwelijks
niebla
nuovi
omringt
oud
oui
parnaso
passiert
paul
pelle
pensar
permis
pfad
pianto
plain
praat
precedenza
preuve
primi
quanti
quest
rama
ramo
rang
rauch
receive
regn
religiosa
rempli
richtigen
righteous
riket
ruota
sauvage
schlecht
senses
sensi
sentivo
sichtbar
sicurezza
siguiendo
siguiente
sinners
sitter
sla
snarare
sombras
somos
sorgfaltig
stelde
stemmen
stimmen
suave
swamp
taking
tantas
tauschen
thebans
thema
underbara
varldens
vedendo
vendetta
verdadera
vervolgens
vestido
viennent
vijfde
visual
volere
vus
wassers
william
write
wut
yours
ytterligare
zand
ziehen
zijde
zong
##aban
##agd
##als
##anti
##arme
##ceau
##cios
##digde
##ef
##ehen
##eva
##heen
##hs
##iano
##iant
##icht
##igde
##iner
##int
##iosi
##ires
##ivamente
##lage
##lait
##leden
##lied
##lingar
##lost
##mado
##nten
##ola
##ones
##open
##ow
##pira
##prach
##rita
##sade
##scht
##sie
##star
##sts
##sure
##tert
##uze
##vamo
##vato
##vent
##vere
##voll
##vollen
##vra
##wo
##zig
accent
accept
ack
ancetres
anguish
ardent
ardour
argumenten
armas
armes
arreter
assure
attendre
attesa
avevamo
beloved
bewijzen
bezit
bit
borsa
brightness
brillait
brostet
buenos
bulicame
celebre
certa
chiamato
chosen
colline
cometido
compagno
concede
condamnes
conoscere
conseil
corazones
corde
couche
coup
courtoisie
couvert
crier
cuan
debes
debo
deeds
defense
demandez
dense
denti
dents
devocion
devono
devozione
dionysius
disait
disciples
dispuesto
diversa
drew
dude
ejemplo
element
elements
emisfero
envuelto
erscheinung
escudo
espere
exemple
expressed
extendio
extent
faccio
fahigkeiten
falsa
fattigdom
feed
figures
fini
firm
flydde
forbi
forbli
foresta
forsvinner
freddo
fuhle
furent
gebeurd
gehst
genere
gescheiden
geschopfe
giunto
glanzend
gloed
graffiacane
grenarna
gruppo
hablado
haft
hangen
heat
heavy
hemisferio
hercules
heridas
herinneren
hogere
holds
hoofden
hors
hunting
illumine
ilska
important
influences
inspire
jalousie
journee
judge
kallade
keel
kindly
komme
kwaadaardige
larga
least
lenguaje
levende
lichamen
lichts
llanura
lugn
magnifico
manieren
marquis
mauvaises
merit
moln
morire
morto
mostrare
mountains
muerto
none
nord
notes
nuevos
oggetto
ogonblicket
oorlog
opposto
passes
passing
pastor
pecadores
peccatori
pecheurs
penetra
perro
piensas
plaine
pochi
polo
prende
produziert
profondamente
pronuncio
ps
reine
reside
risplende
rod
rondom
roos
rules
sags
sallskap
sauver
schlagen
schreeuwde
sentidos
sentiments
separate
seraphim
siente
situationen
skapades
slag
slagen
smeekte
soddisfare
soddisfatto
soltanto
sonrio
spuren
spurte
standen
starkt
sterke
sternen
strom
stroom
surrounding
surrounds
teeth
telling
terugkeren
test
testamento
toegewijd
tomado
total
tradet
tranne
treden
triumph
tromper
trost
uccello
umani
uppfylla
upplyst
uscire
utile
vagledning
vengo
venuto
vergnugen
verhaal
verk
verka
verkeerd
verkligheten
verlaat
verloor
versteckt
vienen
vine
vlakte
voices
volvieron
vorfahren
vuestra
vurigheid
wandten
weitere
zondaars
zorgvuldig
##ari
##arono
##ations
##bilmente
##bla
##bringt
##chait
##cieron
##coli
##culo
##dent
##drar
##eg
##elle
##eras
##fallen
##fde
##ff
##gere
##geschlossen
##gos
##gst
##hst
##iato
##ilen
##ils
##itre
##jde
##jero
##kande
##ktiga
##laten
##mate
##mpt
##nee
##oi
##ole
##osi
##pel
##pone
##rig
##rung
##sco
##scono
##sso
##tade
##tida
##tigt
##tino
##uire
##ular
##ulo
##utzt
##uwd
##vado
##vive
##vola
##wind
##ys
absolute
acceso
accomplir
acheron
addressed
adler
altezza
altrettanto
amare
angekommen
angoscia
apollo
arche
arg
ascension
assicurati
bedrageri
behold
beim
beinen
betrachtet
beweisen
bewijs
blessing
bolagia
brazo
brief
brigade
caballero
cane
cantar
cato
chez
chiaro
clothes
cocytus
colors
commenca
companero
complete
concesso
condamne
conocer
conseils
coro
creado
crede
cri
curso
daad
declaro
detail
determine
deugden
dices
dichiaro
diras
double
drinken
droeg
drukken
ebenso
emerge
enlightened
entiendo
erinnert
erschienen
ervaren
evento
excessive
existe
existens
extraordinary
facil
faible
faisait
falling
famoso
farger
faux
femte
fera
firme
fjarde
fled
florentine
fordomd
formen
forutom
fourth
frutti
fulla
gangen
garganta
gelegenheit
geloofde
genoemd
geschopf
getoond
getting
gevoelens
girare
girighet
glas
glorious
glow
graset
greatest
guardavo
guitton
hauteur
herself
hond
hoort
hundert
hus
illuminated
illuminazione
iluminacion
individual
inferior
iniziato
inspired
intelligenza
intento
jemandem
jong
judecca
kaiser
kleiner
krieg
kvinnorna
lack
lagre
laid
lancelot
leren
letizia
ley
libertad
litar
llamada
logica
loi
lucrezia
luoghi
maakten
magnificent
malebranches
malvagia
marzia
mauern
mechant
minerva
miserere
moments
montanas
muertos
muestra
nachts
nebel
nectar
nee
niente
normandie
nostalgia
nostalgie
noto
obtener
odeur
offense
olor
onvermijdelijk
opening
opuesto
oscurita
ottenere
papal
paradieses
parnasus
perder
pfeil
pianeta
pianura
pijl
pijnlijk
pit
planeet
planeta
planete
platser
podian
portare
premiers
presenti
priva
proposito
prostituee
provide
puni
pura
qualita
quatrieme
quede
recu
reda
regina
resplandor
reveal
richezza
riesen
righteousness
rik
rising
ruido
ruisseau
salvaje
sat
schaduwen
schreckliche
segunda
seligen
seme
sentimientos
separa
sevilla
shadows
siege
simili
sjunger
skepp
smeek
soberano
sogno
souffert
speaks
spegeln
sposa
staarde
steek
steigt
steil
sternbild
stilte
stracker
stralende
stretched
stupore
sucede
suolo
suprema
tante
tanti
tardi
taste
temple
tendras
terremoto
throat
torna
torst
tras
tried
trott
umile
unga
ungluck
unique
uvre
vanlighet
vaut
verbergt
verdwenen
verklaarde
verliet
verurteilt
vierde
vivante
vlucht
voces
voci
voeren
vole
volti
wahren
whatever
wolk
##abile
##aisse
##alde
##amt
##bara
##cent
##cite
##colare
##dito
##egt
##eke
##eln
##erade
##ering
##erta
##fect
##fi
##fied
##finden
##fort
##fte
##geven
##gliare
##haft
##hle
##hmen
##hnung
##ib
##innen
##iosa
##ktion
##lagen
##laient
##late
##lles
##lu
##messo
##mn
##ndolo
##ngde
##ngono
##nke
##oot
##orna
##plaats
##pper
##punt
##ragen
##reifen
##rige
##rijf
##rm
##simo
##tada
##tid
##tionen
##tita
##tog
##uale
##ucht
##ueux
##ulto
##uring
##uye
##vallen
##vist
##weise
##wenden
##xe
abgrund
access
actie
acto
advantage
advice
advies
agodelar
alexander
alt
amablemente
ancestors
andarna
anden
anglarna
animale
antwoorden
appel
armarna
ata
attila
aufgehort
aveugle
avvicino
ayez
barmhartighet
bedeutung
bellaccoglienza
benditos
benediction
bevredigen
biada
bittere
blessures
bleven
boire
bonifacio
briareus
brunnen
built
cachee
calm
calma
cambiar
camminare
canta
centrale
certaines
cirklar
colori
colpo
continuer
correcta
cris
cupidite
daaruit
daliga
damals
darunter
debemos
decision
deuxieme
dichtbij
dichte
distante
diventato
divinita
dov
draagt
draaiden
drawn
dricka
droom
dur
easily
echte
egalement
einfallsreichtum
einfluss
elandiga
engano
entgegengesetzte
erklart
esempio
esprimere
essenz
established
estara
etonne
example
expresar
facilement
famous
feelings
fegefeuer
ferma
fiducia
fight
flow
forfader
forlora
fotterna
foule
frankrijk
frase
freiheit
gaben
gebruik
gedacht
genera
gesellschaft
gesetz
gevaar
gevolgen
gevuld
gier
gottlicher
grab
guard
guardia
habilidades
halfrond
hannibal
heavens
helling
hemisphare
hierarchie
hinzu
hitze
hurt
hyperion
imagine
imposible
impossibile
influencia
inganno
ingenio
ingeniosite
ingenuity
instant
intelligentie
invloed
irdische
italiens
jordan
jours
juge
jure
kleren
kusten
leuchten
leuchtete
libere
liberta
liberte
linie
list
llamo
lover
malheur
manskligheten
mantuvo
melodi
message
midst
mojlighet
molesto
montrez
mori
munnen
murio
natuurlijke
negli
noise
notai
nutzen
objet
objeto
observed
observing
odet
ontmoeten
oosten
ovidio
paid
papst
parts
pase
paven
pedir
pene
periode
permesso
piccola
pijlen
preguntas
presentes
previously
profondeur
promessa
providencia
provvidenza
prueba
psalm
rahmens
recepcion
relief
religious
respeto
retour
retten
riches
rivage
roberto
ruego
ruf
rustig
saco
sappia
sar
satz
scale
scheinen
schuldig
schwierigkeiten
securite
semblent
sentia
sentimiento
sesto
sinnet
slope
sollen
soudain
stein
stel
stille
straal
sumpf
tander
tempete
terreur
thinks
tiefer
tiere
tijdje
tio
tourmente
traverse
tremble
trennen
trinken
tumba
tuscany
tycker
united
utseendet
vea
veld
verdoemde
verenigd
vergeleken
vergeten
verra
verschwand
verspreid
viendo
vinna
visat
voorzienigheid
vorsehung
vostre
weerspiegeld
woher
wolke
wreed
zegen
##ader
##ame
##amma
##antes
##ating
##bilidad
##cciato
##chap
##ches
##cias
##cita
##cta
##dert
##duto
##een
##eus
##evo
##faller
##fel
##gada
##gerar
##gni
##hne
##houdt
##iare
##ibile
##ibili
##ibt
##icia
##iens
##igne
##keek
##lacion
##lina
##line
##lit
##lls
##lta
##mare
##nation
##nent
##ngo
##nir
##nisse
##ntas
##omen
##pfen
##pita
##posti
##pped
##racion
##rais
##rano
##rava
##rca
##ree
##reso
##rift
##saient
##sal
##sme
##stro
##tand
##terna
##tir
##tori
##trice
##ttre
##tur
##uis
##uler
##utzte
##wed
##wollen
##zte
##zzata
abandonado
abbondanza
abt
acte
admiration
ago
aimez
alcanzar
alcmeone
amant
ambas
anciana
anciens
angenehm
annars
anstatt
antepasados
anvande
appare
apparire
arrivati
arrow
ascolto
assisi
attento
attorno
attractive
aufgabe
ausseren
avsloja
bambino
bataille
batalla
battaglia
battle
beber
bedrogen
begins
bendicion
benedizione
benie
bienaventurados
blixt
blows
bojde
bolognese
bolsa
bourgeois
branche
break
bror
brutus
cabezas
cabo
cacher
calcabrina
caminamos
cantare
case
cassius
catalano
ceased
cera
changer
chiama
chiusi
circonda
colpe
compiuto
conduce
confie
converti
costa
cria
crime
dallo
decia
demonstration
dependiendo
depending
depression
depth
deriva
desole
destruction
dias
dier
directamente
directement
directions
divenne
dor
doubts
dudas
dunkle
dura
east
effect
efforts
egenskaper
embrasse
encontrado
endure
enkel
enseignant
entspricht
epoque
erlangen
ertragen
essaye
eta
faute
finna
flecha
fleche
flight
fog
forgaves
formaga
forth
frate
freccia
freedom
fruchte
fruktar
fuga
galna
gaven
gebruikt
gebunden
gedood
gehalten
gestellt
gewahrt
geworfen
glace
gleich
gradualmente
granted
greve
grymma
gyllene
habitants
helligkeit
herinnert
herren
herrscher
hill
hitte
hiver
hjartan
hoja
huid
importance
improvviso
ingang
ingegno
inhabitants
inneren
inteligencia
invierno
jaren
kallan
kampf
kans
koningin
kreise
kurzer
lac
lachte
lager
laget
lamb
lamberti
lancia
langsamma
lebenden
leggi
liebst
liegen
listened
livre
longue
loving
lucano
lucky
lueur
madchen
maggior
magnifica
maldad
malefique
malvada
manifeste
marais
mass
matelda
maybe
medicina
mettez
minnaar
minore
mogelijkheid
montagnes
moral
mork
mortels
motivation
motstandsrorelsen
narrow
navarra
nebbia
njuta
nytta
offenbaren
onmogelijk
onskade
opinione
oppervlak
ordnung
oriente
ossa
osservato
osten
ours
padres
pakte
palude
parecer
passera
pequena
perceived
permitio
piante
piece
pitie
plato
portes
poveri
pozo
pratade
presa
priester
prime
profundidad
pronta
propri
prostituta
provided
qua
qualen
realize
regnet
rendere
reputation
respecto
reue
reveille
richtige
ricordare
rifeo
riktade
rocciosa
ronde
roten
roues
ruedas
sacra
sacro
schopfer
schrien
schweigen
segen
seguridad
seht
serai
shook
showing
sienese
sitzen
skrika
slatten
snelle
soin
soldanieri
sowie
spectacle
staring
starker
steep
steken
stolt
storsta
substance
successo
suckar
syndare
tenere
tesoro
tjanare
toegang
toestand
tone
touch
touche
traurige
trento
treu
tronco
tutt
untersuchen
upprord
urs
urteil
usando
utilise
vada
vagar
vai
valet
vanished
vantaggio
vasen
verdadero
verlichten
verlo
vermijden
verschiedene
verurteilten
vervullen
vicini
vikt
vin
vindingrijkheid
virtudes
vise
volentieri
volg
voorbeeld
voorouders
vorbereitet
vouloir
wahre
warf
wateren
weisen
welkom
wheels
wonderful
works
written
zakken
zetten
zintuigen
zukunft
zweige
##ador
##ake
##ancia
##ange
##ani
##anno
##aufen
##avano
##azioni
##bado
##bro
##cee
##chant
##cino
##cter
##denken
##dire
##eft
##ella
##elli
##emo
##eter
##fera
##gados
##gangen
##gestellt
##gro
##hre
##ical
##iel
##iers
##ings
##jden
##jor
##lation
##leben
##lino
##lique
##lity
##luss
##lust
##mbo
##mis
##mmt
##nati
##nca
##ndome
##neros
##ntemente
##plica
##racht
##riendo
##rp
##rst
##rufen
##samhet
##set
##sliga
##sman
##ssion
##sucht
##tait
##tamente
##tigen
##ttare
##tung
##uele
##uelle
##ured
##vning
##vol
##vs
##zame
##zas
##zet
##ziehen
##zzare
100
abitanti
abri
accompli
achten
adem
ailleurs
aliento
almeno
angrar
antica
apparut
aracne
army
arrepentimiento
ascend
astinenza
autorite
avarizia
barbagia
bastone
bed
benevolent
bere
bergets
bevisa
bianca
blinde
blond
blossoming
bond
bot
bound
brand
brillar
brouillard
buio
caccia
caminando
capacites
castigado
centaur
cento
cercando
climbed
cloak
colina
considerazione
contento
conversion
corriendo
cover
crainte
creee
cristiano
croit
cruelle
cubierto
dando
debout
deception
decided
defend
degna
denaro
derselben
desaparecio
devoir
dica
dieci
dienst
dieron
diez
difficolta
dirigido
dirigio
disposition
dix
dok
dorr
douloureux
doutes
draai
dress
dringt
dubbi
ebbero
ecoutant
einzigen
enemy
entkommen
entrada
envoie
envoye
ervaring
essendo
excellence
exclame
experiencia
falska
fango
fault
felicite
ferait
fjadrar
florentiner
forever
formagor
foudre
fralsning
freed
freundlichkeit
fri
friends
fronde
fulfill
fulmine
gano
gardes
garras
gebonden
genaamd
geteilt
getragen
gevormd
gezelschap
ghiaccio
gib
glaubte
glod
glodande
gout
griffes
gritos
gryningen
haare
habitantes
hable
hamnd
harmony
hemelen
herkende
heureuse
heuvel
hielo
hinauf
hirten
hochste
hoeft
home
huilde
iba
illa
ilumina
impulso
infinite
intensely
interrupted
inverno
istante
jean
jung
knappt
kommst
konigin
krig
kudde
kung
kwade
lamenti
lamnat
langa
laws
lay
lesquels
leuchtkraft
lieten
lilla
limit
ljuva
llega
llevaron
loften
loup
luisterde
lunga
maggiormente
malabocha
malas
manifestiert
marches
maximum
means
menigte
michol
migliore
misslyckas
moglie
mostrando
movian
movido
mud
nasce
neige
nimm
noggrant
nuevas
nuove
nytt
obstacle
offen
offert
oorzaak
opere
opfer
oreste
orgoglio
orgueil
orolig
outer
ouvrit
overvloed
palazzo
panna
papalardia
parade
parecen
parlant
phrase
piacevole
pleasing
polidoro
poner
pratar
prends
principes
prit
prive
privo
prodotto
profesor
psalmen
puertas
punito
quantita
quick
quinto
radslan
rapida
recibido
reconnu
recordar
reflexion
regardes
regeln
rejoice
rent
repent
replico
rocosa
roken
romagnoli
ruder
sabbia
sagrada
sagrado
sapeva
schrei
schudde
scorsi
secret
semence
senora
sentimenti
sheep
sicherheit
siguio
sitta
sitzt
skiner
skrev
sma
soffrire
sopla
soportar
sorry
spegel
spred
starken
starting
stijgt
stopten
story
straffen
straffet
strahl
stuck
suchen
sud
supera
superbo
superieure
surpassed
svansen
tanz
tarea
temor
tenebres
tengas
tercer
threw
tien
tiro
toekomst
toont
tormented
torno
toskana
tournai
trasket
traum
trosta
trovato
trovo
tugenden
twijfels
udii
uni
unmoglich
upset
vacio
valse
vanner
vantade
various
vaxten
vela
verdammt
verdes
verdient
verdoemd
vergelijking
verleden
verlor
vertelt
vete
visas
vitt
voto
voulu
vriendelijke
vrienden
vruchten
wartet
watch
wielen
wonden
worth
wretched
zehn
zieht
zijt
zuzuhoren
##andet
##angen
##anz
##bes
##cento
##cere
##chtig
##ciato
##ciente
##cina
##cious
##cule
##culos
##curo
##cusa
##dera
##diendo
##eert
##ees
##emente
##erar
##erten
##euse
##fici
##fini
##fst
##gegangen
##genommen
##gge
##hin
##iada
##icas
##ierten
##ifier
##inen
##iness
##ista
##iven
##kad
##kes
##lee
##leed
##lingen
##lsen
##mando
##nche
##nero
##nne
##ntos
##ocht
##ors
##pense
##ple
##pra
##range
##rasse
##remo
##riez
##rrade
##rten
##rungen
##samente
##serna
##sez
##siert
##slagen
##tados
##tile
##tina
##ube
##uert
##ulate
##ullt
##uni
##uras
##urt
##uts
##vader
##vas
##wahlt
##wand
##weren
##ye
##yer
##zieren
abbandonato
abilities
abondance
abstinencia
allontano
amargo
amaro
amer
amigos
ammirare
anciano
angelegenheit
angelica
ano
antworten
appariva
approaching
aragon
argomento
artista
aspiration
ater
attendez
attraente
audace
ausgestattet
auszudrucken
autoridad
avendo
avenir
avrebbero
avvolto
barriere
barro
baton
bedoeling
begged
begraven
bekommen
benevolente
beschouwd
bevrijd
bienveillance
bildar
blame
blanche
blatter
brant
brott
bruto
buoni
cantidad
celles
chiamata
comer
compagnon
completo
conosciuto
contesto
convierte
cordero
costretto
courant
creando
custom
daalt
damiani
davvero
days
deceived
desert
discover
djupet
dodade
domando
donnez
doucement
douceur
duren
eclair
effort
eigene
eisen
elders
emmene
empinada
enlever
ensamma
erbjod
erheben
erhob
erkannt
ernaar
ernstige
erzahlt
essaie
eterne
eternelles
evenals
evening
falschen
falsk
fanga
farti
fausse
fiery
fila
finally
fisico
fixes
flows
flucht
forenar
fossa
fragan
francisco
francois
gain
gastheer
gefolgt
gefuhle
gehouden
gekozen
gentillesse
germano
geschikt
getrokken
gewikkeld
gorgo
gradini
gradino
grausamen
grida
grube
guy
habitual
harda
hemska
hermosos
hesitation
hielten
hjalper
hjalpte
hoffen
hore
humanity
ilio
illuminato
imprisoned
incandescente
increased
inevitabile
informativa
inmitten
inner
intelligenz
intensement
jenen
jord
juan
juda
kalte
kannte
kehrt
keken
ken
kenne
klara
klauwen
knuffade
korsade
kott
koude
kreeg
krijgt
krona
kungen
kurzen
kuste
landet
learn
libicocco
limited
linkerkant
lista
llanto
lobo
loco
lombard
loud
loves
luminosidad
luminosity
mache
magnifique
malheureusement
manger
mantova
mattino
meilleure
menar
mod
morker
mose
muro
naci
nahmen
narmar
nascosto
news
nido
niemals
normalerweise
notwendigkeit
objekt
oculta
odio
omojligt
onderscheiden
onthullen
oppure
ornen
orribile
orsakade
osservando
overwinning
pazzi
penalty
perceive
pflicht
philippi
physical
piccolo
pilgrim
plantas
pleurs
pluto
poema
possession
presents
prets
prezioso
probeerde
procession
propos
protection
punis
quegli
quitter
rader
raide
reconnaitre
reflect
reflekteras
regle
regresar
remaining
returns
reves
rifugio
ritter
rochers
romans
rotsen
ruote
sacrifice
saisi
sali
santas
satan
sattet
savais
schreiben
schrijven
scream
seconde
seis
seligkeit
serez
setzen
shed
siate
siguen
skapare
soker
solitario
sombres
sortit
souffrances
sourit
stanco
stegen
stilla
stock
stopt
stupito
task
teme
tercero
tevergeefs
tjocka
toscano
tournes
triomphe
troost
trovavo
turm
upphorde
ursache
ursprungliga
usar
vapor
vegetation
veil
verbrand
verdienst
vergangenheit
vergessen
verraad
vertrok
vertus
verzameld
view
vile
vingarna
violent
virtuoso
volar
voldoende
vooruit
vrijheid
vuelo
vuestro
waardige
weiterhin
west
willing
willkommen
worry
wounds
wrote
wunden
yes
##aam
##ace
##ager
##ana
##anden
##beeld
##bility
##bliche
##bras
##ceso
##chado
##cifica
##ckel
##ckor
##con
##cte
##ctions
##ctive
##cts
##curi
##dade
##dern
##dico
##diga
##doen
##eux
##falt
##fd
##fico
##fine
##fo
##garden
##gee
##gegeven
##gesloten
##giato
##gnato
##iar
##icion
##ied
##igo
##ijnen
##ingar
##iskt
##ium
##izo
##kelijk
##kkelijk
##kor
##legen
##licht
##lor
##maakt
##mb
##mettere
##mise
##mitted
##naren
##nazione
##ndre
##nimmt
##nitt
##nna
##olo
##onde
##pan
##pare
##pie
##poli
##prochen
##rdo
##ress
##rgt
##rian
##richt
##riffen
##rijk
##sicht
##sieren
##sione
##sis
##tante
##tera
##ther
##tia
##tido
##tjes
##trekt
##ttet
##uel
##uella
##ug
##uir
##umen
##urato
##uten
##versa
##viendo
##villig
##vliga
##voque
##where
##xen
##zada
##zustellen
aangename
abisso
acces
accesso
accordo
adams
ademas
admirar
adresse
affrontare
agree
aie
allebei
allerhoogste
allons
alskare
amis
angeboten
angefangen
anno
ansia
aperto
apostoli
arroyo
ascenso
auraient
author
authority
autore
autorita
avhallsamhet
aviez
avlagsna
backs
bagliore
banken
baten
begatt
behova
belva
bendita
benefit
beso
bevis
bewohner
bezug
blaser
blass
braut
bride
broeders
bruid
bryr
bryta
cansado
capito
cesare
chantait
chante
chiavi
choice
choix
cities
citizens
ciudades
claire
clara
cles
climbing
coast
command
companion
comprehension
compreso
condanna
conduite
confidence
confused
connais
consecuencias
conseguenze
content
conti
contraire
convertido
costanza
couronnes
courteous
creata
create
criant
cries
date
dati
deines
demutig
dicen
diepte
disappeared
disposizione
dolcemente
doljer
dolorosa
duty
easy
eclat
edlen
eloigne
enig
entdecken
entendido
enthalten
epais
eraan
erlitten
escaleras
escucho
esperienza
etabli
exile
facevano
fail
fakta
fanden
ferro
fijos
fixe
flash
flowing
foolish
former
fragment
frankreich
freuden
fuhr
fummo
furchte
ganado
geblieben
gebrek
gebrochen
gedachtnis
gekleed
geliebt
geliebten
gerechten
geschreven
gevangenis
geweten
gewoonlijk
gillade
girone
giving
glader
glans
gleichzeitig
gloriosa
golpea
grenar
griff
grupp
guardi
habra
hang
hangt
harde
heerser
helgon
helse
heures
hindrar
hl
huilt
identico
ijs
inflytande
innocent
inse
installning
instrument
invito
inwoners
irrtum
jahren
joyeuse
junge
kamrater
keeping
keerden
kehle
kiss
knowing
koers
kraften
kristna
laag
lagorna
lar
legde
legen
letto
levend
leyes
liebt
liedes
lien
liggen
lois
loopt
lov
lumineuse
luminositet
manniskorna
mansklig
maravilla
marias
materiele
mento
mercato
meridian
metal
metgezel
modder
momenten
morkt
mortel
morti
mucha
nachkommen
naked
namens
naturlich
nederig
nobili
noir
noticias
nourrir
nuage
offnen
ombres
omdraaide
omgav
omradet
onde
onderzoeken
onthouding
opstaan
orange
ordonne
ore
organ
ose
overal
padua
pallido
pan
particular
partout
pasaje
passagen
passione
penne
pensavo
peor
perce
percorrere
perde
perdida
perfecta
perfetta
permette
pflanzen
pierced
pijnlijke
pil
pilar
pire
planten
plantes
plants
plata
pleinement
plicht
poesie
poetic
poetica
potesse
powerful
pozzo
presenta
probeert
produces
proportion
provo
pulled
querer
rabbia
rattfardighet
reaktion
recevoir
recibir
redding
refuse
regola
remove
ressens
revient
rimasto
rispondere
riuscii
rocas
roster
roue
rueda
ruin
rusten
safe
sanden
sardinien
scham
schlechten
scorre
seger
seguii
send
setzte
shows
sicura
sienne
sixth
sloten
smal
smeken
socrates
solcher
solide
solltest
sons
spanien
spar
spektakel
spiritual
springer
steden
steget
stellt
styr
sudden
suivent
suivez
symbole
tackt
termino
terrena
terribile
throughout
tied
tjana
tourments
traces
traf
tragt
trovai
trying
turen
unas
unterscheiden
unterscheidet
uppfinningsrikedom
uppna
upptacka
uttered
uvres
vackte
vale
valsignad
varie
varor
venido
verbrannt
verdragen
vergeblich
versen
verspreiden
verspreidt
versteht
vertes
verwijderd
verwirrt
victoire
victoria
victory
vittoria
voglia
volant
voluto
vrees
vuoto
wachen
wahl
wann
warte
weiser
wetten
wheel
wohl
year
ytan
zodiac
zogern
zover
zuchten
##agde
##agen
##aire
##ald
##amen
##ane
##anos
##artig
##artige
##ary
##aux
##ave
##avo
##bian
##bij
##bito
##boog
##bot
##bow
##brar
##ccato
##celle
##chs
##chworen
##cidas
##cro
##dare
##dda
##dendo
##dle
##dono
##durre
##eder
##ehren
##encia
##ents
##eth
##fier
##fully
##gekommen
##geren
##geving
##gewezen
##gezet
##gg
##gina
##ground
##icare
##ieres
##ified
##igheter
##isant
##iss
##ister
##ius
##juter
##jver
##kat
##ked
##kelen
##kels
##kent
##kwam
##larna
##lida
##lien
##lten
##lti
##lus
##mante
##mber
##mido
##minent
##mini
##mio
##mon
##nahm
##nelli
##nete
##ngt
##nso
##oce
##ona
##onia
##orde
##oto
##pas
##pere
##ppo
##ppt
##pris
##rata
##razione
##regen
##reis
##remmo
##rezza
##rier
##rios
##rso
##sait
##sat
##seite
##setzt
##terten
##tire
##tje
##uden
##ugt
##uille
##uita
##uite
##ullen
##una
##uwe
##vade
##veerd
##vet
##yn
##zigen
##zukommen
aangekomen
aantrekkelijk
abbagliato
abbot
abundancia
add
affliction
aggiunse
agneau
agnello
aient
alls
ancienne
angesicht
animali
apennins
apparue
apprecie
appris
aquellas
armi
arrivammo
ascent
asikt
attende
attente
aufhoren
augustus
ausserhalb
avantage
barbilla
barely
baumes
believing
beloning
bieten
blommorna
boek
botschaft
brist
burger
buried
campi
capa
carico
causo
ceci
cercano
changes
chin
christian
claras
comando
comforted
compasion
compiere
comprenez
concept
conciencia
conforto
consapevole
conserva
continuando
continued
cortes
costumbre
crowns
cursed
custodia
darle
deber
dedo
deje
descendu
deviennent
dichters
difference
direttamente
dissero
divini
dolcezza
dolja
domda
dormir
dovere
dragon
driven
drom
dromen
druk
dulzura
eager
eclipse
efterat
eingesperrt
eis
elegante
elend
ellas
embraced
emotion
encontro
entendis
entiende
erbjuda
erbjuder
ernstig
erwartet
erzahlen
estabas
estes
estuvieran
etendit
eternas
etonnement
euno
ewig
excellent
explained
extraordinaire
fasse
feels
fer
ferite
feroz
finished
fleches
fliehen
flyter
fods
followers
fora
formagan
forsoka
fortaleza
forteresse
fortsatt
forze
fraile
frames
friar
fysieke
gebaar
gebleven
gebogen
geboorte
gehad
geneve
gentil
geschmack
gesetzt
gesture
geval
gevallen
gewend
gezogen
gifts
girar
gladly
glorioso
google
grans
granser
greci
gruppen
guillaume
guillermo
hant
heilen
hermanos
hierro
hittade
hittar
hoheren
horas
horribles
hubieras
humildad
humilite
humility
igenom
impact
inclino
infinito
informatie
inoltre
inspiriert
intelligens
intensidad
intensita
iron
israel
jaga
jerion
juwelen
kallar
karel
keeps
kent
keys
kin
klattrade
kopfen
korpers
korta
kurzem
langen
lati
leader
lebendig
legt
leidenschaft
lenti
lernen
levendige
lido
lieux
lift
liguria
llaves
loven
lucifero
luminous
magno
malapena
mannes
mantello
mantenere
maudit
melancholie
menor
mentes
menton
meridiano
minds
mission
misura
miteinander
moeilijke
molta
monstruo
morgendammerung
morgon
mostri
multitude
muoversi
naderde
naturale
negativa
negative
neve
nieve
norman
notice
novia
ocasiones
ochtend
odmjukhet
oevers
offers
ogat
oka
onderwerp
ontdekken
opprime
ordet
ormen
orsakar
ouest
ovejas
overflod
overger
overtuigd
overwinnen
panorama
parfaite
partida
passerade
passerar
pasto
peligro
penser
perdono
petits
pheton
physique
piazza
piram
pleurant
plikt
poche
poesia
porti
possano
potrebbero
povero
prayed
preguntar
premieres
problemen
propios
protected
proviene
provoque
puisqu
quita
rakt
reasoning
rebellion
reflejo
regione
regla
religieux
ren
reno
repose
reserve
respiro
riepen
rimanere
riuscivo
room
rop
roterar
rotsachtige
rovina
ruhigen
rund
sanft
sass
scelta
scelto
schapen
scheiden
schlechte
schleier
schoner
search
seek
seguidores
seguono
sentenza
sereno
serious
sex
shape
skal
skapa
sleutels
sluier
soli
sollst
souveran
spear
spel
spoedig
sprachen
starka
statue
stayed
sturm
stuurt
suavemente
subi
subio
submerge
sufrido
sweetness
taak
tankt
tanzen
tegenstelling
tempels
ter
thrown
tiennent
tight
tillbringade
tip
toegestaan
tomas
torments
toro
tort
totale
trabajar
tradimento
trajan
transformed
translate
trees
trekt
tresor
treue
trifft
trogen
trosten
tumbas
uberall
uitleggen
unieron
unita
unterstutzen
valde
vangen
vanlig
vapeur
vardiga
venivano
verbazing
verbunden
verdi
verlangt
verliefd
vernietigd
veroordeeld
verrat
vertrouwde
veste
vestiti
vieja
villes
vinieron
vint
virgile
vogels
voiles
volgden
voorbestemd
vorst
vuelven
weile
werke
wide
wijzen
winds
wollten
worse
worship
zahne
zilver
zozeer
zware
##aat
##achtig
##aking
##all
##aria
##arsi
##blement
##bten
##bung
##camente
##cando
##cciare
##chter
##chtet
##ciado
##cibe
##cide
##ciera
##cit
##cito
##cluded
##col
##crates
##crito
##cupa
##degno
##dible
##dieron
##dizioni
##dro
##dy
##ea
##eht
##eilen
##etti
##ever
##feri
##fia
##fido
##geboren
##gekomen
##geln
##gido
##gier
##glie
##gnait
##halla
##hang
##here
##hy
##ibles
##icos
##idi
##iging
##ijken
##imi
##ined
##inge
##inte
##ios
##itat
##iver
##izzo
##jarse
##jenigen
##kelijke
##ket
##ko
##komsten
##laag
##lata
##lgo
##lid
##llas
##lose
##meren
##mete
##mine
##mmel
##moedig
##nale
##nds
##neemt
##nkte
##nth
##nz
##nzas
##oci
##ogo
##old
##onder
##ordelen
##oti
##over
##passen
##perto
##pete
##pio
##pten
##pus
##rades
##rated
##ratta
##rben
##rce
##rcia
##rend
##resa
##reut
##rgen
##rno
##ronte
##rust
##sando
##setzen
##setzte
##sfulla
##sig
##sm
##sses
##ssing
##staat
##tiendo
##tient
##tine
##tit
##tzt
##ub
##uben
##uchten
##ueva
##uio
##uisce
##uld
##ulte
##undo
##upire
##utare
##uwde
##vad
##vaient
##wekt
##wellen
##wert
##yant
##zata
##zco
##zel
##zelf
abierto
abre
absoluto
accoglienza
achtergelaten
adamo
adorned
agile
agit
alberi
allait
altos
altrui
amar
amas
andato
andrar
angemessen
animales
animals
animaux
antal
antiguos
anxiete
aparece
apertura
apoyo
approach
approcher
arboles
arbres
arduo
arrogance
arrows
ascender
asombrado
assise
assurer
ast
attrape
aurez
ausgeloscht
axlarna
badly
befehl
begrip
behalten
behov
beperkt
berge
beruhigt
bescheiden
bestemming
bestraffing
betete
bieden
blanca
blieben
blow
bomen
book
borja
boses
bouger
brandende
breast
brydde
bryter
buitengewone
burn
busca
cabello
cadde
carlos
cease
certamente
cherche
chiamo
chiedo
christen
clouds
comenzaron
common
compare
compito
compresi
conditions
conozco
consideration
console
conversation
coronas
corone
correctamente
corrio
coscienza
cour
creada
crowd
cruzar
cuori
dageraad
daligt
dam
dama
debil
decouvrir
delade
delay
deprived
desgracia
desiderava
detiene
detuvo
devait
dici
dient
dimora
disperse
disposto
distinguish
divenni
division
dold
domandare
dreimal
drempel
dry
eat
edad
eigenschaften
einfach
eingang
embrace
encontramos
encourage
enemies
enemigo
enemigos
enganado
enganar
ennemi
ennemis
enojado
entrance
entrusted
envio
erfahrung
erleuchtung
erlosung
eronder
espaldas
espresso
evangelie
evangelio
evangile
eve
exakt
exist
exito
fabbro
fadern
fagel
faktiskt
fangade
fangen
fantasi
fatica
feind
felices
festung
fianchi
finito
fiumi
florentines
flytta
foljt
folla
follia
fordel
foremal
forklarar
forman
formando
forsiktig
fortress
forvandlade
fossato
fouten
frecce
freudig
freunde
frightened
frutos
fulle
fun
fyller
garna
gedicht
gefahr
gefangnis
gekweld
geleerd
generosa
generous
genre
geruch
gescheurd
geschickt
geschmuckt
geschrieben
gesten
gewoonte
gioco
giorni
giovani
giunse
gjord
gladde
gobernante
gobierna
golpe
gooide
gospel
grandeur
grausam
gritar
gros
grossere
gryphon
guardava
gunst
gustaba
hacerle
hafen
hakan
helle
herkennen
hermana
himmlische
himno
hoffe
hoor
hopen
hungry
huvuden
incontro
induce
inferiore
informe
innerhalb
inno
intensity
intensiver
invano
invite
jordens
jovenes
kasta
keuze
kinn
kleidung
korset
kurze
latin
lehre
lents
leon
leuchtenden
levantar
levantarse
libra
lidit
likes
liknar
lita
llevaba
lleve
longing
luck
lyckades
lyda
mage
magen
malicia
malvagi
manifest
manniska
materiella
medborgare
mettere
michael
mijl
millier
misere
mixed
moglichkeit
molesta
monstre
mont
mostrar
mostrato
muhammad
nachfolger
naturliga
natuurlijk
necesita
nemici
nennen
nes
noten
observeer
observerar
obstacles
obtain
offenbarte
offrir
oiseaux
onderbroken
onderworpen
onderzoek
openen
ordeno
oren
originale
oundvikligt
ouvrir
overtygad
oyeron
oyo
palais
palo
pasion
passande
pastore
pecheur
pen
pensato
perdio
perdue
period
persino
persiste
plagar
plagas
planen
pocos
poets
points
possessions
potevano
precioso
prepara
prevent
principal
prochain
producerar
profession
profondi
prudent
puerto
puse
puts
quantite
quelles
questione
rage
rechterhand
recompense
refugio
regne
regrette
relacion
relation
rennen
responder
rettung
richiesta
riddare
riefen
riesci
riflette
rios
riquezas
risk
risposto
riusci
rivers
rivieren
rivolta
roer
rosten
royal
ruler
rygg
sacrificio
samlades
sanker
sanno
saro
scattered
scese
schau
schreef
schritten
schwach
schwere
schwester
scoprire
scura
segura
semplice
sends
sentimento
serian
servitore
seuil
severa
sharp
shirt
siede
sincera
sister
sit
skriver
skuggorna
slott
slutat
smell
sneeuw
soglia
soir
solch
solitaire
solitaria
sorella
souvenez
spiel
spinto
stairs
stattdessen
streckte
suche
supuesto
susser
svaret
tantos
tels
temo
tempesta
tenant
teneva
terminar
terrore
testaments
thin
threshold
throw
tillfredsstallelse
timon
timone
titus
tonnerre
traffar
trahison
traicion
travaille
traverser
trennt
treppe
tystnad
uberhaupt
udire
umane
umbral
umilta
unterbrochen
uppmarksam
upward
usci
utfora
uttrycker
vacante
vana
vapore
varen
varma
vaxer
velen
venti
verantwortlich
verbannen
verbindung
verboden
vermogens
veroorzaken
verrast
vertraut
verursachte
vijand
vijanden
vinci
virtuous
vluchtte
volevo
volgelingen
volontiers
vorrei
vorteil
vraagt
vroeger
vuestros
waste
watching
ways
wear
wearing
weep
welcher
wenst
winnen
zahl
zampe
zaten
zeige
zingend
zonsopgang
zwaar
zwak
##aald
##aars
##aken
##almente
##ario
##band
##bei
##bon
##cera
##chreeuw
##chst
##ciando
##cieuse
##cilla
##cimento
##city
##ciuta
##ckade
##clamando
##coit
##come
##crita
##cu
##cular
##dele
##dem
##dencia
##derd
##digo
##dite
##ducir
##elte
##enti
##estra
##fica
##flict
##fora
##forma
##fre
##ften
##gard
##gehouden
##gence
##ggiato
##hagligt
##hie
##hig
##hnten
##hrte
##hrung
##hte
##ides
##idita
##ids
##ifs
##ift
##ign
##igte
##ijke
##illo
##ily
##ises
##itare
##ition
##jen
##laren
##lazione
##leven
##lin
##locken
##lom
##lommen
##lon
##menda
##mens
##mette
##ming
##mnade
##naar
##nacion
##nais
##ncio
##neo
##ngd
##ntane
##pande
##paro
##pecial
##perare
##pero
##perte
##pet
##plorare
##porto
##ppa
##pping
##prime
##pro
##rados
##rap
##raten
##reet
##rice
##riga
##rino
##rip
##ris
##riva
##riven
##rmente
##rtes
##ru
##ruire
##ruzione
##sants
##see
##stal
##stijgt
##stond
##tel
##terte
##tic
##tira
##tista
##tivi
##tna
##toe
##traal
##uce
##uere
##uesta
##uge
##ulation
##ules
##unge
##unto
##uono
##urant
##urer
##usta
##vare
##vera
##vete
##vig
##vla
##volge
##volto
##vor
##wassen
##wickelt
##wing
##xes
##xion
##yait
##yed
##zocht
##zufuhren
##zung
aalmoezen
abiti
accepteren
accolto
accroche
acquire
acquis
afdaalt
afdalen
affirme
afflicted
aimais
aktion
aldste
allontana
allvarlig
almosen
alti
amici
amoureux
angelique
ansiedad
anxiety
anziana
appreciated
appropriee
argento
aristoteles
armed
asegurese
atado
atminstone
attentive
augmente
auquel
ave
avresti
bagen
bambini
banks
barmhartigheid
bedriegen
benche
beraubt
beschermd
bestamde
betrug
beval
bevara
bezittingen
bid
birds
blancs
blinden
boer
borda
borgo
breite
brothers
buch
buigen
buitenste
buscando
cadeau
caina
caldo
cast
causado
celi
cenno
centauro
challenge
cleopatra
coin
cominciai
commit
comparable
comportamiento
comprensione
comun
conforme
conio
considero
contained
continuar
costretta
count
credendo
criaient
cunning
dagar
damen
danni
dauern
deberias
dechire
dedicated
defendre
dejame
dejaron
demut
deny
depths
dergelijke
desolate
despierta
destinado
destroyed
diamant
diepten
diferencia
discovered
disposicion
distant
divinos
divins
domande
domenico
donate
donder
dovessi
doveva
draag
drangte
draussen
duidelijker
duistere
ears
ebro
eder
eenzame
egypte
einst
eleccion
elenden
eloigner
elsewhere
emana
embrasser
emporung
empty
empuja
endowed
energi
energy
enorm
entfernung
envia
equally
erbe
erden
erfahren
erfarenhet
erhebt
erhohen
erinnerte
erreichte
escaliers
esce
europe
event
examinez
experienced
exultation
faite
familias
familien
familles
fels
felsens
felsigen
ferais
fiender
fierce
fill
filles
filosofo
fissi
flechas
fliegt
flies
folie
forflutna
forsiktigt
fortjanst
fous
frankrike
frappa
frihet
fuerzas
fugte
fuhlt
furchten
furia
galler
gavor
gebaren
gebe
gebeurde
gebildet
geburt
gegenteil
gegenuberliegenden
gekke
gele
gelegd
geleidelijk
genauso
gerausch
gereflecteerd
geschah
geschlagen
geschutzt
gesti
gestopt
gesunden
getauscht
gevolgd
glaubst
glorieuze
glucklichen
goldenen
gouverne
gradually
gratande
greedy
greeted
gren
grens
gridavano
grifone
grow
guerir
guided
guiscardo
hadn
hail
hamnen
handla
hangivna
hannah
harliga
harlighet
harsh
hector
herde
hielp
hindra
hindrade
hubo
huesos
hunde
ideas
illustrious
illvilja
images
impidio
imprime
impuls
india
indico
indique
informacion
ingresso
insignificante
intenser
intensite
intent
invisible
isn
ispirazione
jamas
jesu
join
jubel
juego
kallades
kampfen
kastar
kende
kissed
klor
knochen
kor
kou
kreuz
kus
kylan
lacht
lagt
lam
lander
lands
langsamen
laster
laugh
leal
learned
leo
leone
leuten
levenden
libres
lille
linguaggio
ljusen
llegada
llenos
losen
lovade
lura
machst
malebolges
mancanza
manda
mangd
mangiare
mato
mei
melancholy
menti
meriti
miel
minosse
moeite
montrant
mortals
motstand
mottagning
movimientos
nagonting
naso
necessita
nederige
nederigheid
neus
nez
niccolo
niveau
notizie
nubes
numerose
ocean
oceano
offenbart
offrire
omgiven
oneindige
opgelegd
opportunita
oreilles
orsaka
oscuros
osservai
ourselves
ouvre
overgav
overwegen
paese
parles
penis
penna
pensare
percepire
perros
piedad
plagade
pleins
plenamente
poetas
poetes
poeti
poetique
pointed
population
pote
potei
presta
prier
primeras
privilege
privilegio
proches
profundidades
promised
promises
proprie
quaggiu
quanta
quiera
raad
raakt
raakte
raken
rare
reaching
realiteit
receptie
rechte
regeert
regles
rejoint
reprises
request
resi
resonemang
responsible
retourna
retrouve
reussi
revenge
ricevere
ricevuto
richesses
richt
ricorda
ripida
rocks
rodeado
rort
rotta
rubicante
saben
sacree
sagradas
sakerhet
saliva
satisfaccion
sauve
schafe
schlamm
schliesslich
schmerzhaft
school
schuttelte
schwelle
schweren
scipion
scirocco
sechs
sembient
senbiante
sentado
sentencia
separo
serre
servir
share
sicheo
sienta
siervo
sighs
significa
sinon
sixieme
skar
skola
slaat
slass
smaak
smartsamma
snall
sogleich
soldano
sorgente
sorprendas
sorrise
sospiri
sostiene
soumis
soutenir
sphere
sprida
sprider
stackars
stalle
stands
starkare
stavano
steile
stellte
steniga
stervelingen
stieg
stier
stig
stjarnan
stok
stops
stormen
strackte
straffar
stromen
stufen
stund
subimos
sucedio
suficientemente
suggestion
supporter
suscite
svek
symbool
synden
taille
tampoco
tegghiaio
teile
temere
terugkeer
terza
teste
thank
themes
thunder
tjanst
tombee
tome
tondo
tornato
tornet
traffa
traffade
tranquilo
tristi
triunfo
tromperie
troostte
troubled
troy
turbato
tvingade
uberzeugt
ucciso
uiteindelijk
ulysses
umarmte
umgab
unable
unio
unisce
upplysta
upwards
usare
utiliser
vagues
vandrade
vederlo
veloci
venger
verbonden
verbrechen
verdedigen
vergeven
veroorzaakte
verschenen
verschwinden
verspreidde
verstandig
verstecken
vertical
verticale
verwijderen
veulent
vice
vilse
volesse
voortdurend
vorne
voro
wachst
waves
wegging
welcomed
werkelijkheid
werkt
win
zeiten
zes
zesde
zette
zoet
zoetheid
zuruckkehrt
zwarte
##acht
##aines
##aker
##arm
##auen
##baarheid
##berg
##bida
##bit
##boom
##brengt
##cchio
##cero
##certain
##char
##ched
##chia
##chio
##chliesst
##ciso
##cited
##ciuto
##ckas
##cklar
##cole
##ctor
##cultad
##cura
##curato
##dato
##dente
##deren
##dero
##dica
##dligt
##draagt
##druckt
##due
##ellas
##erden
##erse
##esimo
##ess
##essen
##esta
##eto
##fard
##fatto
##fetto
##forme
##gano
##gava
##geben
##gera
##gesetzt
##gewandt
##gezogen
##ghe
##gliata
##gnent
##gora
##gras
##gungen
##haller
##handel
##huis
##hungen
##iata
##icato
##ieke
##ill
##ionen
##itazione
##itudine
##ix
##iz
##izione
##jon
##js
##jt
##komma
##kommst
##lad
##lda
##lgono
##lima
##lst
##mble
##mbro
##merkt
##mogen
##mune
##mutable
##nam
##ndade
##ndi
##nfa
##ngs
##nischen
##nons
##nska
##oien
##oir
##osso
##pf
##plique
##pola
##porta
##prese
##presenta
##pto
##quent
##rable
##rahlen
##rain
##rale
##rankt
##rates
##rche
##reiche
##rg
##ridad
##riff
##rir
##rix
##rudence
##ruk
##san
##ship
##side
##siva
##ssa
##stans
##tano
##tate
##tati
##teren
##tlich
##tono
##trate
##ttura
##ucion
##udio
##ueuse
##uft
##uhen
##uk
##ulated
##ulen
##ulla
##uosa
##usion
##usst
##uter
##utzen
##valt
##vestigd
##visar
##vlucht
##voca
##volgde
##volta
##volved
##wachte
##we
##weeg
##woord
abandonner
abbiano
abend
abito
abrumado
absence
absoluta
absoluut
abstinenz
accepte
accepter
adecuado
affaires
afterwards
ager
agite
agito
akt
albert
alcanzado
algun
alimenta
alimentos
allegria
alliance
allvarligt
altrimenti
altrove
alza
andai
andava
anvertraut
anzuschauen
appropriato
aprender
arbeiten
arca
archiano
arrogante
asesinado
aspirations
attendant
attends
autrefois
avance
avis
bacio
baume
bedoel
beesten
befindet
befreien
begannen
begick
begraben
behavior
belang
beneficial
benevolence
benevolencia
benevolenza
bepaalde
berattar
bereikte
bereitet
beroemd
beruhmt
beruhrt
beside
besitz
besitzen
bestemd
betere
bewegingen
blattern
blek
blixten
blomma
bolgien
bones
bood
bouclier
brabant
brake
branda
brauchen
brechen
breken
brillava
brood
caballeros
cacciaguida
cambiado
cambiare
cantava
capisco
capture
castigados
cattiva
cattivo
cavallo
caza
chacune
charme
chiens
cieco
circular
claws
coat
cometer
comprende
confronto
conscient
considerado
consolo
conte
contemplate
contiene
contrary
convertirse
correspond
courte
creeren
criait
cuarto
cure
daarvoor
daraus
debole
dejando
demenage
deplacer
destine
destro
devoue
dieren
dignite
dijiste
dilemma
dimostrare
divento
douces
dovresti
dreams
dritta
duidelijke
dunn
dwaas
dygder
dying
dynastie
dyrbara
early
effet
eindelijk
elegido
elementen
eltern
emerged
emerveillement
ended
endroits
engagement
enlightenment
enorma
epoca
erhoht
esamina
escalar
esferas
esilio
esperaba
eternamente
etincelle
evenement
exilio
experte
faced
facts
famiglie
feiten
fellow
feurigen
forbidden
forstaelse
forstatt
forvaning
fosco
foso
fragar
fratelli
fru
fuggire
funften
funken
furchtete
furies
fysiska
garda
gedragen
geheilt
gehorchen
gelezen
geopend
gequalt
geschlossen
gest
gestes
gewissen
gewohnt
gezond
giant
godly
golf
gomde
gracht
gradito
gregory
groen
grosste
grym
guardian
guards
guider
haaren
habilidad
hago
hallit
halsade
harmoni
harpies
healed
helas
helpt
herab
herkules
hermosas
hielden
hjul
hoek
hojden
honorable
hostile
hot
hours
hoyo
hugel
huilend
ida
ihop
illumina
illuminate
iluminado
imaginacion
impenetrable
imperio
impresa
increase
indispensable
individuen
inert
inferieure
intact
intelligent
intensitat
intensiteit
intero
italiano
ivag
ivrig
ivriga
izquierdo
jacob
jahr
jenem
job
joint
kamrat
kar
kings
kleid
koningen
kopfe
kosten
kreises
kreuzes
kyss
labbra
labios
lame
lampo
langsammare
langzamer
lasse
laste
lattare
lauf
leeuw
lege
lektion
lentos
letters
leuchtende
levres
libera
lichtern
liever
lips
litet
lof
loop
luchar
lugnt
managed
manifestation
manna
manniskans
markt
martelaarschap
martyrdom
martyre
mata
meaning
meerdere
meningen
merken
mien
mince
minnas
mitglieder
mo
moat
mode
morgonen
morse
mostra
motion
motstandare
moviendose
muovere
naden
naherten
nakna
nariz
neanche
necesaria
nemico
nieuw
norte
nose
numerosi
nuvarande
nyheter
nyligen
obeir
obey
obligado
observa
observado
observando
occasions
occidente
occupe
odmjuka
oeste
offerte
ofrecer
oga
ohren
olas
omrade
onderdrukt
ongeluk
osservavo
overtraffade
overvaldigad
overvinner
overwonnen
parfaitement
partire
party
peleo
pequenos
perception
pericolo
permanecer
permanecio
peschiera
piaccia
pierres
pilger
platziert
pleases
poetico
poles
politica
portant
pot
potessi
potra
precise
preparado
pressa
prevented
privi
problem
producido
profiter
profondeurs
profonds
project
prominente
provai
provoca
purche
pyrrhus
querida
quieren
rammarico
rara
razonamiento
rechterkant
reconforte
reconoci
reflechir
reflection
regels
religioso
reluctant
remembered
removed
remplit
rena
rendant
repas
represente
resplandeciente
resten
restez
revenu
reyes
richtte
ricordati
ride
riesco
rimasi
rocce
rois
romains
romanos
roms
rotate
rotswand
ruckkehr
runs
rykte
sakra
salomo
sann
sapiente
saved
scharfe
scheidt
schnee
schwarzen
scintilla
secoue
seguia
sentier
servizio
sfuggire
shepherd
shield
shut
signes
signo
signs
silber
sinone
sits
sjatte
skapat
skapats
skaran
skarpa
skickar
skonheten
skrik
slaan
slosa
sluttningen
smala
snow
sodom
solid
sonder
sorrowful
sosteniendo
soweit
speed
staren
stijgen
stralend
stunden
stupefait
suss
syster
tacere
tacka
tage
takt
tauschung
tekenen
tenendo
terminado
terrenales
terrestres
tierras
tjanaren
todes
toegewijde
torens
toricht
tradition
trampa
tranquille
travailler
tremblement
trionfo
trono
troosten
trostade
trostete
trueno
trumpet
turno
uitgesproken
undersoka
uppfattning
uppfor
urlo
using
utstrackning
vacka
vagn
valiente
valsignelse
vangelo
vaso
vaxt
vaxter
vechten
velocita
venait
venite
vents
verbeelding
verbrachte
verdwijnt
verheugen
verschijnen
verschijnt
versierd
verstandnis
vertrek
vientos
vierten
vilar
vilda
villa
villig
vintern
violento
vishet
visite
vissuto
viste
visuelle
vliegt
voorkomen
voorwaar
vorbei
vorwarts
vrije
vullen
waargenomen
wanhoop
wartete
weak
weinend
weint
welk
wellen
welwillende
wende
wiel
wunschen
zak
zaken
zeilen
zogen
zondaar
zone
zucht
zugang
zugefugt
zuhoren
zweeg
zweig
zwijgen
##ambre
##anas
##andro
##anger
##anten
##arla
##armt
##art
##ative
##bilita
##bilite
##bite
##blemente
##bord
##boven
##breken
##by
##cable
##cante
##ccata
##cche
##cciata
##ced
##ceva
##chaft
##chlossen
##cimiento
##cis
##ckta
##correre
##corse
##cting
##cuencia
##cupado
##dado
##dant
##derar
##dit
##dringen
##druck
##du
##ebbe
##efd
##eil
##eks
##erlich
##etto
##fahren
##fesion
##fta
##garna
##gegaan
##gelen
##gens
##geschlagen
##ggeri
##giare
##gine
##gla
##guille
##handelen
##hend
##heven
##hing
##hor
##iando
##ians
##ices
##iding
##ieuze
##ifico
##ijst
##iled
##ili
##iller
##imes
##immen
##iosos
##ism
##issant
##itto
##ivas
##ivt
##kennen
##ktigt
##laar
##lache
##lagt
##lander
##lator
##lats
##lava
##lice
##lser
##lve
##mage
##mant
##mda
##mettendo
##miert
##mite
##moord
##mpe
##nal
##nante
##nding
##neerd
##nellement
##nker
##nuis
##ocio
##ofd
##oft
##onen
##oren
##ost
##ously
##ouw
##ovade
##oze
##pado
##peso
##piano
##pida
##pido
##pitare
##presion
##ption
##puesto
##radas
##rage
##rans
##rara
##rati
##rda
##reckt
##reek
##rende
##rente
##resse
##rigen
##ritt
##rity
##rni
##rrido
##rts
##ruckt
##ruir
##rus
##sance
##satt
##seguir
##sige
##sigen
##sin
##site
##sivo
##stralen
##svard
##taan
##tava
##tegen
##telt
##temi
##tenido
##teur
##teurs
##tische
##tiska
##tory
##trano
##tria
##uable
##ualmente
##ubio
##uches
##uda
##uee
##uild
##uise
##uma
##undet
##unta
##unti
##upe
##usement
##uwt
##vamente
##van
##veel
##veille
##verd
##vers
##voerd
##voudige
##wahre
##wicht
##wore
##worpen
##wurdigen
##yllt
##zan
##zugeben
##zusehen
##zzando
##zzano
1266
580
abandonar
abbandonare
abbondante
abido
abrazo
accompany
accorso
achieve
acquacheta
acquasparta
acted
acts
adan
adornado
afferma
affermi
afflitto
agera
agnus
aguglione
aimable
aimerais
alagia
alardo
aldobrandeschi
alessio
aletto
alighieri
almi
alms
alpe
altavilla
amaba
amato
amomo
ampiezza
anadio
anastasio
ancianos
anselmuccio
antandro
anwesend
anwesenheit
apparait
aprire
ardentemente
aretusa
argia
argumentos
argus
ark
arles
arnaut
arouse
arrigucci
arrival
artigli
arunte
assolutamente
astri
atamante
atmosphare
augenblick
auriez
ausciano
aussah
averroe
avgrunden
ayudo
bagnacavallo
bagnoregio
balance
bana
banco
barga
bari
barucci
bassa
beda
bedekken
begehen
begiftigd
behovde
beklimmen
belacqua
belief
belisario
belles
beloof
belzebu
benefique
benevolo
berengario
bergamaschi
berger
bernardino
berta
berti
beruhren
beschermen
besluit
bestie
betekenis
betes
betet
betrugen
betteln
bevel
bevrijden
bewahrt
bewakers
beweis
beweise
bilder
bindi
bismantova
biss
bite
bliva
boja
bok
bolge
bolso
bonatti
bonconte
bonturo
borea
borsiere
branden
brebis
brescia
bresciani
brillando
brindisi
brod
broke
brosse
buggea
buglione
buondelmonte
buondelmonti
burgers
buscar
cacume
cagnano
cain
calcante
calliope
callisto
camaldoli
camina
campaldino
cani
canzone
caorsini
capaneo
capeto
caponsacchi
capraia
caprona
caras
cargo
cariddi
carlino
carraresi
casale
casse
cassino
castrocaro
catellini
catona
catria
caught
cavaliere
cecina
cerbero
cercare
certaldo
cervia
ceuta
charlemagne
chevalier
chiavari
chirone
chispa
cianghella
cicognino
ciego
cimabue
cirra
citoyens
cittadini
ciudadanos
claires
clio
coins
colpisce
comienzo
commande
compassione
comprend
concern
conclusione
confia
confini
confusion
considerato
constant
consuelo
contempler
continuare
convinced
convirtieron
corradino
corruption
cos
cosenza
costretti
country
coups
creacion
creating
credevo
creusa
creyendo
cristianos
crossing
croyant
cualidades
cuerdas
cunizza
cuyas
daarboven
dags
dahin
dalig
damietta
damm
dampf
dancing
danser
darefter
darts
data
davor
deci
decreto
degre
degree
deianira
delo
demeure
demone
descanso
descender
described
descubrir
deseaba
desesperacion
desespoir
desiderare
destinazione
determined
detourne
devenus
devint
dieux
dignes
dignidad
dignita
diletto
dimensione
dimma
discendente
discorsi
disfrutar
dispose
divisee
djavlar
dogs
doigt
doodde
douai
dovesse
doy
dragged
draw
drehten
drev
duera
dun
durata
durazzo
durchbohrt
durchgang
durfde
duur
dygden
ecce
ecuba
egidio
elba
elder
elena
elettra
eli
elia
eliodoro
eminente
empecher
empujo
encuentre
enfin
entendue
entiendes
entire
entwickelt
eolo
erben
ergeben
ergebnis
erhielt
eri
erinni
eritone
erklarung
ertoe
erzahlte
esau
esclamai
esfuerzo
estremo
etape
etendue
euripilo
exceso
excess
exhausted
exhorte
explore
expose
extraordinaria
extrema
ezzelino
fabi
fabrizio
fageln
falterona
fantolini
farsalo
fatta
feared
federigo
feiern
fermi
feuers
fierte
fieschi
fifanti
figline
filippo
fillide
finding
fiora
fitting
flegetonte
flegra
flock
florins
flykt
flyr
folco
folgten
folo
forlorar
forsok
forsvara
fortezza
fossati
fotino
fought
fragile
francesca
francesi
franco
fuertes
fuiste
gagner
galeotto
galigai
galluzzo
game
ganar
garisenda
garza
gaville
geant
gebiet
gebouwd
gecreeerd
gegenseitig
geinspireerd
geistern
gel
gelebt
gelernt
gelesen
genoux
gepast
geri
gern
gerusalemme
gester
gestorben
gestos
gestures
getuige
gewaardeerd
ghino
gielosia
giotto
giulia
glaubens
gnista
goden
goffredo
golven
gorgona
gorgone
governa
governolo
grandeza
gransen
gratitude
grav
gridando
gridare
griffolino
gualandi
gualdo
gualterotti
guardias
guardie
guaschi
guasco
guilty
guinizelli
habituellement
hacerme
hagas
handlar
handlungen
hautefort
heal
helst
herstellen
hiding
hinab
honden
hoppet
horst
hostel
huidige
hurry
hustru
hymn
illustere
imbarazzo
imperial
implacable
incline
indica
indusse
initial
inizia
inmiddels
innerlijke
inspiracion
inspiratie
instinkt
intensitet
interest
intraprendere
inviato
inzwischen
iole
ippolito
isere
isidoro
jerusalen
jesucristo
jeu
joue
joyas
juventud
kejsaren
key
kinderna
klooster
knight
konige
konstellation
korrekt
korsa
krallen
kreatur
kring
kvallen
kyrkans
ladron
lagg
laissant
lambertazzi
lamone
lanfranchi
langsamer
langzame
lano
lapi
lapo
lappar
largheza
latini
laurel
lebendige
lebendigen
leed
leg
legame
lemno
leran
lesquelles
liberato
liebhaber
liedje
liefen
lieto
lijdt
listos
livio
load
lob
lobos
loderingo
logudoro
lonely
longa
losa
lowen
lucio
lucis
luid
luigi
luminose
luscinio
macario
madera
maganza
mago
majestat
malabossa
malaspina
malizia
manfredi
mangiadore
manifesta
manifested
marcabo
marcello
marcia
mari
mariage
mario
marmor
marsia
martino
mascheroni
materielle
mauro
meal
megera
mehrere
meleagro
melodies
menalippo
merze
minachting
mincio
miracles
misleid
misleiden
mitad
mochten
moderne
moesten
monaldi
montefeltro
montemurlo
monviso
moro
moronto
mortelle
mosca
mostrado
mouvements
moverse
mrs
mucio
muddy
musica
naakt
nace
nackt
naderen
narmast
nascere
nascosta
nase
nehme
nemmeno
nerli
niobe
niso
nocera
noemt
noli
novello
nuages
nubi
oandliga
observant
oderisi
odjuret
olycka
olyckliga
omberto
omfamnade
omtrek
onthoud
opposition
orazi
ordning
orecchie
organen
organo
oriago
orillas
oroa
orvieto
osservi
overvaldigade
overvinna
overwint
paard
pachino
paduans
pais
palladio
pania
papale
pari
parve
paulus
pause
pavese
pecador
pech
pecore
pendiente
penelope
penetrates
pensant
pentesilea
peoples
pera
permission
persio
peuples
pia
piaceva
pido
piede
pienamente
pietole
pieve
pila
plotselinge
poeten
poetiska
polenta
polimnia
polissena
ponthieu
popoli
poser
praised
pratomagno
precies
preocupacion
pretend
prijs
prisciano
problemas
procedeva
procedi
produceert
progress
proserpina
prostitute
protege
prouver
provato
provenzan
puccio
puissant
puits
puniti
purifie
puro
pushes
qualcos
qualites
qualities
quarto
quintavalle
quinzio
quisiera
rabano
ragionamento
raisons
rana
raphel
rattfardiga
rea
reale
realiser
recherche
reflektierte
regardaient
regenbogen
reglas
religios
renewed
reposer
ressemblait
restant
reward
rialto
riccardo
richeza
richte
richter
riconobbi
ridder
rieti
rika
rimini
ringen
rinoardo
risorgi
riss
rivolti
robes
roccioso
rogue
romeinen
romualdo
rossa
rouges
rubaconte
rude
rufen
ruht
rum
sack
saken
salieron
salue
salvani
sanleo
santerno
sapia
sassolo
savena
savio
scarmiglione
scevola
scheidde
scherpe
schicchi
schlossen
schmucken
schwierig
sciancato
scotto
scritto
scudo
seat
selten
semifonte
seneca
senigallia
servicio
sestri
seufzer
sguardi
shouldn
sieges
sigh
sighier
signa
significado
significato
sile
simoenta
sinner
sintio
sipa
sismondi
sizi
skriva
skynda
slangen
slet
sluiten
slutar
smart
smiling
snelheid
soddisfazione
soigneusement
somn
somnen
soratte
sorga
sorprende
soupirs
spark
speciale
specie
spjut
sponda
spreads
stabilito
steam
stiess
stjarnbilden
stolta
stoom
storhet
strekte
streven
stricca
strid
stroomde
stuk
style
successivo
suenos
sugli
suitable
summit
superbia
supero
supported
surprise
suspiro
suspiros
swabia
table
tacker
tadino
tafani
tagliacozzo
tagliagola
tagliamento
taide
talamone
tambura
tamiri
tanken
tarquinio
tebaldello
tegelijkertijd
tegenover
telles
tempie
tenminste
tercera
terenzio
tesauro
tignoso
timeo
timmen
tiresia
titone
toestemming
tommaso
toonhoogte
tore
torres
torri
totalement
toucher
tourment
towers
trace
trage
traido
traits
tramontana
trappan
tratando
travel
trennte
trespiano
trevigiana
tristan
tronto
tropo
troskeln
trovava
tust
tvekan
typheus
tyvarr
ubaldini
ubaldino
ubaldo
uberti
uccellatoio
ughi
uguccione
uhi
umarmen
umbra
union
unisono
unseres
unterstutzung
unvermeidlich
uppenbart
uppforande
ursakt
uticense
valcamonica
valdarno
valdichiana
valdsamma
valpadana
valvilja
vanstra
varrone
vasten
veilig
velas
verachten
vercelli
verdienen
verdwijnen
verfolgen
verfugung
vergewissern
verhogen
verhuisde
verlasst
verlossing
verna
vernaccia
veronica
verpakt
versammelt
verschwindet
verschwunden
verstehst
verstoken
versuchte
vert
verteidigen
vertrouwt
verwacht
verwerven
verwondering
vetta
vicina
vienes
vienne
vierte
vigoroso
villanova
vinto
visibles
voedt
vollkommen
vonk
voorbereid
vreesde
vreugdevol
vreugdevolle
vurig
waarnemen
waffen
wandering
wapens
weinten
weisse
wel
wickedness
wirft
wissant
woeste
wollt
woods
yttrade
zabi
zambrasi
zara
zeno
zita
zorgde
zuruckzukehren
zustimmung
##ables
##aco
##ally
##ander
##aneamente
##asse
##assen
##aste
##ather
##ativa
##bita
##brachte
##bri
##bria
##bst
##buted
##carus
##cchino
##cciava
##ccoglie
##ceda
##chants
##chera
##chuldig
##chuldigen
##ciano
##ciava
##cile
##ckeln
##clude
##cons
##culaire
##curata
##cuter
##dades
##daigne
##dens
##denza
##detti
##dicare
##diti
##domen
##dosi
##drag
##drang
##dus
##ect
##edde
##eefd
##eken
##emen
##ena
##enden
##endose
##enza
##erre
##esse
##fere
##ffa
##fice
##formeerd
##forming
##fus
##gangspunkt
##geber
##gedacht
##gefuhrt
##ggetti
##ggiante
##giert
##gitto
##gnata
##grade
##gues
##guire
##gustin
##hafte
##handeld
##hed
##hip
##houd
##iale
##iate
##icando
##ichtet
##ics
##idung
##ieten
##igenia
##iges
##igia
##ila
##ilado
##imenti
##inario
##iose
##ischer
##izado
##izar
##izzare
##jada
##kamen
##kand
##kanna
##kannande
##kap
##kare
##kehrt
##komme
##ktad
##laban
##lasst
##lico
##liessen
##ligo
##lik
##lippe
##liques
##llan
##llar
##llente
##lling
##luit
##mann
##mee
##menso
##mitteln
##mming
##modiga
##mond
##mord
##mpio
##nahme
##nano
##nava
##ndering
##ndido
##ndra
##nien
##nnt
##none
##nor
##nsible
##ntino
##nzado
##oden
##oid
##oll
##opea
##ort
##peglar
##pesa
##piega
##pine
##pisce
##pisci
##pit
##posing
##ppet
##preso
##presso
##proken
##quiere
##rank
##raum
##ray
##rees
##reia
##reich
##rennen
##ribili
##rieben
##riften
##rijke
##rijven
##rin
##rions
##riore
##riori
##riormente
##rire
##rist
##rma
##roepen
##rpen
##ruft
##ruik
##run
##ruta
##rve
##sation
##seligkeit
##skilt
##sna
##sons
##spiegelt
##spirando
##spraak
##spreken
##ssement
##ssible
##standen
##stante
##stehen
##steigen
##stel
##stig
##tag
##takt
##tene
##tent
##tenu
##tering
##tete
##tinto
##ton
##trade
##trare
##trera
##ttar
##ttern
##tua
##tum
##uato
##ubt
##uchst
##udet
##uels
##uera
##uero
##uerte
##ugie
##ugte
##uilla
##uja
##uli
##ulos
##unciando
##unds
##upt
##urado
##uraient
##urait
##urgo
##urno
##urro
##ush
##utable
##utato
##utes
##vait
##vand
##vde
##vern
##vida
##villiga
##vin
##vince
##waar
##ward
##werfen
##wohnlich
##ximo
##yeron
##ying
##zang
##zaron
##zer
##zie
##zorgd
##zuhalten
aangeboden
abbandono
abilita
absolument
absolutely
abstinenza
abundant
abundante
accade
accompagnato
accorsi
accueilli
aceptar
achterliet
acquerir
acute
adlers
adquirir
advance
afkomstig
agradables
alegre
aliments
allmosor
allontanarsi
allting
alturas
amata
ampio
ancor
andert
andliga
angezogen
angolo
anhangare
anhanger
anhelo
anledningen
annee
ansiehst
antenati
antiche
antichi
antigone
antipurgatory
anziano
apporter
apprendre
arbia
arch
argenti
argomenti
arrache
ascended
aska
astro
atractiva
atrae
attache
attenti
aufgeben
aufgegeben
aufzusteigen
augustinus
aumento
aumone
ausbreitet
ausdrucken
austro
aveugles
avond
avvicina
axlar
baard
bach
baile
baje
barbarossa
barbe
bast
bathed
battu
beantworten
beard
beasts
beat
beating
bedauern
bedekte
befann
begeleidt
bernardone
beroep
beschaftigt
bestammer
besteht
besten
bestias
bet
betrekking
bevroren
bewaakt
bewaffnet
bewegungen
bezahlt
bijoux
blade
blandande
blast
blinda
blonde
bolsena
bonaventura
bout
brabante
brama
bread
breedte
breitete
brennenden
brillants
brillare
caballo
calaruega
calboli
calls
campagnatico
canavese
cantavano
capace
capii
carignano
carpegna
carved
casalodi
cassero
castelli
castiga
castillos
castles
causato
causing
cavalieri
cecilio
ceprano
chateaux
chercher
cheval
chiana
chiare
chiarore
chiascio
chor
cirklarna
claim
cle
climene
closely
cloth
clothed
collapsed
compagna
complain
completa
comportamento
comportement
comprension
comunque
confine
considerez
contadino
contemplare
continuing
corno
correctly
corrisponde
coucher
counsel
coupe
courtois
craint
creados
creazione
creeerde
creen
cristiani
cru
cuantos
cuerda
cumbre
curiazi
daro
dazzling
decrit
deden
deifile
demonen
denkend
denne
densa
depasse
descansar
descendientes
deserto
desierto
destinato
deuren
devais
devoid
devriez
dicevano
dichtst
dicken
diera
dignity
dimman
dioses
dirent
dirty
disent
disperazione
ditches
dito
diventano
dividido
domandai
dommages
donare
doni
donnee
donnera
doors
douves
dovra
drag
drangt
dressed
droegen
druckte
dug
duwen
dwaling
echange
eed
eenheid
eenmaal
efectos
egale
egendom
einklang
eins
ejemplos
elementi
elementos
ellende
encuentran
enseigne
entends
epouse
equilibrio
eredi
erkanner
erstaunen
escondido
esempi
esercito
esperan
essayer
establecido
establecio
estrecho
eurialo
evidence
examples
exces
excuse
exemples
existerar
explicar
exploits
extremo
facesse
facing
facolta
famosa
faren
feltre
fermes
festen
field
fiera
figuras
fil
finsternis
fisica
flee
fliessen
floh
focus
foljeslagare
forakt
forget
forklaring
forlorad
formano
fortjanster
forutsatt
fosses
framsteg
framtradde
fraud
frozen
fruher
frukten
furchtet
gaddo
gained
galet
gana
gardien
gardingo
gebadet
gebaut
gebeurtenis
gebruikte
gedanke
gefixeerd
gegooid
geheim
gehoorzaam
gehoorzamen
gelegenheid
gelegt
geliefden
gelijke
generando
generated
genti
geoffnet
geopenbaard
geproduceerd
geraakt
gesloten
gevoed
geweldig
gewidmet
gezet
ghibelline
ghisolabella
gioielli
giudice
giungere
giurato
glowing
goddelijk
gommer
gradvis
grandezza
gravarna
grimpe
grimper
grosserer
guardato
guelphs
haast
haastte
haat
habrias
hagel
halcon
hallet
hamnas
handle
hansyn
harte
hath
headed
healthy
herbes
herder
herrschaft
hervor
hid
hierbas
hiervan
hinzufugen
hinzugefugt
hoeveelheid
hojd
hojde
hordes
horse
hud
hueste
humaines
hunden
hungrig
huyo
identical
identificeren
iemands
igualmente
ilerda
ill
impegno
impermeable
impide
improvvisamente
increible
indice
individ
infelice
inferieur
infinita
inflige
influenza
informationen
informations
informative
informed
inser
inspirerade
instruments
intendo
intensiva
intentie
interdit
interes
interet
intresse
invanare
invisibles
iride
ismene
jeruzalem
jette
jeugd
jongeman
juden
jugend
jurk
justinian
juwel
kastelen
kenntnis
klagar
klinge
kloster
koninklijke
konntest
koos
korruption
kottet
krachtig
kraver
kwaliteiten
kwestie
ladrones
lama
lamplig
landen
langia
laps
laser
laurier
ledare
leeg
lenta
lezen
lis
lizio
lode
lojal
loudly
loups
lu
luisterend
lume
lupo
luzifer
lyft
maaltijd
major
malade
manskligt
maravillosa
maravilloso
marca
marchant
martyr
martyrium
masa
massimo
materiales
mauer
measure
mechancete
medelijden
medlemmarna
meilleur
meisje
merites
merveilleuse
merveilleux
middelen
militaire
mitgefuhl
mois
mojligheten
monch
monta
monteriggioni
morada
morgens
mostrara
moter
motsvarar
mynt
nahern
narma
nasconde
nasidio
neiging
nerfor
neu
neues
niemandem
noemen
noodzaak
notig
nourrit
nuance
numerous
nuovamente
nus
offri
okade
omfamna
onrecht
onthouden
oorspronkelijke
opstond
orbisaglia
ordered
orm
ormanni
orsakat
orte
orten
osanna
oso
ostiense
overens
oye
padrone
painted
palido
pane
pannan
paradisets
parar
parezca
parlez
patto
pegasea
percevoir
percibir
percu
perdere
perfectamente
perfection
personer
peticion
pettinaio
pfeilen
physischen
piacque
piave
piccoli
pieces
pieni
pinamonte
pirro
plage
pluma
poderoso
podrian
portava
potresti
poured
prast
prendi
preserve
pressade
prijzen
printemps
probeer
procedendo
procedevano
produire
profumo
progressivement
promis
prononce
pronunciare
provocato
prudents
purpose
qualcun
quienquiera
quizas
raising
raisonnement
rassemble
ravignani
razones
reactie
reasons
recently
rechter
rechtvaardig
recien
recompensa
reduce
reflekterade
regardai
regeren
regering
regieren
reihe
reizen
relatie
relative
remordimiento
rencontrer
rendi
repentir
reprimande
resan
resonne
responsabile
response
ressemblaient
restare
reus
reveler
revienne
ricca
ricerca
ricomincio
rid
riesce
riferire
riflessa
rimorso
rire
rocoso
rodeaba
rodret
roepen
romani
rosen
rott
ruggieri
rummet
ruotare
ruse
ruthless
sabello
sacerdote
sails
saknar
sakta
salendo
salt
samlas
samman
sana
sanctions
sbagliato
schepping
scherp
schlacht
schlag
schurk
schwieg
scintille
sehnsucht
self
semblant
sembrano
sennaar
sepa
serchio
serpents
serpientes
seuls
sfere
sicht
sick
siecles
sieg
sinistro
sint
size
skilja
skrattar
skydda
skyldig
smalle
smarrito
smartsamt
soeverein
sofferto
soffio
soka
soldaten
sollevo
songs
soplo
sopportare
sorrow
sotma
sottostante
souffre
sparks
spass
spend
spharen
splendida
spot
spraken
sterker
steun
stiegen
stracka
straft
stronger
stuur
styrkan
subiendo
sufficient
suggere
suivit
superato
suscita
svarta
synlig
tacco
tackta
tarpea
tatsachlich
taught
tela
templos
tenebre
threatening
tilde
tillade
tocar
toekomstige
topino
toppo
touched
tranger
transforma
traversaro
trembler
trente
tries
trieste
triomf
tristemente
tropfen
trotta
troupeau
trovi
trunk
tuono
tuttora
tydligare
tysta
uberqueren
uberwinden
ublich
uguale
uiten
uitleg
uitstraalt
underneath
undersok
unge
unhappy
unite
unterdruckt
uppfatta
uppfyllas
uppgift
upplyste
urbino
urlare
utica
vado
vagade
vaincu
vaio
vaknade
vakterna
vapen
varelsen
varios
varmen
vasto
veas
venia
ventaja
verantwoordelijk
verdiensten
vergeben
vergeet
vergezeld
verhindert
verhuisden
verkliga
verlichtte
verliebt
verneigte
veroordeelde
veroordeelden
verrucchio
verschwenden
vertrekken
verward
verzoek
verzweiflung
videro
viendra
vinculo
vinger
visuele
viven
vivid
vivida
vloog
vluchten
voleur
volker
voorbeelden
voort
vorhanden
vuela
vunnit
waardigheid
wagon
walks
warmte
wege
welwillendheid
wensen
weren
werfen
wichtig
wisst
woke
wolven
wolves
working
wussten
zachtjes
zama
zanjas
zerrissen
zingt
zittern
zodiaco
zongen
zuruckgelassen
##aard
##aben
##ached
##aching
##aci
##adora
##alte
##ann
##ap
##aran
##ards
##armi
##arnas
##arte
##ay
##bbel
##bben
##biendo
##biert
##bod
##bonden
##brado
##bte
##bue
##bute
##cacion
##cchia
##cedido
##censo
##cente
##cessarily
##chafft
##chaient
##changed
##chtung
##chuldige
##ciar
##cifico
##claim
##corde
##corsi
##crivere
##ctivo
##culte
##cute
##danig
##daren
##darna
##delen
##dheid
##dse
##duisent
##durch
##edt
##eit
##elo
##eme
##enas
##epen
##eso
##ette
##eurs
##even
##ew
##falls
##farer
##feld
##ferencia
##fezione
##fflighet
##fft
##ficar
##ficare
##fida
##fies
##fizieren
##flitta
##forms
##fuhrt
##fuso
##gali
##gata
##gats
##gegeben
##gelost
##gente
##ggen
##givande
##glarna
##glas
##gles
##gliato
##goten
##graben
##gre
##greifen
##gua
##habited
##haglig
##hallande
##hielt
##higen
##honderd
##hood
##iado
##ial
##icar
##ication
##ichi
##icio
##icious
##ick
##ider
##ience
##iest
##iete
##ija
##ijo
##iker
##ild
##iment
##inato
##iraten
##irbt
##iro
##irse
##ishes
##itage
##itel
##ites
##itie
##itud
##ize
##izzata
##jando
##jeron
##jet
##jur
##kanten
##keerd
##keln
##kenbaar
##kenen
##kig
##kliga
##klimming
##kom
##lada
##ladda
##lamo
##lanken
##legt
##lent
##leva
##lga
##lici
##liep
##liesslich
##lini
##lke
##ller
##llos
##loeiende
##loss
##lossen
##luia
##maakte
##matige
##mede
##mensa
##messa
##mettant
##miendo
##minare
##mmade
##mmarna
##mning
##mod
##mor
##mutig
##nahmen
##naje
##nande
##ndigt
##ndrade
##neigt
##nerna
##ngar
##niez
##nire
##nische
##nnata
##nni
##nses
##nui
##offer
##olt
##onal
##orata
##ordinario
##ouwen
##ovar
##pace
##pant
##parar
##past
##pels
##pers
##perti
##pft
##piracion
##pirant
##poten
##pressa
##proche
##rabile
##ragt
##rains
##rants
##rappato
##rarlo
##rastra
##rats
##rdi
##rdia
##recha
##rede
##reo
##rev
##rgo
##riage
##rias
##rina
##ringar
##rium
##rives
##rms
##rnacht
##room
##rosa
##rtato
##ruito
##rune
##sada
##sado
##sano
##sava
##sikt
##sino
##sluta
##spar
##sprak
##staende
##stod
##stra
##strale
##sura
##tai
##tains
##tch
##tee
##tere
##teria
##tezza
##tible
##tiche
##tif
##tlichen
##tning
##tort
##tragen
##trale
##ubre
##udre
##uelve
##uia
##uigt
##ulieren
##ullo
##umi
##unced
##unse
##uous
##urar
##urare
##urish
##urzt
##uset
##usse
##vater
##vento
##venuta
##villigt
##vious
##volezza
##vons
##vres
##wachen
##weicht
##wendet
##werk
##werkt
##yder
##yendo
##yr
##zag
##zionale
##ziosa
##zos
##zundet
aardbeving
abbi
abel
abraham
absolutamente
accompagna
acone
acre
across
adapte
adore
affermando
afgeleid
afirma
afirmo
africa
afterward
agatones
aine
aldobrandi
alegremente
alivio
allmahlich
allows
alpen
alpes
alstublieft
altas
altesten
amica
amiclate
amorosa
ananias
anassagoras
angeliques
angenommen
angio
angiolello
angrade
ankunft
annanstans
antaeus
antalet
antigua
antiguas
antipurgatorio
aosta
apennines
appreciate
arga
argumentation
aro
arretez
arrivera
artighet
artimon
asche
ascoltato
asiento
askan
asopus
aspettare
assieme
assoluta
assume
astrale
atmosfaren
attendait
attent
attityd
audaz
aufhort
auktoritet
aulide
ausgedruckt
ausgesprochen
autentica
autoritat
averlo
avgrund
avvicinai
avvicinarsi
baan
bajando
baksidan
bapteme
beccheria
bedecken
bedrar
bedrog
beefde
beelden
befahl
befinner
bega
behagar
behoefte
beleefdheid
beleidigt
bend
bepaald
bereich
bescheidenen
bestaat
bestimmten
besuchen
betekent
betrayal
bett
bevindt
bied
bisanti
bisogna
bloody
bodde
bold
bordo
bother
brachten
brak
braucht
breaking
breaks
brinner
brud
bruges
bugade
buono
burden
byta
cadmos
camminando
camminavo
canciones
cappelletti
caron
carries
carrying
casar
celebrate
certaine
changing
chaos
chere
chiarezza
chiave
chiedi
china
chispas
chretiens
circondato
circonferenza
clouded
coderon
colchis
colour
commanded
commitment
comparison
completed
comprendi
condamnation
condannato
condemnation
confession
confiar
connaissez
conocia
consent
consigo
construit
consume
contenuto
continuamente
controllo
convaincu
convencido
convento
conviction
convinzione
cordes
corretto
corriente
corse
costoro
couches
couru
creati
creencia
crimes
cuerno
cupido
curiosidad
dansa
dared
darf
darrade
decirle
decirme
decise
decouvert
dedans
delicate
demandant
demora
descendiente
descendio
descendit
description
despair
desperate
destinata
devoti
dicha
dichten
diedi
dimostro
dinos
diogenes
diomedes
dioscorides
direcciones
dirmi
distinct
distinguer
dividida
divisa
djupare
doble
doctrina
dolda
donau
donnant
donnent
doorboord
dotato
dottrina
douloureuse
dovrebbero
downstairs
droefheid
drommar
droog
drottning
duft
dwong
earthquake
eccesso
ecrire
ecritures
education
efecto
effects
effets
effondre
eftertradare
ehren
eifrig
einsamen
elegant
elemente
elever
emu
enden
ends
eng
england
ensure
entdeckt
entendi
entendit
entere
entfernen
entfernte
enthusiasm
entusiasm
erfgenamen
erlangt
erlauben
erlebt
esconde
escrituras
especie
espectaculo
esperta
espiritual
essersi
estende
estremita
eteint
etincelles
etna
etranger
eunoe
euripides
evangeliet
evangelium
evenements
events
ewiges
existieren
explanation
expresa
expressing
extends
facciamo
failed
farai
fardeau
fasten
faveur
fedelta
feinde
fermarsi
feroces
fertig
fideles
finde
firmemente
florentijnen
florentinos
flug
flusse
flyttat
fonction
forcee
forgive
forlatelse
formar
forneka
fornuftet
forsvunnit
forsynen
frambringar
franciscan
french
freundliche
fritt
froh
frukta
fruktade
fuggi
fulgore
gange
garantie
gast
gebeurtenissen
geduldig
geduwd
geestelijke
geholpen
gelubde
generation
genomborrade
gentille
gentilmente
gently
gentucca
gerecht
gered
geroepen
geschatzt
gesteld
gestuurd
gewapend
gewinnen
giace
gigli
giordano
giornata
giuochi
glanzende
glanzte
golpeada
gouvernail
gouverner
grain
grausame
greek
grifo
groeien
grootte
grosszugigkeit
gualdrada
gubbio
gudomligt
guidare
guiscard
habrian
hades
halvklotet
hangiven
haren
harp
haughty
hauteurs
hauts
heading
heet
heights
heiliger
heirs
hemels
herederos
herinnerde
heritiers
herkend
hermitage
hesitant
hette
himmelsk
homo
hoorn
horizontal
hoss
hote
humiliation
hung
hypothese
ide
identify
ignorance
illuminates
iluminados
immaginazione
immagini
immerse
impitoyable
including
incontrato
indignacion
indruk
inexorable
inflicted
influencias
informazioni
ingangen
ingannare
iniziale
injustement
insatiable
intellektet
intera
interieure
interna
interprete
inutile
invitation
invloeden
iris
irritation
isifile
isott
italian
jagade
jakob
jaloers
jarn
jews
joden
joins
joshua
josue
joyeusement
juba
judios
juez
juifs
juweel
kalten
kamer
kante
kenmerken
kennt
kindern
klap
klonk
knees
knieen
konigreiches
krachten
kreaturen
krijg
kronan
kvall
lagar
lamenta
landes
langtar
largeur
larm
lasciava
lateran
latit
lattnad
lealtad
leaning
learcus
leefden
leeftijd
leerde
leere
legno
lelies
lesen
lesser
lettres
levai
levantado
liebte
lilien
lilies
limiti
limits
limousin
linje
lirios
ljusstyrka
llave
llenas
llevando
lograr
lojalitet
lombardia
loss
lova
lovar
lucha
mach
machtig
madness
magnificencia
magnificenza
magnifika
mainardi
majestic
makten
malebronches
malo
malvados
mange
manieres
manifiesta
manniskors
marchions
margaret
marzucco
materiale
materiali
mechants
mededogen
mediterraneo
medkansla
medusa
menace
mensaje
mention
messaggio
messe
midas
migliori
milan
mild
miran
miraron
mittel
modena
modern
modet
montague
morale
mostrava
moto
motor
muda
muovevano
murmure
museau
muso
mutig
mysteries
nacimiento
nadenkt
nadert
names
naples
nascita
naturlichen
naturligtvis
navarrese
neighbor
nektar
nieder
nilo
nodvandiga
noe
nombres
nomi
noms
normalmente
normandia
notas
novaras
novo
nutrimento
nutzlich
obedecer
objetivo
observez
odmjuk
odmjukt
offenen
offensichtlich
offerto
ofrece
ofrecio
omhelsde
ondergedompeld
onderwerpen
ongelukkige
ontmoet
ontstaan
operare
oppet
oprechte
ordenes
orne
osservo
osterut
oudere
ouders
pagan
palace
palacio
paladin
palats
palermo
palestrina
pallas
palm
papier
pardonne
pare
parfum
parlarmi
particolare
passeren
pastores
pavens
pelerin
pelgrim
penetrated
penses
peregrino
perfectly
perfettamente
permitido
pertanto
piange
piangeva
pieux
pikes
pisa
piume
pleegde
pleurait
poignee
pointe
pole
polyclete
pongas
portaient
portait
portugal
posee
posesiones
potete
potrai
preferable
prenda
presenter
presi
principle
prise
prision
probar
produjo
profit
promets
proof
property
propias
proprieta
proteger
protegido
provare
provenza
prudenza
pueblos
puedan
pula
purifica
purified
push
qualt
quassu
quieras
quieto
quito
rahab
raices
raise
raseri
rebuke
recemment
reconocer
redenen
redenering
reeds
reflechi
reflecteren
reflejada
reflektieren
regalos
regio
regole
religione
reparieren
report
resist
respire
responsabilita
rests
retire
reunieron
revelado
revelo
reverence
richiamo
riflettere
rifletti
rimanga
rings
rinner
riprese
rivolge
robert
robusto
rodano
rodillas
roja
romena
romer
rompe
ros
rotation
rote
rudder
ruina
ruines
rumore
runden
sages
saggia
sail
salmo
salomon
saludo
saluto
samlade
samuel
sardonapalo
sassen
satire
scenes
schaffen
schat
schenkt
scheur
schreeuwend
scintillante
scoprirai
scriptures
scritture
sculpture
scylla
sechsten
seduta
seguaci
seguido
sembri
senales
senalo
sensacion
sentais
separado
separer
servo
seville
sforzo
sicheus
sicilia
sientes
sighing
similaire
simonides
sir
sjomannen
skala
skickade
skinande
skrammande
skriker
skydd
slaagde
sleutel
slim
sloot
smicker
snakes
soggetto
soil
sokrates
solia
solve
sorgsna
sosta
soudainement
souhaite
souri
souriant
soutien
speise
spelen
spero
spettacolo
spirituale
stadera
stadte
stained
staio
stal
stamm
stavamo
stazius
stege
stelt
straalde
strange
strenge
stretti
stuurde
sube
succes
successivamente
sujeto
sultan
sunlight
surely
surpasse
surse
suyo
svag
svani
svarar
svardet
swear
symbolen
tagen
tamano
tana
tararna
tear
temia
templo
tenaient
tend
tendria
terres
terribles
territorio
theban
throne
tieni
tillfallen
tilltalande
tint
tips
tira
tisbe
tobias
toegevoegd
toestaat
togs
toloma
toorn
torto
totally
toulouse
tragische
traidor
traine
traite
traitre
trasformo
trat
traveled
trillen
troja
trouvent
trouvez
trusted
tvinga
tvingades
twenty
twisted
tycks
ubertraf
uberwindet
uccise
uitdrukken
umfang
undersoker
unghie
unido
unknown
unpleasant
unteren
unterschied
unterworfen
uppleva
uppmanade
upptackte
urania
utsidan
vackert
vagleder
vague
valvilliga
varme
varus
vaska
vaskan
vaxa
vayas
vederla
verblind
verboten
verdammter
verdeelde
verglichen
verkrijgen
verliert
verlies
verliest
vernachlassigt
verontwaardiging
veroordeling
verrater
versammelten
verslagen
verspillen
verteidigung
vertrieben
verwachting
verzweifelt
vicenda
vigore
vingt
visionen
vital
vitesse
vivent
vivido
vleierij
voeding
voegden
vonden
vonken
vooruitgang
vorrebbe
voudrais
voulons
voyons
vreemd
vues
waait
wache
wachtte
wagens
wahnsinn
wanhopig
wax
weapons
weggenomen
weigeren
welzijn
wenigen
wider
wijn
winde
winden
wirkung
wonderen
wunsches
wurzeln
youth
zeigten
zerstort
zonlicht
zoppo
zweigen
##aaien
##aalt
##aca
##acine
##ains
##ali
##allen
##amento
##ammelt
##antie
##arda
##aries
##armen
##arten
##asen
##asing
##atte
##aze
##bation
##bbing
##bieten
##bing
##bituel
##blo
##bond
##bor
##brengen
##brochen
##bud
##caba
##cant
##cati
##cciones
##cciono
##ccorse
##cement
##cendio
##cendo
##centi
##cesion
##chaut
##chere
##chlichen
##chreven
##ciende
##cies
##cieuses
##cir
##ckad
##corpion
##cqui
##crete
##cri
##critto
##crive
##cteerd
##ctes
##ctie
##cties
##cultades
##cultura
##data
##degna
##derde
##dette
##deva
##dibile
##dicate
##dien
##digd
##dischen
##door
##dran
##eging
##ehrt
##eide
##eille
##eint
##eis
##elde
##elles
##eloos
##endra
##erad
##erende
##etta
##etten
##faite
##fame
##fatte
##feccion
##ferma
##ffad
##fidare
##fiero
##fil
##finie
##firo
##fle
##folgt
##foljare
##gara
##geef
##geeft
##geerde
##gene
##gers
##geschrieben
##getaucht
##gevallen
##ggiando
##gierte
##gil
##givna
##gkeit
##grado
##grond
##grund
##gs
##gten
##gura
##haga
##hall
##hangig
##hangt
##heiten
##hoben
##horen
##hundert
##icher
##iede
##iendose
##ierde
##ieri
##ieuse
##ife
##igend
##ight
##igten
##ii
##ijd
##ijden
##ijkt
##ikt
##iles
##illen
##ilmente
##ilte
##imiento
##imite
##inar
##inted
##iones
##iono
##irent
##ischio
##isen
##iser
##isme
##isten
##ivano
##ivement
##ivos
##jod
##jorden
##jour
##juk
##juka
##just
##juta
##kas
##keken
##kennbar
##kennt
##kingen
##klagar
##komna
##kraft
##ksam
##ktade
##ktioner
##laars
##laca
##ladd
##lagade
##lagga
##lben
##leept
##lei
##leiding
##lem
##lera
##lerera
##lf
##liez
##light
##likt
##linge
##lken
##llieren
##lm
##lokt
##lux
##lvo
##maken
##mals
##mano
##mden
##mel
##mering
##mettre
##mica
##min
##mitiendo
##mmeln
##mmi
##mmung
##mpa
##mpte
##mutige
##nada
##nados
##nali
##ndoci
##ndono
##nel
##neming
##nera
##nere
##ngere
##ngst
##nik
##ningarna
##nita
##nnato
##nterna
##occo
##och
##oder
##oit
##oked
##ologie
##opa
##ops
##orato
##ostro
##ott
##ou
##ousness
##pannen
##passait
##pata
##pato
##pelen
##pettato
##ph
##pil
##pin
##pinta
##pir
##pirai
##pirar
##pitato
##plico
##posizione
##posta
##prehensible
##pressed
##ptie
##queo
##quia
##rag
##rama
##ranken
##rature
##rece
##recido
##reiten
##renant
##rendo
##repa
##resta
##resti
##rets
##rezzo
##richten
##riera
##rieron
##rifie
##rified
##rive
##rivet
##rivi
##rivna
##rlig
##rnas
##rness
##ronti
##rouve
##roz
##rummet
##rure
##rva
##ryck
##ryckt
##sais
##samma
##seau
##sene
##servo
##skapet
##slag
##spraken
##ssait
##stelling
##stocht
##sures
##tagen
##tande
##tend
##tende
##tiere
##tliga
##tocht
##trar
##trat
##trated
##tres
##treten
##ttere
##uant
##uata
##ueel
##uell
##uhe
##uiera
##uilli
##ulations
##ull
##umma
##unce
##unciar
##urri
##vag
##vart
##verk
##versee
##verted
##vez
##vidad
##viel
##vil
##vit
##vlekt
##volgen
##vos
##waalde
##waardig
##waken
##walen
##warf
##wart
##wege
##wiesen
##yance
##zados
##zeichnet
##zetten
##ziet
##zige
##zij
##zijn
##zoeken
##zone
##zoso
##zten
##zug
aanbidden
aanbieden
aangetrokken
aankwam
abad
abate
abbatte
abbe
abgeschnitten
abrir
abstieg
accaduto
accettare
achte
achtste
acompana
acquired
acquisito
actes
actua
admired
affaire
afrika
aggiungere
agissait
aimant
aiment
akte
alabanza
allah
allee
allontanati
allontanato
ambrosia
amoroso
amphiaraus
anadir
ancetre
andarono
andas
andata
andatura
andrade
anfortrodde
annehmen
annoying
ansehen
anser
antun
anyway
anzahl
apart
aperta
appelait
appetit
appointed
approchait
arcos
arcs
arnia
arose
arten
ascenderen
ascesa
ascolti
aside
aspetta
aspettando
asseoir
astonishment
astucia
astuzia
asuntos
aterigen
atormenta
attack
attira
attonde
attraper
aufhorte
augmenter
augustine
aumenta
ausreichend
ausstrahlt
avancer
avantages
avgora
avicenna
avvicinava
avviker
awaits
axel
baiser
bande
baptism
baptiste
baren
bart
battesimo
bauer
bautismo
beantwoorden
becoming
bedeutet
bediende
bedrovad
beenden
beet
befand
befleckt
befria
begaran
begrusste
behagen
behandelt
bekraftar
bekymmer
believes
belohnt
beloningen
benaco
benessere
beobachte
bergers
beroofd
beschaamd
beschlossen
beschreven
beschrieben
besefte
besloot
besloten
bestimmte
betaald
betrugt
beundran
beute
bevapnade
bewahren
bewondering
bewunderung
bezitten
bienaventuranza
bienestar
bilancia
bitteren
blancas
blatt
bo
bologne
bonden
boodschap
breekt
bremse
brisa
brulant
brutal
brutale
budbarare
cadeaux
cadiz
caido
cambiando
cambiato
caminos
camminavamo
cancellato
candore
cantaba
captured
caronte
causer
cayendo
ceinture
centaurs
centuries
ch
chaud
cheat
chevaliers
chiara
christenen
christians
cielare
cils
circonference
circumference
circunferencia
cire
claimed
clin
coeur
commettere
competence
compie
complexe
condena
condenacion
condusse
confuse
conosco
conseille
consideracion
consideres
constante
contemplar
contingent
contrairement
coraje
corda
corne
corresponde
corrupt
coupable
coutume
covers
crack
creduto
crete
croient
crowned
cumplido
curiosity
damon
dansade
dansar
dapprima
daring
darte
debba
defensa
delivered
demanda
departure
desagradable
desaparecido
descente
despertar
despised
dessutom
detourner
detruit
detuvieron
deviendra
dief
dieselbe
diffonde
digas
dignified
diminue
directe
directly
directo
diretto
diriges
dirigida
discesa
discursos
disdain
disprezzo
dissipated
dissipe
diventata
diversamente
divinite
dock
dolente
dolt
donatus
doorgaan
dote
douleurs
draws
drojer
drop
duquel
duramente
eating
eccellenza
eerbied
eerbiedwaardige
eerlijk
eeuwen
eigenes
eighth
eingehullt
either
elevato
eliminera
ellendig
endured
enferme
engels
entendant
entendimiento
entero
entourent
entres
equivocado
erased
erduldet
ereignis
erhoben
erkenntnis
erneuert
erschopft
erst
erwartung
erzengel
esaminare
escribir
esiste
espece
essens
esser
estilo
eurem
evangelist
exactamente
exactement
exactly
excelencia
expect
expectation
explicacion
explication
extrem
fahren
falen
fallet
familiar
familjer
farebbe
fascinated
fattig
faucon
felici
female
fetonte
fielen
fiende
fier
fills
filthy
fingen
fiorentini
fissare
fissure
flaming
flammande
flattery
flehte
flits
focused
footsteps
foraktade
forandras
fordelar
forment
forslag
forsvar
fortjanar
fortroende
fortuin
forvandla
forvantan
framtiden
franziskus
frein
freudigen
frisons
frondas
fruhling
fuite
fullen
fureur
futtern
fylld
gat
gather
gebruikelijk
gedreven
geeignet
gegensatz
gegner
gegraven
gehabt
geheel
geholfen
gehorsam
gelaten
gelitten
generosidad
generosita
genitori
gerechte
gereinigt
gerufen
ges
geschilderd
geschwindigkeit
gesetze
gewinnt
gewist
gigantes
giganti
giriga
giunti
gladjen
glass
glatt
glomma
glorieuse
godere
golpes
gomma
gotter
grabern
grano
graziano
greatness
grecs
gregorio
griegos
grieved
gritaba
gritaron
grop
gropen
gudfruktiga
gunstige
gurtel
gutern
habeis
habitacion
hablarme
hablas
halen
halve
handel
harstammar
hate
hava
heben
heerscharen
helm
herauskam
herbs
herders
himlavalvet
hing
hinten
hjulen
hoflich
hotel
hug
huitieme
humanas
humbles
hundar
hunt
husband
identique
illuminata
iluminada
immersed
importancia
impostor
impronta
incarico
index
individuals
individui
infeliz
injustamente
inklusive
inmediato
innata
innehaller
inquiete
insignificant
instante
insufficient
inteligente
intelligences
intentions
invited
invocando
irriterande
italiener
jamforelse
jenes
jeunesse
joyeux
judith
jungfrau
kallt
kampade
keert
kiefer
klargora
kloof
knights
komst
konsten
kontrolle
kontrollera
koud
krafter
kraftfull
kreten
kretsar
kronor
kruiden
kullen
kuss
kussen
kwelt
lache
lamentos
landsman
larde
lasciando
latter
lazy
lealta
lebe
leccion
lecon
leegte
legato
lente
lesson
lets
leugens
lezione
liberare
liberi
lichtstrahl
lid
liessen
linjen
livres
llevaban
loben
locos
lontana
lontananza
louange
loue
loyaal
lugen
lupi
lurad
lyckas
lyckligt
maagd
mad
maladie
malditas
maledetto
malvagie
mamma
mangel
manifesteert
manifesto
mantuve
marido
marins
marito
marked
married
maten
matrimonio
medlemmar
meedogenloze
meeres
meilen
mejores
mene
mensajero
meravigliosa
meritos
merits
mezcla
miembro
miglia
millas
minska
misdaad
misero
modest
modi
modos
momentos
moneda
montes
monti
mordio
mordu
mossi
mosso
mostrarle
motte
muestras
mueven
munnar
nacque
nahrt
nakomelingen
necessaria
neglected
neigt
njutning
nod
noje
notado
notare
notato
nourishment
nudi
nudo
nutre
nuttig
obbedire
observation
occhiata
oculto
offerta
offesa
omstandigheden
onderscheid
ontmoetten
ontrouw
ontstoken
opgewonden
ordino
organe
organes
organs
orgulloso
orient
osakerhet
ostacolo
outrage
overlagsen
overtroffen
ovunque
pains
paleis
partenza
pasiphae
passie
passieren
pastar
pastoral
pastori
patriarch
pedi
peggiore
pellegrino
pendio
pennine
pentimento
perduto
permanecido
personal
pesa
peste
pfeile
pidiendo
pidio
piege
pierde
plaatste
placeres
plaisirs
plateau
platone
play
podamos
poem
poeme
posibilidad
positive
possede
possess
possibilite
poursuivre
preciosa
precision
preda
preoccupazione
preoccupazioni
preocupaciones
previamente
preziosa
principale
problema
proceeding
produceren
profundos
promesas
promesses
prophetie
prosegui
pursue
quante
quels
queremos
questioni
quite
raddade
rango
rapportera
rasande
rebano
recientemente
recommande
reddish
redete
redondo
reduit
reed
regionen
regna
regresen
rejouir
rekening
relazione
religie
remos
repair
repareren
repondis
repos
reputacion
reputatie
reputazione
rested
revenez
reverencia
rhythm
rhythmus
ricchezze
ricco
richtete
ricordi
ridders
rijke
rimasta
riposa
rit
ritengo
ritme
ritorna
ritornare
ritrovai
riuscire
rives
rivieres
robo
roep
rok
roman
romulus
rougeatre
royale
ruilhandel
ruled
rusade
rushed
ruta
sabor
saison
sake
salia
salterello
salto
sanger
sanka
sannerligen
sano
saresti
scena
scendendo
schaue
schaust
scheitern
schickt
schlafen
schlagt
schlangen
schliessen
schmeichelei
schnauze
schrieb
schutz
scoperto
scritta
seca
secoli
security
sede
segnale
segni
seins
selvaggio
sensible
separata
separato
septieme
serena
serment
served
seventh
severamente
sexto
shepherds
sidorna
siglos
siguieron
sii
silencieuse
singt
sinnena
sjonk
skams
sken
skrack
skyddade
skyndade
slapen
sloja
snabba
socrate
sodra
soffia
sogni
sohnes
solida
solitamente
sollievo
solos
somliga
sopraffatto
sorjer
sospiro
sostanza
sostener
sottile
soudaine
souhait
soulagement
sounded
sources
southern
spiegato
spiegazione
spirituelle
sporen
sprich
stader
stallde
standigt
steh
steigen
sterns
stigit
stimmt
stopping
storlek
strafen
strak
straordinaria
straw
streben
stretch
stretta
strike
stupirti
substanz
suceder
sucht
suck
suicide
suivis
summer
sundigen
superare
surmonte
suscitare
sustancia
suya
svarigheter
syfte
tacque
taureau
taurus
taverne
tegenstanders
tells
tempio
tende
tenne
termina
terreni
tetes
thief
tillracklig
tjanade
tjock
tolto
topp
tornerai
toscan
totete
touw
tradgard
traditore
traitor
tranquillement
transparent
trascorso
tratar
trattenere
traume
treasure
tricks
troppa
trotzdem
trou
trouvee
trouwe
trugen
tuvieron
tuyo
twice
uberlegen
uccelli
ufern
uiterlijke
uitgeput
umdrehte
unglucklichen
uppmarksamma
urged
ursprunget
usciva
utrymme
ux
vacant
vaga
vaggar
vaknar
valdsamt
vardighet
varg
vaters
vaxte
vaya
veda
vedova
vedra
velocidad
vemos
venaient
vennero
verachtelijk
verachtung
veranderden
verano
verantwortung
verbijsterd
verdediging
vereis
vergebung
vergehen
vergezellen
vergossen
verklaring
verla
verletzt
vermoeidheid
verrader
verschillend
versteckten
vertraute
vertrouw
verurteilung
verwandeln
verzamelden
verzamelen
verzette
vesti
vieler
vieren
vigile
vil
viniendo
violenta
visiva
viss
viuda
vocht
void
volete
voleurs
voltee
volviendo
volviendose
voorzien
vorausgesetzt
vorgehen
vorschlag
vreest
vrezen
waage
waanzin
waaraan
waarover
wachs
waldes
wande
wedding
weduwe
weggenommen
wein
welches
wen
wept
wine
wonen
worked
woud
wrath
wurdigen
zerstoren
zerstorung
zevende
ziekte
zodanige
zuflucht
zuhorte
##aaide
##aas
##achen
##acity
##ages
##alita
##alle
##allo
##andi
##andling
##arde
##arden
##ardo
##armd
##ases
##ath
##atore
##atta
##aving
##aza
##barkeit
##beerd
##beitet
##bels
##bieron
##bil
##binden
##blaadjes
##bled
##blich
##blie
##boden
##brach
##brio
##burger
##casta
##cava
##cazione
##cel
##celado
##cella
##cence
##cende
##cesa
##change
##chas
##chieden
##chiere
##chil
##chting
##chungen
##ciai
##ciata
##ciation
##cibio
##ckar
##cknet
##ckten
##clara
##cognizable
##connaissable
##cres
##cribe
##crite
##ctos
##cue
##cuta
##dados
##dano
##delijke
##delta
##diamo
##dizione
##dlichen
##dlig
##drade
##dras
##dreven
##droeg
##drukt
##duizend
##durende
##eau
##ebt
##ece
##eda
##eling
##ellen
##enhet
##enis
##erated
##erra
##erst
##esperadamente
##eta
##eutend
##ezione
##fait
##fand
##fardig
##fekt
##felijk
##fenis
##ferna
##ffar
##ffe
##fik
##file
##finato
##fino
##fique
##firmation
##fodda
##fondo
##fortable
##freut
##frontation
##fugen
##garon
##gati
##gation
##gden
##gedaan
##gekeerd
##gelassen
##gelaten
##gelijke
##gemaakt
##gerade
##gerung
##geteilt
##ggande
##ggere
##ggle
##ghero
##ght
##gir
##giska
##gnare
##gressions
##gusto
##haften
##halte
##handeln
##hangen
##have
##heft
##hielden
##higt
##holen
##hora
##hout
##hrten
##huld
##iamos
##ienza
##ieve
##igner
##illant
##imale
##iniert
##inta
##iosita
##ip
##ipo
##isa
##iso
##issent
##itime
##its
##ively
##izzato
##jade
##ject
##juder
##kelse
##kerna
##kicklighet
##kind
##kleidet
##kning
##laat
##laise
##lands
##lange
##last
##lati
##lavos
##lea
##leib
##leiden
##leidet
##lica
##licka
##lide
##liehen
##linkt
##lippa
##liseerd
##lito
##litus
##llement
##loeien
##longe
##luido
##luir
##lvere
##lzen
##machen
##manar
##mang
##maning
##markt
##maron
##meerd
##melo
##melt
##metto
##mettono
##mfen
##mila
##mina
##miner
##mnar
##mpelde
##mpen
##mphe
##mus
##mut
##naient
##naire
##nces
##ncy
##nderen
##nderlijke
##ndes
##ndt
##ndung
##ngden
##nka
##non
##ntar
##nter
##ntie
##nungen
##ocles
##odes
##ojd
##oms
##ookt
##ores
##osamente
##osas
##osita
##osos
##oste
##owed
##palen
##parado
##parare
##pasado
##passt
##pat
##pate
##peler
##pendo
##pern
##piace
##piegare
##pirare
##pirato
##plaatste
##place
##pnad
##polazione
##ponente
##pore
##prendre
##prension
##pri
##pricht
##prise
##qua
##quee
##raba
##race
##rador
##raken
##rala
##ralande
##ramar
##rankheit
##ransad
##raren
##raron
##rassus
##rax
##rayed
##rdnung
##redire
##reichen
##rement
##remos
##renda
##reste
##ric
##rich
##riechen
##rief
##rieren
##riet
##riger
##rijving
##rime
##rimento
##riving
##roet
##roeten
##rog
##rot
##rr
##rred
##rsa
##ruben
##rubt
##rucken
##rue
##rupt
##rycket
##ryta
##sage
##samt
##santes
##sate
##sci
##sera
##sheid
##shes
##sichtigen
##sions
##sition
##slig
##slosa
##slose
##slut
##sning
##some
##sprechen
##spridda
##ssons
##ssus
##staan
##stalla
##staller
##stallt
##standigt
##stappen
##stare
##steht
##stes
##stralar
##suade
##tagit
##tala
##tanz
##tater
##teht
##temming
##tenuto
##terie
##tero
##ters
##tevi
##tirse
##titi
##tle
##tligen
##tly
##tosi
##trag
##trangningar
##treden
##treffen
##trouwd
##truir
##truzione
##tted
##ttering
##tuiging
##uario
##uchte
##uega
##uern
##uffe
##uga
##ugnen
##uig
##uished
##ukommen
##ulacion
##uldigen
##umes
##umo
##unate
##undna
##uovono
##upid
##urd
##urde
##uria
##urit
##urus
##usend
##usly
##ustre
##uttert
##uv
##uven
##uvliga
##uvre
##uyen
##uzen
##vada
##veglia
##venture
##verai
##vermogen
##verno
##vertimento
##vido
##vient
##vine
##vinna
##vinto
##visning
##vite
##vlighet
##vligt
##vningen
##voco
##volmente
##voor
##vraagd
##vrouw
##waald
##wachsen
##wanzig
##waren
##wegen
##wenste
##werden
##wikkeld
##wintig
##wn
##wned
##wohnheit
##woren
##worfen
##ycke
##yrka
##zahl
##zeer
##zeugen
##zionato
aankomst
aardige
abandona
abandono
abbandonata
abierta
absalom
absolue
accadere
acceder
acceptera
accompanies
accorder
accueil
accueillir
acercamos
achteren
acompanado
actuelle
addition
admiracion
adversaires
aegina
aeneid
affanno
afgesneden
afligido
agisce
agitation
aguda
ahead
aimee
akkoord
alce
alegres
aleja
alejo
alert
ammirazione
amnet
ancestor
anch
andate
andavano
anderte
andes
angstaanjagende
anillo
anillos
ankam
anne
anneaux
anselm
ansvarig
antiques
apeninos
apennijnen
apparaitre
approcha
aquiles
aran
arbeta
arbetet
arbusto
arde
argini
arhundraden
arius
arthur
artiga
artist
artiste
asalto
aspetti
asse
assigned
assistance
assured
atentamente
atmosfeer
atrevi
attacked
atti
attract
attraversare
attriste
audacieux
aufgenommen
aufgrund
aufstehen
aufsteigen
auront
ausmass
aussen
aussere
aussergewohnliche
aussergewohnlichen
aussieht
avanzando
avenged
avides
avro
avslojade
avstandet
avversari
backwards
balans
banner
banque
barons
bars
barter
based
beata
bedenkt
beeinflusst
beendet
befriedigt
begleiten
begroette
behagliga
behaupten
beinvloed
belo
benedetta
beneficios
beordrade
berichten
berom
beror
bescherming
beschloss
beseffen
besittning
beskriver
bestatigt
bestrafung
beteende
betrokken
bevarar
bevat
bevolen
bevond
beweerde
beweert
biadas
bianche
bienveillant
bietet
bilda
blancos
bleka
blesseds
blixtar
blodet
blue
blutes
bocas
boiling
bojer
bolonia
bonen
boodschapper
borsten
bosewicht
bota
boten
brandt
brann
bravo
breeze
brillaban
brillent
bringe
bris
brute
bunden
burgen
busse
buurman
byggde
caderas
caduta
cagnazzo
caida
calistus
camarada
camarade
caminaba
camine
cammina
candelabri
cantante
capaces
caractere
castigos
catch
cautela
cayeron
cendres
chandeliers
chasm
cherubim
chiesto
chinato
choisis
chretien
chute
ciegos
circondano
circumstances
ciriatto
clinged
college
colocados
colpita
comete
comparaison
compi
completar
comprendrez
compromiso
comrade
comte
conceda
conde
condiciones
condotta
conduct
conducta
conduits
cone
confio
conmovio
connaissait
connue
consacre
considering
consigli
constantine
consumed
contemplation
contener
contenido
contenu
continuez
convoitise
coperto
corner
correctement
correndo
cosce
cosmos
cost
costas
costo
coupee
courir
couvre
crear
creda
credono
crescere
creuse
crimen
crocifisso
crucified
cuarta
cubiertos
cuestion
cuisses
culpable
custodisco
cyrus
daedalus
dale
damnation
danos
deberian
decidio
deference
dejes
delvis
demselben
densidad
densita
densite
density
denso
depend
desagreable
desaparece
descansa
descending
desgracias
desideroso
desnudos
desperat
desprecio
destello
destinee
destruccion
destruido
detaljer
detalles
determinar
determination
devaient
devotamente
devote
devout
devraient
dichterbij
dichtheid
dieb
difesa
differenti
differenza
dijen
diken
dimostra
dimostrato
dinastia
discuss
disgusto
diskutera
disposed
distinction
distinguere
distinguir
distracted
distrait
diventando
divines
diviso
djavlarna
dodlig
dodligas
doelen
doft
dolores
dolorosamente
domen
domer
dominio
donato
donnerai
doordringt
doorheen
dop
dovrai
dovrei
dragit
drang
drove
dubitare
durchdringt
durft
duwt
echoue
eclairant
ecriai
effecten
effetto
effraye
ehe
eher
eigentum
einfachen
einigen
einstellung
elevata
eleves
eloignes
emane
embarrassment
emblem
emise
emprisonne
enastaende
encuentro
enfermedad
enflamme
enfuit
enkelt
enkla
enseno
entend
entgegengesetzten
entierement
enttauscht
epaisse
ephemeral
ephemeres
epuise
erdbeben
ereignisse
ergens
erger
erlaubte
erleichterung
erleiden
erleuchtete
ermee
errores
erwahnt
erwarmt
erweisen
erzeugen
esattamente
escalon
escalones
escena
escondida
escondio
escribio
escucharme
esfuerzos
espadas
espagne
espana
espejos
esperto
estacion
estremamente
estuvo
eternellement
eternite
ethiopie
etiopia
etroit
ettore
eurent
evite
exception
experimentado
experto
explica
fairy
falcon
falcone
fallit
fangelset
fangslad
farsi
fascine
fastan
fastningen
fasziniert
fatiga
favorable
fed
felswand
fenomeno
fermarono
festa
feste
fidelidad
fidelite
figliolo
fijamente
finalement
fjarran
fleurit
flew
florentijnse
florentins
flot
flowed
flujo
fodd
fodelse
forberedde
forbereder
forblivit
fordomelse
forenas
foreslog
forestaller
forgiveness
formare
formas
formes
formo
forradare
fortes
fortunate
fortvivlan
forundran
forvandlar
forvandlas
frailes
frammande
frappee
frati
frederic
frederik
fresh
freute
friars
friedens
frode
fromm
frondes
fronds
fruktansvart
funfte
fury
fylla
gaia
ganchos
gavan
geants
geantwortet
gebaseerd
geblendet
gebruikelijke
geglaubt
gehandelt
gelo
geloften
gelopen
gem
gemma
generates
genereert
generosite
generosity
generoso
geniet
gerione
geschenken
geschnitzt
gesneden
gesungen
getrostet
gewahren
gewelddadige
giacomo
giants
gioie
gioiosa
giri
girl
giuda
giuramento
giva
gjorda
glaucus
globus
gluhenden
goldene
gooien
goras
gors
gota
gottgefalligen
governare
graaf
gradevole
graine
gravi
gregge
gridava
grieta
groeit
gron
grootheid
grunden
guardar
gudarna
guidato
gutem
habiendo
habille
hablaban
halfte
halls
halsa
hanches
hansynslosa
hautes
hav
heerschappij
heette
heftig
heil
heimat
heisst
hemispheres
heresies
herhaaldelijk
hers
heupen
hieruit
hindernis
hinterlassen
hips
hocico
hoeven
hole
holofernes
homer
honorius
hoods
hooks
hosts
huften
huge
huir
huset
hut
identifiera
ijzer
illuminating
ilumino
imposed
incapable
incertidumbre
incertitude
incite
inclination
incontrolable
incroyable
indispensabile
indus
influsso
inganni
inicial
iniziarono
inlindad
innere
innocenti
inocentes
insegna
inspireerde
insvept
intelligente
intensiven
interiore
interrompu
intervention
inutiles
invanarna
irradia
issue
istinto
ivrigt
jahrhunderte
januari
jerome
joies
jongen
jouer
joys
junger
juramento
kain
kameraad
kampa
karnan
kehrten
keinem
klammerte
klamrade
klanning
klarer
kleider
klim
klopt
knot
konigs
konstantin
koor
kostbaar
kostbarer
kreisen
kreta
kuhnheit
kummert
kunstenaar
kvarner
kwaadaardigheid
kwaliteit
lading
laisses
landschaft
lart
lasciai
latinus
latsas
lauft
leaf
leale
leddes
leef
leggera
lehren
leib
leichter
lejon
lessi
lettere
leugenaar
levez
levi
levo
liar
liberer
liefdevolle
lieta
ligera
lik
limiet
llegara
llevan
llora
loca
lodi
logic
logro
loire
louanges
lourd
loyalty
loyaute
luge
lugnade
lugner
luminosi
lutade
maagden
maccabeus
maestros
maggiori
magie
majestueuze
malheurs
maligna
malvagita
mando
manquer
mantengo
mantovano
mantovanus
marchais
matteo
matters
matthias
medel
medios
melodin
mental
menteur
mentir
meprise
messager
messenger
messi
metall
metta
mile
militante
minister
minskar
mirarme
misfortune
misfortunes
modeste
modesto
moindre
moise
moises
moneta
monstret
morgengrauen
morii
mossa
mostraron
mouths
movements
movimenti
moyens
mozes
munk
murar
muslos
muto
nachrichten
nagels
nah
nahren
nails
nascondere
nasute
nations
naturel
nazareth
neapel
nearest
necessaires
neptune
nergens
nid
niemanden
nil
nobility
nobilta
noblesse
nobleza
noemde
nonne
noorden
normaal
normal
north
nozze
nummer
nycklarna
oath
oavsett
obscurci
observaba
obtained
occasioni
odjur
odore
offering
offnet
ogenomtranglig
oidos
okay
oltraggio
olycklig
omaggio
omarmen
onlangs
onrechtvaardig
ontdekt
onzekerheid
opgesloten
opgevoed
ophief
oppressed
opvolger
organi
organos
ormar
oron
orto
oskyldiga
oster
otherwise
ouverture
overcomes
overgiven
ovest
paminner
parcouru
pardon
parent
pareti
paro
particuliere
pasando
passant
passt
pastorale
pauselijke
pecher
pekade
penetro
penitenti
penitents
pensait
pequenas
percepito
perdon
permanecieron
permettere
persons
perte
pesado
pesanti
petites
piano
pico
piedras
pitiful
plaatst
plagor
plane
plans
pleasures
pocas
podrias
political
ponga
popa
poppa
possessed
possibility
potente
potro
pourtant
powers
pratique
preciso
prestige
princes
prinzip
probleme
procedevamo
product
profecia
profeta
profetie
profezia
projekt
promesso
prononcer
prophecy
prophet
prosterne
prostituierte
proteccion
protetto
proteus
proveniente
punishments
punitions
punti
purete
pureza
purezza
purity
purse
pygmalion
qualite
quality
quant
quedaron
quietly
quiso
race
racines
radici
rappelle
raptor
rational
rattvisan
reaches
recompenses
reference
refined
refletait
refuser
regions
regretter
regular
reigns
reinheit
reinigen
reisen
relativa
religieus
rem
remi
remords
rendono
reparer
repeatedly
repentina
repond
resiste
resonated
responde
responsabilidad
responsabilite
ressentir
restee
resti
retenir
retta
returning
reuzen
revelation
reviens
revoir
ricchi
riconoscere
ricos
riempie
rifiuto
rigido
rikedomar
riktad
rimasero
risiede
risponde
riuscito
rivelato
robuste
rocheuse
romarna
romper
rompio
roots
ropar
rope
rubicon
ruil
runter
ruscello
sabellius
sabiamente
sabine
sal
saladin
salen
salvar
sande
sander
sanhedrin
sank
saprai
savent
scent
scharfen
schatzen
schelen
schiavonia
schlimmer
schmerzhafte
schopfung
schrecken
schweigend
schwierigen
sciolta
sconfitta
scuro
secreto
seduisante
seduto
segeln
seguiva
seguramente
semblables
semele
semiramide
semplicemente
separates
serons
servants
serviteurs
setzt
seufzen
siegel
sienten
silvio
similares
sirene
sirviente
sitz
sixtus
sjalvt
sjunde
skatt
skeppet
skild
skill
skillnad
skrattade
smutsiga
snuit
solches
sommo
sonen
sonnenlicht
sorprendio
sorridendo
sortait
sortez
sostegno
sostenere
sostuvo
sott
souhaitez
souvient
sova
sovrasta
sowieso
spagna
spain
spanje
sparta
spaventato
species
sphinx
spiegeln
spike
spinsero
splendenti
spoor
sposo
spur
stabilire
stagione
stalla
stammen
stammer
standig
stank
starend
steilen
stemma
stemming
sterft
steunen
stevige
stodja
stof
stones
stravan
stravar
strettamente
strijdwagen
strikes
strings
strinse
structure
styra
successeur
successor
successore
sucesor
sufrio
suggested
supplica
surround
svor
synligt
synon
szene
taufe
tebe
tegenhouden
temer
temeva
temperament
tempi
tenacia
tenderar
terughoudend
thebald
thighs
thirty
tider
tiembla
tiempos
tiende
tieres
tigris
tillflykt
tillgang
tillmotesgaende
tirer
titre
titt
tolerate
tombeau
tombs
tormenti
tournent
tournerent
trafen
traffad
tragica
tranquillo
transformee
trapped
trasformato
trattiene
treinta
trembled
trembling
treuer
tristano
triumf
troad
troc
troia
troie
trojaner
trojans
tromba
trotthet
trovammo
trovano
trueque
trusts
turme
tuscan
tusentals
tvivlade
tvivlar
twijfelde
tydlig
uberwunden
uitgedrukt
uitgelegd
uitgevoerd
uitmuntendheid
uitstrekt
uitzicht
umili
uncertainty
uncini
unen
ungewissheit
unida
unidos
unis
unit
uniti
unlike
unterschiedlichen
uppfattar
uppriktighet
uppskattade
uppstigning
urbanus
uren
utforska
utilisant
vaardigheid
vaggarna
vagleda
vagorna
valbefinnande
valdsam
vallgraven
vandrar
varar
vardet
vargar
variable
variation
variations
varre
vedete
vediamo
vedono
veia
veiled
vencido
veracht
verachtet
verachtlich
verborg
verbreiten
verdict
verdreht
vergine
verkregen
verlasse
verlegenheit
vermoeide
vernietiging
verranno
verruckten
versa
vertueux
verwendet
verworven
verzacht
vicine
vidas
vieil
vierge
viktigt
vilade
villain
vince
vindar
visit
vissen
vistazo
vitale
voegen
voient
voldoening
volvera
volverse
voordelen
voortgebracht
voragine
vorstellungskraft
votos
vows
vueltas
vuelva
vulgar
vult
waardeert
wachsen
wagte
wahrnehmung
wandelen
wanhopige
wapen
warmed
warmen
warmth
wecken
weegschaal
weerstaan
wegnahm
wegnam
weite
wekken
wem
wenige
werelden
wimpern
wishes
wohlwollende
wolfe
woonde
wore
wortels
wundern
xerxes
younger
yttersta
zachte
zegeningen
zeigst
zijne
zonen
zufriedenheit
zuruckhalten
zus
zwaarden
zwang
zweck
##!
##'
##,
##.
##0
##1
##2
##3
##4
##5
##6
##8
##;
##?
##q
