start_of_sequence_id
end_of_segment_id
padding_id
mask_id
!
$
%
&
'
*
+
,
.
0
1
2
3
4
5
6
7
8
9
;
<
?
@
_
a
b
c
d
e
f
g
h
i
j
k
l
m
n
o
p
q
r
s
t
u
v
w
x
y
z
£
¥
°
×
æ
ø
ı
ł
œ
ɔ
ə
ɪ
ʁ
ʊ
ʒ
ˈ
ˌ
ː
π
а
с
—
‚
₤
€
→
♗
♘
あ
明
the
to
tom
you
in
de
is
je
la
of
that
il
est
pas
he
and
vous
me
le
##s
was
ich
un
it
have
que
ne
for
les
do
tu
she
mary
with
this
they
are
en
es
elle
my
don
be
on
we
du
ist
his
as
nous
not
ik
##e
une
what
your
ai
at
die
no
ce
ils
sie
can
will
like
know
nicht
er
want
there
el
an
elles
et
her
think
des
der
se
zu
das
if
from
but
has
go
so
about
him
und
pour
were
didn
when
suis
by
time
dans
qu
how
one
te
all
##n
had
would
very
said
ont
avez
ve
who
re
going
ein
het
een
did
boston
##t
##r
##a
##en
au
che
doesn
hat
been
son
va
ll
plus
si
qui
told
here
than
why
sont
##o
avec
habe
many
mon
dass
only
people
more
get
etait
or
out
##d
marie
ma
fait
eine
tell
never
good
because
wir
their
should
non
una
still
up
isn
mi
ou
##es
cette
too
much
niet
tres
just
man
moi
den
come
last
am
mit
us
tout
bin
something
ben
see
lot
zijn
french
our
now
##er
lui
anything
votre
mir
new
some
esta
hij
mich
school
war
really
make
sur
where
always
faire
day
help
auf
##i
##ing
went
veux
sa
sind
van
aime
wie
von
etre
par
three
say
work
sich
love
any
ever
could
hier
two
book
##te
con
train
vont
every
einen
fur
take
avons
years
english
car
los
##z
di
wanted
##ed
beaucoup
dit
rien
als
before
ihr
wenn
heb
sure
bien
friends
tomorrow
lo
into
without
first
house
them
please
money
home
haben
got
thought
##nt
mijn
maison
mais
etes
teacher
other
speak
won
ete
yesterday
ze
today
dat
jamais
need
party
problem
long
ici
used
eat
argent
morning
give
tatoeba
sein
ses
heeft
next
does
father
which
world
temps
parents
kann
life
everything
things
after
read
way
besoin
comme
friend
right
live
allez
etais
fenetre
back
met
dem
children
language
must
talk
australia
trop
sehr
por
night
wants
um
old
year
aren
buy
meine
well
little
al
im
##re
toi
per
wird
deux
alle
sommes
##l
better
tous
play
room
made
doing
enfants
understand
livre
most
over
asked
encore
ha
peux
noch
ecole
find
such
these
wurde
avait
let
wasn
##ly
christmas
ca
dan
mother
ton
mein
question
quand
toujours
aber
put
mes
even
las
learn
su
already
week
look
##ment
pense
dich
everyone
grande
parle
##y
believe
comment
able
took
leur
thing
allons
seen
use
happy
peu
chose
ihn
aus
ur
dir
same
hast
peut
sais
john
monde
found
left
nothing
maria
since
place
##de
quel
esperanto
saw
great
person
study
while
mal
voir
being
done
best
aller
dire
ella
maintenant
geen
haven
important
op
books
pourquoi
restaurant
##is
diese
ta
tiene
may
voiture
down
##ta
says
para
bist
keine
then
##le
##to
aujourd
hui
peur
off
beautiful
personne
young
bus
looking
yo
da
parler
bought
name
##do
japan
del
library
lost
country
ask
alles
called
mas
often
anglais
another
deja
demain
nach
came
feel
hatte
plan
kind
yet
leave
water
werden
parce
avoir
uns
jag
vas
weren
sentence
dois
letter
##ra
stay
vos
vu
arrive
cannot
married
busy
students
knows
prendre
interested
meme
aux
together
hotel
aussi
hard
job
soon
vie
family
raison
avais
difficult
happened
sentences
again
couldn
ihm
wat
anymore
city
voor
afraid
##ais
brother
immer
those
faut
notre
sami
around
computer
drink
wil
femme
quelle
days
few
perche
era
estoy
muy
quelque
tired
##st
ar
autre
pere
gave
answer
homme
write
each
part
##it
mere
naar
wouldn
travail
having
away
himself
trois
viel
hate
japanese
tengo
aan
gut
seine
dog
kan
mehr
cafe
translate
##ait
este
fois
ces
heard
late
might
schon
times
accident
vais
ans
questions
oreille
nur
remember
sourde
spend
moment
##m
##se
oder
dinner
hope
living
sans
both
change
favorite
mange
tennis
sister
someone
working
cet
enough
kein
como
vor
myself
between
heute
##ons
francais
girlfriend
##al
##ne
its
auto
nie
veut
jour
police
true
etaient
film
dieses
meeting
chambre
fais
girl
##ie
bon
minutes
also
table
grand
languages
soir
gibt
leurs
themselves
om
ohne
stop
decided
donne
paris
summer
trouve
anyone
wrong
##ar
pays
studying
viele
nichts
food
france
possible
sieste
##k
alone
end
muss
age
wo
zij
aeroport
eu
lives
passe
weil
werde
##in
eau
pain
woman
achete
station
truth
coffee
five
word
##g
ago
seems
talking
become
vraiment
##me
waiting
chez
tonight
chien
reading
einem
happen
liebe
dieser
god
situation
door
telephone
leben
idea
##ur
knew
nos
einer
porte
puis
weiss
bed
uber
almost
morgen
##as
soy
started
dieu
far
ten
marika
tried
aide
etwas
wer
##ung
hours
interesting
##u
high
until
##no
present
pris
looks
television
boyfriend
jetzt
probably
spent
air
##iez
##us
bonne
hebben
homework
once
ti
call
waar
##ce
different
mind
afternoon
usually
child
doctor
##an
looked
probleme
hay
keep
tot
commence
ihnen
sorry
tokyo
apres
gens
ready
##ge
bad
died
hear
##ig
##on
music
ville
warum
visit
sera
through
try
auch
heures
watch
zum
movie
souvent
##ro
game
ni
apprendre
gusta
manger
perdu
phrases
crois
words
hand
etage
livres
voulez
combien
entre
seem
dann
four
phrase
wife
##ia
ihre
playing
bitte
office
own
tun
uit
big
coming
early
##aient
plait
getting
white
mr
nom
photo
month
quiero
sleep
piano
gehen
geld
against
speaking
##mente
dollars
fille
amour
casa
else
information
konnen
shouldn
care
deine
linda
surprised
front
open
tes
##ten
number
six
##ions
ami
pizza
start
##os
bei
birthday
during
langue
mag
others
problems
chance
euch
har
learning
trying
wait
##mos
amis
demande
small
avion
finished
mochte
belle
facebook
hou
lire
weekend
whole
##na
etiez
heure
point
york
##ch
attention
matin
park
show
##ai
##lo
under
cold
waren
##lich
chinese
sagen
donde
io
sait
travailler
whether
yourself
##ez
chiens
cosi
opinion
vi
walk
avant
frau
reason
weather
contre
doit
etudiants
evening
lettre
making
sono
wonder
##la
easy
jusqu
order
phone
adore
cela
fun
heart
jouer
rester
##va
haar
habite
jours
mort
zeit
##ient
aider
faites
born
mieux
deze
makes
##da
eating
foreign
arrete
class
jeune
machen
ware
zal
daughter
denn
goes
##et
arrived
froid
frere
longer
fell
turn
ken
men
nez
thinking
##h
famous
story
student
tag
##ble
chat
dos
matter
nuit
street
##ndo
##p
solo
deteste
ferme
hasn
listen
quoi
several
became
company
concert
##f
faim
boy
lunch
rain
red
toute
pay
proud
saying
todos
##tion
heureux
hospital
bent
connais
herself
prefer
travaille
veel
##ns
free
jullie
wine
##ion
mio
native
sagte
joue
oublie
toutes
venir
weet
han
impossible
inte
konnte
large
likes
pouvez
sehen
viens
##ste
bring
det
nouveau
petit
soit
black
difficile
japon
meinen
todo
explain
face
manana
writing
angry
certain
less
piu
supposed
wish
zwei
buch
lei
mis
quite
regarde
secret
##ant
internet
rather
depuis
laisse
learned
pero
prefere
germany
gesagt
hundred
tv
30
america
broke
cause
death
estaba
nu
price
public
trouble
written
wrote
##den
acheter
appelle
autres
radio
##ent
##ite
fils
piece
planning
aqui
expensive
macht
trip
known
swimming
worry
##ation
##io
dis
german
juste
layla
least
nog
puedo
everybody
mine
nada
verite
##ure
gli
river
sometimes
assez
thinks
##able
##ir
decide
ecrire
grosse
histoire
hot
pendant
united
women
chaque
forget
jeder
choses
clothes
cuando
etions
lived
mij
states
##que
avaient
ging
hem
hungry
invites
mistake
moet
quien
seul
town
window
killed
niemand
prison
##ca
##el
comes
ho
pretty
chicago
gone
half
partir
pauvres
song
china
fast
rich
anderen
began
cadeaux
chess
ecrit
etudier
halloween
lernen
played
president
reste
second
sous
university
works
cat
monday
yeux
zur
semaine
##che
##ire
colere
popular
sick
##ts
bureau
accord
bois
europe
finish
fort
pass
semble
taking
celui
dein
italy
mucho
toms
trouver
velo
visited
wissen
##ic
eaten
jardin
ser
hour
land
loro
menschen
visite
worried
##ue
gerne
idee
mistakes
##ine
angst
diner
kannst
later
mussen
nodig
picture
quando
vaisselle
vite
breakfast
keinen
telling
haus
meet
sens
diesem
fish
libro
seulement
wearing
bougies
faisait
malade
seinen
smoking
umbrella
voudrais
##rs
accept
allemand
alors
dangerous
gesehen
mots
sei
vetements
##za
tour
art
cauchemars
essen
fire
hoe
loin
montre
sua
team
##are
##sa
aimerais
garden
geht
marche
nice
sin
bit
courage
drei
gerade
gestern
glasses
musique
needs
quelqu
soif
##ma
sicher
vit
vivre
##vo
american
dort
graag
moins
sommeil
store
worked
##ken
appris
full
gott
meer
nausees
near
sus
##nte
welt
##je
aura
driver
estas
favor
fete
future
gaan
london
mann
mettre
retard
return
taxi
vin
##so
etudie
invited
italien
lits
quelques
send
weg
##c
andere
decision
devrais
dix
drunk
fehler
meinem
mourir
sia
zoo
##ter
clock
fue
kyoto
##ti
baseball
dies
fall
glaube
gute
helped
rome
sprechen
suo
##ze
famille
lait
mer
nature
nouvelle
sent
tea
thirty
uncle
arbeit
church
hands
hoy
plane
vertiges
##or
annee
aviez
dormir
esto
fut
gemacht
mutter
solve
stupid
test
vater
dead
earth
englisch
flowers
golf
village
vue
behind
brief
chats
devez
diesen
forgot
hacer
hause
kommt
mai
promised
winter
younger
##ers
##ux
appele
derniere
dio
message
mia
puede
vois
watching
wollte
##gen
bank
building
dream
geboren
hund
leaving
taken
whose
##um
boite
couteaux
italie
older
simple
sunday
willing
##chen
arbre
ate
habt
instead
intelligent
kommen
main
months
premier
savez
speaks
tard
thank
tort
walking
aimez
att
common
drinking
eyes
fact
human
light
maar
mains
merci
peuvent
stopped
terrible
vient
aucun
continue
drive
eux
mot
poor
received
studied
teach
tiempo
case
helfen
shoes
siempre
stadt
wann
ya
zou
advice
dictionary
douche
enjoy
fera
gets
jeden
jij
lit
niets
parlez
translation
abandonne
boire
win
##ba
add
given
player
promise
sucre
attendre
brought
football
glass
modo
vandaag
verdad
waarom
wirst
##les
airport
donc
kill
likely
news
poisson
project
questo
short
though
unter
##ck
##gt
##heit
beau
camera
font
franzosisch
invite
mejor
sortir
tree
vida
vrai
##ado
##co
##rt
asleep
confiance
donner
essayer
fin
ouvert
perro
swim
trust
vacation
venus
wieder
20
bruder
casse
lang
photos
sense
wordt
baby
cut
experience
letters
voyage
worden
bis
doen
frans
fumer
machine
ouvrir
pret
real
sea
sing
terre
##der
##ien
ceux
ci
compte
coup
difference
enjoyed
fatigue
kept
nager
pa
permission
ran
strange
trabajo
##ry
##x
ahora
besser
dormi
estan
londres
midi
nor
stayed
wirklich
##ique
10
ab
alt
business
eres
erg
freund
ga
hair
kom
langues
libre
sage
turned
unhappy
animal
bicycle
either
enfant
laat
novel
outside
satisfied
selbst
serious
venu
zo
apartment
arabic
cars
cherche
correct
cost
gegen
ir
minute
move
needed
nunca
schule
sound
translated
uhr
anos
escaliers
health
nobody
osaka
regarder
using
##th
aimes
beer
bij
bill
coronavirus
goed
head
listening
mois
molto
padre
paid
side
sollte
twee
wasser
wij
##ive
##sen
cinema
immediately
journal
mountain
perfect
vieux
yes
##ity
amie
couple
cual
dia
entendu
girls
government
koffie
parti
purpose
reussir
traffic
wear
expliquer
hace
lange
leven
lu
meiner
patient
plans
till
amore
berber
cheveux
consider
countries
dress
fine
italian
movies
savoir
takes
travel
animals
arbres
avions
beach
canada
dents
drie
envie
erreur
gab
guerre
nadie
past
report
vez
##nen
actually
felt
geben
guy
heel
inside
intention
kinder
necessary
spaghetti
##ful
##ted
hablar
interessant
seule
sun
##mo
accepte
comprends
eggs
exactly
gern
huis
law
maybe
nervous
oh
petite
presque
seven
snow
spanish
tut
veulent
##cion
##use
cadeau
durch
husband
liked
means
neither
oui
shop
strong
tienes
##man
##sse
##ut
##ve
careful
closed
course
einmal
fleur
katze
medecin
partie
pictures
plusieurs
quickly
ticket
vive
weeks
##pe
advised
aucune
etats
fear
jahre
jeu
king
lose
prepare
raining
set
soccer
##iert
##ness
bu
catch
doch
follow
ill
importance
seemed
somewhere
talked
weight
willst
##ate
##ige
##ont
alla
alleen
biere
changed
cote
england
frage
gagne
guitar
ihren
tant
thomas
verloren
##b
##ies
##lt
##ng
basketball
derriere
ellos
except
excuse
leute
quatre
speech
sprache
##ting
along
appeler
aurais
body
completely
demasiado
history
ins
kaffee
mean
moved
post
serait
spreek
spricht
unsere
##ato
##ben
##isch
##lle
##nce
##ri
##ront
##zen
aurez
beginning
danger
dejeuner
eten
facile
loved
madchen
occupe
prepared
problemes
quella
rencontre
sit
tan
utiliser
vers
##be
##cia
##ieren
##los
abend
chercher
cup
gefallt
ingles
journee
jouw
opened
pommes
tue
twenty
voulait
##kt
##land
devons
exam
happens
hombre
minimum
mundo
musst
returned
reve
safe
seid
tutto
##at
##ke
bread
bridge
damit
devenir
eines
gente
key
kitchen
nacht
natural
oud
professeur
rest
run
woon
000
among
bientot
capital
close
court
fortune
fruit
gift
grandfather
ihrer
medicine
ordinateur
seiner
soll
unis
##go
##ise
ceci
demander
essere
lassen
noise
personnes
triste
vom
##zione
abroad
allein
chaussures
dogs
force
gran
grandmother
hebt
kam
middle
prix
relationship
serai
smoke
usted
welcome
wollen
##igen
##nd
blue
hurry
idoles
lave
laver
milk
pres
prete
type
uno
utilise
##li
alibi
arrested
attendu
conduire
dance
denk
distance
faisaient
ja
leaves
practice
respect
sabe
tochter
venez
absolutely
aiment
bottle
canadian
cuisiner
gaat
ice
longtemps
mensch
shopping
tete
vis
voulais
yours
##ga
allee
college
dark
dont
garcon
gekauft
importante
intelligence
leer
loves
madre
religion
riche
throw
##ido
##urs
across
allowed
convinced
jaar
jaloux
personal
position
proche
seinem
sois
viande
##ad
##age
allume
broken
bucher
build
clear
conversation
cours
crime
eso
freunde
gehort
hon
iedereen
magasin
rouge
stad
sugar
within
##bar
##rai
allora
boek
dame
ecoute
engels
immediatement
kiss
komt
lie
poco
sagt
schnell
stand
tanto
taught
thousand
uw
vier
vriendin
zimmer
ziri
##ft
##mes
accompagne
brothers
color
compris
danser
devrait
dinero
droit
expect
fat
hurt
invitation
offer
ogni
papier
passer
pleurer
quiere
site
storm
tenemos
wedding
##0
##ee
according
anybody
bob
boys
cats
cinq
conseil
disse
donna
essaye
examination
feeling
finden
heureuse
malades
meaning
prie
pu
recently
science
special
tasse
vader
##il
##tes
augen
check
cio
fallen
genoemd
habla
honest
klein
marry
oft
ouverte
reponse
sah
save
sitting
spoke
sport
trees
##ty
absent
algo
arm
brauche
connait
contact
dimanche
entire
flower
hilfe
hond
jane
japonais
manque
noticed
plays
prochaine
waste
whatever
zien
altijd
choose
due
ge
guitare
jackson
nooit
places
road
roman
sell
understood
universe
##ungen
article
desire
dias
ferai
gonna
however
international
jesus
kinderen
list
normal
ob
ora
reden
result
sign
sold
temperature
touch
wall
weise
wurden
##cht
##ria
apologize
asking
blind
built
coute
date
education
gare
glucklich
hiding
kamer
moon
pouvons
stone
support
vacances
var
yen
zuruck
##igt
##ls
##men
##ras
admitted
arreter
attend
ayer
banque
bas
complaining
creo
dag
foot
horse
newspaper
nombre
oncle
plaisir
salary
ver
wort
bibliotheque
chacun
cosa
friendship
glauben
knowledge
leren
million
montrer
mude
nage
neige
october
ones
passed
raciste
russian
sandwich
teachers
tienen
tutti
vergessen
wise
##ina
##w
chaud
chi
europa
feelings
fini
finnois
fishing
happening
helping
innocent
premiere
senza
shall
spielen
surprise
vol
chante
control
doubt
escuela
espere
examen
general
iets
muchos
paar
population
rapport
sobre
teeth
##ert
##ler
##ling
##ura
amigo
arriver
blume
bush
cada
clean
daruber
drinks
eet
failed
femmes
films
form
gato
getan
herz
lucky
miss
page
paper
parc
protect
repondu
vieille
voici
zug
##ier
##ner
##ren
auront
australie
borrow
cake
fadil
faisais
familie
forward
ganz
gold
group
heavy
museum
ons
pensais
projet
rapidement
recht
refrigerateur
sara
scheint
schwester
state
system
whom
##si
advantage
agree
bang
becoming
cher
comprendre
donnez
driving
ese
grateful
jahr
jeunes
largest
meilleur
parece
resultats
soleil
solution
subject
theater
troppo
voy
worse
##hen
##ous
##res
bar
chanter
eltern
interest
mike
nieuwe
onze
parapluie
pieces
resoudre
ride
rules
share
somebody
steht
tellement
tomber
traduire
##ments
##tte
accuse
address
alive
amigos
caught
cle
cuisine
culture
cuore
curious
details
estamos
finally
floor
gegangen
guess
hommes
hopital
krank
li
lied
morts
mouth
nouvelles
power
rarement
running
saturday
success
text
tombe
traveling
##less
##ss
break
chef
courir
cream
deinen
disappointed
expected
feliz
gehe
hecho
houdt
kobe
komme
leid
lunettes
nel
original
pouvoir
prices
quran
ring
seit
suicide
wahrheit
werk
willen
adresse
ancora
ano
bereit
exist
google
jack
kat
lebt
neue
painting
repondre
stolz
tokio
visto
wohnt
wusste
##ern
##he
##rons
choisir
cousin
deal
etranger
example
freres
freundin
garde
geschichte
ignore
imagine
liegt
lots
poi
punished
rima
satz
sohn
thuis
verstehen
voix
weisst
welche
##em
allemagne
animaux
area
bleiben
borrowed
cache
chine
cook
etat
fiore
fragen
games
latin
male
mujer
nosotros
parlent
pensez
porter
sante
speaker
sports
spreekt
staying
suivre
##est
##ito
##len
##ll
##ni
##sion
agua
berlin
boulot
butter
desk
dinge
einfach
entered
ferez
gewesen
gisteren
haat
ideas
island
jealous
lass
mauvais
meat
named
nee
neighbor
potatoes
prends
rice
route
spends
taninna
theory
union
vivent
zwischen
##ere
##ico
##id
##idad
##rez
##rie
##rio
100
allen
antes
appartement
blanc
blood
box
cancer
carefully
covered
crying
denken
dernier
divorce
eight
energy
fatto
gefallen
hermano
kindness
leve
linge
local
mig
names
noir
paye
pomme
preparer
reach
rendre
secrets
serez
service
showed
singer
sleeping
supermarket
suspect
watched
woont
##ci
##ka
##ries
##v
admit
affaire
allow
blame
ciudad
davon
eye
fosse
fume
gros
grossen
lake
lieu
miedo
monte
nuevo
papa
pen
regles
rencontrer
spoken
wake
website
##ist
accepter
adorent
arbeiten
bras
buying
cravate
dachte
dressed
easily
epargner
esa
faisons
fit
gefunden
george
green
mauvaise
murder
orange
quit
recu
sad
saigne
semana
ship
similar
single
spain
tijd
woche
##cio
##liche
afin
alte
aveva
content
delicious
doivent
feront
fier
frances
gar
gustan
idiot
kennen
lady
namen
nehmen
noche
plutot
recognize
rire
schwer
smith
sofort
songs
spreken
stylo
towards
wenig
##ica
##lla
abattu
amerika
bag
beauty
beste
bringen
chinois
dice
ensemble
envoye
evil
extremely
geworden
grandes
gross
grosser
interesse
jemand
libros
neuen
peace
realized
sept
sky
social
soyez
stolen
tickets
todavia
unser
vole
vriend
wohne
##ger
##ja
##tta
afford
certainly
decir
forest
handsome
license
magazine
malabocia
morte
ordered
players
pose
prochain
resistance
results
rue
scared
seeing
smaller
spending
tall
tarde
thirteen
##6
##amente
##cken
##ht
##lichen
affetto
alter
appareil
ciel
cities
coche
faisiez
fare
foto
hated
jahren
lis
mosque
noel
penses
persona
quello
schreiben
sooner
tongue
top
tur
visage
vivir
voit
wind
##ata
##rd
account
actions
ball
believed
broer
club
docteur
fault
fenetres
geschenk
held
horen
join
jou
lying
market
modern
moeten
necesito
sale
salle
sarebbe
spat
tenia
useful
video
wahr
walked
##ible
##mi
##nes
##tto
##ule
allemaal
alstublieft
although
aurai
cafeteria
center
denke
dites
earthquake
enemy
enter
etudiant
gegeben
hablo
houses
huit
knife
mari
moeder
nourriture
palestiniens
repare
retour
sag
sang
suite
uur
werd
zich
accepted
affection
annoying
bald
braucht
british
campagne
chocolate
condition
conference
croire
della
feels
garten
geschrieben
grow
habit
hold
lasst
lehrer
match
poiche
prisonniers
propre
sieht
sight
sisters
succes
tambien
unfortunately
vrouw
wanneer
worth
##9
##ds
##ita
##led
##sten
altro
attacked
discuss
eats
festival
gezien
grave
grew
grund
helpen
jim
kenne
kunnen
laten
liebt
online
payer
pourrais
queen
raised
refuse
rose
russe
russie
santa
stato
twitter
upon
urs
uses
warten
##3
##ber
##ische
##keit
above
answers
avocat
begin
bene
bier
bruit
cas
discours
ecouter
erreurs
existence
fleurs
funf
ganze
genug
grandi
hit
holiday
kissed
laisser
librarian
mille
numero
os
region
rendu
restaurants
rooms
savais
schwimmen
sehe
silence
sonne
suddenly
thanks
understanding
vaut
wallet
##4
##ada
##tions
ait
americans
annoyed
attended
avoid
bird
birds
century
cheval
conduit
crazy
dentist
difficulty
dishes
facon
final
fly
hermana
hora
istanbul
lawyer
leg
lettres
pouvais
presents
proposal
quieres
reparer
responsible
sat
starting
vielleicht
zwemmen
##1
##ando
##pen
##rais
##sch
adoraient
appel
auras
board
changer
chanson
classe
committed
connaissez
copie
danke
dictionnaire
easier
exactement
fahren
fu
gluck
hoeveel
india
italia
ketchup
laugh
lesen
line
missed
motel
nettoye
oublier
plein
pourrait
rat
refused
rock
rule
shower
sol
staat
tua
vote
worst
##7
##ld
accelere
answered
attends
aware
bebe
beim
brauchen
castle
complete
comprend
dancing
dollar
flying
frauen
grosses
guten
historia
maisons
maniere
math
moe
naam
nationality
nombreux
penser
pouvait
professor
rent
riviere
stories
twice
vingt
wem
zehn
##rait
abandoned
admire
considered
couru
created
credit
cross
dicho
echt
eens
estudiar
excellent
improve
lasagne
lazy
nine
paul
presence
prets
program
stranger
tus
vegetables
view
virus
vogel
warst
welke
woods
##iere
##igkeit
##isme
##ron
##ties
accustomed
added
ajoute
apple
appointment
arzt
bellacoglienza
belles
beschaftigt
completement
dificil
discovered
earlier
embarrassed
encourage
explanation
factory
guilty
gustaria
hatten
junge
kaufen
laissez
lune
meinung
rio
society
spreche
suffering
version
vind
voi
wegen
##ile
##ms
affame
antwort
apfel
apples
chair
croit
davantage
denkt
devoirs
duits
espoir
european
fahrt
faith
following
forte
fruits
generally
guter
hunger
illegal
importe
isst
muchas
mur
nueva
offre
oil
opinions
opportunity
palabras
perdre
perhaps
pieds
private
roof
seront
sondern
soul
verre
viendra
vraag
##ces
##ques
##vi
##zza
50
algeria
angeles
banjo
buena
choice
count
create
cui
darf
destroyed
empty
ende
ex
gas
gegessen
houden
lights
loi
menos
mismo
napoleon
nella
nun
ook
paix
pleasure
poker
policeman
pool
puerta
serviette
shy
south
stupide
teaching
wikipedia
##8
##dor
##ischen
##ism
##rate
##ves
act
africa
aiguise
amor
amuse
apporte
assis
caused
charge
comer
commencer
cosas
documents
eglise
error
existe
friday
gives
hai
halten
headache
jean
leicht
lent
lower
memoire
musica
nuestra
och
ognuno
pais
parte
pinocchio
planet
pluie
politics
prima
problema
rapide
recommend
risk
salt
saute
tante
tisch
translating
valise
verlassen
verruckt
verstehe
voulons
##and
##cy
##des
##rte
##ya
500
altra
beide
brown
carta
computers
copy
dehors
delete
dell
desde
despues
dios
dure
erste
forgotten
freedom
fuji
habia
hasta
honger
honnete
laquelle
lebe
liest
mache
master
mercy
nachricht
parfois
parles
rendez
sac
seriously
sollen
studies
stuff
tal
tony
unless
veces
zonder
##ct
##ks
##nie
##ven
appreciate
arbeitet
arrives
attraper
behavior
boit
button
calls
calme
chicken
christ
construir
cry
demenage
dijo
election
followed
fui
habitacion
happiness
hoofdstad
mayor
med
nino
ordinateurs
pierre
puedes
reessayer
russia
savent
simplement
smell
solltest
sprachen
step
sterben
suggested
sujet
suspicious
tierra
trompe
vendre
washing
wondered
yellow
##ante
##iste
##jo
##lie
##ncia
##ures
##uto
##zig
ainsi
album
anywhere
arrivee
aurait
bear
brazil
chapeau
corner
dansen
devant
direction
doute
esse
essence
estos
explained
fix
garage
gewonnen
giving
gracias
image
invented
involved
merde
messages
mooi
niemals
nombreuses
notice
pair
prenez
reunion
salaire
smart
speed
spiel
terms
timide
tren
value
viene
wagen
werken
##cher
##cho
##erd
##fen
##king
##nza
##ran
author
based
bath
celebre
cheese
chocolat
cigarette
classroom
coupe
danse
daran
defend
directeur
effort
entree
essaie
filles
fou
fuera
glaubt
goede
grands
greatest
halte
hen
huge
impression
letzte
licht
lieben
locked
marcher
national
neighbors
porque
pousse
religious
romans
savait
sex
singing
sollten
somos
sorti
spielt
torture
universite
voice
weit
##ations
##j
##mer
##pa
##per
##po
abaisse
affaires
anniversaire
ascenseur
capable
costume
demand
ennemi
estar
ett
florence
habitude
hiver
horrible
journaux
klaar
liberte
listened
mahjong
map
musik
nagoya
neighborhood
nein
obama
offered
passiert
pause
poem
political
promotion
puisse
raise
rijk
sache
seras
shame
space
stars
stones
trente
tuo
venue
verlegen
viennent
voyager
voyez
wilde
ziet
##ale
##am
##era
##ker
##ot
##red
##ssais
##tet
##zo
accorde
amerique
asi
captain
cheap
clearly
construction
dare
deinem
devriez
douleur
entrer
express
fahrrad
guys
hanging
healthy
injured
lieber
mark
matters
minister
moglich
nuestro
ouvre
particular
reich
reveille
schone
seite
straight
talent
tel
tuer
uomo
vivo
wash
weder
wereld
windows
##5
##di
##ding
##ente
##eren
##nis
##sait
##tre
aimait
alguien
allergic
ancient
apprecie
attack
autant
available
band
bell
bisschen
boss
carry
classical
compared
crie
cruel
debe
deutsch
dood
expression
failure
faster
ganzen
hates
heisst
kids
lately
leiden
madrid
mano
marriage
mise
na
ok
pasado
peine
personas
pied
pronounce
rate
reception
regardez
respecte
rom
sabes
shirt
slow
souviens
spring
strength
taste
tener
toen
vad
vamos
voitures
zei
##ade
##dad
##det
##dos
##ement
##ille
##nne
##tique
appartient
aprender
artificial
ashamed
autour
cairo
connaissance
construit
dank
estado
ferais
geweest
ihrem
intend
jungen
kalt
mad
mail
mesa
minuten
muziek
nation
ninos
pan
pauvre
pencil
pleine
poissons
raconte
realize
regret
reposer
san
serais
sort
taal
tanzen
tee
third
tien
total
traduction
translations
trinken
verso
vrienden
wichtig
wonen
writer
yanni
##ak
##ano
##ans
##ida
##ins
##ities
##nde
##pt
##ual
##ver
active
aise
amies
anders
beaute
beginnen
beiden
believes
bigger
blackboard
boeken
brise
connu
convince
darauf
dirty
disease
einige
einzige
erde
euros
expert
fleisch
francaise
glad
hadn
hang
haut
hijo
jete
jung
letzten
mets
min
monat
nahe
nessuno
net
pensent
preparing
promesse
quartier
reussi
richtig
saint
societe
tele
todas
ustedes
vent
wert
zag
##ance
##das
##ete
##ical
##ino
##sche
acuerdo
agit
alcohol
alphabet
avere
beaux
calling
chemin
circumstances
coran
correctly
courses
cuanto
devenu
direct
energie
espagnol
fa
facilement
false
feras
funny
gedanken
gekocht
hall
interrupt
introduced
jedes
jobs
kinds
lac
lentement
machte
malabocca
managed
mariee
member
metro
nurse
padres
parties
passengers
peuple
pona
priest
proposition
realite
roi
savons
schreibt
stunden
toki
unable
vill
voglio
voler
##ged
##gue
##las
##ped
##ps
##tic
##ton
##ute
18
accused
adding
april
arms
army
bekommen
bonheur
bonjour
choix
cles
complicated
comprar
dafur
deep
deiner
dove
drank
dreams
efforts
ended
entrance
ersten
eve
exams
feu
fifty
freude
gedaan
gelijk
groups
hasse
herr
himmel
italienne
jail
kwam
lines
lumiere
maladie
medicament
members
metal
muiriel
observe
passport
pick
picked
quality
repas
schlussel
signe
software
sounds
soupe
studenten
twins
unique
vanavond
vecu
vendu
veuillez
violence
vodka
wahrend
warm
wears
werkt
weten
##ccion
##fe
##ide
##itat
##lijk
##ration
##schaft
##ssait
##tas
accompagner
action
ayuda
bahnhof
besteht
betty
blamed
bouche
brot
buen
canceled
certains
chico
communicate
connaitre
corpus
cousins
dal
dig
dying
espanol
faux
gentil
gesprochen
getroffen
guests
instructions
issue
jalouse
jambes
kid
lack
lance
leuk
mariage
microwave
mostly
none
okinawa
otro
parked
portes
pronto
proteger
record
regretter
reis
repair
sempre
slowly
stellen
stimmt
stole
style
vino
wist
##ally
##ches
##gehen
##her
##ko
##lais
##lait
##lang
##llo
##ring
##rn
##tais
##tig
##ving
25
accent
approve
bizarre
bonnes
canadians
card
casi
cd
cent
childhood
communication
concerned
degrees
duitsland
dur
economy
eerste
fight
filled
fuhle
garder
gelesen
gib
groot
halt
hawaii
hokkaido
independent
innocence
ira
irai
jealousy
joy
lengua
liste
manner
meilleure
menti
mettez
mobile
moving
nahm
nose
patience
plage
politician
propres
sauce
schlafen
seele
sonntag
spelen
tale
taller
telefon
telle
throat
tied
tod
usa
vivons
whoever
ziek
zullen
##bile
##bre
##ian
##rer
##ris
##rme
##sant
ability
amico
arbeite
articles
beating
bevor
biggest
brule
cependant
changes
character
chateau
colonialiste
conditions
connected
contract
costs
crache
criminal
cuantos
database
department
dormait
durante
elephant
event
exemple
flamme
forces
gekommen
gelukkig
genie
gezegd
greek
ground
haber
hearing
honeymoon
honte
hun
influence
june
komen
laws
lead
lessons
lezen
mathematics
meines
merite
naoko
ocean
ojos
ouders
portuguese
produit
puo
quiet
recognized
research
responsibility
signifie
soup
source
star
suffer
swear
tage
technology
theorie
truly
uberrascht
utile
verdient
waited
washed
ways
wonderful
workers
zoon
##ain
##ants
##ated
##ero
##eur
##heid
##iger
##ize
##kommen
##tten
abruti
aimons
arme
attractive
bicicleta
bons
brain
compagnie
confused
connaissent
considere
corps
coucher
couteau
cuisinier
demarre
desole
discussion
eleves
enemies
environment
envoyer
erst
fatiguee
fifteen
finding
frei
fridge
harder
hidden
hulp
idees
instant
italiano
jokes
joven
keeps
keiner
lies
manchmal
ment
mom
monsieur
neues
partout
physics
pleut
programme
propos
rang
reasons
rico
round
sandwiches
satze
seat
sechs
secretary
skin
starts
stronger
stuck
taro
tie
trinke
utilisez
vertrauen
wachten
wood
wore
worte
zeggen
zie
##ard
##ich
##rent
##ses
##val
accueilli
afrika
ahead
aimer
amount
assure
automobile
com
conozco
dazu
decisions
deeply
difficulties
ecris
egal
engine
enseigne
expres
gagner
gateau
gelernt
genau
grote
guerra
habiter
habitez
harvard
herbst
hide
hiroshima
joie
joke
jouait
lage
liberer
mashed
momento
mountains
musste
necessaire
north
novels
nulla
obviously
oiseau
parking
parole
parts
pleased
pond
pregunta
pulled
queria
questa
rauchen
rid
slept
soin
speakers
steeds
stores
studeren
thus
toda
trots
wahl
wealth
##2
##ap
##chi
##dere
##ish
##lte
##ono
##sed
##tar
##zeit
abime
apart
apologized
apprends
australien
avis
basket
bel
bible
blumen
bord
cerca
classes
commande
contribute
couleur
dangereux
denen
desormais
deuxieme
enjoying
fenster
fresh
gevaarlijk
glas
gouvernement
heaven
heet
hin
hoffe
holidays
honor
illness
instrument
introduce
judge
justice
katten
kommer
kunst
lesson
llama
located
lundi
mathematiques
memes
miles
miller
noble
painted
positive
possibility
poste
presente
quelli
reality
receive
remercie
repasser
schuld
search
sheep
shut
solved
talen
tat
teil
tells
threatened
traverse
unserer
venere
web
zahlen
zeigen
##ag
##cha
##cing
##ded
##ition
##lung
##nait
##ping
##sing
##tare
##tive
aborde
absence
accumule
amene
anyway
araignees
assume
aunt
beetje
begann
bereits
bett
bueno
buildings
buvez
carried
coat
collection
dirai
divorced
doet
egli
eifersucht
enorme
envers
epouser
etrangeres
falls
fand
farm
fashion
faveur
feet
fermer
fiets
figure
fired
geef
generation
gentleman
gleich
glisse
gun
habille
hijos
horte
ignorance
incident
literature
maakt
maken
mala
mangez
mensen
mexico
millions
mirror
mochtest
musee
naples
natur
parfait
pasta
pequeno
perfectly
podemos
poids
points
pretend
proprete
rends
reserve
scientist
securite
semaines
sieben
snel
som
sons
standing
subway
talks
termine
texte
treffen
usual
vroeg
wijn
wisdom
wolf
wurdest
zit
zufrieden
##aire
##ary
##au
##fall
##ming
##ning
##ore
##sais
##schen
##tro
##ula
##yo
12
amo
anche
angekommen
armes
avenir
awake
bateau
battle
bedeutet
bike
cards
celle
clase
claus
criminels
curry
dad
damage
debo
depend
depends
devoir
document
equal
erinnere
escaped
etrange
faccia
falsch
fertig
finche
forme
geburtstag
genre
granted
hid
hizo
hopes
horses
humor
imagined
koud
legs
lend
lift
mach
machst
magst
mauvaises
meant
murio
obvious
organization
parlait
passants
paying
percent
pleure
poems
poser
products
progress
provide
rains
sake
salut
samedi
simply
strasse
teuer
thermometer
threw
trains
trinkt
twelve
unlikely
useless
valeur
versucht
wang
zus
zusammen
##baar
##bles
##bt
##ction
##gar
##halten
##if
##ssi
##tra
##uit
abstinence
aie
alto
altri
annees
appearance
apply
attendez
aun
austria
bedroom
begins
bezahlt
blague
blanco
buon
cinco
claimed
consent
contro
crossed
cuatro
cute
definitely
development
diable
diez
elected
epouse
excited
extreme
finde
fonctionne
further
gelosia
gesicht
haciendo
hande
handle
hele
iemand
jazz
kate
keer
keys
lecon
meisje
mode
moeilijk
ourselves
paint
peint
petits
picasso
placed
platz
pork
poverty
race
rapido
rede
reflechir
refrigerator
rempli
request
revenu
rights
schlecht
schloss
selling
selon
sido
skura
sleepy
someday
sorte
sotto
square
sterven
strongest
studieren
succeed
suche
suggest
surpris
systeme
term
therefore
touche
traurig
treated
turkish
tutta
understands
verliebt
voila
woke
##acion
##dy
##ens
##giez
##hren
##iques
##ium
##lique
##mas
##nos
##om
##uer
##ues
##ye
13
access
actress
airplane
aleman
appears
applaudi
argument
attempt
autumn
babysitter
beter
boat
centre
climate
colui
complain
complet
conmigo
continuer
cooking
cree
dabei
dar
dear
desert
deserve
eigenen
endroit
enseignant
equipe
espagne
eure
eventually
faute
finissiez
fond
frightened
gain
getrouwd
gifts
gingen
helemaal
humans
interessante
japans
jaune
jede
jong
krankenhaus
kunt
lequel
level
loue
mars
meals
meters
missing
mondo
musiciens
nachste
neuf
noon
occuper
opponent
opposite
paura
pleasant
protection
published
ragione
rappeler
regnet
remained
rend
resources
responsable
revoir
role
saved
scene
serviettes
sofa
soldiers
sors
spam
stark
tasche
tegen
telephoner
tornado
turns
tuttavia
violin
volgende
vorschlag
zin
##ara
##dig
##end
##ess
##ging
##hi
##imo
##ized
##mento
##sive
##ster
##ume
##zioni
##zt
300
actor
adversaires
aimais
ame
amoureux
armen
audience
baum
bedankt
befindet
birth
blesse
brille
brood
cartes
characters
chemise
cleaning
clouds
coach
comida
conseils
continent
courant
crisis
cru
daar
deberia
debes
diet
dokter
drug
economic
eingeladen
erklaren
etrangers
examine
facil
ferons
fil
foi
frankreich
gatos
geinteresseerd
gym
hanno
hell
hemos
imagination
immense
knowing
kopf
laughing
lion
lord
luck
lugar
mama
manos
mien
montagne
mycket
nearest
object
observer
oreilles
pale
peche
pessimistic
picnic
pollution
pretes
probleem
professional
property
quale
rare
reached
reise
reloj
repeat
resistenza
rood
schoner
shot
solche
souvenir
speelt
sprach
stock
suoi
tempo
thee
thin
tomar
trade
vaak
various
vijf
visiting
wel
##ana
##bi
##cal
##ened
##ggio
##ious
##ista
##kte
##ntes
##saient
##ser
##tti
2013
alice
allergisch
annule
appear
artikel
august
aurons
baton
bouteille
ciascuno
clients
commit
community
conge
contigo
copies
dessert
deutschland
divine
dna
dommage
doucher
email
emigrer
entends
evidence
exercise
fluss
foolish
foreigner
forgive
forma
fully
furniture
generous
gesetz
geven
hart
heat
hello
hoffnung
holy
hoping
hors
hundreds
idioma
ii
interesante
interessiert
itself
kleine
kopen
lachen
larger
ligt
low
milch
mixed
mogen
nachsten
palabra
pantalons
persuade
politique
pourriez
prime
prit
pueden
pure
push
quitte
regard
reine
sauf
schrijven
schwimmt
self
serpillere
shanghai
siento
siete
steal
suppose
sushi
switzerland
tio
tombee
tough
uberhaupt
ubersetzen
verhaal
via
vliegtuig
vollig
volte
weiter
welches
writes
youth
##dag
##dre
##gie
##gne
##ha
##lia
##mb
##ny
##reich
##riez
##son
##sta
##tait
##zado
00
40
addition
allusion
andern
aquel
arabe
auparavant
bat
briser
calor
capitale
carrots
caso
celebrate
celsius
chaleur
climbed
contributing
debut
devraient
disent
duty
elevator
eleven
encanta
ero
euro
faisions
falsenbian
feed
field
fighting
figlia
finds
gefangnis
geholfen
goods
grandparents
hallo
inquiete
jemals
jolie
jugar
kurz
leader
libres
marco
matsuyama
mustard
nations
occupee
onder
ouvrez
overweight
pages
peter
pienso
pleuvoir
pont
praten
prevented
prize
problemas
production
razon
remove
robe
rode
roger
roses
rude
rugby
safety
schien
serieusement
sorgen
terug
traite
truck
unico
vase
vecchia
ventana
veo
versprechen
vide
waarheid
wein
widerstand
##bio
##bo
##cre
##cted
##digt
##ea
##hed
##jes
##og
##vre
##zed
11
15
alcun
arrogant
atmosphere
aveugle
base
bella
bribe
burning
calm
central
certaines
chinees
conditioning
creative
crier
dalla
david
defense
denkst
descendu
desidero
detestent
deur
dine
dirait
discussed
distinguish
doe
doigts
double
dreissig
educated
effect
elke
entendre
estaban
evident
excuser
fail
familia
fautes
fece
fidele
finger
finland
fisch
forced
fotos
fruher
fuerte
fuss
gay
gotten
impatient
informations
japones
jedem
konnt
konnten
leraar
lese
liess
lojban
longue
lorsque
mens
mention
method
miracle
moyen
musician
mut
nieuw
note
nowadays
occasion
odio
particularly
password
posso
praat
prend
princess
quotidiennement
requires
reservation
sabia
schlechte
schonen
schreibe
sel
semblait
serieux
shakespeare
shibuya
size
slapen
solange
starb
suffered
taille
tallest
terra
troisieme
urgent
verheiratet
voisins
vosotros
vuole
wutend
##als
##amos
##anza
##bare
##car
##cas
##fle
##gio
##gli
##hin
##ics
##lare
##let
##nant
##rado
##rig
##rsi
##sst
##ules
##und
##ved
##vole
absolument
ad
agreement
alli
antwoord
apprend
aufmerksamkeit
bain
banana
behave
bleue
bookstore
bose
bracht
brosse
buenos
cherchez
chinesisch
chinoise
commencons
competition
conclusion
contains
contra
corrected
courtesy
damaged
dato
disturb
eteint
exception
falsenbiante
finnish
flasche
flores
forty
frase
ganas
gefahrlich
gehst
geloof
global
gout
grass
gratis
greece
guarda
hacerlo
hambre
heiraten
hero
hoop
humour
industry
informed
interdit
ivre
kennt
kerstmis
kocht
leider
lijkt
mooie
muerte
nancy
negative
nehme
obtenir
ort
otra
oven
pardon
pattes
peinture
plonge
plupart
poet
porta
possa
puts
realmente
remain
reves
rot
sachen
saints
salir
samen
separated
seuls
skeptical
smile
snakes
solar
stata
stick
surface
sweater
sweden
sweet
tafel
title
ufs
vale
verboten
versuche
vert
vieil
voller
washington
weinen
zahne
zoek
zuerst
##ccia
##cer
##cks
##elijk
##hrt
##ini
##kel
##laient
##lar
##ned
##raient
##right
##ssaient
##ssen
##taient
##ua
##unden
##ward
absicht
accompany
advanced
ah
allem
amusant
anderes
angleterre
antworten
araignee
avance
besten
bijna
bother
cansado
carrying
committee
compare
compassion
complex
compter
critical
data
declared
desidera
desperate
devil
dicht
diejenigen
discute
dorthin
drinken
emploi
enfin
eran
erzahlen
everywhere
fallt
fate
finalement
finir
flugzeug
follows
forever
francia
geschreven
gia
gutes
harm
higher
ido
intelligente
interview
iran
islam
judy
katzen
kennst
kuche
lancer
lerne
link
lisez
llego
lucy
lust
madonna
marier
matins
mechant
medication
midnight
mond
mood
morgens
musical
mysterious
ningun
oiseaux
package
parmi
participate
perdido
permis
pieta
pity
portugal
printemps
proberen
propose
pull
reputation
resterai
roken
roosevelt
schonheit
schuhe
selten
serons
seules
shortcut
sinn
ska
soient
spater
stealing
structure
sue
sword
toe
toilettes
tourists
toward
tra
traditional
tragen
trang
travaillent
travaillez
trouvent
unmoglich
veritable
versteht
visiter
voulu
weniger
zeker
##ados
##azione
##ban
##baren
##bringen
##bung
##ced
##chten
##ciones
##gaan
##gte
##iendo
##ines
##ists
##iv
##lassen
##net
##nto
##ol
##rare
##rde
##rlo
##sh
##ssez
##ssiez
##teur
##ude
##ul
##un
##zia
abendessen
acht
advise
allees
americain
anderer
angerufen
answering
arretez
artiste
ayez
beat
bedeutung
beyond
biblioteca
bibliotheek
billet
bitter
bored
boring
breaking
butcher
cachee
caisse
carte
cassee
casser
chasse
chatte
commis
comprenez
continued
couramment
democracy
dentro
describe
deshalb
devoted
divided
dolore
droite
east
enfuir
ennemis
erfolg
espero
excusez
exercice
fingers
fool
frankrijk
gate
gegaan
geheimnis
ghosts
graduated
grows
guard
hangt
hauptstadt
highly
hill
imbecile
impressed
interests
ipad
israel
italiaans
jacket
january
jones
jumped
krieg
laden
langsam
largo
llamo
loss
manzana
milan
moderne
nearly
newspapers
obey
ogen
org
performance
physical
piace
pie
plenty
pot
press
primera
profesor
queue
raum
remercier
reservations
satisfait
schmerz
sees
studiert
sudden
sunglasses
survive
tableau
teaches
temple
teufel
tipo
tower
verandert
volontiers
wooden
yokohama
##ape
##bbe
##chte
##ckt
##dige
##enen
##fahren
##gs
##ial
##ites
##laire
##liez
##llen
##miez
##rier
##tie
##une
##urt
##vaient
##yer
acquainted
advance
alcool
alguna
amiga
arriere
arriving
autos
besides
blagues
blog
breath
cabeza
calcule
captured
comiendo
comportement
concentrate
contient
corazon
decu
detail
devrions
doctors
doubts
drole
drove
economie
emmerdeur
empire
encontrar
erzahlt
etrangere
experts
fai
families
fever
fiche
findet
firma
foret
fromage
gaf
gemaakt
gewinnen
giardino
habeis
habitent
hermanos
hielt
hija
homesick
horloge
hur
ideologie
immediatamente
impact
interieur
junk
kaum
kent
kilometers
langer
lecture
londen
luz
majority
media
mentir
mochten
motion
nord
ought
pandas
paquet
partis
path
persone
plante
plats
product
punto
quanto
rajeuni
reads
regalo
related
restez
rouges
schwierig
scientists
season
strand
succeeded
sueno
surrounded
tears
telefono
theatre
tienne
tiger
tomas
trabaja
transportation
trein
tsunami
vain
verlieren
verstanden
viejo
vielen
vita
weak
wet
wetter
willkommen
zeichen
zero
ziekenhuis
zustand
##af
##ales
##ative
##cent
##ees
##eld
##elt
##encia
##ffe
##gel
##gi
##hmen
##ifie
##ik
##int
##langen
##lu
##mate
##miento
##mt
##my
##ngen
##nta
##ose
##pes
##pire
##sent
##siez
##sions
##ssent
##sto
##tern
##tif
##tje
##tt
##ture
##uck
##uen
2000
admis
affair
afterwards
anxious
appeared
argue
arts
assurez
auriez
authority
avete
avrei
begonnen
begrijp
benutzt
blanches
border
bound
castello
causing
cell
certainement
chaise
champagne
chuchote
confessed
confirm
congratulations
connaissait
contraire
cried
critique
cuenta
currently
daughters
dei
detective
diener
echoue
elkaar
envy
escribir
esperantists
esprit
exhausted
expecting
fahre
falta
fan
fasse
feuer
flabbergasted
flight
folle
fought
funktioniert
futbol
garcons
gebruiken
gegeten
geh
gehoren
gentille
getrunken
grace
grammar
guitarra
habitue
hacia
hardly
hare
hasard
hobby
hombres
horas
horreur
hunter
identity
importa
increase
invente
japonaise
jeunesse
juice
kingdom
konig
legal
lernt
liebst
luna
magnifique
mar
medical
menace
mensonge
miroir
mucha
nessun
noix
nouveaux
pirate
pire
pizzeria
poesie
poison
policy
polizei
pretending
profit
promis
random
relatives
salad
scenes
schools
security
seis
sensible
serve
shared
showing
siendo
singapore
smarter
sommer
sourire
souris
species
staan
strike
struck
suit
symbol
televisie
threatening
thursday
tiens
tire
toit
touchez
trombone
trusted
vacaciones
verte
vinden
vista
voel
vrij
worterbuch
zapatos
ziemlich
zuneigung
##ador
##aus
##bie
##cado
##care
##eda
##gebracht
##gst
##ify
##lage
##lation
##licher
##mon
##nn
##od
##over
##rse
##vano
##via
aille
alain
alsjeblieft
anger
announced
arte
artist
attrape
ausland
ausser
auteur
av
balle
bars
beings
besuchen
biscuits
bitten
bringt
camion
cares
ceremony
chaises
chansons
chino
cielo
cleaned
climb
coffre
columbus
confuse
constitution
continuez
copierez
copine
cuarto
darwin
debemos
destination
dira
discuter
ecoutez
enjoys
erklarung
estais
etudiez
explique
financial
frio
genommen
giorno
growing
helps
henne
importantes
including
indiquer
informe
insurance
interlingua
interpreter
jalousie
jemanden
jogging
jongen
joyeux
kirche
komm
korea
kostet
larmes
lees
lever
linux
lovers
loyal
material
memory
mientras
molte
mujeres
nara
netherlands
nina
noi
occupes
ocupado
okay
onkel
optimistic
palace
paroles
partner
passes
peau
perder
perfekt
pilot
plant
polish
populaire
portable
pray
presse
pressure
probablement
profondement
promises
prudent
putting
qualite
reasonable
recherche
respuesta
richesse
sagst
scientific
silly
sixty
speel
stehen
sud
suffers
suitcase
teneis
thief
thoughts
thousands
titanic
torment
travels
tromper
turquie
tust
veranderd
verrouille
vienna
volver
wardrobe
warning
wasting
wild
wit
zeer
zegt
##ache
##acht
##ein
##enza
##erte
##ese
##ff
##gung
##haft
##hood
##ilen
##ily
##isation
##lant
##liches
##lve
##mmen
##pel
##rung
##sis
##sm
##sme
##stan
##tado
##tent
##test
##ther
##tica
##tlich
##tor
##ttes
##ust
##vio
##zar
acabo
accompagnera
aeropuerto
algerie
allows
amasse
analyse
animales
appelez
appetit
arabisch
arretait
aussehen
badly
bananes
bastante
bathroom
begint
begon
beroemd
bete
bleibt
bleu
blijf
boivent
bresil
buried
causes
charlie
cocaine
collect
coma
commun
composer
concerts
consists
controle
cooperation
cravates
crowded
cultural
designed
dessus
detto
diccionario
disappeared
donnerai
dovrebbe
drives
environ
errors
escribio
exact
exchange
explosion
faible
fewer
focus
fragte
francheza
fruh
futur
gebe
gebracht
genoeg
gesellschaft
gevonden
glace
grossem
guide
heisse
hole
honom
ile
indispensable
individual
intended
iron
joe
kicked
kilo
kilos
klar
kleinen
kon
laves
learnt
leest
liberty
limited
luister
luogo
malediction
mangent
maries
menge
miei
mil
mistaken
mitt
monter
mund
nachbarn
nimm
official
ooit
oppose
oranges
paintings
pauvrete
period
permitting
pferd
pockets
poupee
poured
practicing
principal
promenade
proved
pueblo
quell
quels
questi
racket
rentrer
require
reviens
riches
robert
russisch
sand
seines
sentenced
servant
siehst
sig
signed
slaap
sola
spinnen
spread
stairs
statue
sundays
tanaka
texas
tofu
trabajar
turning
unidos
univers
voudrait
weer
west
wohl
woord
worter
wrapped
zealand
zeitung
zeven
zukunft
##ages
##arme
##aux
##can
##cate
##cke
##dra
##eten
##fa
##ges
##gia
##ias
##iers
##ierte
##kar
##lls
##logy
##mbre
##md
##nare
##oso
##rdo
##rei
##rice
##tan
##tato
##ud
##uren
##vions
abandon
adopted
alarm
algun
algunas
allait
alternative
altre
americaine
amitie
areas
armee
arrival
bajo
banane
beijing
beni
bet
bottom
boven
bowl
cacher
caire
cesse
challenge
champion
changing
chere
chest
cigares
classmates
closer
comfortable
comporte
composition
confier
congratulated
connection
constant
cristo
crossing
decouvrir
dejo
denied
deranger
deve
draussen
drop
dry
durant
egalement
einander
electricity
embassy
emergency
endlich
entonces
entschieden
erano
erfahren
especially
estados
etang
etendu
facts
fair
favourite
fax
fiancee
fievre
fixed
fluently
former
francisco
geschickt
gewohnt
gij
greater
gris
haare
habitudes
haleine
handed
herzen
hired
hong
hotels
italienisch
jason
keeping
killing
klavier
kommst
kong
laptop
latest
lavez
liefde
liever
lluvia
longueur
lottery
luft
malheureusement
maman
meets
meter
mienne
misma
moral
mortes
motorcycle
mozart
mt
muslim
nacionalidad
nadar
nuestros
opening
operation
otros
ours
panda
parait
parapluies
pardonne
partage
passion
pepper
perd
pigeons
plate
plie
podria
policier
portait
preis
prisonnier
prove
quisiera
quitter
raging
rappelle
ratoncitos
rentre
ressemble
revolution
rideau
riz
rojo
rook
saber
schaffen
schizophrenia
seguro
september
setzen
shape
shorter
signora
silent
skirt
sofferenza
sombrero
spanisch
spirit
stimme
stunde
suggestion
supplementaire
tatsache
thou
tier
toch
totally
tourne
translator
trash
traum
tries
unos
urlaub
vergogna
verifie
verifier
verkauft
versuchen
victims
vivant
vomi
wahrscheinlich
wishes
witte
zeg
ziehen
zingen
##ario
##ast
##cie
##cies
##ele
##gere
##gna
##halt
##inen
##ings
##ises
##ismo
##kommt
##ku
##lto
##mma
##nda
##op
##rage
##rieben
##rist
##sez
##tal
##tiva
##uk
##unt
##usa
##uses
##uw
##vait
##van
##zehn
16
abandonner
abord
adhere
adieu
aire
ama
ameliore
apprenait
assistant
baisse
barack
bare
baronia
becomes
belongs
benutzen
bezocht
bibliothek
bicyclette
bleek
blick
bocca
brachte
brave
carne
caro
cash
charged
choisis
cinquieme
coast
complaints
comprennent
confirmed
contempt
convaincu
conviene
courte
couvrir
cows
cualquier
cuesta
customers
debate
defeated
descendre
despite
developed
dico
differently
disponible
edison
egg
elementary
elements
embrasse
ends
enfui
epoque
erhalten
escape
evanouir
events
experiment
fehlt
file
folgen
forbidden
frais
franchezza
freundlich
garbage
gauche
gentillesse
gewoon
grain
greatly
grun
habites
handwriting
hattest
honden
hunde
hut
improved
indian
inteligente
intersection
italians
jedoch
johnson
journalist
karte
kende
kindern
kleines
kost
kraft
labor
laid
lauft
leading
lisent
longs
lunes
major
maximum
meal
meg
midterm
mie
moves
mustn
neben
necesita
necessario
nimes
nouvel
nuclear
obwohl
offnen
oubliez
pars
passage
pawn
pecher
persoon
piscine
pobre
precious
presto
preter
preuve
primer
progres
prohibited
pushed
range
recommande
regel
regen
regle
repeter
roma
saving
schade
secreto
seek
sends
sentiments
sexy
situations
slice
soi
spider
stellte
surement
susan
sydney
tasted
tenir
tient
toca
travailles
turkey
vergeten
viaje
victim
vieilles
villes
violent
vision
viven
vlees
vorbei
vouloir
vraie
wacht
weapons
whenever
wide
wohnen
woordenboek
wou
wrestling
yacht
zhuangzi
##aal
##ably
##ani
##ase
##ati
##bel
##bia
##cere
##cial
##cido
##cino
##cos
##dies
##dung
##eg
##erung
##ffen
##gno
##hnt
##hre
##hy
##ieux
##illaient
##ingen
##ischer
##isse
##lade
##llement
##lles
##nais
##niez
##onne
##ow
##ppe
##rar
##tel
##ulo
##uss
##viez
abattait
abbia
accidente
acquire
agreed
alcuna
amuser
anfang
anna
approche
arrange
arrivera
assise
augmente
average
badminton
battait
behalten
belong
betalen
bishop
blessee
blijven
blow
brush
buffalo
cachees
cama
careless
catholic
cauchemar
chica
chopin
code
comments
completamente
conseille
consideration
couvert
cover
crains
cramming
crees
dagen
daily
dankbar
deceive
decorated
decouvert
dedicated
demanda
demissionne
dictionaries
directement
disait
discovery
dispose
distant
dolares
dors
douze
dronken
ease
effective
eleve
emily
empfang
enfuie
ennuyeux
enseignante
entiendo
entier
enucleer
espana
esperanza
essay
eternue
etoiles
etudies
excuses
exprimer
faits
february
fermee
fing
finlande
fliegen
flood
fortuna
frappe
friendly
fueron
funeral
gefahr
geleden
gelezen
gestohlen
gestorben
giovane
grades
grosste
grossvater
helen
hey
hort
immigrants
increasing
internationale
invention
inviting
jam
jerry
jette
jiro
jouent
joueur
july
karate
knives
koken
konntest
leche
lejos
librement
limit
lorsqu
losen
lover
luge
maand
machines
marijuana
maste
melk
memorise
menteur
meurtre
michael
mosquitoes
mouse
moyens
mrs
nachdem
nacio
nieve
november
objectif
oldest
ordre
otherwise
overleden
oxygen
paraplu
parlons
passeport
peaceful
pelicula
penalty
perds
pescado
piacere
pilaf
plastic
polite
polonais
powerful
prefererais
probable
queres
quindi
recommended
regime
regnen
removed
repasse
resembles
restes
richtige
rings
sauter
sauve
sauver
scandal
schones
schwierigkeiten
seldom
sentido
served
severe
sidewalk
skype
slightly
slipped
sometime
sonst
sortis
sos
souhaite
sourit
sprichst
successful
suchen
suggestions
super
supermarche
swedish
thema
track
traducteur
treatment
twin
unseren
valuable
vegetarian
verano
vice
voient
watches
weird
wen
wohin
zucker
##ace
##aron
##art
##cato
##dle
##eilen
##eln
##ena
##ende
##gado
##gan
##gang
##ice
##ified
##igd
##ils
##ilt
##im
##ione
##ios
##iten
##ivo
##logist
##lue
##mp
##naire
##nal
##nons
##nung
##oke
##ral
##rf
##rions
##rm
##rre
##side
##stand
##tant
##tat
##tely
##tiez
##tine
##uche
##vento
##wa
##ws
##zi
28
adapted
afrique
alerte
algerien
alta
americains
amused
apparently
appels
attendait
automne
avrebbe
basic
bellaccoglienza
beobachten
berg
beruhmt
bouquet
branch
brillant
burn
buro
cafes
caja
candidate
cane
capture
certo
cerveza
charles
choisi
chosen
claim
cleared
connaissais
converted
cortesia
courrier
criticism
deberias
deceived
delay
democratie
denmark
desir
dessen
devenue
devint
diferencia
differentes
dije
donate
draw
dreamed
drew
drought
echecs
ehrlich
eieren
eiffel
eigentlich
engagement
enquete
enveloppe
examples
extra
fangen
faro
fiesta
fifth
fill
fleuve
foreigners
fussball
geduld
geleerd
gelogen
geschafft
geschehen
gora
grootste
hamburger
happiest
haute
heavily
hebrew
hire
hor
huitieme
humain
hunting
imam
ingen
insupportable
interfere
ireland
italiener
jalouses
janeiro
journey
jure
keyboard
killer
kochen
kuchen
laughed
lavabo
led
lehrerin
lenguas
leopard
leuten
lightning
lincoln
lisa
lleno
loco
losing
magic
mario
menudo
merry
miel
mix
montres
muttersprache
mystery
neem
nulle
obsessed
oorlog
organic
origin
owner
palestine
papers
parfum
parlare
passee
passing
patients
pedestrians
pelo
philosophy
pitie
plaats
plairai
pocket
posible
possibly
potrei
preferez
quelles
quiconque
quieren
recent
regeln
religieux
remind
reply
rief
rise
sacrifice
scary
schedule
schmeckt
scholar
schuler
schwarz
seconds
semblant
senor
sert
skulle
soiree
solving
spass
squares
staaten
stamps
statt
stomach
surveiller
tages
tausend
tiere
toilet
trabajando
tragt
unterschied
venons
vereinigten
verres
warming
waterloo
welcher
welkom
www
zijt
zon
##alt
##ame
##ava
##bility
##bon
##bra
##cier
##eilt
##eken
##elle
##fer
##gh
##gions
##glia
##gniez
##graph
##hst
##icht
##ifier
##ional
##iser
##ished
##issait
##ister
##kende
##lan
##lande
##lly
##lm
##lta
##lten
##mar
##mina
##nten
##ort
##pio
##pped
##rda
##reut
##rey
##rity
##rum
##scher
##sel
##slos
##table
##tete
##tore
##tos
##uel
##uille
##urait
##ural
##ured
##uta
##utable
##uur
##var
##vor
##way
##wed
1950
aardig
accepterait
actif
adorait
adult
aligne
anne
armed
arret
aside
atencion
ayudar
begehen
bicycles
bienvenue
brauchst
broers
buiten
buona
burned
butterfly
cancion
carro
causa
cheat
citoyen
client
cola
colors
commenca
comprado
compro
confesser
confident
confusion
consequence
contributed
coupable
cura
denoncer
depart
depressed
desires
detestes
dette
dick
disappear
disappointment
discouraged
dolor
domingo
drapeau
drinkt
dropped
duro
earned
egoiste
employer
erfahrung
essential
estudio
euer
evolution
exposition
extranjero
favoriete
fede
flag
flat
flew
flughafen
forza
freunden
fuhrt
gebaude
geheiratet
geoffnet
gewartet
gioia
gleiche
gratuit
groter
haces
handen
hans
herrn
hierher
humble
ijs
inevitable
inexpensive
interrupted
invisible
jambe
joined
juan
kannte
keuken
kijk
kindergarten
koran
lago
laut
leido
leisten
llave
louis
loup
maanden
manage
manager
meetings
meglio
methode
milieu
mira
misericorde
misunderstanding
moge
moments
motivo
multiple
nachmittag
natura
niemandem
objects
overcome
painter
parijs
pena
penis
perte
pese
pijn
planete
planned
plants
pope
preferent
preferes
pregnant
pretended
prevu
privacy
produces
prufung
quereis
queste
reconnaissant
recovered
regent
regrette
repondit
respond
restaurante
retired
revienne
risque
robot
ruin
runs
saison
salue
sauvages
schatzen
schlaft
scotland
sentir
shelf
shoot
signs
ski
skiing
soft
sortie
souci
spanien
spiders
staring
stood
straat
suedois
supporte
supporter
surgeon
tango
tax
technique
technologie
temprano
texts
tocar
tombes
tourist
traduis
trouvez
tutte
tuvo
urgence
vara
vend
viajar
viendrai
villain
vorstellen
voulaient
vragen
vuestro
warmer
wealthy
weekends
whisky
wings
worten
zweiten
##00
##cated
##chiez
##cker
##eben
##eer
##ell
##emos
##erai
##eurs
##eux
##ey
##fine
##gare
##gegeben
##gesetzt
##hip
##iden
##ienne
##isa
##istic
##itude
##ization
##izing
##late
##lies
##mde
##mit
##mme
##nan
##nee
##nia
##nti
##nts
##once
##ors
##our
##ragen
##rato
##rlich
##rmi
##rono
##rufen
##ssed
##sure
##tien
##time
##tres
##ucken
##urent
##uro
##ution
##weg
##zeichen
14
20th
acces
accidents
accompanied
adesso
advocaat
af
alten
antwortete
app
appropriate
aquella
attentivement
aufhoren
autobus
autorise
bagnole
begrijpt
bemerkt
boden
bout
britain
buurt
cages
cancel
carlsen
cassette
chaude
chauve
checked
cherry
cigarettes
command
compre
consequences
construire
cool
correcte
couloir
crowd
culpa
debout
declare
decorate
delicieux
described
devient
dik
discipline
dislike
disparu
dispute
divers
doors
doutes
duele
dutch
echte
eclipse
effet
eindruck
emotions
empezo
encuentra
enemigos
enfermo
enseigner
entirely
entra
epee
erklarte
estudiantes
exagere
faithful
farmers
fiere
fluent
fork
fossi
frontiere
fuhren
fumar
furchte
furent
gedacht
genannt
geschaft
globe
goal
goodbye
grandpa
guards
halfte
hobbies
hollywood
honneur
humanity
hungrig
idiomas
idiota
instruments
italiens
jouaient
jouais
jouiez
journaliste
juntos
kaufte
klingon
knight
korean
lasted
lay
legumes
leo
liebhaber
longest
maak
malgre
manges
marc
margarine
mayuko
meilleurs
memorize
mente
microscope
military
misericordia
mission
model
morir
muhe
nar
nausee
negro
nephew
newton
nieuws
northern
nuisance
oath
obeir
obliged
oboe
obst
offenser
ombre
opportunities
oro
paire
pakistan
peanuts
permiso
phoned
pianist
planeet
poland
policia
porto
precise
properly
provided
puesto
puits
qualcuno
quick
quinze
rabbit
ranch
reaction
rechnung
released
renove
republic
retire
retourner
riding
romanian
rope
row
ruhe
sagesse
sapporo
schaden
schmerzen
schrieb
scissors
searching
servir
shoulders
shown
significa
signore
sincere
singen
sleutel
slices
soixante
sortez
soutien
spiegel
stare
stelle
stops
strangers
suffit
tahiti
tail
talented
tanden
tattoo
telefoon
tief
topic
tordu
treat
trepidation
triangle
trug
tuesday
turc
uberzeugt
unserem
uvre
vergnugen
verlaten
vernunft
verse
versuchte
vertel
victory
viva
voudriez
voyons
wahlen
wilt
wohnung
wound
wounded
wunschte
yens
##ach
##amento
##arse
##ave
##chais
##dait
##dat
##dora
##eil
##ep
##erin
##eva
##fy
##gegangen
##hn
##hop
##icos
##ids
##ifs
##igo
##ira
##jd
##kken
##kst
##lange
##lay
##leben
##mann
##mmer
##nata
##nelle
##ommen
##orn
##osa
##oted
##phone
##rated
##recht
##rennt
##ric
##rno
##tag
##tito
##tura
##uation
##uf
##ugen
##uraient
##wing
##yons
##zzo
19
24
80
aboye
acceptable
accoutume
accueille
adam
adapt
addressed
aggrave
agrandi
agreable
aidera
aimee
albania
amazed
ambidextrous
ambition
applied
armenia
armut
asks
assumed
attitude
ausdruck
autor
avessi
avrai
azul
bananas
battre
battu
benefit
bestehen
besucht
bild
billion
binnen
bite
bleibe
boom
boos
bor
bra
branche
braquage
brilliant
broccoli
buddhism
buitenland
buscando
caches
calle
cariees
chanteur
chaudes
checkers
cheque
cine
colour
comido
completed
concern
connaissons
connue
conscious
conservative
constantly
consulte
coule
courez
crayon
creer
crus
cueilli
cumpleanos
damn
dating
december
decline
decore
degree
delayed
desayuno
desired
destiny
desto
detestez
deutschen
differents
dish
disneyland
dochter
dom
durfen
ecrite
effile
ehebruch
eichhornchen
elephants
emotional
enceinte
encontre
enerver
enige
entering
entfernt
envoie
erreicht
errore
eructe
escribe
escrito
estacion
estudiando
evenement
eviter
experiences
explication
extraordinary
faite
farbe
fer
fest
feuilles
fog
forms
fourth
fous
froide
gardes
gebleven
gegenuber
geschlafen
gespielt
gesticule
gesundheit
gewohnlich
gisant
growth
hablando
hammer
handeln
harry
heiligen
heraus
herbe
hice
highest
hoch
hola
hongrois
iedere
income
incredible
infinite
inform
install
interpretation
issues
joues
judging
juego
jury
kauft
konigin
korper
kun
lasse
lavoro
leaders
lebens
lecons
lingua
listo
lleva
loopt
lovely
maestro
maitre
manera
marchait
massage
maths
medea
medio
mentioned
mesure
metres
missions
molti
mondays
montrez
motivated
nachts
narrow
navidad
necessarily
nerveux
nessuna
nevertheless
noire
noisy
notte
nuages
ocho
offrir
oignons
orchestre
origine
orphanage
parecia
parfaitement
parlais
parrot
pasar
petersburg
pharamp
pink
poche
poder
poeme
poetry
pop
port
possede
preavis
preferee
prefers
pregunto
prince
principles
prive
rapidamente
realidad
reconnais
reconnu
reconsiderer
remains
reminds
rencontres
reponds
reprendre
rookt
rufen
ruine
saisi
saoulard
sarei
schreibtisch
script
seconde
seien
sembra
semester
servi
services
serviteur
sharp
shops
slower
souffrir
souverain
sovereign
spaans
spell
stands
sterk
streets
streng
stupidity
subito
suede
suppe
tache
tenis
tiny
tolerate
traduit
treasure
tripotes
trovare
uf
ukraine
universidad
unusual
verjaardag
verliefd
victoire
vogels
volonte
voyages
warte
weh
weisheit
wherever
wochen
wochenende
wondering
worn
zamenhof
zat
zelfs
zombie
zomer
##aan
##agon
##ances
##anse
##asse
##ating
##atur
##bilite
##bres
##chung
##cle
##dent
##die
##ect
##egen
##ence
##ening
##erde
##eve
##fia
##fte
##gas
##glio
##ham
##hle
##hlen
##hnen
##iera
##ieron
##iete
##ift
##imos
##inaire
##isais
##isiert
##itation
##iva
##ked
##komen
##lagen
##lk
##logical
##logie
##mal
##mite
##nden
##nehmen
##nz
##ock
##port
##rad
##rank
##reten
##riff
##rissait
##rito
##sero
##sicht
##spieler
##sts
##tain
##uais
##uait
##ular
##uve
##wenden
##wiesen
##xt
##yama
1988
2010
22
35
abandonnez
abogado
abuelo
accompagnait
achetera
acteur
acting
activity
addicted
affected
agir
aides
ailleurs
alberto
algebra
algunos
allergique
ando
ange
angelogen
arbol
arroser
asia
assicurati
atomic
attendais
attraente
baignoire
bezahlen
blitz
blonde
boxes
brazilian
camino
cansada
cantar
cathedral
cells
chances
cheating
chemical
cierto
civilization
claims
clairement
clever
cocina
complained
conoces
conscience
contain
convenience
copient
cou
coward
criminel
croatia
cuerpo
custom
dado
dall
deaf
decoller
defendre
dejeune
dent
dessine
determine
develop
differente
dingen
discussing
disney
dissatisfied
donated
doof
drawer
echelle
ecrivain
ecrivez
elderly
elections
elegant
ellas
embrasser
emmerdeuse
endormi
ennuie
entrar
entrez
esos
etudes
evanouie
explaining
extremement
fabrique
falling
familiar
fangt
faul
favorito
fermes
fiction
flexible
forgetting
foule
franklin
frases
freundschaft
frieden
fuhlen
fuhlte
gardez
gentile
geschiedenis
gottes
gravity
groen
groupes
hab
hara
helicopter
hermanas
hers
heureuses
hi
hore
hospitality
identical
impose
inocente
inquieter
intentions
intenzione
inutile
jaloers
james
japanisch
jeudi
jugend
julia
jupiter
justin
kaputt
kasteel
laatste
larm
laufen
leadership
lente
letztes
ley
lisait
litres
llevo
lonely
lourd
lustig
manche
mangeons
mantel
marrying
matematicas
medico
mee
mehrere
meisten
memories
merveilleuse
mexican
ministre
mittag
moscow
murs
naked
nervos
ninguna
nourrir
nueve
numbers
oblige
odeur
offnete
ontmoet
orders
ordnung
ouder
parlaient
paso
peligroso
peor
perdio
perfecto
permitted
personally
pigeon
pincer
platform
plotzlich
po
practical
precies
preferido
presented
pride
primero
projekt
proxima
puerto
purple
quarante
recall
rejoindre
relation
repeating
responsables
response
revenue
ricardo
rim
romeo
rompio
ruhig
russland
sadness
sauber
schlacht
schliessen
schnee
screaming
seigneur
series
sieh
sleeps
socrates
solchen
souffre
soutiens
spelling
spiele
stable
sternly
stierf
suicider
sujets
sumo
supplie
survecu
suspected
task
tastes
taxes
tend
tenes
thirsty
tigre
totalement
tradition
tranquille
trompee
truc
tunnel
twilight
types
ubersetzt
umbrellas
users
vele
ven
verbracht
vero
verstand
versteckt
vertalen
vint
voie
volleyball
weihnachten
wenige
western
wisely
wisst
wolves
worship
yamada
zeigte
zitten
zog
zweifel
##ail
##ake
##ama
##ane
##board
##cen
##chaient
##ciencia
##culation
##digen
##ei
##ento
##etzen
##euse
##falls
##gation
##genommen
##han
##hl
##house
##ib
##ied
##ieme
##iens
##igte
##illais
##imento
##ives
##izia
##jos
##kam
##ki
##lave
##lera
##lied
##lig
##light
##lin
##lon
##med
##menti
##mm
##mment
##nato
##nete
##nnt
##ori
##ote
##prache
##pte
##ram
##rando
##rasse
##rera
##rin
##rir
##roll
##rro
##rucht
##rupt
##sin
##ssing
##tio
##tle
##uben
##uir
##ulait
##una
##ury
##ville
##vra
##weise
##werk
##work
##zeug
##zie
##ziert
##zone
##zug
2h
72
abuela
acceptez
accounts
achetait
activities
adults
ahi
aidez
aldrig
alike
amant
amazing
andare
angelegenheit
anima
anxiety
arguments
asian
asseoir
bags
beginnt
bellen
blau
blew
bloemen
bottles
bouteilles
brand
brucke
bug
cadres
camp
caprices
cara
career
carottes
championship
chuchotant
circle
citizen
citizens
clases
colores
comun
concentrer
console
conto
controlled
copierai
correr
correspond
corrige
countryside
couper
current
dawn
defended
delight
demanding
deprived
desespere
deshabille
destin
detectives
determined
digo
directions
disco
discount
dormiez
dran
dresses
dumm
earns
eerlijk
egypt
electricite
employees
energia
enfuies
enfuis
ensuite
entscheidung
equally
erkennen
esperar
estare
estudiante
etrangler
exito
experienced
experiencia
falschen
famoso
female
feminism
fermait
firefox
fis
freiheit
frequently
freundlichkeit
fuhrte
furious
gangsters
genius
geschlossen
ghost
glaubst
gnade
grabbed
gras
gratuitement
groupe
gusto
hacen
hade
hals
hasst
hats
haunted
hausaufgaben
heros
hitler
iceland
identified
incapable
incendie
inde
infidele
influencers
insulte
intense
intento
invidia
irish
kijkt
kilometer
kino
knees
konzert
kuhlschrank
kwijt
kylie
lacht
laurie
lavait
maandag
magazines
maltese
marre
mass
mecaniques
melancholy
membres
memoria
memorized
menage
meses
mina
mont
mosquito
mourut
muerto
naissance
naomi
naturlich
nearby
necesario
neighbours
neu
neuvieme
newly
niemanden
normale
normalerweise
noter
numerous
odia
oktober
operate
opposed
options
ordres
oublierai
parent
passports
pensa
pensait
pequena
percio
permets
perseverance
personen
persuaded
pianiste
pirates
plu
possibilities
postuler
potato
poubelle
prefiero
prevent
previous
produce
proximo
puni
puso
quantum
rained
recommencer
redoubler
reduce
regarda
regrets
reicht
reichtum
relations
relationships
remorse
rendra
retourne
sales
salz
sapeva
sarcastic
schaute
schneller
schwert
scolded
seche
sells
sembrava
seminar
shining
shook
shows
shuttle
silla
sino
sins
situated
sitzt
smiled
snake
solely
sombre
sources
st
standig
statement
statues
stuhl
suenos
suficiente
suisse
suitable
sunset
temper
tempete
terminar
tested
throughout
timore
towns
trage
tranen
trank
traverser
tre
trick
trouwen
tycker
unknown
unrecht
unterstutzung
vanwege
vemos
verbrachte
verlor
versa
vertraut
viendo
vienne
viernes
vietnam
voleur
volk
volvio
voz
vrouwen
wachen
waist
washes
websites
werdet
winning
yourselves
zeigt
zinnen
zondag
zwart
##12
##ables
##aft
##aires
##anti
##bers
##bes
##bit
##blich
##bs
##buch
##cco
##chrift
##cs
##cura
##ders
##dia
##dt
##ef
##ehen
##endo
##esa
##finden
##fully
##gal
##gnaient
##gnis
##hes
##hr
##iga
##iko
##illa
##ined
##iter
##its
##kin
##kten
##linge
##lions
##litten
##nas
##nds
##nien
##nnes
##nse
##ok
##ology
##opia
##quis
##rap
##rik
##rior
##rite
##rl
##ros
##row
##rst
##ship
##stellen
##teen
##terie
##tez
##trag
##uern
##ui
##ulate
##ulieren
##uous
##urer
##utons
##vent
##venu
##viendo
##wahlt
##weh
##zieren
##zimmer
##zio
200
2011
abends
absurd
abuse
accordait
admirer
adopt
agatha
agrees
aiderai
alleine
alliez
alrededor
amante
amener
amerikaner
amigas
amoureuse
ann
anwalt
apparence
application
architect
arriva
arrivent
ass
astinenza
atheist
athletes
attaque
audio
aufgestanden
auge
avantage
aver
avesse
bagages
baratto
barely
bass
bataille
batiment
beg
begrijpen
behaviour
belangrijk
bieten
blanket
blauw
blesses
blocked
bomb
boucher
bourgeois
bow
brasil
butterflies
cakes
california
camping
carol
carpet
cave
challenges
cheaper
chickens
christie
christopher
combination
commences
conoce
contenter
continues
controler
correcta
correctement
couche
couleurs
crachait
crimes
crise
croient
croyait
croyez
cuantas
cultive
dach
dacht
dated
dealing
decouverte
defendait
degli
demandez
destroy
diamond
dicen
dicendo
din
disagree
discover
domestic
donnees
doux
dromen
droom
drums
dude
duidelijk
edad
ei
eigene
ejemplo
electric
entender
entitled
envelope
erfunden
erinnern
estara
estomac
estudia
eteins
eut
exists
explore
extrano
faibles
fantomes
farben
fastest
fence
fermez
fi
filling
flies
fox
freue
fuhr
futuro
gained
ganzes
gearbeitet
gebeten
gefahren
gentilezza
golden
grandma
grandson
grown
hamburgers
hanged
heartbroken
heilige
hohen
holding
holle
host
hug
humanite
humeur
hunt
hurried
iglesia
ignorez
insects
insel
insult
investigation
ipod
iras
janvier
japanse
jeanne
jouerai
jouons
jupe
kleid
klug
knee
kopfschmerzen
kosten
krankheit
lacheln
lado
lander
langweilig
leads
legend
limite
lithuania
llegar
llena
logique
loud
magie
malheur
manieres
manners
manzanas
marias
maternelle
melanie
mennad
minds
minogue
minuit
monnaie
murdered
musicien
nagon
naive
nederlands
neun
nonsense
notwendig
nutzen
occasions
offen
organisation
osteoporosis
oude
painful
papel
participer
partira
passionate
patrie
patron
peel
pencils
perdez
perros
philosophie
piensa
pilules
planted
podia
pony
potter
pratique
prese
primarily
produits
puissant
puoi
raam
raisons
rarely
reduced
refusa
refuses
regardent
regular
reisen
rejected
relaxed
religios
rented
replaced
repond
reported
representative
restee
resultat
revealed
richard
rising
risques
rivers
robbed
robots
romantic
ruf
russische
sacred
saggio
sagten
salud
sank
sarai
schande
schlechter
schwestern
searched
sensitive
server
sinon
skill
slechte
socks
soviet
sovrano
specific
spectateurs
speeches
speeding
spite
split
stamp
steel
straw
suerte
suggere
suivant
surely
suv
systems
tagen
talents
tent
tenu
termino
tomato
travaillons
treaty
tremble
tricks
trotz
tuin
tussen
tva
uberall
unemployed
unfall
uniforms
ut
valet
veaux
venido
verbrechen
verrai
versprochen
vertrag
villa
volant
volume
vond
vorher
waiter
walls
warme
wart
weitere
wichtiger
winnen
wire
wished
wunsche
zes
##aba
##acia
##ali
##ari
##ateur
##born
##bow
##brechen
##cacion
##ched
##chst
##cina
##cite
##ckers
##cure
##cus
##dio
##eckt
##eek
##ek
##eri
##ever
##geben
##geht
##gnait
##gner
##gnions
##haus
##hort
##ibt
##icion
##idos
##ised
##ismus
##isons
##iti
##jden
##kelijk
##lado
##lag
##lame
##lated
##lava
##lee
##legen
##lichkeit
##long
##lug
##met
##mine
##mist
##nate
##ney
##nted
##nu
##ole
##one
##ord
##ots
##out
##passen
##pers
##pi
##rant
##rat
##rds
##ree
##rian
##rica
##richt
##riffen
##rina
##rise
##rita
##rle
##schaffen
##sian
##tada
##tend
##tial
##town
##ttare
##tung
##ube
##udie
##unado
##unde
##uo
##uree
##utais
##vant
##vel
##vero
##verse
##victed
##vie
##vient
##wacht
##wegen
##yez
##ziehen
1000
1945
26
aanwezig
abats
abattaient
acaba
acceptera
accompagneront
accueillant
achetez
acquaintance
actifs
adopte
adultery
african
agi
aimaient
aiuto
ajouter
alcoholic
allais
amusait
angefangen
anrufen
anziana
appreciated
aprende
arc
argentina
arrest
arretaient
assistance
assiste
assured
astronaut
attempted
attracted
balance
bano
bark
beard
bedroht
behalf
behover
belief
bericht
betrayed
bewusst
bieber
biography
blanche
blond
blut
boca
bonte
boots
bouge
bouton
buenas
calculate
campo
candles
cases
casquette
celebres
cents
champagner
chiunque
christian
cielar
cien
classique
climat
climbing
closely
closest
closet
commission
compagno
composed
comprenons
concept
conduisait
considers
consiglio
contrary
cookies
corruption
couvre
cow
criminals
cuchillo
cultures
dedicate
deliver
dependent
deposition
deseo
desolee
determination
deutsche
devait
diary
dica
dieb
dient
dientes
difficultes
dignity
director
discrimination
disk
donnent
dormaient
drowned
ears
easter
ecoutait
eifersuchtig
eins
ellen
eloigne
empecher
enfer
episode
equipment
erschlagen
erzahlte
estime
estuve
etoile
europaische
europaischen
exister
fairly
fantastic
farlo
fascinated
fatigues
feared
ferait
fernsehen
fout
frequent
fria
fruhstuck
funds
gang
gathered
gaza
gebaut
geel
gefuhl
gelb
geliebt
generalement
gentils
geschlagen
gesloten
gewicht
gorge
grant
grossten
guinea
guitares
habitants
habria
hais
haiti
heights
heiss
honestly
hostile
houd
humains
humide
ideal
ignorant
ignorent
imposible
indem
indifferent
industrial
inglaterra
insisted
inspiration
intentionally
interessez
intern
intorno
iphone
islands
jersey
joli
justify
kampf
kanada
kerk
kleiner
knocked
lamp
laundry
length
leyendo
liar
libertad
lina
litterature
llega
load
logic
luis
maan
malheureux
malo
manteau
march
mare
marron
mediocre
meister
mensonges
metier
michel
misschien
moindre
monroe
morocco
mostro
mouton
museums
musulmans
naast
narita
nationalite
necesitamos
nobel
noirs
novia
nowhere
nutzlich
oben
obligated
occupation
offended
offert
oido
omdat
onto
oom
ordinary
organize
oxford
pacific
pagina
parque
partez
parviens
passez
passt
peignaient
peignait
pensons
perform
petites
physique
plantes
poke
potesse
pouvaient
predict
prenons
pro
problemen
proceed
process
programs
projekte
projets
promets
pupils
queda
queremos
rabbits
raw
realise
recommandais
recuperer
reflect
relax
reparerez
replace
represented
reveiller
rey
richest
rispose
rivier
roommates
roten
royaume
ruined
saignait
salee
sally
sangre
satisfaction
satt
schonste
schweigen
schweiz
score
section
selection
semanas
seria
serre
ships
shuttlecock
siecle
singe
skills
slaapt
slaves
slight
smallest
sneeuw
sogar
sorties
sortit
souffert
souffrance
southern
souvenez
sowohl
spanje
spielst
spot
sprang
squirrel
staten
stellt
sterne
suiker
supper
supplies
supreme
taire
tatami
tauschen
tombees
tool
tormento
trainer
traveled
trial
trotzdem
turen
ubersetzung
ultima
ultimo
unbedingt
upset
utilisant
utilises
vampire
vandaan
vegetable
vegetarier
venga
vengeance
verandern
verdienen
verenigde
vergangenheit
verkaufen
vernaut
vet
vindt
vissen
voll
volta
voorbij
vorbereitet
vorige
vorteil
vuestra
warehouse
weapon
wi
winkel
woedend
woher
woorden
ziekte
ziel
zult
zuvor
##14
##99
##ager
##amen
##arlo
##ased
##ator
##ats
##beeld
##bido
##bly
##bot
##broer
##cano
##chons
##cis
##cles
##cte
##cue
##cule
##dant
##dato
##dde
##diction
##dizione
##dores
##egd
##elen
##emen
##eo
##ette
##euses
##ference
##fugen
##gekommen
##gleich
##gnet
##gola
##hier
##ho
##hore
##ically
##icas
##ick
##iel
##ienen
##issen
##itch
##jan
##keiten
##kes
##lehrer
##lic
##lier
##liques
##logia
##lot
##lvo
##nade
##nder
##nel
##nik
##nisse
##ome
##omen
##oo
##ops
##oule
##pit
##ply
##posto
##prach
##quer
##rca
##rebbe
##rge
##riel
##rirai
##rna
##rti
##sam
##sance
##satz
##sible
##ssions
##style
##tana
##tenir
##thme
##tis
##tisch
##tliche
##treten
##ually
##uden
##uist
##ulated
##up
##uras
##uring
##vais
##vare
##xe
##yais
##yant
##zusehen
2h30
70
absorbed
abundance
accelerait
accusee
actuellement
advertising
aidiez
aies
akira
alemania
alltid
alma
altere
ambassade
andrea
andy
anime
appelait
appelee
appointments
apprenais
aquellos
aspect
aspirin
assembled
astronomy
attenzione
attraktiv
attributed
augenblick
auswendig
avra
balls
bastone
bello
berbers
beside
betekent
bezoek
ble
boarding
brasilien
breathe
bright
bringe
burger
cage
camarade
candy
catching
cena
cerrada
cerveau
chevaux
christianity
clair
classified
comenzo
competence
consciousness
contrat
convert
coraggio
cose
courageux
couronne
creation
crown
cruelle
crush
danish
danno
darin
darum
deben
decus
defeat
definition
demonstrate
departure
depression
desirez
dialect
dichiaro
differ
directly
disant
disaster
divino
dopo
dorment
dr
droits
drugs
echo
economically
ed
egypte
eindelijk
einverstanden
eis
elf
encontrado
ending
engage
engeland
enthalt
enthusiasm
enthusiastic
enttauscht
equipo
ergebnis
erlauben
ernst
exactamente
excelente
existieren
exit
expose
expressed
exterior
faccio
falso
fantastisch
fantasy
farewell
flights
formed
frente
fruhling
fumait
fuori
furcht
gedicht
geglaubt
gehad
gekusst
genoux
geschenke
gestorven
gesunden
grab
grandmothers
grece
guardare
habillait
halb
height
helsinki
hemd
herein
hesitation
hilft
hinzu
histoires
hostages
hugel
humiliated
hundert
ichiro
ideen
identite
idioot
illusions
immobile
improving
indien
influenced
inget
inizio
intervene
invece
invierno
ire
irez
irons
irritated
jeff
jewels
jongens
jouez
jugando
juge
jumping
juni
kanner
kerstman
koffer
komma
koop
laufe
laura
lautet
liegen
ligne
linguistique
listens
lohnt
loog
lugen
lugner
lyrics
maakte
mager
mall
manga
manquais
manual
mask
massachusetts
materials
memoriser
mercado
merchant
meurs
miserable
mist
modele
monkey
monopoly
montana
mutual
nachrichten
nariz
neck
nietwaar
nitrogen
noms
norwegian
obtenu
occurred
ocupada
offensichtlich
offices
oma
oncoming
opnieuw
osservare
ouest
pants
parola
paz
pensaba
pensee
pensees
perdi
permet
permit
personlich
persons
pflicht
pillow
pleurait
pointed
potrebbe
pourra
poverta
precisely
preguntas
prendere
presenter
prier
principes
prisoners
programa
promessa
prononce
pronunciation
prouver
provides
psychiatric
publie
quantite
reconnaissez
redden
refrigerateurs
refuser
regenschirm
regierung
reglement
reparieren
reponses
requested
resolu
respected
respectful
retirement
retten
revenge
reviendra
ricchezza
richezza
romney
rosa
rumor
russes
sabado
saben
sacre
saggezza
salio
saturdays
sauvage
schach
schizophrenic
schwarze
serpents
shooting
shoulder
sickness
sings
siquiera
skier
soldats
sonntags
soudain
sounding
spada
spicy
spijt
splendide
sprak
stade
stage
steak
suffisamment
superior
suss
symbole
takahashi
tas
taub
temo
tendre
terme
terminer
terror
tolerance
tooth
tortoise
torturee
traume
travaillait
travelling
tristesse
trivial
trompes
tror
trump
uberleben
unternehmen
unterstutzen
upstairs
vaya
vegetarien
veinte
vendra
venues
verb
verdaderamente
verdieping
verge
versailles
vertelde
verwacht
vio
visible
vivez
vivimos
voleva
vorsichtig
vostro
vowels
vus
weddings
wednesday
wees
weinig
welchem
witz
wohnst
wolken
worries
worthy
yuan
zeiten
##aar
##abile
##adas
##ah
##ains
##ames
##amo
##arde
##aria
##bis
##card
##cchio
##cevoir
##chief
##chtig
##cian
##claimed
##con
##ctor
##dis
##dro
##duis
##eden
##eille
##elo
##ene
##ents
##enz
##erer
##erie
##erst
##fde
##fi
##fico
##frau
##gawa
##gefuhl
##gesehen
##gestellt
##hing
##hrlich
##hundert
##ians
##iben
##iento
##ignez
##ignon
##igung
##ill
##ior
##irer
##issais
##issement
##issons
##isten
##ji
##jn
##karte
##kend
##ky
##landa
##landen
##lda
##lement
##lernen
##lido
##line
##ln
##lose
##ltet
##lva
##lves
##mando
##mare
##mburg
##mel
##middag
##mie
##mientos
##miste
##moto
##nar
##ncio
##nent
##nken
##oco
##ogen
##ogne
##onia
##ost
##pense
##ph
##phones
##piration
##platz
##ple
##pp
##pre
##qua
##quant
##ract
##rates
##reiten
##riais
##rias
##rict
##rime
##rische
##rla
##roach
##rra
##ruch
##rust
##schmerzen
##seln
##setzen
##stes
##sucht
##tacion
##tausend
##tivo
##tons
##ttet
##tze
##tzt
##uelle
##uette
##ugt
##uiez
##ulen
##uso
##utaient
##utiez
##utze
##vallen
##vation
##vis
##von
##vons
##vrouw
##ware
##water
##weisen
##xion
##xual
##yaient
##zeiten
##zung
1980
3000
aarde
abierta
abrege
absolute
abstinenz
acceptent
accoglienza
accurate
acide
actors
adorais
adorer
affermo
agent
agradable
ahnung
aiderons
aillent
aim
aimera
ali
allemande
allt
ambassador
amusement
amuses
angezogen
annoy
antidote
anzi
aoi
apporter
approuve
approved
arriveront
aspetto
athens
aufgabe
avevo
ayudarte
bach
baked
bara
barmherzigkeit
basis
battaient
batteries
battiez
bauen
baume
beantworten
bears
beggar
bench
benisse
benotigen
besitzt
besonders
bestaat
bestes
bethlehem
betrachtet
betrugen
bijoux
biology
blatter
blessed
blij
bogen
bologna
bonaparte
bone
borrows
bosque
breng
bulgaria
buses
canta
capacity
carbon
casado
cast
catalog
cede
cellphone
centaines
certaine
changez
chanteuse
chapters
chers
chilean
chilli
choisissez
cible
ciencia
cinquante
clarinet
clitoris
clothing
comfort
comforted
comio
companies
competitive
considering
contento
convenient
copieras
courent
creatief
crede
cure
curiosity
decider
declaration
decourage
deed
defaite
dejar
demarrer
demi
demut
derjenige
desagreable
desesperee
design
detruit
deviens
difficiles
dimanches
dirais
direkt
discorso
dise
disguised
dissi
divorcer
doll
dono
draagt
dronk
druk
durmiendo
eclate
economics
edificio
efforce
ehemann
eigen
emmene
enfance
englische
ensalada
enseignantes
enseignants
entdeckt
entiende
entierement
entreprise
erased
erklart
erreichen
escucha
esposa
essayez
essentially
etonne
etwa
europeenne
experte
exterieur
faces
fahrenheit
falafel
fara
faults
februar
feind
felicidad
ferien
fern
fernseher
filipino
finalmente
fines
firent
flags
flog
flor
florins
flows
folie
forth
fortress
foster
founded
frankly
freely
freuen
garantie
geblieben
gebrauch
gebrochen
gebroken
gebruikt
gegenseitig
gegeven
gelebt
geloven
gemein
gemeinsam
genauso
gericht
germans
geschieht
gesu
getotet
gevangenis
gezeigt
gitarre
goud
grado
greeted
grossmutter
guardie
guerir
haiku
hemel
hemisphere
hermosa
hesitate
hinter
hob
hoffen
hubo
humaine
hungarian
hungary
hydrogen
icelandic
idiots
immigration
imposed
imprisoned
incluso
insectes
instance
intellectual
invest
islamabad
jacques
jemandem
jerusalem
jimmy
jouera
jumeaux
juvenile
kazakhstan
kebab
kenji
kennis
keyboards
kijken
klasse
kleidung
koning
kontrolle
lache
ladder
laissa
lawaai
leeftijd
lektion
linguistics
links
lisais
losung
loudly
lung
malvagio
mangerai
mangeront
maniera
mannen
marchandises
marido
markt
marteau
masse
massive
mattress
mauer
mene
meno
mentent
merveilleux
messer
mittagessen
moest
moitie
monate
monster
monsters
montees
montes
morgon
motivation
muddy
mum
nachbar
nachdenken
naci
nationale
naturaleza
naturally
necklace
nei
network
niederlage
niks
nimmt
ninety
nomme
norte
notebook
novelist
nummer
objectief
objective
obsession
obstacles
ofen
olympic
omelet
onions
oostenrijk
ordenador
owns
paie
pains
parade
parfaite
parlions
partido
partons
pasaporte
paulo
pekin
pensar
perdais
perdait
perdent
perdiez
perdra
personnalite
phenomenon
photograph
photographer
piaccia
piel
planes
playa
politie
portent
portugiesisch
possession
possibilite
precieux
precis
presentation
principalement
produced
profession
promesses
protege
punishment
purse
quarrel
raconter
recente
recorded
refugees
regels
relieve
remembered
rennen
repondez
reserver
responder
revele
revenir
reward
richtung
robado
root
ruido
sabemos
sacrifices
sadako
sam
scale
schlaf
schlechten
schlug
schrijf
scream
seats
secondhand
segun
seht
separate
settle
shares
shirts
shock
shortly
sigue
singt
sitt
situacion
sitzen
sixteen
snowman
sobald
solucion
sore
soucie
spare
spark
spielte
starken
stets
strafe
sucia
sum
sunburn
sunde
sunscreen
surprising
suzuki
syrie
tags
taiwan
tap
tatsachlich
ted
tempura
tenido
ter
teresa
terribly
thai
threat
throwing
titre
toucher
towel
toy
toyota
traditions
traf
trained
trap
trapped
treize
trouves
tuyo
twintig
uberzeugen
ungeduldig
ungefahr
unica
vanmorgen
vast
veilig
vendent
venice
venne
verantwortlich
verdadero
verde
verloofd
verrat
versta
vertellen
vertrekken
villages
virtue
visa
vitre
vivait
vliegen
vocabulary
volapuk
voted
vues
vuestros
wald
wasted
weiser
welk
wesen
wicked
wien
wieso
wink
wissenschaftler
witness
wolle
wollt
wollten
writers
yeah
zelda
zoologico
zuhause
zuruckgekehrt
zuruckkehren
zuster
##15
##aco
##ades
##agd
##ahl
##ahn
##ald
##ande
##ander
##ang
##arbeit
##assen
##ature
##berg
##bilidad
##bos
##bus
##cchi
##chon
##chos
##cible
##cientos
##cita
##cked
##craft
##creen
##damente
##del
##dem
##druck
##eel
##een
##ego
##ehe
##ekten
##eller
##ering
##eron
##erweise
##eso
##essi
##este
##esten
##fassung
##fd
##fect
##fo
##fort
##fs
##gde
##gend
##gert
##gique
##gon
##gos
##gramm
##holt
##iano
##ieur
##ification
##igne
##iler
##illo
##ime
##iment
##inais
##inate
##inden
##inn
##ioso
##ires
##isieren
##issent
##ital
##judiced
##kins
##ktion
##lanzt
##lato
##leed
##lmente
##logue
##luss
##mado
##messen
##mettre
##mia
##mic
##monos
##morgen
##nions
##nk
##nlich
##nst
##oda
##olf
##olish
##oro
##orte
##ostet
##paration
##passe
##ports
##pos
##prise
##pto
##quelles
##quement
##quila
##raham
##regen
##reifen
##reis
##resa
##ret
##rillo
##risch
##riva
##rli
##room
##runken
##sena
##shed
##ska
##slagen
##tale
##tamente
##tch
##tener
##tiene
##tier
##tiere
##tile
##tir
##tische
##tz
##uaient
##uckt
##uerzo
##uffe
##ug
##ugo
##uh
##uhn
##uin
##ulation
##ums
##uons
##uriez
##using
##uten
##uyait
##vable
##vando
##wachsen
##was
##wasser
##weis
##wel
##wert
##wiss
##woord
##zin
##zumachen
##zzare
60
aandacht
aangekomen
abandonnera
abiti
abre
acceptait
accidentally
accuracy
aceptar
actual
affirme
afflige
afghanistan
agarrar
agriculture
aidaient
ailes
akiko
allonge
allumez
amare
amer
analysis
ancien
anda
angela
antique
appeal
appela
appelles
appetite
applaudissait
approchait
aquarium
arboles
arco
argued
association
asthma
attendent
attendra
attic
attract
auberge
aufgehort
aufgrund
aunts
auraient
australian
autochtones
autrefois
avril
azucar
ballon
bande
banned
barcelona
basement
beber
bebo
bedeckt
begangen
begging
beisbol
bekam
belgium
believing
bellezza
below
beobachtet
besitzen
beso
betrubt
bezig
bil
billets
bills
blaue
blieb
bloem
bloss
boot
boses
burg
cab
caballo
cambiar
cambio
campaign
campus
cantante
cds
celebrated
chairs
channel
charm
chatting
chemistry
chicos
cigare
clef
click
clima
closes
cocinar
coin
coince
collected
commencait
complique
confidence
confie
connect
consejo
conserver
context
continua
conversations
convient
cookie
corre
corrigez
corta
costo
costumes
couilles
cour
courtoisie
cousine
creating
creature
cricket
croissance
croyais
crudele
crushed
cups
curieux
curiosite
danach
deberes
demenageait
demeure
demonstration
dentiste
derange
deren
desiderio
destino
developpe
devenus
deviendra
dikwijls
dinosaurs
disappoint
dishonest
disques
divin
divinita
divise
donare
dormais
dorst
dreht
driven
drivers
drogue
drunken
durst
eben
eier
eigentum
einstein
element
eller
emilia
encuentro
engaged
enleve
entkommen
entry
entscheiden
erlaubt
eruit
espacio
essi
established
estrellas
etres
europeans
evanoui
excellente
exciting
exemples
expelled
extrana
fallait
famosa
farmer
fbi
fiel
finit
flaschen
fles
flottait
fonction
forecast
formal
forts
fouille
fred
frequente
freuden
fries
frozen
fruta
fuck
fuego
fuese
fuimos
funciona
fundamental
furchtet
furieux
gabe
gebeurd
geheilt
geist
gekomen
genuine
germano
geschichten
gesproken
gezondheid
gillar
governed
grade
grec
grecia
guarantee
habillee
hablan
hadden
hago
haired
harmony
harsh
hauser
headed
hinterlassen
hoflichkeit
honesty
humility
hurricane
iers
ignoriert
ihres
illusion
images
immeuble
importants
independence
interessee
introduction
investigating
iraq
italiaanse
italienische
ivy
jamas
joking
jus
justo
kato
kaufe
kennengelernt
kick
koelkast
kompliziert
konzentrieren
kort
kreativ
kummert
kuste
ladron
lama
landen
lapin
larga
lasts
lavaient
licencie
liedje
limites
lions
lock
logica
lois
louder
loyalty
lungs
lyon
magnus
manquent
marathon
marilyn
marque
mayonnaise
meins
membre
menaces
mentait
mentez
messo
meubles
millionaire
miracles
mitgebracht
mittel
mogelijk
mondiale
mouilles
mount
movement
movements
museo
muslims
musulman
naartoe
nachstes
nagent
naturel
navire
necessity
neemt
negen
neid
nell
nennen
nennt
niente
nights
niveau
nome
noord
notes
notig
observation
observed
odds
offense
offers
officer
oficina
oisivete
opfer
ordonne
orleans
oublient
ouvrait
papalardia
parks
pasada
passieren
pawns
peces
perdue
personnel
perspective
pferde
philosopher
pidio
plat
plongeait
podeis
poete
poli
politicians
portugais
possibile
powers
praise
prasident
precisement
preferable
prego
preparado
prepares
primo
principio
prinzessin
probeerde
projects
promote
propia
propriete
protected
prudence
pub
puisque
punk
punktlich
putzen
quei
raconterai
rainy
raus
ray
recession
referred
regardes
reichen
remarkable
renaissance
renard
rendent
reno
renonce
repeint
replied
resolver
ressources
restait
rever
rijst
rit
romance
rote
rumors
ryck
sacs
satisfactory
satzes
scenic
schauen
schicken
schicksal
schiff
schizophrenie
schliesslich
schnitt
schuldig
sciences
seas
sending
sentiment
servitore
setzte
shalt
shaped
shelves
shinjuku
shortage
sides
silver
sinceres
sir
sits
skip
skolan
slechts
smells
soborno
sociedad
soep
soffrire
soldier
sonido
sortes
spazieren
spesso
spoon
spreading
sprich
stadtviertel
standard
stew
stil
studiere
submit
subtitles
sucht
surgery
surtout
survived
suspects
swimmer
tarte
tear
teenager
telefonnummer
temples
temptation
tenez
termes
terres
territoires
tigers
tillbaka
tor
tortures
touched
tournament
traducir
traurigkeit
traversant
tresor
trouva
trouvee
tune
tweede
typical
ufo
ugly
unas
uniform
universo
unschuldig
updated
upp
upper
urteil
usar
usb
utiles
vache
vengo
veranderen
verbs
verdict
verhalten
verschiedene
vestido
vices
videos
vidi
viso
vivere
volto
volvera
vrede
vroeger
waffen
walnut
warned
wasche
wascht
waves
weighs
wenigstens
werfen
widely
wiskunde
worrying
woruber
yard
youngest
zeitungen
zerstort
zoals
zwanzig
zweifellos
##68
##aart
##acher
##acy
##aja
##alla
##aries
##arte
##aste
##atique
##beten
##blick
##bte
##burger
##bute
##cados
##case
##ccupied
##cede
##cence
##ception
##chait
##charge
##cieux
##cios
##crite
##cter
##cular
##dais
##dan
##dest
##dien
##dire
##dom
##druckt
##ected
##eile
##eis
##eit
##els
##enne
##esse
##ets
##eza
##fahrt
##fera
##ffnet
##fft
##gabe
##gefuhrt
##gefunden
##geld
##gelegt
##gene
##gien
##gieren
##gram
##graphy
##halb
##handelt
##hie
##hima
##hlt
##hrung
##hs
##icate
##ief
##iges
##ihen
##illes
##ima
##innen
##irais
##isce
##ising
##issaient
##issiez
##istas
##ited
##itor
##itte
##ivity
##kenen
##komme
##ktiv
##ktor
##lable
##lace
##lacer
##lacht
##lata
##latable
##lerant
##lice
##licht
##liert
##ligt
##lim
##lined
##lio
##lor
##maient
##massig
##mblait
##mble
##mee
##meen
##melt
##mile
##mions
##mte
##name
##nation
##nces
##nciez
##nement
##nero
##nette
##nez
##nge
##nies
##nita
##ohnen
##onie
##oog
##otras
##ou
##oue
##oyaient
##page
##par
##paro
##pete
##pf
##pfen
##pft
##pices
##pion
##puesta
##punkt
##quent
##rants
##recio
##reise
##ress
##ressen
##retta
##rgen
##ribe
##rich
##rifft
##rigo
##ril
##rillas
##rimes
##ringt
##rissaient
##rne
##roso
##rso
##rta
##rto
##scheiden
##scht
##siste
##sita
##stag
##stande
##sti
##tad
##thy
##tori
##trai
##tritt
##try
##tter
##tua
##tzen
##uber
##uch
##ucht
##uels
##uez
##ughter
##ulous
##unter
##usse
##utions
##ventato
##vere
##vern
##version
##viera
##volo
##vraient
##vy
##wahren
##we
##wein
##wer
##werkt
##wig
##willig
##woorden
##xuel
##yed
##zahle
##zando
##zas
##zer
##ziehung
##zugeben
1975
21
4000
abaissaient
abattra
abgeschlossen
abimait
abondance
abrazo
abrutira
abrutit
absolut
aca
acceleraient
accepteraient
accompagniez
accompli
accorded
accrochait
accueillait
accueillera
achetaient
achetent
achetes
achetiez
achieve
actes
actives
admits
adolescents
adorera
adorez
adoriez
adoro
affamait
affamera
affliction
afgelopen
agee
aidait
aimees
aires
airports
ajoutait
aktiv
alaska
alert
alkohol
allumait
allumer
allumera
amable
ameliorer
ammonia
anfangen
angel
angenommen
anglaise
angrily
anoche
antigua
anzunehmen
apologies
applique
appreciation
apprenaient
appreniez
approprie
arab
arguing
arnold
arretiez
artists
assommait
assoupli
asunto
attendance
aufgewachsen
aufstehen
ausserst
automovil
autorijden
autorite
autriche
avermi
aviv
ayant
azules
bandera
basque
beatles
bedingungen
bekannt
bereuen
bergen
beruf
bester
betaald
beurre
biologie
blessees
bleus
block
blues
boasts
bodies
boiling
bosen
bougeait
breaks
breast
brian
briefe
brings
brouillard
buys
cachait
calendar
carlos
carries
certificate
chapter
charges
charme
cherchais
cherches
chie
chili
cierra
cincuenta
citoyens
claire
clown
coins
colle
comi
comic
communaute
comparison
competed
complains
compose
comprenais
concrete
conduira
confectionne
confus
connaisse
conoscenza
considerate
considerer
considero
consomme
constitue
copiez
corde
corriger
counting
courtes
cout
couverte
cowboy
crachaient
cracked
craignait
crash
crops
curtains
dansait
dansera
dansons
darkness
debarrasser
declarations
decourageait
defined
dejame
delle
demands
demarrais
deporte
descendez
describes
description
deserves
desiderava
detta
devote
devotion
dichter
diede
dieren
diplomat
direccion
discreet
disposition
distingue
distract
district
disturbing
documentary
domaine
donald
doos
downstairs
dreaming
duda
duitse
dura
duur
ebbi
echange
ecluse
ecoutant
edgar
edite
ehe
eher
ehre
eingang
eingeschlafen
eingesperrt
einziges
electronic
ello
epousa
erinnert
erkannt
errores
escuchar
esperando
esperons
essayais
estabas
estonia
estupido
etant
etendue
eternity
eurer
europas
everest
examined
exercices
existen
existent
exporte
exprime
faced
failures
fake
fascinating
fathers
favorita
feature
fedele
federal
fehlen
felices
fermaient
feuille
fiable
fiasco
fields
figlio
fino
firm
flash
flashed
florida
fluency
fonctionnent
forklift
formeel
franchement
freitag
fuerza
functions
funerals
furchten
furnished
gafas
galaxies
gangster
gebeurde
geduldig
geheim
gek
gelooft
genereux
genio
gestellt
gevaar
gewalt
gewoonlijk
giant
giggle
girlfriends
gorgeous
gouden
gratte
gray
griekenland
grippe
gulf
habituee
hablas
hait
haltst
hanako
haya
helft
helpful
henry
herrscher
herrscht
herum
hierhergekommen
hinzugehen
hoflich
holds
holz
honesto
hoofd
hoped
huddle
hurting
huset
ideeen
illustrated
immobiles
incense
include
inconnu
increased
incroyable
independant
infection
infirmier
ingrats
inner
installer
insultait
interet
inventa
inventor
iremos
italianos
items
januar
jewelry
jovenes
jump
junger
kanadier
karten
keiko
kills
kindly
kioto
kissing
kleinste
krawatte
kuss
kussen
ladies
laissera
langen
laune
laviez
lawyers
lecteur
lee
lekker
letizia
letzter
levanta
levee
limits
listless
llegue
llorar
louer
lucht
lungo
luxembourg
madame
mainly
makkelijk
malabocha
manier
mankind
mardi
matches
materna
mcdonald
medaille
meeste
melbourne
mensaje
menschliche
mentais
mental
mentionne
merely
miami
mile
mindestens
mintiendo
miseria
mobiltelefon
moglichkeit
molecule
montag
moque
mord
motive
moyenne
mp3
mussten
mystere
naakt
nannte
naranja
needn
nerves
nettoyait
nightcap
nikko
normaal
norway
noticia
nue
nul
obeis
objectifs
obscurite
obtain
offrire
ognuna
ojala
ojo
ol
opende
oportunidad
opposition
orgulloso
orphelin
oslo
otono
ouvriront
paard
pace
pack
pagar
paierai
paises
pajaro
pandemic
panier
pantalon
paradis
pardonnerai
parla
partirai
parviendrez
passagers
peanut
peking
performed
permettre
personnage
pesar
piensas
piso
plain
platos
plongeais
pocos
podrias
politik
popcorn
popularity
praised
prendrai
prenom
preparar
prescription
presidente
print
printed
procedure
procrastinator
profonde
programmer
promene
promener
proposed
protest
publico
punish
quai
qualcosa
quart
rache
racistes
railroad
rapid
ratschlage
rechtsanwalt
rechtzeitig
redet
reflection
reiche
rein
release
reliable
religions
reluctant
remarque
repariez
rescued
resist
respectent
ressemblent
restera
rhume
robo
rojas
romantique
rond
rotes
ruins
rum
rushed
sachiez
saignent
saignera
sail
santi
sao
satan
sauerstoff
savior
schachtel
schirm
schneit
schreef
schutz
schwarzenegger
schwul
secondo
secretaire
sed
seeming
segunda
seized
selfishness
seltsam
semblent
semblez
senti
serbia
serving
shoreline
shortcomings
siblings
sicuro
siens
silencieux
situe
slowed
smokes
soins
solamente
soldaten
solle
soucis
souvient
speciaal
splendore
spoiled
spoonfuls
stadtteil
stared
stein
stephen
steps
sticks
stove
stylos
suivent
suivi
suiza
supported
surs
suspended
swore
tagalog
tanta
taten
technical
telefonleitung
teller
temporary
tempted
tendance
tendency
tenga
teoria
terminado
terminal
terrified
textbook
thanksgiving
theme
throbbing
tight
toekomst
tomates
tomatoes
tore
torturees
tragedy
transported
treating
trou
tuberculose
turks
tuve
tweeling
unemployment
unite
universitat
untersuchen
urumqi
usage
user
utilisation
vehicle
vendredi
verdadera
verfugung
vergewissern
vergiss
verlasse
verliess
vermeiden
verraten
verstecken
verstehst
vertaal
verwendet
veteran
victoria
visitar
voisin
volait
vollkommen
volonta
wahnsinnig
wahre
waitress
welchen
wheel
wiederholen
winner
woonde
zee
zorgen
zuid
zumindest
##agen
##aine
##ala
##anger
##aren
##aro
##aru
##aten
##atie
##auf
##bara
##bas
##baut
##bei
##bet
##bij
##bil
##by
##cait
##cca
##ceau
##ceived
##chend
##chritt
##chy
##cide
##ckel
##cling
##cott
##croc
##ctive
##cusa
##cute
##dar
##dare
##dation
##day
##delity
##deln
##dern
##du
##duct
##ecido
##eds
##eered
##eint
##eja
##elijke
##elijks
##elli
##eno
##enta
##erent
##fare
##fatto
##ffer
##fie
##fin
##fined
##fois
##fronte
##fst
##gd
##gebrochen
##gelijk
##gerat
##gern
##gestaan
##geven
##gezogen
##gistre
##gnais
##gni
##gra
##grafia
##gres
##ground
##guenza
##guire
##gy
##hant
##heiten
##hit
##hm
##hone
##hrte
##hung
##iana
##icare
##icielle
##ience
##ierto
##iest
##ieus
##ieuse
##igheid
##ika
##iner
##irent
##istes
##iteur
##izacion
##jar
##jas
##jet
##jf
##knar
##lacion
##langt
##lf
##lgt
##liere
##ligen
##lina
##lingen
##llas
##lled
##lock
##loed
##lter
##machen
##macht
##mais
##mark
##mation
##mbro
##mentation
##moir
##mone
##more
##mps
##nahme
##naient
##nap
##ncait
##nga
##nomen
##nummer
##obe
##oi
##onde
##ood
##ora
##orando
##osos
##owed
##oyal
##pais
##pated
##pation
##pere
##perto
##pfel
##pier
##pijn
##pito
##point
##ppen
##pra
##quel
##quels
##rada
##rade
##rangle
##rata
##razione
##rebs
##reck
##rence
##renne
##resti
##reve
##rida
##ried
##rilla
##ringen
##rios
##rischen
##rks
##rmen
##rms
##rochen
##rost
##rria
##rschen
##rten
##rus
##russte
##saft
##samente
##schap
##site
##smo
##sonne
##sses
##su
##tand
##tata
##tation
##teria
##teurs
##tical
##tico
##tik
##tors
##tri
##ttere
##uce
##uchi
##udine
##udio
##uffeur
##uge
##uhren
##uilles
##uire
##umen
##urable
##urance
##ureux
##urte
##uschung
##uted
##utig
##vement
##vez
##vito
##voll
##volle
##wards
##weden
##weit
##winden
##zukommen
120
18th
1939
1941
1990
23
abandonnait
abbondanza
abreisen
absente
absents
accompagnaient
accordo
accumulated
achievement
admets
admirent
adversaire
advertise
affairs
afferro
affronter
afrikaans
ages
aggressive
aideront
albanie
algerian
allan
allant
allergies
alliance
ambulance
amica
angenehm
angle
anniversary
antun
apenas
apportez
aprendido
arabia
arbeitete
armi
arranged
arrivait
arrogance
arroz
articulo
artistic
assit
astrology
astronomers
athlete
atteindre
attendaient
aube
audace
aufmerksam
avoiding
avuto
axe
ayako
ayudo
bailar
bakery
bamboo
ban
banaan
bats
batterie
beaten
beethoven
beginner
begun
beigebracht
belleza
beloved
bereich
bereiten
beschreiben
besorgt
besseres
betrugt
bevindt
beweisen
bezoeken
bietet
blass
blir
blossoming
boligrafo
borsa
botschaft
bouillir
bracelet
brazilie
breve
brillante
brushed
brushing
buches
budget
buurman
cafetiere
californie
calvino
cambia
canal
cancelled
capitals
carajo
carriage
carriere
centimeters
centro
centuries
cesser
checkmate
chemises
chief
childish
chile
chimney
choices
chomage
chopsticks
christians
chut
circonstances
classmate
claustrophobic
cloud
coincee
colons
coloro
combat
combine
comen
compagnia
companion
comprehension
comptes
concentre
conditioner
conflict
congress
conoci
constructed
consulter
contente
contexte
corona
corriendo
cortese
costa
cottage
courts
cutting
daher
dancer
dano
dansaient
debt
decida
decue
defendaient
defends
degas
delivered
demie
democratic
denaro
depechez
deprime
desks
detras
diciendo
dienen
differences
distributed
divide
division
donker
drawing
dummheit
earthquakes
easiest
eastern
ecoutes
ecrits
einfacher
einfluss
eisen
elegante
eloigner
elsewhere
employee
encontro
encouraged
engel
englander
enojado
entendue
enthalten
entrada
entschuldigung
envisage
erscheinen
ertragen
esas
escritorio
essaya
estudias
etude
evite
exige
existenz
existiert
expectations
expenses
expressions
expulse
extinct
extinction
fach
faint
fed
felicita
females
feriez
ferma
fichier
fick
filme
findest
fled
flute
follia
ford
forgave
forgiveness
fortschritte
fortunately
fountain
fourchette
fourni
fouten
fragile
franse
franzosische
frappa
freezer
fuhlt
fumez
function
furieusement
gaz
geandert
geant
gebeuren
gebouw
gebt
gedachtnis
geeft
gefragt
gefuhle
gefuhrt
gehalten
geholpen
gehoord
gele
geliefert
gelost
gemuse
genetic
gerausch
gered
geschossen
gioco
glaubte
gleichen
gloves
goedkoop
graduating
grandchildren
grosszugig
guitarist
habits
handelt
handy
hardest
hardware
haria
harmonica
hassen
heer
helmet
hesitant
heureusement
hielo
highway
hitting
homo
honey
honkbal
horizon
imaginer
imitate
immigrant
imported
indienne
indonesia
indruk
injuste
injustice
ink
innocente
inquiet
insecten
institutrice
instructor
intuition
irlandais
irme
italo
jahres
japanische
jeans
jener
jet
jeux
judgment
judo
juillet
juin
jumeau
junior
kampfen
kase
kerst
klagen
kleider
koko
koningin
kookt
krone
kumamoto
kusste
kwaad
laboratory
lachte
lacrosse
laides
lame
lancia
landed
langsamer
lavais
legen
legende
lentamente
liebte
limousine
liquid
llegado
llover
loan
loca
loiseau
lors
louche
loving
lugt
madera
madness
magician
magnificent
mailbox
maitriser
manches
manquerai
mansion
marina
marvelous
materiaux
matiere
matt
mayoria
melodie
meneer
mentiroso
merites
messe
mice
milaan
millionaires
minority
minutos
misfortunes
miteinander
modena
monton
morire
mothers
musicians
nachbarin
necesidad
necesitas
nego
nehmt
neighbour
nelson
nemen
nes
nick
nobles
noches
novela
nuevas
nuts
objection
obtained
oferta
ongeluk
opens
opera
opportuno
organ
organized
originally
orthographe
osserva
otras
oudste
overdose
overtime
owe
pablo
packte
pajaros
palais
pareces
parted
passa
passenger
peccato
pedido
pepperoni
perdrai
permanent
pescar
pez
pfirsichbaeumchen
philippines
pig
pilote
pipe
planeten
plastique
pleasures
pleuvra
plot
pokemon
policiers
porch
possessed
postkarte
posto
potable
poubelles
pounds
pourras
prachtig
praktisch
precieuse
preferons
premiers
preparez
preso
prijs
princesse
priorities
profite
profondamente
pronounced
proprietaire
prudente
qualified
qualitat
quatrieme
raad
rad
ranger
rapides
rapidly
receiving
recemment
rechercher
recuerdo
referendum
reflechi
reform
regarded
regards
regenen
regions
reign
relachee
relatively
remembering
rendrai
repaired
repete
repose
reserved
restees
reveal
revenez
risiko
roads
romania
romantisch
rudeness
rufe
rug
rustig
sai
salvo
santo
saoul
scham
schau
schauspieler
schaut
schick
schickte
schlafe
schlafrig
schoon
schrijft
schulde
scottish
seasons
secretly
seed
seeking
segne
sentado
separates
separe
serio
serpent
serves
shield
shoelaces
shunned
siano
siate
sights
significado
sincerite
sirve
situazione
situee
skinny
skipped
slavery
sleutels
smartphone
sms
snall
sneeuwt
snowing
solaire
soldat
sollst
somewhat
soms
sorge
sorpresa
soudainement
souffrances
soutenez
southeastern
souveran
staff
starke
sterren
stiefel
strawberries
strictly
studeer
stupides
suburbs
sul
sulla
sunlight
surveille
sympathique
taglich
tarjeta
teenagers
telles
teme
terwijl
thailand
thieves
thy
tijdens
tip
tomo
toronto
trace
transfer
transformation
transforme
trat
trato
travers
treinta
treu
tristes
tristezza
troubles
trunk
tuttora
twentieth
ubel
uberraschung
ungluck
unglucklich
universal
unseres
unterricht
unto
util
valore
values
vantaggio
vaso
vaters
vem
venire
verder
verita
verletzt
versorgt
verteld
vertrokken
verursacht
vilken
vins
vital
voices
volaient
volunteers
vouliez
vuelta
vuur
walks
wars
waschen
weakness
welcomed
wetenschap
whispered
windshield
wins
wirkung
wodka
yelled
yelling
yumi
zerstoren
zet
ziehe
zuckerberg
zuhoren
zunge
zweite
##63
##65
##70
##92
##95
##ablement
##achen
##acle
##ads
##affe
##aison
##akt
##anno
##anos
##ao
##apper
##ars
##astrophe
##atz
##avier
##avo
##bai
##bby
##bere
##berry
##beth
##bian
##blind
##books
##cada
##carte
##ccio
##cente
##centrique
##chez
##chnen
##chtet
##ciate
##ciaux
##cid
##cida
##cidad
##cieuse
##ciple
##city
##cky
##cluded
##clusive
##cracy
##crate
##criviez
##cts
##dder
##dding
##deau
##delite
##demment
##dge
##dication
##dido
##diente
##diging
##dimento
##dique
##dita
##dow
##drier
##dronken
##ducir
##ductor
##duire
##eau
##echa
##ega
##eige
##erable
##eras
##erda
##erten
##etons
##eum
##eusement
##ezza
##fahrer
##fait
##felt
##ficient
##fiel
##forto
##freien
##gegen
##gerecht
##geschlagen
##giare
##glichen
##guardo
##heim
##hne
##iamo
##iation
##icar
##ievable
##ife
##ijs
##iker
##iled
##iles
##iller
##ination
##inner
##inson
##iosa
##irn
##irs
##isee
##issig
##ission
##issions
##istet
##ittel
##jk
##jzer
##kade
##kehr
##kent
##kunden
##laat
##laden
##lard
##lass
##laufen
##lbe
##lecht
##lei
##limmer
##lingt
##lke
##lliez
##low
##lowed
##lsa
##lus
##lv
##maakt
##mated
##mence
##mera
##meter
##mico
##mmung
##mogen
##most
##motion
##mpa
##mus
##nat
##ncy
##ndere
##ndet
##ndrez
##nno
##nter
##of
##oge
##oir
##oll
##olo
##onen
##orung
##oud
##ouwen
##oyiez
##pace
##pack
##paz
##penser
##person
##petent
##pide
##pite
##plica
##posta
##pping
##racht
##rannt
##rating
##rative
##reach
##reep
##reibst
##rete
##reute
##rieren
##riffe
##rifie
##ringe
##rip
##rissais
##rissiez
##rit
##ritt
##rom
##ror
##rouw
##rpe
##ruido
##rungen
##ruppe
##rve
##samkeit
##sanger
##schrift
##scient
##sement
##setzt
##sia
##sons
##spiel
##sprechen
##stehen
##stic
##stutzt
##swurdig
##tade
##tem
##tert
##toe
##ttamente
##tun
##tzer
##uay
##ub
##ubierto
##udi
##uere
##uhe
##uild
##uise
##uito
##ulaire
##uldigt
##ulier
##ulin
##undzwanzig
##urais
##urce
##urm
##urrido
##urso
##usly
##utigen
##utter
##vals
##vas
##vato
##vier
##vieto
##visions
##visor
##voor
##voque
##vrais
##vrez
##vrit
##vrons
##wagen
##wart
##yiez
##ys
##yuki
##zaam
##zable
##zahl
##zeichnet
##zelf
##ziell
##zier
##zijn
##zuhalten
##zustellen
27
32
400
48
95
98
abaissait
abandonnais
abandonnent
abandonnes
abat
abattent
abattiez
abbiamo
aboie
absentes
abstinenza
acceptons
accommodate
accompagnais
accordaient
accountable
achieved
achter
acts
advantages
affermi
agence
aid
aida
aident
aideras
aiguisait
aiguisera
aine
airplanes
ajedrez
akzeptieren
alexander
algiers
allah
almosen
altes
amateur
andra
ansehen
anvertraut
aout
appelons
apprendrai
apprenez
apprentissage
arbeitest
arrogante
ashtray
aspects
asseyez
assieds
associated
assurer
astronomie
attacks
attiree
audacia
aufgeben
aurions
auslander
automobiles
avantages
awful
awfully
baan
bacio
background
baiser
baissez
barco
basil
basta
battery
bau
beeindrucken
befehl
beispiel
belde
belgie
beneficial
berechnung
bereitet
beschlossen
besuch
beth
betrachten
bevolkerung
bewegen
bewolkt
bilingual
bites
bjork
blanca
blauwe
blessure
blessures
blijft
blod
bomen
bond
bones
bonito
bonsoir
boucherie
bourrees
bourres
branches
brandy
bringing
broad
brosser
brug
burden
burst
busier
cabbage
cachais
cardiaque
casino
castles
catalaans
celeste
celles
cenar
cercle
certa
chaine
chairman
changerai
chateaux
cheated
cheek
cheetah
cheri
chuchotait
cicero
cinderella
citizenship
clapped
clerk
coca
coger
colpa
commencaient
commencez
commented
commerce
commets
communiquer
communities
comrade
concernant
concours
conditioned
conduisais
connaissiez
connecte
consequently
constamment
consumption
contar
contiene
continuait
contribution
controversial
copains
coraje
coreen
corto
costretta
courageous
courait
crayons
crea
credito
criticized
critiques
croira
cuisines
cul
curie
custody
dagegen
dalle
damals
dansais
dauert
decidido
decirle
decorating
decues
defauts
dejes
deleted
demarrait
deny
depth
derecho
derive
derniers
descends
deserts
desesperees
desesperes
desgracia
deshabillait
desideri
dessiner
dessous
destruction
detention
detruire
deutlich
developing
devi
device
devoto
diabetic
dialects
dienst
dierentuin
digne
diligent
dimensions
dinde
diras
diro
disciples
disgusting
diskussion
disorder
disorganized
disqualified
distressed
doce
donation
donnes
dorren
douce
douloureux
download
doy
dozens
drauf
droles
dubbed
dublin
dusche
ear
economia
economique
ecrivais
edition
eenvoudig
efficace
eighteen
eighty
einkaufen
einzigen
ejercicio
ejercito
elefante
elend
elizabeth
eloignee
emet
empieza
endormis
energetic
enerve
entendais
enterre
entro
entrusted
envious
environnement
epoux
erfordert
ergebnisse
erkaltung
erkennt
ermutigen
erscheint
erster
ervaring
espece
espera
esperta
essayait
etasunien
etonnee
etudiait
etudiante
eurem
euren
experiments
explanations
exploite
extranjeras
facilmente
fahig
fahigkeiten
fans
farshad
fashioned
fatiguees
faudra
favorable
fears
fee
feest
fermais
fieber
fig
files
finns
fische
flagge
folgt
folk
foods
forcee
forgets
formas
forstar
forteresse
frapper
frightening
froh
furchtete
fus
gagnais
gagnera
gaste
gaze
gebruik
geburt
gefangen
gefolgt
gegenteil
geheimnisse
gehuwd
gelobt
genes
geschah
getauscht
gezogen
giants
gibst
globo
gods
gouverne
grammaire
grijs
grogne
grootvader
guerres
gullible
harbor
hardworking
harvest
heading
healed
helado
helpt
herd
hergestellt
herzlich
hesite
heutzutage
hochste
hugged
humilite
hung
hurts
igual
imagen
immediate
impoli
impressionne
improvement
incorrect
indirect
individu
individuals
ineffective
infected
informiert
injuries
instagram
instantly
intends
interpreted
investment
irgendwann
irregular
irrelevant
irritating
ito
jacke
japaner
jaunes
jessie
joseph
kaas
kalte
kamen
kansas
kashgar
keinerlei
kilometres
kisses
klima
klingt
km
knights
knock
koch
kontakt
krant
kummern
kuzey
lag
laids
laissee
lakes
landscape
langage
lascia
laser
latvian
laughs
launch
leather
lechait
leeft
leert
leftovers
lernst
lijst
limitations
lips
listed
literally
llamar
llegaron
lobo
louvre
luggage
lutte
maigre
maire
malice
management
mangeant
mangel
manquait
manquer
manuel
marchaient
mariees
marin
mariposa
marked
marketing
masks
masters
mate
mathematik
mature
meanwhile
measure
measures
mediterranean
meinst
meisjes
menacee
menschlichen
mentira
mentre
merece
meritez
merken
mette
mettent
mexique
midden
mierda
minder
modest
moedertaal
monument
motor
mouille
moustiques
mud
mull
munchen
mutig
nagasaki
nagot
nagra
nederland
neiger
nerfs
nett
nettoyer
neuer
neugierig
nicer
ninth
nobility
norman
nostra
nuestras
occhi
octobre
oggi
ohren
olympics
omelette
onmiddellijk
ontbreekt
ontvangen
oplossing
orge
oublions
ouverts
ouvriers
owes
paciente
paient
panne
pantalones
paraguas
parallel
pareja
pase
passwords
peacefully
peignais
perdida
perdrez
permits
perplexe
pflanzen
phase
piege
ping
pique
plague
planets
plume
poca
policemen
politiker
pong
populations
portefeuille
portugees
possessions
postpone
poules
poulet
pouviez
preferida
preocupado
preparando
preparee
preserve
presidential
pressed
pretent
prevenir
princes
principales
principe
prisoner
privee
probeer
productive
profond
prohibido
prom
pronta
proofread
proper
prostitute
proviennent
proyecto
prudents
pseudo
psychological
publicite
punition
punkt
puppy
putin
pyrenees
quarter
quasi
quatorze
quebec
quietly
raar
raisonnable
raton
raucht
reasoning
recess
recibir
recipe
reconcile
regardless
regularly
reichtums
reizen
rejete
relief
religieuse
remembers
reminded
remote
renew
rentree
repeated
required
respecter
respekt
respektiert
restent
retraite
retrouve
ri
richer
richter
ridiculous
risen
risks
risky
rispetto
routine
rucken
ruse
rusia
ruso
sabote
saignais
salon
sample
samples
sandte
sangen
sant
sapere
sapiente
sasha
satellite
saviez
savings
scheitern
schilderij
schoenen
schreien
schrie
schwanger
schwierige
screw
screwdriver
secure
sedan
seduisante
senbiante
sequence
sets
sewing
sharing
shit
shout
siamo
signer
siguio
sites
skilled
slightest
slob
smoked
soap
societes
sole
solide
solutions
sopa
sophisticated
sorrow
souper
spaghettis
spy
stadium
steady
stool
storen
stress
strings
studeert
suivez
sung
supermercado
supplied
surf
surfing
sweat
sysko
taart
tais
talar
tales
tanzt
tasks
taxis
teilnehmen
telephoned
temeva
terremoto
terrorists
testa
texto
threats
timid
toestand
tomba
tome
tools
torre
tortues
totale
touches
touristes
traces
tragic
travailliez
treue
troublemaker
trova
trusts
trustworthy
tunis
tutoyer
typing
ukrainian
unconscious
unit
universum
unterrichtet
unterscheiden
unwilling
utan
vada
vague
vaincu
valentine
valid
variations
variety
varios
venger
veranda
vergadering
verloor
verra
verrassing
versteh
versuch
vertelt
verwirrt
viendrait
vies
viewed
vine
visita
visitado
visitors
vivid
vlag
volledig
volvere
voyou
vrije
vuelto
vuoi
waarschijnlijk
wachsen
wahnsinn
wande
wartet
watered
werewolf
wichtiges
width
wiedersehen
wilden
wolltest
worker
worthless
wunder
wunderschon
zeige
zola
zone
zoveel
zufallig
zunachst
zwar
zweimal
##42
##56
##62
##69
##77
##82
##abilite
##abt
##ac
##aches
##acious
##acre
##ading
##aks
##alter
##amt
##annt
##antes
##aramente
##ark
##arzt
##asing
##astre
##ates
##auche
##bamos
##bek
##bels
##bery
##bieten
##bildung
##bili
##bilites
##bling
##blings
##book
##bue
##cable
##cast
##cating
##cce
##cciones
##cemente
##ceptisch
##certain
##chatz
##chauen
##chenkt
##chluss
##chuchtern
##chuld
##cien
##cious
##cise
##cking
##clamo
##clut
##cotte
##crire
##crit
##ctable
##cuencia
##cupe
##dado
##deel
##dente
##denza
##dile
##dlich
##dons
##duccion
##eas
##echt
##eck
##eckte
##eht
##eilles
##einem
##ekt
##elles
##entes
##eral
##erder
##ereo
##esige
##esome
##esti
##esto
##eter
##ettre
##evez
##faisant
##falt
##fassen
##fects
##fes
##fica
##ficio
##fiere
##fini
##fish
##form
##front
##ften
##gali
##gat
##gee
##gefallen
##gelaten
##gemacht
##genen
##gerung
##gesagt
##ggen
##gica
##gile
##gin
##gliare
##gliato
##glieder
##glo
##gnes
##gnons
##greifen
##gression
##guille
##gus
##hale
##hand
##hangig
##heben
##hic
##hielt
##hiko
##hly
##hnte
##hnung
##holen
##hon
##hte
##hu
##iable
##iare
##iat
##iata
##ibility
##icacion
##icata
##iche
##ici
##icolo
##idigung
##iente
##ients
##ierten
##ieten
##ifications
##ifiee
##ifies
##igate
##igerte
##ii
##ilig
##illas
##ilo
##imiento
##immer
##immt
##indre
##irait
##isco
##iss
##issez
##istisch
##itaire
##itched
##itive
##itta
##ivamente
##ivement
##iven
##ivite
##izar
##jdt
##jver
##kantie
##kauf
##ket
##kracht
##kter
##lagt
##lander
##lante
##lassig
##lat
##lce
##lden
##lebt
##leden
##lek
##lere
##lessly
##liais
##liehen
##liezen
##lines
##linkt
##lion
##lisch
##lized
##llon
##log
##loge
##logen
##look
##loom
##loso
##lse
##lted
##luiten
##lvia
##mad
##maschine
##maux
##mbie
##mblaient
##metre
##mille
##min
##mir
##mises
##mission
##mittel
##mons
##mpe
##mper
##mpio
##naar
##ndete
##ndio
##nellement
##neva
##nier
##nischen
##nit
##nny
##nque
##nsa
##ntane
##nymous
##ob
##ocial
##oden
##odia
##oked
##okratie
##oms
##onden
##onna
##ontsteking
##orden
##ories
##orse
##otas
##oton
##oy
##oyais
##pade
##pan
##parait
##pating
##pause
##pels
##pia
##pie
##plico
##plin
##plorare
##politik
##posing
##posons
##ppelt
##ppi
##ppy
##presente
##pus
##q
##quem
##quency
##quilla
##quin
##raction
##raft
##rag
##rain
##raint
##rano
##ranz
##raten
##rations
##raucht
##raum
##rdas
##rder
##reed
##rees
##retched
##retto
##reue
##rg
##riaient
##rico
##rido
##rim
##ript
##rire
##rises
##riste
##rium
##rivo
##rk
##rogen
##roit
##roon
##rotte
##rrar
##rred
##ru
##ructive
##russt
##sage
##sbrief
##scheid
##schnitten
##sdag
##sers
##shi
##shu
##siegt
##sins
##sist
##smus
##sor
##ssa
##ssant
##ssion
##ssione
##sso
##station
##steigen
##stein
##stellung
##stique
##stone
##suchen
##tated
##tein
##tenere
##tenu
##tero
##these
##timento
##tiques
##trice
##tront
##uchen
##uee
##uera
##uesto
##uettes
##ufen
##uiller
##uis
##uisiez
##ulaient
##ulates
##ulator
##ult
##umons
##unto
##urd
##uscule
##uste
##uting
##utzt
##uws
##vage
##valt
##vani
##vart
##vat
##veillance
##venture
##vese
##viar
##vido
##viendra
##viens
##vin
##vival
##vlees
##voerd
##volent
##voli
##volve
##vore
##vreden
##vu
##wahrt
##wesenheit
##woman
##woren
##works
##wort
##xique
##yait
##ycle
##zada
##zaine
##ziest
##zon
##zu
##zuhoren
##zulassen
##zurufen
##zy
##zzy
140
15th
1940
1971
2021
31
33
800
90
abandonnaient
abbandonare
abilities
abortion
aboyer
abrir
abrutissait
acabado
accepta
acceptais
accepteront
accepting
accomplir
accomplish
accordiez
ach
achetais
acheterai
achten
acknowledge
acquisition
actrice
adapte
adds
adjacent
administre
adresser
afflicted
agressief
aidee
akzent
albert
alemanes
alexandre
alien
allaite
allzu
almeno
alpha
altos
alzheimer
amusees
ananas
angeboten
angefahren
ankunft
ansicht
anthony
antibiotika
apellido
apollo
appelaient
appelais
applying
approaches
approuver
arbeiter
arezzo
aroma
arrivees
arriverai
artista
assassine
assises
atlantic
atomique
attached
attendant
attendions
attendrai
attente
audacieux
ausgehen
ausgezeichnet
ausstellung
authors
autorises
avances
ave
aventure
avoue
avro
backyard
baila
bankruptcy
baren
barrio
bathe
bauch
bedenken
begegnet
begick
begleitet
begrepen
beibringen
beine
belfast
beliefs
belt
benimmt
berlijn
beschloss
beschutzen
besloten
besoins
besseren
besteld
bestellt
betray
bezet
bijbel
bildung
bioscoop
blev
blocks
blondes
blossoms
bol
bold
bonita
bosewicht
boter
bothered
bottes
bouclier
bouger
bougie
boxing
braun
braunen
brawl
bridges
broth
bruns
bullets
bun
burglar
buvais
cabello
cabin
cable
caliente
cambridge
caminar
camisa
candidats
capables
capturing
caractere
carpenter
cartas
carved
casada
ceiling
cesar
chain
changeait
changement
chantent
chaperone
chariot
charming
checking
cheerleader
chiama
chicas
choir
chor
christus
chuck
ciseaux
citations
citron
civil
claramente
clefs
cloth
cloudy
coches
cocktail
coco
coincidence
colder
colleague
collections
collegues
colline
colpo
commencent
commentaires
commercial
commesso
commettre
committing
commune
communist
compagnon
compatible
compelled
complicado
compromis
concerning
concesso
conchita
concierto
concombre
condamne
condominium
condotto
conduis
conduisaient
conduisiez
conocer
considerez
consiste
contacte
contagious
contrast
contrec
convertible
cope
corea
corporation
couch
cradle
creator
creatures
credo
creia
creme
crew
criait
critic
cuba
cuidado
cunning
cuts
czech
dames
danced
danken
dansent
darfst
davanti
deadline
deciding
decouvre
decrivait
dedie
defaut
deines
deje
dejeme
delante
delhi
demonio
dennoch
depende
depressief
derangez
derived
dertien
desperte
detestait
devais
devices
dices
dictatorship
dieta
diferente
difficulte
diletto
dima
ding
directe
discourage
discovers
discussions
diseases
disposal
disputer
distancia
distinguer
distrait
divertido
doctrine
dokters
dolce
dominated
domingos
donnee
donnerstag
dorf
douleurs
dresse
droeg
drowning
dunkelheit
dust
echappe
ecriture
ecrivit
edge
edle
eduque
effects
efficient
efter
egyptian
eighth
electrical
electrique
eliminate
eliminated
emmener
empfangen
emphasized
employe
encantan
endormie
endroits
enfadada
enivrer
enkele
ennuis
enormous
entschuldigen
entwickeln
entwicklung
erfreut
erfullt
ergeben
erwarten
erwartet
escribiendo
esistenza
esperaba
esperantistes
essentiel
estabamos
estuvo
etabli
etagere
evidente
exaggerating
exceptions
exigeant
expense
explode
extent
fabricas
fabriek
fabriquera
fache
fahigkeit
failli
falle
farai
fasten
feci
feinde
felice
fermees
festung
fett
figured
fined
finlandaise
fires
firmly
firmware
fitting
flessen
fliessend
floating
flusses
folgte
footprints
formidable
fortezza
founder
fourmis
fourteen
fragt
frank
freizeit
fruchte
fuhrerschein
fulfill
fuma
gagnerez
galileo
gants
gedroomd
gefeliciteerd
gekannt
gelegenheit
gemakkelijk
gender
genial
gentlemen
geplant
geraten
gervaise
geschenkt
geste
gestopt
gesucht
gewisse
gewusst
gezicht
gezin
gisteravond
giurato
giusto
glance
gluten
goals
goat
goldenen
governor
graduate
gram
grammatical
grammatically
grammatik
gratitude
greeks
greene
grenze
grootmoeder
grusse
gueri
guessing
guides
guillaume
habillez
habituer
hablado
hables
haga
hakata
halbbruder
harmful
haufig
hearts
heen
heilen
herausforderung
heroes
hetzelfde
hijas
hingehen
historical
hockey
hoed
hojas
horaire
horst
hospitals
hostel
household
huevos
huile
huilen
humana
humano
hummingbird
hydrogene
hyogo
idiote
igen
impitoyable
impolite
impress
improbable
included
includes
indicate
infirmiere
influential
informationen
ingannare
injection
inmediatamente
inquietez
inspire
instituteur
instituteurs
intencion
interessantes
interets
internal
interrupting
intervenir
investing
irgendwelche
irgendwo
irse
isla
italienischen
ivan
ivres
jalouxy
jamal
japoneses
jefferson
jeter
jorge
jouet
jouets
jouions
jugamos
juli
kakogawa
kalm
kaninchen
kanji
karima
kebabs
kendo
kerl
kilograms
kleur
kluger
ko
kook
kop
kopfweh
korte
kostenlos
kreuz
krijgen
krise
kunstler
lagrimas
lampe
landern
langste
lapiz
latt
latter
lavent
lealta
lebensjahr
leger
leggen
leidet
lentes
letztem
leva
levanto
lezione
lief
liet
lijken
lista
liters
llevar
llevara
llueve
locuteur
log
loge
logical
logik
longues
lontano
loser
lowen
loyaute
lucca
luisteren
lumieres
luxe
mac
machtig
magnifiques
majored
malefique
males
mammal
mangeais
mangee
maniero
manipule
manipuler
manoir
manor
mapa
marshmallow
marx
mascarpone
maschine
mato
measured
mec
medal
medianoche
medikament
mejores
menent
menselijk
merkel
methodes
mettere
meurt
mexiko
migliore
mild
milliers
minor
misere
mismos
monaten
monstre
moordenaar
mordre
moscou
mosquitos
moteur
mouillees
mountaineer
muchacha
muerta
murderer
murphy
muscles
nageait
nagez
naherte
nahmen
nase
natale
natuurlijk
nazis
nepal
neuigkeit
niece
nieder
nirgendwo
noodle
nou
nourrit
nucleaire
nuja
nutteloos
obedient
objet
objetivo
objets
obligee
occur
oceaan
ocurrio
odd
offnet
ongles
onschuldig
operating
ord
originaire
orte
oscuridad
outdoors
ouvrier
overlook
owners
paella
pago
pal
paolo
pape
papillon
parecer
paresseux
parlant
passare
passwort
patiente
paula
pauze
payez
paysage
peculiar
pedro
peeking
pele
pengar
pensando
pensieri
peoples
persoonlijk
pervert
pesadillas
petition
petrole
pflanze
philip
phones
physically
piaceva
piernas
pierres
pine
pineapple
plagiarism
plaindre
plaint
plais
plannen
plaza
pleuvait
plugs
pm
pole
poner
populaires
portez
positions
possedait
possibles
posted
postzegels
potential
potere
potuto
pouvions
practically
prayers
prendra
preniez
prennent
preposition
presentes
preuves
priester
priests
primary
primavera
privilege
probe
procedures
productos
professeurs
profile
prononciation
proof
proposals
proposito
proprietaires
prudentes
prudenza
prueba
publics
publish
puissante
punch
qualche
qualsiasi
races
railway
rank
rapproche
rates
ratoncito
reaching
realistisch
recibido
reconforte
reconnait
records
recycle
referring
reflechis
regardait
register
reglas
regler
reina
relics
remaining
remis
rencontree
rende
repareras
reporters
reptiles
residents
resign
restons
revait
reveillait
rewrite
richtigen
riddle
rijbewijs
roberto
roja
rolling
rosemary
roto
rough
rows
ruimte
ruler
rusland
rust
sabeis
sacrificed
sagement
sages
saitama
salade
samba
samurai
sanger
saranno
scattered
scheduled
schickt
schifo
schild
schildpadden
schlag
schlagen
schlief
schliesst
schlips
schneide
schnelle
schrecklich
schreckliche
schreit
schwache
schwarzen
schweizer
schworen
scientifique
scudo
seize
selfie
seltsame
sentia
septembre
serie
serieuse
seriez
sermon
servira
seventy
sexual
shake
shawl
shine
shortest
sicherheit
sicherlich
sicily
sienne
signal
significant
simples
sinds
singers
sizes
sjalvmord
skakade
slammed
slut
smiling
snows
socialist
solia
solidarity
somehow
sopra
souffle
souhaitez
souri
souviendrai
spaniard
spaziergang
sphygmomanometer
splashed
squirrels
stadte
standards
statesman
status
stava
stesso
sto
stoppen
strada
struggle
substance
substitute
suivantes
superhero
supermarkt
supply
surrender
susse
sustainable
tablets
tagebuch
tamori
tampa
tapis
tar
teilen
telescope
televiseur
tempel
temporaire
tends
terribles
territory
tetu
textbooks
theatrale
thoughtful
throne
thrown
tia
tighten
tim
tina
toaster
toegang
tomaten
toricht
totete
tourmente
trahison
traine
traitre
tranche
transcribe
transport
trembles
troubled
trovato
tues
turm
turquia
typ
typically
uganda
umile
uncomfortable
unconvinced
unexpected
unexpectedly
universelle
universiteit
unlike
unpleasant
unterworfen
urdu
vaccine
vag
vai
valable
vancouver
vante
varfor
variete
vende
vente
vera
veras
verbergen
verbringen
verdwaald
vergleichen
vergognia
verkocht
verletzte
vernunftig
verpleegster
vertical
vertrek
vertrok
vertrouwen
verziehen
vestiti
vetement
veterinaire
veterinarian
vides
viento
vijftien
visitor
vivants
vivido
vivra
voetbal
vollstandig
vrijgevig
waard
wache
wakker
walnuts
wand
weaker
wege
weigh
weihnachtsmann
weine
weinte
wenden
wendy
werkte
weshalb
wichtige
wider
wirft
wissenschaft
woran
wow
wunsch
zebras
zeitschriften
zelden
zentrum
zezo
zingt
zoeken
zuzuhoren
zwanger
zwem
zwemt
zwillinge
zwitserland
zwom
##!
##$
##%
##&
##'
##*
##+
##,
##.
##;
##<
##?
##@
##_
##£
##¥
##°
##×
##æ
##ø
##ı
##ł
##œ
##ɔ
##ə
##ɪ
##ʁ
##ʊ
##ʒ
##ˈ
##ˌ
##ː
##π
##а
##с
##—
##‚
##₤
##€
##→
##♗
##♘
##あ
##明
