start_of_sequence_id
end_of_segment_id
padding_id
mask_id
!
'
,
.
?
a
b
c
d
e
f
g
h
i
j
k
l
m
n
o
p
q
r
s
t
u
v
w
x
y
z
de
la
en
que
the
in
die
##s
il
me
che
le
och
und
un
att
to
and
je
et
el
der
den
of
van
se
som
het
di
du
si
te
ik
jag
ich
##e
that
om
qui
is
was
zu
con
als
een
er
##n
es
mi
you
sie
dat
les
det
non
no
so
una
zijn
##r
av
des
del
##en
##t
ne
he
vous
till
han
inte
da
est
hij
lo
al
pas
los
it
von
su
med
dem
niet
nicht
mig
##a
das
met
por
tu
##d
with
mit
dass
dans
per
une
as
come
como
my
wie
ai
pour
mijn
op
ist
var
ce
##i
para
qu
who
auf
had
for
##o
avec
fr
his
an
ma
##te
naar
las
wenn
sich
not
we
from
voor
ze
lui
on
ha
comme
mich
son
vi
io
if
alla
har
##es
all
be
plus
dit
aan
nous
mas
##de
##re
war
will
sa
kan
door
ein
sig
mir
sin
piu
him
hem
era
cosi
au
tre
par
by
honom
dig
this
zo
min
##er
ou
your
##ing
hade
kommer
eine
st
have
um
ett
sur
men
mij
della
they
toen
maar
sj
mon
##nt
andere
beatrice
etait
but
dan
which
##ta
ils
##do
mais
one
esta
sus
##to
man
ber
alle
god
ti
are
hier
ra
wird
wat
cuando
elle
##l
nu
when
at
waren
werden
sono
wir
aber
pero
skulle
hans
tan
quando
hat
deze
aus
porque
loro
gli
ihr
haar
mes
ni
mio
ser
ete
quand
##no
her
what
moi
them
sein
##ndo
were
seine
re
ont
anderen
##ra
zou
want
##va
noch
cielo
ver
##z
then
uit
sua
##ti
andra
bien
cette
zal
meine
oh
dann
rde
##da
einen
worden
said
mia
tanto
or
tot
asi
there
uns
zich
suo
tt
grande
gr
ihn
their
hun
cui
questo
virgil
sont
autre
like
ben
perche
im
hatte
ses
tout
ons
sagte
##ed
##na
uno
would
weg
has
zei
votre
##ar
sind
wurde
meer
other
oss
ihm
waar
ga
nde
because
suis
vad
##se
##ly
tr
entre
solo
fait
vara
##le
gon
avait
mer
geen
einem
##mente
punto
dio
eller
dal
licht
more
nel
estaba
este
habia
can
nach
dei
werd
do
us
see
diese
maestro
dich
those
kom
ci
mycket
point
upp
##ment
modo
hen
heeft
mein
einer
over
am
yo
zur
aqui
donde
mis
zien
##ne
gro
quel
dijo
oder
alors
vers
durch
here
where
din
gl
mot
nella
denn
autres
detta
haben
nog
rt
entonces
mehr
parce
dell
fue
leur
ihre
fu
prima
ella
habe
omdat
ta
dios
now
zag
ces
dieu
hebben
hon
up
##lo
dus
love
##la
virgilio
##m
##st
ahora
hoe
hacia
denna
utan
vu
##ro
nos
essere
she
heb
verso
ya
ren
sah
ner
quella
vor
efter
under
ese
##y
ihnen
wo
how
ho
##g
chi
ogni
cio
dove
##et
dalla
hur
kann
##it
gran
henne
ici
##on
before
##ia
tegen
bolgia
mina
saw
todo
zoals
sina
puis
ancora
wordt
sehen
altro
divine
##me
poi
mitt
ll
maintenant
out
tal
todos
otro
rst
vill
its
don
##as
terra
weil
dieser
disse
ging
liebe
sans
dire
##f
great
deux
ge
jullie
mai
##mos
dir
parte
sia
celui
##k
monde
than
ger
tous
wil
ciel
uw
##ig
dessa
genom
himmel
ut
alles
much
sade
amor
terre
li
senza
vid
also
gott
mientras
sch
bij
amour
mal
questa
seinen
zodat
amore
car
mentre
down
hemel
ohne
tres
poco
quello
dos
liefde
antes
into
ora
tierra
ogen
zonder
tes
##ce
augen
br
jamais
eftersom
moment
tua
##nte
way
##ste
zij
##ie
##us
yeux
got
hj
grote
sol
lei
##si
allora
hasta
immer
ur
without
our
sedan
tra
cada
noi
luz
such
avant
quien
eyes
kunde
meinen
ojos
vision
apres
ceux
etaient
tutti
gud
light
sei
parole
quelle
##ba
know
still
##den
aveva
encore
##ge
away
divina
goed
good
sulla
zum
bin
place
quanto
##heid
due
esa
lumiere
peut
been
gick
go
##an
##ten
despues
occhi
alto
diesem
fa
hrend
ord
palabras
wer
woorden
words
cosa
even
lugar
mundo
keine
poiche
sehr
sera
tutto
##is
jetzt
angst
auch
dopo
heilige
after
tv
deras
ellos
rd
luce
nder
faire
unter
bis
na
nga
time
first
hand
hast
altri
puede
etais
##ung
##li
ed
euch
onder
could
voir
make
##h
##vo
about
delle
heaven
these
viel
made
nunca
esto
otros
##vano
came
turned
##ken
erde
estas
sagen
ste
aarde
ihren
tuo
twee
ven
##ade
fosse
desde
ska
sobre
cela
earth
aldrig
##cion
avez
gen
long
ziel
##ble
two
water
mente
altra
anche
nooit
mensen
almas
did
never
souls
donne
lv
sue
zielen
himlen
onze
gaan
blick
punkt
##in
kon
quale
anime
##ns
ad
jeder
seelen
stato
doen
donc
vidi
##ren
nur
erano
homme
kwam
va
venus
lar
every
hai
jorden
leurs
lla
nie
werde
mismo
momento
sitt
menschen
ditt
look
visto
people
##ca
soleil
avoir
eux
terwijl
ck
sole
vez
deine
sen
##al
##mi
alli
notre
soul
bort
ng
seele
ter
veel
##ur
alma
aux
puo
tempo
##tion
wereld
welt
only
##zione
face
hombre
ingen
tiempo
damit
seiner
##so
deja
##ri
cause
dall
alleen
camino
luego
tta
##nde
esprit
aussi
land
mondo
while
world
##sa
bli
diesen
guide
laat
vom
##io
ljus
sguardo
comment
finns
moet
str
anima
nature
tale
##ci
fortfarande
goddelijke
bene
berg
rjade
vita
##ige
bent
nell
ook
sk
##ant
##sse
rlek
##mo
grund
leven
allt
annan
##at
air
femme
maria
suoi
vrouw
jusqu
leben
nnen
sun
pronto
tte
frau
stor
avais
manera
toujours
gjorde
just
seinem
tell
well
##v
desire
padre
konnte
pourquoi
rta
say
verlangen
##das
afin
daar
dentro
selbst
worte
##che
far
os
rf
vilken
any
innan
pr
vie
grand
plaats
zon
gente
bara
macht
rsta
varje
ve
vos
##are
each
hecho
manier
sm
sonne
##u
gibt
miei
wurden
hay
went
degenen
ville
wei
fui
gehen
temps
##co
back
bist
commence
voi
##ng
another
fois
begon
blev
hebt
others
sarebbe
zullen
##ait
dess
fatto
hizo
kunnen
nosotros
zeit
##ga
##ve
gegen
##ts
punt
soit
why
beaucoup
eerste
let
peu
take
tenia
todavia
weet
deseo
komen
nen
toute
woman
##het
christ
dag
fl
goede
medan
through
colui
pendant
sido
tussen
vem
fin
many
molto
nd
sea
vista
dort
gia
steeds
##cia
haut
soon
tant
##igen
##ni
vet
##ire
gef
gut
##rar
does
rlden
tijd
##gen
##ient
##or
geest
lehrer
little
otra
##ert
##rono
estan
ngre
nniskor
person
ton
vida
##p
##rna
##za
dina
nda
tog
rte
##dos
donna
gingen
give
terug
##os
kam
lado
teacher
wind
chose
dieses
dont
leraar
voordat
willen
alsof
nner
pl
seemed
##ent
##ning
get
net
cristo
desiderio
full
looked
meinem
sara
##lich
fick
siempre
skall
desir
fast
ort
paroles
sous
weise
around
estoy
etwas
mujer
nachdem
tun
hart
sl
too
uomo
geboren
hanno
nger
seite
##ado
brillante
ero
mucho
##el
dije
hacer
luogo
parler
redan
toi
waarom
causa
elke
iedereen
sotto
usted
degene
snel
sta
think
tiene
todas
degli
didn
tror
##c
beiden
force
komma
right
##kt
already
fuera
mellan
wanneer
warum
zwischen
between
nada
schien
sempre
vedere
name
tillbaka
##ato
##ion
##liga
iets
leek
##rsi
began
bevor
ihrer
laten
personne
put
same
zeggen
gezicht
life
regarde
guido
san
##len
cet
left
meiner
ten
wissen
##ez
##que
jij
muy
ngt
zelfs
zichzelf
##ux
durante
may
primo
reden
viene
toutes
##ch
guds
very
eines
iemand
nombre
persona
varf
holy
mann
##eren
hace
stj
tter
bajo
bl
keek
llt
tus
visage
anders
christus
eso
triste
veux
wieder
wirst
##ure
avons
cuore
sv
peur
rs
saint
devant
geist
staat
svarade
toe
##ir
corps
himself
##era
##les
altijd
decir
gens
heard
ob
pijn
side
stesso
sul
traves
appena
aun
cual
komt
proprio
regard
##ai
fino
gav
heiligen
lungo
ainsi
altre
beide
dar
gesicht
heart
kl
rare
rien
toda
via
fare
fort
liv
ller
mie
plats
schnell
trop
##rt
both
chemin
corazon
gel
hrt
kant
kraft
stora
chaque
santo
situation
viele
##ita
denen
geven
##b
##des
##mmo
mano
monte
sage
snart
tourne
mind
part
##lig
bas
ende
gave
lle
monta
pense
po
serait
high
igen
solen
##ono
being
blik
gaat
miedo
natur
niemand
nom
samma
santa
##ido
##tes
dje
gt
heliga
hell
vilket
voix
autour
dis
frame
hablar
nor
since
sommes
##ty
endroit
form
gij
mirada
queste
seria
##iga
##ron
##ura
fece
gab
nichts
noble
tala
terv
took
until
attention
contre
myself
niets
questi
sorte
##di
##ue
aquellos
beautiful
beg
contra
moins
pain
semblait
vilja
##w
namen
nskan
verkade
ziet
##ons
dingen
essa
geben
menos
possible
##cht
##gt
alltid
always
gottes
loin
maken
tutte
unsere
verder
##ma
body
dr
drie
kunt
must
quell
speak
troppo
voluntad
wegen
begann
bei
intense
rden
rv
sp
volonte
zwei
##ras
corpo
different
egli
freude
hoofd
zoveel
##bile
##nen
##rte
achter
alrededor
aver
cuerpo
dein
eau
everyone
ker
wilde
zie
dia
gezien
justice
naam
nostra
trois
##zza
acqua
alta
demande
dies
kommen
nei
possa
quelqu
tellement
three
##nce
##rse
ansikte
antwortete
cabeza
ja
parecia
rio
should
cerca
cosas
demasiado
estaban
gesagt
parlare
understand
annat
dante
fear
gesehen
lichaam
machen
mots
nacht
runt
##go
agua
antwoordde
best
elk
fram
infatti
mort
tag
##ad
##ite
diejenigen
dolor
hel
lie
lite
montagne
river
sobald
soy
voz
##heit
##rlo
##ter
##zioni
among
chacun
gaf
hatten
hela
maniere
nun
tid
told
##chen
armen
blir
fils
parle
things
tittade
vreugde
zodra
aller
ckt
dalle
genade
hubiera
ihrem
nome
pouvez
sino
sprach
zult
##sen
aucun
engel
evil
florence
geh
lange
mountain
rapidamente
##igt
anything
deinen
insieme
intorno
joie
jupiter
piedi
visade
##j
##los
##vi
against
alguien
avevo
day
gaze
human
nnu
nuestra
sweet
voce
wollte
##rmi
##tte
attraverso
beneden
bon
choses
eres
head
raison
rispose
seen
semble
stad
tambien
wenig
##je
##rs
af
allen
bad
damned
direction
douleur
flamme
forma
hijo
misma
sembrava
telle
ty
affection
dolce
enfer
joy
steg
stimme
veces
virtu
whom
goda
laquelle
nuestro
podia
reste
volonta
##ft
##ness
##tta
contro
infierno
intellect
kopf
meester
pere
rivier
verloren
##ando
##x
again
algo
boden
drei
gudomliga
image
lucht
master
oben
top
wasser
wilt
##nti
##ze
alegria
cara
cken
comenzo
ene
mannen
oude
pris
sondern
wunsch
##lt
bland
born
fiume
fueron
ii
kein
kijk
last
moeten
otras
porte
quiero
razon
schon
vol
volta
##ens
##ive
ander
daarom
else
guida
inizio
kommt
kracht
moved
parmi
sordello
stand
##rade
ersten
father
horizon
kvinna
len
nge
nuevo
persone
stem
voice
##erd
##ful
##lichen
alas
cose
dissi
gnade
mira
position
tutta
weit
##ada
##ban
##tto
allemaal
dezelfde
eran
esas
hadden
keinen
peux
rper
verdad
zoon
##nd
##ted
cannot
dietro
geloof
glauben
male
question
schuld
tro
tue
arno
arriba
beh
blessed
elkaar
eterna
madre
mindre
passage
rapido
sang
snabbt
##nza
##sten
arr
aucune
behind
davanti
denk
fanns
indem
keep
leiden
meno
natura
naturaleza
reason
spirit
trots
ttliche
##lijk
art
avaient
cirkel
jou
stessa
weten
##ging
##ls
##ting
along
dulce
gioia
nden
nt
quelque
return
sett
tandis
veta
zeker
##ja
affetto
aspetto
creo
divino
doesn
estos
front
gra
incluso
kind
nadat
oro
pracht
precis
some
spreken
tienes
##bar
##nos
figlio
giorno
grandes
hennes
maakt
new
rome
sinne
vader
##ies
##ke
ask
creature
forte
liet
lijkt
ljuset
luft
montre
namn
nostro
own
qualcuno
sidan
varit
zeg
##iert
##zen
cuenta
detto
erkl
lejos
lied
malabocia
paura
porta
quelli
sohn
stata
testa
thought
trouve
vue
##rti
col
dolore
elles
espiritu
finche
fire
help
inferno
mezelf
nessuno
puedes
samen
spirito
tar
vais
virtue
vroeg
##ka
##ling
aria
derriere
dood
end
entendu
feu
fine
fuerza
virtud
volte
##be
asked
ch
dai
eternal
fact
largo
longer
maakte
nulla
parece
schaute
seulement
verkar
aire
dd
fondo
forza
framf
fuego
guarda
jour
lt
makes
mda
mejor
most
ninguna
passe
show
vertu
vinden
##ida
##ligt
##lle
##ria
##ssi
dark
estar
ormai
respondio
senti
something
tills
visa
wees
boven
debe
heller
mens
ocks
open
premier
vater
vino
wanted
##ck
answered
avere
bonne
denken
everything
guia
gute
herz
hope
houden
jesus
lang
lassen
morte
nadie
ooit
path
rre
saying
sprechen
##ate
##men
bron
ever
grace
handen
lete
professeur
quieres
wandte
##pa
##pe
##res
abajo
aunque
bakom
gemacht
puedo
rm
seul
sure
tat
##dad
##est
##rai
angel
believe
furono
gade
grave
hoge
lika
tugend
verite
##der
##mento
eeuwige
enga
inmediatamente
partie
sicher
sky
sofort
source
##liche
##lijke
begrijpen
carro
eigen
gemaakt
grond
hinter
immediately
kannst
meister
nam
present
similar
someone
ster
##ais
##ata
deel
destino
gracia
immediatement
lsignade
nnte
puisse
sola
tanta
tengo
ttlichen
waarheid
##aient
##uto
citta
donner
kwamen
lieu
paso
presente
qualcosa
quickly
stelle
vanwege
vivo
##ben
##ine
belle
better
denkt
detras
find
fuoco
gebracht
geht
melodie
observe
primero
rda
siete
strada
together
truth
turn
venir
verstehen
vuur
wahrheit
berget
bewegen
canto
chte
deugd
dinge
esso
fiore
glich
grazia
guten
hit
less
muss
ningun
obwohl
rleken
rose
sollte
stod
suelo
vele
weiter
##bare
##id
##lla
##llo
##sion
able
ali
jemand
juste
led
lijden
ognuno
pad
rest
riep
tj
totdat
volto
weniger
##am
##sche
##ska
##ven
erf
gjort
hele
hren
ljer
poder
podria
stond
ttre
verita
vragen
##rme
##ry
##ut
arme
attenzione
celeste
dites
ground
hoorde
ins
jligt
lja
nieuwe
old
veut
volvio
##ers
##ll
##om
##um
arrive
bellacoglienza
bitte
essi
fall
grad
helt
muerte
onda
sembra
ssen
therefore
verborgen
voyez
##ieren
arm
castigo
circle
cuanto
dare
deep
figure
final
found
looking
marken
mille
ndigt
pouvais
sst
times
vertel
waarin
##idad
##nes
##tie
##use
cercle
felt
gedachten
gew
groot
itself
lost
nemen
ngs
noche
teil
tombe
vedi
zouden
zusammen
##cio
##zo
ait
arco
become
beetje
beter
celle
dde
death
dice
doet
eterno
feel
kropp
llen
mayor
pres
queria
ragione
scheint
simile
sopra
tuoi
voelde
##ande
##endo
##erde
##tti
##uta
cke
floden
flower
grado
jede
llama
llet
mars
memoria
ngen
nouveau
quindi
respect
rief
riviere
rr
saker
song
travers
##ian
aime
bild
ckte
coloro
compa
draaide
duidelijk
geweest
ira
laisse
lva
peter
pieds
pietro
rispetto
valle
yet
##erna
##ingen
avesse
bang
delante
dj
fuerte
fuori
halten
hlte
minder
natuur
once
pueda
themselves
thou
venu
verschillende
vrede
welke
##ct
##ere
##pen
##sch
answer
basso
blivit
bocca
buon
cualquier
dela
diciendo
eu
haber
habian
huvudet
machte
personas
syn
towards
vackra
vraag
wij
zuerst
anderes
bereits
buen
circulo
debido
fe
forts
ir
kvinnan
laatste
mest
oltre
tel
tillsammans
true
vier
vite
##keit
##ner
##rent
change
comes
cruel
doux
follow
gesch
icke
jeden
kijken
mire
mostro
night
peche
pena
pesar
pies
primer
rede
rond
schatten
verlassen
vilka
voglio
zee
##gli
##ische
bereit
ciudad
color
cree
dygd
eerst
folgen
hommes
kamen
kr
langs
leve
lever
ljde
mar
meest
percio
saber
stare
titta
toward
vatten
weer
alcun
ante
combien
grandi
heer
hermosa
hombres
menselijke
minos
nodig
nuit
olika
ombre
schmerz
voeten
vostra
worten
##ement
##rado
ab
arte
besser
bringen
certo
city
error
erste
feet
fluss
foi
gor
jardin
main
mieux
mond
nna
nothing
order
pecado
pouvait
prachtige
sn
straf
tienen
varandra
vars
ves
whose
zeer
##amo
##pt
became
dazu
fama
flor
fronte
glaube
grazie
hield
idea
idee
mobile
nelle
nessun
peccato
peque
premiere
pueden
spiegel
stadt
tener
uppm
vient
##ee
##iez
##rad
anv
bras
colere
esos
essence
estrellas
etoiles
feuer
fleur
gamla
gonsin
hands
hrer
inget
kunna
luften
muchos
nahm
quiere
sterren
subito
tears
unten
yourself
##ern
##il
##less
##schen
alcuna
appearance
bra
brought
cerchio
faith
fede
ih
justicia
kwaad
lequel
llevo
lyssna
mag
praten
presence
puisque
sagt
stars
strafe
ustedes
vas
vertellen
##baar
##cken
##ins
##led
##oso
##ous
atencion
bald
blijven
coming
comprendre
desideri
dv
figura
genau
geworden
gods
hoop
interieur
manos
pace
partir
repondu
visible
wings
##rio
##ses
avrebbe
bel
called
celestial
daran
deed
enda
enige
faccia
fragen
greater
hear
helvetet
herre
houdt
ka
larmes
lot
rdig
remember
roca
sapere
seines
sight
sten
talar
though
tyst
uomini
voulez
wagen
##ale
##vole
ailes
aurait
bereiken
bloem
embargo
fra
garde
klaar
lacrime
lagrimas
lucifer
need
notte
power
roma
stort
straff
ttade
universum
val
visar
zonde
##ente
##ungen
above
aide
bewegt
bright
buena
dame
distance
dunque
eleve
geeft
heureux
kleine
kort
longtemps
mains
rock
stark
tuttavia
wiens
willst
wollen
##end
##ier
##ran
##rn
##sti
##ute
ambos
created
creatures
demas
drehte
fragte
fruit
giustizia
kunst
mantel
misschien
move
muchas
pierre
rg
richtung
savoir
sida
soyez
terrible
tranen
vent
vertelde
viso
vleugels
##fen
##ice
blume
brengen
dacht
deiner
einde
forme
forse
gezegende
hemelse
keer
mani
nker
oscuro
pousse
regarder
seid
##ischen
##ito
##man
##nas
abord
andare
besoin
bondad
branches
cantando
deve
dichter
doit
entrambi
expression
gedanken
going
gonna
kanske
kreis
malabocca
misericordia
ponte
posible
quei
rapidement
sainte
sais
ultimo
volgen
##bre
alone
apparence
beni
borde
continue
depuis
difficile
emp
eviga
fame
favor
followed
gerechtigkeit
getroffen
hard
hielt
hrte
intellekt
larna
leave
mur
nehmen
nniskan
orden
seems
sehe
solche
suffering
synd
tiden
universo
vattnet
verdammten
vielleicht
word
##ciones
##ds
##hen
##ide
##ity
##iva
##urs
abbia
adesso
anyone
appeared
dachte
eerder
esprits
gedaan
gudomlig
habria
jezelf
mnade
mooie
necessary
ombra
peuvent
pie
plant
presto
regen
regno
rostro
siamo
signore
sista
star
stop
verlaten
visione
vois
wendde
werk
##ende
##ico
##ust
alive
apariencia
bleiben
blood
cancion
clear
conduit
couldn
dessen
forese
ganze
honor
mercy
mogelijk
pouvoir
rka
sangre
sangue
second
seule
stellen
stil
tidigare
waarvan
wise
work
zeigen
##arna
##ker
##lar
##sta
allein
arms
avevano
beyond
binnen
bonte
dant
dessus
desto
ena
erg
erreichen
familie
fille
fj
gegeben
gerechtigheid
horen
horrible
inf
persoon
plek
possibile
posto
prata
primera
raren
repondit
route
secondo
talade
tillfredsst
tod
verstand
volledig
voller
##ces
##jes
##land
##sk
dank
deinem
eigenen
fais
frappe
lysande
naturen
nya
region
reino
seem
set
trodde
vanaf
vare
vicino
vuole
##age
##ati
##bo
##chi
##ht
##ot
alte
begr
colpa
dannati
enorme
ervoor
gids
gracias
gre
mare
mensch
mirando
near
nster
opinion
resistance
sad
stood
vallen
visste
voici
zoete
##bt
##eten
##las
##ments
##op
##ose
##ques
##ring
##tare
affinche
bient
cima
dato
diepe
dime
einige
finden
grito
haute
herzen
hl
ieder
intelligence
invece
koninkrijk
later
links
listen
luna
nad
punishment
royaume
sens
sieh
tillr
vide
viento
##able
##ante
##ete
##gi
##ler
##lie
##ver
ande
aquel
autant
certain
chsten
delen
fossero
geesten
havet
humana
inside
kingdom
lieve
medida
molte
prendre
puoi
rar
recht
schl
showed
utseende
wants
##ag
##bbe
##gar
antwoord
benen
bloed
confiance
corona
damnes
dda
diferente
faites
ganzen
himmelska
huilen
ifr
intensa
junto
kristus
leva
lord
mere
necessario
nuovo
onmiddellijk
posso
rand
ready
ring
rke
selon
silencio
sombre
stava
tten
vento
vio
vond
wall
weinig
won
##ero
##gne
##ise
##osa
ah
anderer
avessi
bridge
buona
cammino
casa
cker
darauf
erreur
estado
hohen
jd
limite
maggiore
miro
pasos
perdu
principio
puente
puerta
singing
skr
sprak
started
superior
tack
unser
verg
vuelta
##ger
##gna
##ld
##lio
##tas
aspect
bedr
completamente
credo
dagen
ens
ervan
esperanza
existence
flame
frere
gan
gewesen
having
honte
jouw
kanten
keren
langer
mala
pont
propre
sabiduria
sagesse
seigneur
solchen
state
used
vaak
vast
veo
vis
weisheit
wisdom
##nade
##nis
##rla
agli
aussehen
bella
brillantes
bring
brug
davon
ddes
droite
entender
fiel
gauche
gras
hoewel
humaine
intensiv
kennen
lidande
lights
lp
lyser
materia
mesure
mortal
nonostante
omedelbart
quali
reached
redo
salire
sanningen
sieht
speranza
steps
volk
voulait
waardoor
wijsheid
young
##cido
##igkeit
##ina
##nta
##sce
##tions
anjou
blijft
cher
douce
etoile
feite
gloria
indietro
jedem
klar
kommit
meglio
mna
molti
monter
motst
necessaire
papa
paradis
paradiso
peso
pitch
regardez
rifr
rom
sag
shining
sombra
stati
taken
tarde
toppen
umana
volvi
vuelve
wert
white
##ica
##ile
##ique
##tar
##tt
afecto
beeld
centro
cka
culpa
desires
dicendo
disant
emot
ensam
enza
gleichen
imagen
live
memory
parti
paz
pensez
red
richting
schaduw
sentii
shadow
siano
stern
strength
thomas
verbaasd
weder
women
##ille
##ningen
##rait
##th
atteindre
atteint
carefully
dog
ebbe
estrella
fiamma
frente
gar
hunger
luces
mary
medio
mil
moeder
mother
mutter
paradise
passo
petto
rayo
respuesta
splendore
talk
##elijk
##iendo
##ions
##lse
##rat
##rd
aandacht
adam
animal
base
beati
betr
blicken
ciascuno
direccion
dsla
eure
fell
fossi
genoeg
gold
happy
hlt
hoffnung
hos
however
immagine
intention
lumieres
neither
note
oft
origine
paix
peace
pecho
reponse
sent
serpent
sufrimiento
ufer
vlam
zegt
##ava
##eerd
##em
##ont
##pi
afraid
ancient
band
bracht
caused
chariot
constellation
descendre
diferentes
donkere
ecco
erz
fel
frage
genegenheid
given
heen
himmels
italia
lade
md
mee
nkte
offer
paraiso
pared
plaisir
please
rendu
risposta
rna
roccia
sale
seguro
siena
souvent
tittar
ttf
ultima
vingar
vostro
within
zeigte
##azione
##cha
##ction
##ei
##gio
alberto
alten
avanti
beaute
beauty
bell
bestia
boog
bosque
buiten
cklich
cornice
doe
estuviera
fortsatte
fout
geluid
guerra
herr
hle
jedes
jeune
lichten
llegar
mujeres
necesario
nheit
opposite
paradijs
piacere
pier
possono
pu
ropade
rosa
rots
schoonheid
seeing
shame
skada
struck
thousand
tomo
valor
ventre
verlicht
verr
vrouwen
wesen
years
zuneigung
##ano
##dra
##ek
##po
##rate
##uti
attitude
avrei
bellezza
blomman
bortom
brazos
brust
compris
condenados
condition
doubt
eens
entlang
femmes
fortuna
francis
frauen
geld
gewicht
heavenly
igual
jason
kennis
kijkt
knowledge
lage
melodia
nk
nskliga
poor
propria
sabio
sofferenza
staren
sterne
upon
verscheen
waaruit
wist
zweifel
##ak
##iere
##iska
##komt
##mer
##nar
anni
ayuda
belleza
bitter
capaz
caridad
casi
cortesia
dejo
descend
destra
doute
einmal
engelen
espiritus
fing
harmonie
hnlich
leute
libre
llena
marco
mde
motivo
ondanks
parecio
poitrine
profonde
puso
resa
saranno
seguito
spiriti
spirits
teufel
thanks
tree
welche
zeichen
##if
##imo
action
ami
amo
ando
bijna
blod
borst
botten
cependant
dannato
daughter
despite
deur
direzione
erschien
ewigen
fest
figlia
geln
gericht
getan
giusto
glad
goedheid
hlen
kvar
lichter
lontano
matter
meines
nka
omkring
passi
pourrait
produit
questions
reis
relse
rouge
rten
seront
siehst
sound
stazio
step
stopped
surface
tiefen
understood
upph
voyage
worthy
zorgen
##au
##dor
##ned
##nto
##od
##uer
##uit
actions
ausdruck
beobachten
blut
bogen
braccia
campo
carne
courage
derecha
dimmi
djup
enough
erinnerung
escuchar
fehler
further
geef
geluk
inevitable
intenso
jaar
knew
known
limbo
lleno
luci
malgre
nat
numero
opdat
parola
soient
staan
statius
sull
tard
trova
vogel
winter
zuvor
##egen
##fe
##kte
##one
##tra
acompa
angels
bewegte
cambio
chance
charles
conocimiento
dankzij
demander
derjenige
deshalb
dochter
duda
ensuite
eternelle
etions
fond
free
gegeven
gekommen
hija
jemals
juiste
levande
lskar
mf
pieta
potrebbe
pure
reach
remained
saints
stan
strong
superficie
tochter
tusen
vero
viaje
vindt
voy
zorg
##ados
##ges
##he
##isse
##nant
##ncia
##ningar
anges
aparecio
boot
brille
cache
caesar
cried
debajo
direkt
discours
earthly
ello
entendre
eren
errore
fallen
fly
fuente
goes
gonen
goodness
kept
legs
lentamente
luisteren
misstag
notwendig
nuestros
off
produce
ran
rechts
silence
sommet
torre
ttvisa
tweede
vede
vedo
violence
woede
woord
zul
##ccia
##glia
##ino
##nato
##tr
allez
angeli
antwort
bestraft
bilden
chiunque
done
drar
droit
except
felsen
gusta
hou
intelletto
kunskap
midden
mouth
muur
nourriture
omhoog
palabra
prendere
reflected
regardant
replied
silent
slechte
slut
sois
stay
tevreden
thing
toscana
venne
vit
wacht
##ats
##cato
##ish
##ndosi
##net
##nno
##ntes
##rato
##rer
##tet
act
alguna
almost
angeles
arrived
barn
bestaan
bouche
breve
capo
derde
digne
esplendor
feliz
hidden
himmlischen
immediatamente
interno
izquierda
leuk
luminoso
mmer
moge
ndig
ntar
opened
oscura
paar
pensamientos
pla
porto
quasi
real
remarque
richtig
rjan
spijt
tankar
third
ts
vuoi
walked
weinen
wolf
##and
##ation
##bles
##elijke
##icht
##lare
##lmente
##rde
##tato
bank
bereikt
boca
bodem
carita
charite
charity
close
deseos
encontrar
encuentra
falsenbian
forest
fortune
four
godhet
graag
italien
jambes
langue
levanto
llamas
menschliche
nessuna
ofta
parete
pensees
poeta
prakt
purgatorio
quienes
rh
rug
schritt
short
sinistra
slog
slutet
solens
stannade
styrka
sujet
thoughts
tillgivenhet
timore
tormento
turning
tzt
ungl
whole
zeide
zonden
##hi
##mt
##ser
##zt
amigo
ange
ans
arc
arrives
aufmerksamkeit
aura
barco
bed
begin
berges
blij
bonta
borta
bringt
brother
chiesa
church
compte
correcto
court
devenu
dico
divin
dotter
egen
ensemble
fai
guardare
heldere
hermano
iglesia
intelecto
konden
ld
lingua
marie
miserable
muse
nes
noga
nostri
oi
orilla
piernas
prego
pregunta
profondo
religion
rksamhet
sabe
sand
sonido
splendeur
splendor
spoke
stap
thee
tig
tornare
valt
viaggio
vlammen
voorbij
vorm
vrai
zingen
##ccion
##del
##gas
##ks
##lte
according
armee
avete
barbariccia
begonnen
bleef
bottom
clairement
colore
connaissance
corrado
darum
digo
donati
elden
erreicht
firenze
gek
hablo
hacerlo
held
herum
hoch
ibland
journey
justo
kerk
lg
making
marche
menudo
mezzo
mt
natten
often
pensieri
petit
piccarda
qual
quatre
raggi
rayons
rayos
reise
ricordo
rl
sarei
stranden
tour
trotz
ugolino
unico
viva
vive
vorher
werdet
##ades
##ic
##nare
##nts
##red
##ss
##uro
##ving
aardse
aiuto
amico
angelo
aurais
bleibt
blind
bruder
certains
cirkeln
clearly
conoscenza
deren
devi
diede
differente
dirige
dite
dragen
eden
food
frieden
friend
fut
gekomen
giu
grenzen
hacen
helder
hierher
hilfe
hoeveel
humble
intens
kirche
kte
leidde
lento
liefdadigheid
maldito
malebranche
nderna
neuen
peches
placer
plein
potere
rays
rend
rtj
sabia
sentir
sentire
signe
sigue
sins
skogen
solange
stanna
stella
suivre
sulle
talking
tono
troisieme
tvivel
unto
uppr
valley
varken
vecchio
verk
vore
wort
zustand
##ans
##ible
##ione
##ira
##sant
##tado
##ties
##ul
appele
arbeit
argent
arrigo
bos
course
dado
describe
desidera
devez
devrait
dovrebbe
dubbio
duizend
dunklen
entfernt
font
gift
gsta
helpen
hopp
konnten
large
leid
lieben
listening
llig
lycka
milieu
neemt
nino
noticed
nta
oracion
pecados
profundo
rechten
schaden
schande
seguir
seran
speaking
speech
suono
svar
terrestre
tredje
tut
tycktes
tydligt
unserer
use
vacker
vain
vallee
vergogna
verl
volgde
wangen
##acion
##ding
##ias
##kel
##ln
##og
##ond
##rande
##ule
algunos
attentivement
bonheur
brilla
castello
cheveux
cieli
conmigo
conto
dalen
dificil
energie
flames
flammes
folk
forced
fratello
gezegd
gezeigt
hals
helemaal
hitta
hob
hulp
inom
krijgen
maak
maremma
merito
michele
monster
mouvement
mund
nota
nsche
oscuridad
parecian
pasado
pelo
petrus
platsen
pleasure
presque
puesto
regardais
retourne
sabes
satte
schijnt
sorg
stralen
subir
teken
verschrikkelijke
verv
vosotros
wonder
zolang
##adas
##anza
##care
##ekt
##erte
##gaan
##heden
##ives
##ligen
##menti
##ssero
##ud
aangezien
agreable
approached
avst
beau
capire
chest
claramente
couleur
crees
cuidado
dead
deberia
demon
desirs
drog
enea
eravamo
erleuchtet
farlo
futuro
geloven
gelukkig
genast
gerade
giro
hair
higher
inspiration
jde
jerusalem
lato
leder
leidt
llegamos
lskade
lucca
minne
movimiento
nobile
nouvelle
pasar
passer
piensa
pleurer
propia
raggiungere
realized
reception
rocher
saggezza
sant
schicksal
sign
situazione
souffrance
spesso
spread
storm
tonen
tzlich
vielen
vind
zog
zufrieden
##bel
##cca
##cer
##dere
##dia
##elt
##eron
##gebracht
##hnt
##iera
##nden
##ua
abandonne
abbiamo
acuerdo
adelante
arbol
bord
cadre
cesse
chant
comincio
conna
during
envers
envy
erh
erscheinen
estabamos
faceva
federico
flammen
folgte
freund
gehoord
geister
genug
gode
hosanna
huvud
ihres
importe
instead
john
joven
king
klang
korte
ladder
lady
ledde
ligt
manchmal
material
memoire
miroir
moving
neem
nhet
observeren
osservare
percorso
prayer
priere
profonda
sacred
situacion
souvenir
surpris
synder
tijdens
tomar
value
venere
veranderde
verde
verket
voelen
voll
wald
##ach
##igd
##iger
##kommen
##lighet
##nda
##tig
##un
##uren
##ures
alba
anger
argine
atras
aufh
behalve
bekend
benis
bologna
brillo
caso
cuatro
delar
dello
desidero
died
ding
discurso
distancia
duro
eld
escape
excepto
faller
fiamme
fyra
gillar
hemisphere
influence
kleur
lag
langsam
lascia
leaves
lijken
looks
mentor
moest
observer
ones
paradiset
parfois
passed
peine
perdido
personnes
peuple
piace
pied
ppnade
punition
recuerdo
rendre
roi
rtan
rut
sahen
schauen
schmerzen
seconda
senare
situatie
slecht
sometimes
soms
stehen
stige
tas
tiefe
tier
tillst
tomber
tragen
travail
twijfel
unders
uppt
valeur
vecchia
verschijning
waarde
wish
##aan
##ah
##bili
##chten
##ded
##igheid
##ik
##ilt
##ini
##iv
##ivo
##jo
##king
##lia
##lli
##nken
##nung
##ol
##pte
##rada
##rare
##rie
##sh
##shed
##tive
##ui
##zar
albero
assez
blieb
bt
capacita
care
ckkehren
courtesy
covered
cross
debut
enkele
enleve
erhalten
erkannte
examine
experience
expert
following
genommen
gonblick
hablando
hold
hrten
jene
jordiska
koning
lados
letzten
levde
liten
livet
living
lpa
lucia
mauvais
meteen
ndert
next
nobles
nsla
pensa
pistoia
plezier
profunda
rat
rbannade
rey
ritmo
rkt
rmade
rung
satt
seiten
smile
stappen
stiga
tausend
tenait
trouver
tyckte
utf
vanuit
verdoemden
vervloekte
visie
wild
zicht
##ber
##gde
##hes
##iel
##isce
##ist
##kken
##nad
##rci
##tro
##tura
##ume
andar
anf
arbre
auparavant
avsl
char
devotion
dicho
diep
differentes
difficult
dois
domanda
enligt
envie
erlaubt
espejo
express
falla
famille
felicidad
figur
fleurs
florencia
florenz
fonte
gebed
giovane
grido
groter
habt
haya
helderheid
helfen
herte
heute
hoog
impossible
jahre
klippan
langzaam
musst
nahe
nave
ndet
ontvangen
passare
passion
pensando
perhaps
ppna
quelques
rapide
regel
renhet
rsvann
sai
segui
sloeg
sprang
stra
suficiente
surprised
tales
tanke
tet
tuviera
tzen
venez
vertr
volver
vriend
wijze
wouldn
##aba
##alen
##alt
##bi
##ccio
##gare
##gehen
##mes
##sas
##tiva
##ves
allo
ansiktet
avuto
berouw
beschreiben
beweging
big
bisogno
bladeren
bow
brengt
celestes
chanson
convirtio
crois
daden
danno
darkness
deplace
dernier
dg
duivel
em
encontre
entoure
ewige
farbe
felice
forward
garden
gebeden
gerichtet
gestraft
gevoel
horizonte
jaloezie
joined
lief
liksom
lumineux
lune
lyfte
menschlichen
mirar
mirror
oggi
orizzonte
parla
perfect
plusieurs
preghiera
proceed
providence
punished
quattro
rather
ray
regret
rende
riktning
rise
rker
rnor
road
saggio
sagten
santi
serais
singen
spalle
stet
stolz
stoppen
tecken
try
unseren
ursprung
vallei
valore
vandaan
vergelijkbaar
vertrouwen
viens
vii
voedsel
wrong
zitten
zuh
##dig
##glio
##iche
##idos
##loos
##per
##ranno
##sed
affermo
anymore
approche
arriere
bedekt
bergen
beskriva
bewegung
biens
boom
brillant
calme
couronne
devil
diable
duisternis
encima
entra
erkennen
esencia
espada
espera
essentie
essenza
evigt
false
family
fann
few
fiesole
flores
france
francia
ganz
gevangen
gira
green
haciendo
heel
johannes
ju
lead
llegado
llorando
mantua
mat
might
mist
moves
ndern
neue
nkt
nuestras
pensais
pensiero
pfe
places
planet
planeten
planta
pluie
plut
poet
poteva
prese
presencia
presenza
pudiera
returned
rger
rivolto
ruhm
sauf
schaamte
shines
specchio
staden
sterk
tristes
trovare
unos
utropade
venire
veroorzaakt
verteld
voie
volgens
wand
werken
zagen
zowel
##agt
##amente
##bido
##dre
##eln
##eri
##gung
##ima
##ndose
##ster
##zio
allow
amable
amante
ana
ancien
anteo
area
bekannt
berw
capable
chiron
chstenliebe
cinq
coi
cold
costui
crazy
crying
daf
destin
dicht
discorso
edge
einzige
endast
ense
entrambe
espalda
falsenbiante
finger
five
florens
gambe
geschapen
grotere
handeln
helaas
helvetets
hetzelfde
historia
hoy
hui
huis
hundred
infernal
intencion
ken
kinder
kroppen
leicht
liep
lifted
miraba
mmelse
montagna
mueve
muren
ndiga
nombreuses
outside
pieno
prayers
preghiere
pregunto
pude
quoi
rain
raised
realidad
rive
rivolse
rklara
rlorade
rren
sanna
schwer
segno
slow
solito
spreekt
strahlen
tourna
ttet
ung
unica
unterst
varelse
verrez
visdom
voit
ware
wille
zat
##aren
##cata
##cchi
##cke
##cono
##cted
##dt
##ggia
##iden
##komen
##lant
##nia
##ude
##uve
##zia
aanwezig
agradable
animo
apporte
ar
beast
beschrijven
bewoog
bitten
broeder
completely
creatura
criatura
culpabilite
dande
distanza
echo
enfants
erk
etat
eternel
explain
extreme
falsch
fanno
ffnete
flusses
foot
fruits
ften
gelijk
gesegneten
gett
ggen
gleiche
gloire
goederen
goods
guilt
habla
hice
himmelen
jener
kinderen
kt
leende
lida
likt
lleva
magra
mine
mitte
mitten
montrer
mor
nigreich
oido
oraciones
osserva
paris
prieres
queen
resistenza
rester
roem
rstod
rvarande
schiera
shall
shine
silenzio
soll
suffer
suivi
takes
taten
tend
terrenal
toscane
tristesse
ttra
verursacht
voulais
vuelto
waiting
weeping
wusste
##ated
##gel
##gue
##ieron
##iti
##miento
##ndet
##par
##stand
##tre
##ual
##uch
##uen
##vio
aguas
anh
aujourd
baronia
bat
beest
beweegt
blanco
bloemen
caro
celesti
celestiales
claro
constance
cosicche
criaturas
cry
cuidadosamente
daarna
danach
danza
devient
diablo
diceva
diener
djupt
espoir
essen
exclaimed
familia
faro
felicita
flowers
franchezza
fruktansv
garder
gebet
happiness
hundra
hymne
individuo
inuti
juntos
keerde
komm
kvinnor
leer
ligger
linea
lluvia
luminosa
malditos
mise
moon
morgen
nobele
omr
ordine
ouvert
paradies
pass
portato
precious
pregunte
promise
punizione
rdiga
religi
remains
salir
satisfied
schip
separe
simple
spitze
sto
symbol
takken
tempel
tenian
today
torn
trabajo
tristeza
tuin
tuvo
vedrai
venga
vieni
viljan
voet
wahr
wait
walk
zorn
##amma
##aron
##bia
##ede
##eva
##fie
##gang
##ien
##kant
##nado
##nata
##oten
##ssent
##sto
##tten
##une
##unt
##uso
##val
##zi
ado
alichino
anchise
arezzo
armar
becomes
berrascht
bienes
brunetto
buoso
cesar
children
christi
cuyo
dijeron
divided
eagle
ert
erw
espressione
fand
fano
farinata
fate
fatigue
feit
figuur
fiori
fit
genannt
gezegend
gherardo
higkeit
immense
ingenting
intensamente
judas
lago
lavinia
lentement
naast
natural
nembrod
onore
pensee
piena
pioggia
plante
platon
potuto
proche
produced
pur
qualsiasi
qualunque
rahmen
ramas
rande
rapport
recuerda
reich
respekt
rinieri
rivolsi
rlekens
rojo
romagna
sait
sarai
schade
ship
siendo
siento
skapade
skrek
sorge
sowohl
sterben
surrounded
talmente
terror
terzo
uitdrukking
univers
universe
uttryck
uttrycka
vagnen
vandaag
velocemente
verkligen
verlangens
verst
vientre
vivre
waarmee
warm
warten
witte
zelf
zit
##aar
##cen
##cs
##eerde
##ggio
##iet
##isk
##ote
##ps
##rne
##sero
##tos
abstinence
afstand
ardiente
assis
bedeckt
blanc
cae
comida
condemned
declare
decrire
dejar
djupa
dliga
draaien
drehen
ecoute
ecouter
empezo
erop
erschaffen
expresion
eye
faces
feeling
francesco
francheza
frei
fte
future
garten
geleden
geleid
gelooft
gentile
gesprochen
gga
gives
hne
hora
indien
intensivt
jealousy
kristi
kust
lass
leefde
leken
levante
ljusa
lorsqu
loved
mauvaise
medea
membres
mening
mistake
moeilijk
musa
nar
nello
nig
nube
nueva
observar
observera
omger
oog
opende
ordre
partner
pflanze
pianta
posizione
pueblo
rachel
raggio
rijkdom
riva
rn
sac
sache
satisfait
scendere
schlug
sidor
single
skuld
small
souffle
sourire
spr
spreek
subject
teau
umano
umgeben
urs
verdriet
verser
volle
voorzichtig
walls
whoever
widerstand
##aden
##akt
##aten
##ckt
##ein
##ened
##gd
##gno
##heten
##iamo
##kten
##nate
##nge
##ok
##ppe
##ros
##sm
##tivo
##tus
##ult
##zze
abrio
acerca
acque
adige
alcune
armonia
avl
bear
brachte
buik
castillo
cieux
ckligt
cocito
completement
continuo
contrario
dagli
dear
echt
eer
empece
eros
eruit
facile
facilmente
fem
firmament
flegeton
fleuve
flie
gat
gelosia
gern
gest
geweld
gezichten
grands
herrn
hicieron
honneur
hoppas
inga
iniziai
knows
leger
llde
llego
lopen
lower
lugares
maan
maison
makt
mark
marte
misericorde
murs
nskar
oir
ojo
partes
pays
pece
pleine
poids
popolo
pray
quiconque
ramen
rencontre
rijk
rnorna
romeo
rust
rvaro
salio
salut
schienen
schrie
schritte
sed
seed
seguire
sept
serpente
sette
seven
sides
six
sju
skam
stesse
stiger
superiore
tatsache
traurigkeit
tunga
varelser
verdienste
verf
verschiedenen
vivir
vliegen
vostri
wachten
watched
wealth
zerst
zeven
##achtige
##elen
##els
##eo
##ets
##ijk
##mmen
##mment
##pito
##recht
##rli
##rto
##tore
##und
aanwezigheid
aeneas
aguila
alcuni
apri
ardente
argo
begreep
bernardo
bestimmt
blumen
castle
certainement
chef
cheln
cibo
circles
circulos
cirkels
clair
colei
colpi
commen
consider
considere
contigo
creer
crudele
cura
damne
dana
desciende
destination
details
devoto
doloroso
echter
ehre
eifersucht
gabriel
gedwongen
gerion
herinnering
hohe
information
invidia
kasteel
kleinen
kyrkan
liegt
llevar
loyal
luminosita
majest
malebolge
mnar
ndes
ngeln
occhio
opera
orsaken
past
pose
positie
preso
profond
realta
risposi
ritorno
rjar
rningar
sarebbero
satisfy
scala
scheen
schepsel
segun
segundo
sembravano
sembro
severe
sieben
slechts
sleep
sorgen
sortir
stai
sterblichen
stierf
testament
tipo
trok
tsligt
velo
verse
visioen
voel
voler
vorsichtig
vrij
waardig
wrapped
##ang
##ara
##ard
##can
##cco
##dom
##eben
##enen
##fulla
##gado
##gia
##ikt
##isch
##iten
##jas
##kar
##lite
##ndomi
##nus
##tant
##ucht
##uten
absicht
aigle
antiguo
appear
aquila
arbete
aware
bar
belly
besch
blitz
brise
carry
celos
changed
chiaramente
ciacco
cinco
cola
committed
condizione
conocido
consejo
consequences
dance
decide
demonios
destiny
diventa
diversi
djur
dla
dunkelheit
eaux
ebbi
enter
envidia
erinnern
escucha
esistenza
esse
existenz
exterieur
falls
feci
ferme
feuilles
fianco
fraude
gegangen
geri
gewalt
griffin
gs
habitude
happened
heilig
hermoso
hin
hojas
horizont
houding
humano
kallas
lengua
letzte
limites
lived
ljudet
llan
llegue
lska
lyssnar
marcher
menge
mettre
necesidad
noodzakelijk
nuova
oportunidad
painful
pantano
pedro
pensamiento
plaatsen
pone
ras
renommee
resistencia
revenir
rosso
sacre
sadness
sante
schlange
schlie
schreeuwen
serpiente
siehe
silver
siquiera
sorriso
staart
steht
straight
svartsjuka
tali
tenga
terreno
tief
tours
tower
tristezza
trouw
uur
vengeance
walking
waters
weight
wet
zeiden
zwaard
##af
##ants
##ars
##ef
##eft
##emos
##entes
##gando
##hl
##iant
##ijn
##iteit
##lade
##nehmen
##ngen
##ore
##rando
##ret
##ront
##rten
##schap
##uur
##uw
abismo
aider
allem
alsjeblieft
amene
anledning
apropiado
arrivato
bauch
boze
call
carried
compared
coule
cre
crown
cuello
demons
derniere
doing
dra
entrar
erstaunt
eten
evidente
evitar
existencia
faktum
famiglia
figuren
fler
fliegen
foglie
genomen
geschaffen
gesto
giardino
girando
haces
haga
heure
hrung
humain
individu
kert
killed
ledsen
liga
lightning
lorsque
luminosite
maniera
materie
matin
messo
morir
morning
movimento
namnet
navire
neben
ngde
nostre
object
ognuna
oiseau
parlait
placed
plan
pleasant
posicion
poter
praise
rblir
rdighet
read
realise
rem
retourner
rike
robe
ruimte
santos
schiff
schreien
sean
sees
sentiment
shore
slang
soif
sonrisa
sorgliga
spada
spazio
stannar
stenen
sterven
suffered
sui
svara
tegenovergestelde
thick
tillf
torment
tourner
trae
ttern
uiterlijk
veranderen
verdrietig
vernunft
verwandelt
verzet
volgende
volgt
##anse
##bly
##br
##ciendo
##cto
##dita
##elle
##erade
##ese
##gesteld
##skap
##ture
##uste
##zado
adelaar
admire
anc
angry
ansikten
aspekt
autor
bemerkte
cayo
coda
connu
cou
crie
daher
dejado
dido
direct
entro
epee
faisant
finner
fixed
folle
foten
frid
fruto
gefunden
gesproken
gets
gewonnen
giusta
grass
guides
halte
helige
herbe
hierba
horisonten
hubieran
iacopo
jer
lagen
law
leaving
lebens
leda
ler
libro
log
ltigt
madonna
nare
ninguno
nskningar
nslor
opposta
original
pale
parlando
passaggio
peccati
piangere
plotseling
precede
prison
queue
quitte
rayon
reso
riguardo
rocky
ryggen
rythme
schijnen
senso
sentence
sento
silencieux
sinn
slaap
slowly
sommige
sonst
stavo
stopte
sword
tema
traurig
tron
utom
veloce
veras
verlie
verses
versi
visages
volando
volo
vulen
westen
wunder
zeigt
##ales
##assen
##cas
##ering
##gte
##iente
##illa
##itet
##lly
##mbre
##nit
##nk
##osi
##rebbe
##rei
##sam
##tada
##vent
aantal
absolut
accanto
ahime
andras
ant
apparve
ardor
attentamente
auteur
avoid
azioni
barmherzigkeit
begleitet
beste
binnenkort
boos
bueno
calor
cas
cent
certainly
chaleur
comfort
cut
daarvan
danger
danse
devoted
diverse
dorst
europa
falso
finnas
fretta
frukt
frutto
gathered
gebied
geistes
geschenk
geste
gger
glaubt
glimlach
golpeo
guardando
guardo
gusto
guter
hambre
hide
hinaus
hnen
hoogte
iii
joan
judgment
jugement
kn
kronen
kv
lavoro
lose
lust
lying
manto
miserables
mismos
money
neck
neer
obscurite
offered
orgullo
piuttosto
podemos
pride
proceder
promesse
prova
pushed
reflektiert
renade
rer
resultado
rklarade
rtat
schloss
semblable
sentido
separated
seres
serve
shown
snabb
sorti
starb
tagit
thebes
thinking
thus
ting
toespraak
tongue
tormenta
treffen
trust
uppf
usually
vedevo
venerable
verfl
vertrauen
verzen
vidare
vivant
vivere
vlees
voorhoofd
waarvoor
wicked
zeggende
zunge
##aal
##baren
##cho
##eld
##erar
##iano
##ici
##ick
##ierte
##imento
##imos
##inge
##innen
##ioso
##iven
##kende
##mita
##pre
##ries
##ssimo
##sus
##tando
##ues
##uido
##uito
ahi
algunas
alimento
ama
amazed
ascoltare
assurez
attire
auge
avrai
bajar
barmh
baron
beginning
begrepen
beine
beobachtete
betrachten
bewogen
blijf
bowed
burning
caer
cerberus
cercles
chasse
collo
confronti
consequent
constelacion
control
costellazione
croix
deben
demonio
devo
dienen
dikke
dimension
dinero
distingue
divise
doel
donker
draait
echelle
ecria
ecrit
einander
energia
erin
erscheint
espacio
estaria
exempel
faim
filled
findet
flyttade
fruktan
fueran
gammal
genie
gesegnet
gipfel
glory
groep
hare
hinder
hoogste
host
immobile
interior
itali
italie
italy
klettern
klimmen
kostbare
kroon
lachen
laggiu
leser
lies
listo
lyssnade
mate
merite
minns
mma
mourir
ned
nek
neppure
nimmt
orsu
parlo
pensi
permite
petite
pouvons
prepare
proberen
profondita
prove
puissance
puissiez
punkten
qualche
quedo
raum
recognize
relsen
rese
ricchezza
rich
rimase
rliga
rmare
rme
rnen
rode
sak
salvo
sanning
scene
sense
sete
sicuro
sinnen
sjunga
skugga
sollten
sommigen
souviens
sovrano
sse
stirn
sublime
tail
teilen
tenu
terrain
thirst
timent
toch
tong
turns
universums
unserem
uso
vanno
venue
veranderd
vergleich
verona
verstanden
waard
zaad
zet
##acht
##ave
##cada
##cado
##cce
##cher
##cida
##cle
##dono
##ello
##epen
##geht
##gende
##ggiare
##ieux
##iques
##komst
##lado
##ms
##nait
##nse
##pcion
##punkt
##rre
##simo
##skt
##stellen
##tica
##tico
##uie
##uir
##unen
##uno
##uses
##voli
##zaam
acerco
actitud
annorlunda
antico
appropriate
arrivo
aspecto
avions
baja
begangen
begrijpt
believed
bendito
bewust
bliksem
brighter
brings
causes
cerchi
charon
chez
ciertamente
cinque
colle
condicion
conduire
considera
corte
cours
credi
dade
deceive
denke
denkst
descends
dreht
ebene
entrer
enveloppe
erba
erl
estamos
etend
exprimer
extiende
feroce
ffade
finds
flera
forehead
frederick
gebete
gevonden
giudizio
glada
goud
grabbed
gustaria
habiamos
heads
helderder
heraus
illustre
jenseits
juicio
juno
kindness
klagen
kruis
language
lasciare
lascio
late
latona
leeft
leiding
lettore
ljud
lombardo
lte
lycklig
malheureux
malice
malvado
melody
mortale
mount
movement
movio
nade
nahrung
neid
nf
nouvelles
nst
ny
obras
overwhelmed
periodo
personen
platz
pobre
porter
prato
presso
prie
received
reichtum
reina
ressenti
resto
revele
richesse
richten
riqueza
rnan
ropa
round
salvacion
salvation
salvezza
satisfaction
schrecklichen
schwanz
seit
sincere
skull
souffrir
spricht
sterrenbeeld
stessi
stirrade
supplie
tenir
tired
toonde
tournant
utanf
vade
vera
verbergen
verdammte
vijf
vormen
vraiment
vriendelijkheid
waarop
wirklich
##ast
##bio
##cian
##damente
##eed
##eid
##even
##fa
##gef
##gend
##hs
##ief
##im
##ious
##jado
##jn
##llen
##loze
##pr
##ration
##resa
##rez
##rle
##sos
##sso
##tamente
##tito
##uf
##ufen
##uwen
##via
##vre
##zas
abyss
accion
accord
achilles
aient
although
alzo
ardeur
aroma
arrivare
arriver
asking
atto
avsikt
bateau
beneficio
beobachtet
bev
bewegten
bianco
bird
boat
brinnande
capacite
carlo
centre
centrum
compagni
company
compassion
conscience
coraggio
correct
croce
cruz
cualquiera
cuya
dansen
dara
diavolo
dobbiamo
dovuto
edle
eeuwig
egal
egna
empfangen
enjoy
ere
erinnere
erover
erreichten
escalera
esseri
eut
eva
evig
exil
facendo
familj
fara
flegias
fleisch
folket
forces
fou
freundlich
fria
gegenwart
genezen
geplaatst
gevolg
gezwungen
gone
gorna
group
groupe
grupo
gruppe
handling
haz
hebzucht
herrlichkeit
himlens
hinunter
histoire
hnt
horn
ia
idag
ido
infernale
interesse
jungen
krone
kwelling
laissez
legge
lieber
liknande
line
llevado
llorar
luister
massa
mean
middle
miembros
moed
motsatta
moyen
mun
mut
nest
ngd
number
occasion
paus
penso
plumes
pobres
port
possiamo
possibilita
potrei
prend
procedere
purgatory
quiet
ravenna
rdes
realiseerde
reflete
regarda
respondi
result
resultat
rises
rkret
rkte
rld
rskare
rts
satisfaire
savez
scipione
semblaient
semilla
servi
shone
simbolo
sinds
skiljer
skuggan
slutade
sonno
speer
spoken
sprache
stevig
suddenly
taal
temples
toewijding
toma
toren
trap
vamos
venant
verdeeld
veren
versuchen
versucht
verte
verwandelte
vieille
vieux
voelt
vollst
vont
voren
vurige
wezens
wraak
yttre
zulke
##anti
##cing
##dido
##een
##erkt
##fs
##ged
##genomen
##houden
##ich
##ighet
##ingar
##kade
##lige
##lung
##mme
##nelle
##onde
##ping
##rant
##rnos
##rst
##rta
##rvi
##schaft
##sing
##ssant
##sv
##tor
##ttes
##ula
##unde
##uo
##ws
##zando
##zca
##zing
##zzi
abandon
allowed
alzai
andre
approprie
avund
azione
benedetto
bonnes
bosheit
briller
brukade
buurt
cade
capelli
center
chair
charge
chelte
chiese
chiesi
cien
climb
codicia
compagnia
compagnie
confianza
continua
credere
daniel
depla
descendant
devrais
digno
dira
disparu
diventare
dono
dream
ds
durst
eco
eget
emperador
empereur
emperor
empire
espace
etiez
exterior
fader
families
flying
folgt
fuimos
gagne
gardez
gebeurt
gebruiken
gefallen
geschichte
gestalt
gg
golden
gritando
groene
half
haria
hearing
hellen
hoorden
humains
imagination
imperatore
indignation
irdischen
joyful
kastade
keizer
klart
klein
konst
laisser
lassu
lecteur
lector
leuchtet
lider
ligne
lion
ljusare
llamado
lyckliga
lyste
meinung
members
menselijk
moses
obra
obtenir
ondska
opnieuw
oppose
orlo
ovanf
overcome
pasa
passa
pauvres
perfekt
permanece
permet
piedra
piel
precieux
profundamente
pudo
quinta
rakt
reader
realite
reality
realmente
recognized
regalo
regardait
regiert
regreso
remain
repente
revealed
richt
rlorat
rodea
rot
satisfecho
savait
schneller
scht
seas
segue
selva
servant
service
several
signora
slottet
smoke
space
spheres
spinge
sufrir
suivant
support
tements
termine
terugkeert
tire
traurigen
uppe
uth
vergn
versets
viejo
vieron
violencia
violenza
vissa
vivants
voeden
voorheen
voyant
wakker
wens
wezen
wit
zin
zona
##bra
##cci
##cure
##cy
##dan
##ehen
##ento
##fied
##fl
##hnen
##ift
##ix
##lichkeit
##lto
##mas
##nnen
##nze
##oot
##open
##ors
##ppen
##quer
##rata
##rera
##rum
##sca
##sco
##sive
##tique
##ution
##ziert
##zunehmen
abandoned
accompagne
accorde
ach
added
agir
anfang
anzi
apollos
apparu
appelle
ardore
assai
atmosphere
attraktiv
audacia
aufmerksam
bacchus
basis
begrijp
bewonderen
bewundern
bienvenida
bleek
bodies
bois
bor
broken
caminar
careful
chantant
colores
compagnons
comparacion
comprendere
corre
creator
damage
declared
dehors
descendants
desea
destined
deutlich
devenir
devils
devons
diavoli
dijk
doch
doivent
driver
duivels
eglise
entier
esclamo
eurer
exclamo
explique
extr
faithful
fatti
feathers
federn
finalmente
fluye
framtr
fran
freres
frucht
fumo
ganges
gedachte
gelukkige
gemakkelijk
gentleman
gerne
geschehen
gesichter
gesu
giovanni
globe
glorie
graf
graven
halsen
haltung
happen
happens
harm
herinner
highest
honger
house
humanos
hund
ig
importa
inne
inst
intenzione
jedoch
jemanden
jezus
jonge
kalla
kun
lamm
ldigt
leden
levanta
lezer
lippen
lives
llning
ltig
malvagio
manteau
martirio
meisten
melodi
membra
mnen
mooi
muove
nesso
nombreux
omringd
ond
oordeel
opposee
origen
ottaviano
paredes
passato
pauvre
pay
pengar
pente
plumas
pouvaient
principe
propres
ram
rami
rblev
repentance
resta
ret
riche
rikedom
rol
rood
ruhig
rvandlades
sable
sachez
schiena
schild
segel
sembrare
sentiero
sentito
shouted
sitting
slice
sneller
ssel
start
steen
stone
straffas
stretto
stroomt
suerte
suit
tak
tenemos
tomba
transforme
udito
ume
umgibt
usual
vano
veniva
vereint
verlieren
verliezen
versprechen
vervuld
vivos
voleva
voltai
vrucht
wasn
wilden
wolken
wrede
zichtbaar
##bart
##bild
##bl
##bracht
##ggi
##gle
##gos
##iging
##ings
##ivamente
##jan
##lagen
##lidad
##mar
##nemen
##oni
##pia
##pper
##rce
##rro
##sl
##tudine
##uchen
##uire
##ukt
##verse
aangenaam
acciones
accompanied
admirer
amanecer
arena
argument
armut
arriva
ascolta
aube
aufstieg
barba
bedroefd
bendecidos
bereikten
bernard
bliss
bruit
buenas
cadere
chste
ciascuna
closer
colpito
commesso
commis
considered
corso
creador
createur
creato
creatore
croire
cuales
cuerpos
dawn
depart
dienaar
digna
dile
diverso
ellendige
embankment
entree
entusiasmo
esperando
espero
esterno
euren
extra
favore
figli
flyga
freno
frost
fumee
furcht
gebeten
geheugen
gelukzaligheid
genieten
gentilezza
ges
getrennt
giungemmo
glimlachte
grenze
guerre
helig
hour
ht
humanidad
humanite
illumination
jete
lasciato
lebt
leider
lent
liked
luistert
mantener
mantiene
merkte
mette
miles
minnet
morts
naissance
nglar
ngra
ngsamt
offre
ontsnappen
opuesta
orde
packte
pajaro
parents
parlava
passend
pauvrete
pobreza
poete
potenza
potevo
pourrais
poverty
prisa
profondement
provence
punta
purgatoire
querido
raggiunto
realit
really
rechtvaardige
refleja
remblai
remorse
restes
riflesso
rimane
rk
rook
run
satisfacer
schaut
schepselen
schrift
schwert
scorgere
screaming
seraient
shalt
sicherlich
sluta
smiled
snabbare
sogar
soort
souverain
splendente
stunde
supreme
supremo
synen
talat
talvolta
terraplen
trajo
trata
tratto
trekken
trug
ttest
varifr
vaste
verhalten
vermeiden
versos
visibile
voile
whether
zaak
zoek
zweite
##agen
##ake
##alde
##ana
##angen
##arse
##cate
##ccare
##ches
##cre
##dio
##dores
##eert
##eg
##egt
##ening
##esi
##eve
##gliare
##ichtet
##icka
##issent
##jar
##kommt
##lando
##lier
##lta
##mit
##mma
##nna
##ommen
##quant
##sar
##son
##tanden
##tent
##uoso
##uwd
##volle
##zeit
##zugehen
aangezicht
aard
abbastanza
agi
agire
aimer
amen
angelic
appara
arguments
armoede
arrogant
asegurate
asunto
atmosfera
atteggiamento
attend
azzo
baratto
barca
baum
beatitudine
beatrices
beginnen
begint
beings
belofte
bemerkt
benevento
bereid
bereuen
bertran
beten
bisenzio
blad
bonagiunta
bons
branca
bredvid
breng
broer
caco
calore
camilla
capacidad
central
child
cielar
cielos
cincinnato
circe
companions
condenado
consciente
consequence
consiglio
conviene
cornelia
corneto
corpi
corto
crea
crossed
david
deidamia
derecho
describir
desired
deum
devenue
diana
dirai
directed
divide
doctrine
dom
doria
dorthin
draghignazzo
dure
duwde
echapper
elsa
enfant
equal
escapar
esperance
esperar
esposa
euer
eviter
falta
farfarello
ferai
flesh
flichkeit
flod
forli
formed
fred
froid
fucci
fulfilled
gebroken
gianni
globo
gouden
graves
greed
guardai
guglielmo
guidance
gutes
hablaba
handelen
handlingar
harten
haus
hemisph
hemos
heren
humo
jagen
joues
juist
karl
lamentations
lance
lanza
lasst
laudamus
leads
lich
lino
liri
low
malacoda
malen
manque
menschheit
mensheid
messer
meta
miseria
moe
moeras
monferrato
mosse
motsatt
mpligt
musste
nee
nere
ngtan
nieuws
nouveaux
oberfl
oorsprong
opportuno
origin
orlando
pa
palio
pape
parties
peloro
penetre
perdre
perugia
pfen
piangendo
pietra
pleased
pleure
poca
pope
poverta
prenez
prepared
primeros
proceeded
propio
proud
queda
rache
rad
rdel
rena
repondre
responsable
rocheux
rodolfo
rostros
rselden
ruhe
running
rusticucci
saintes
samtidigt
sapienza
save
says
scende
schepper
schlaf
seguendo
sente
signal
silvestro
simon
sing
sommeil
souver
sovereign
stanno
sterfelijke
storia
strand
sufficiente
sung
tanden
taste
tiber
totalmente
trompe
trouble
tterna
tvungen
ubertino
ugo
umanita
undvika
uppn
utstr
vanligtvis
vanni
venganza
verdween
verge
vila
vittore
vivi
vraie
welcome
wife
wijs
zanche
zoeken
zweiten
##ace
##aga
##als
##amt
##ange
##ase
##bringen
##cal
##cino
##esse
##gere
##ghet
##iato
##idi
##ids
##ied
##ifr
##igne
##kap
##lag
##licher
##lijkheid
##lino
##llt
##mate
##med
##nando
##orna
##rito
##sie
##smo
##ssen
##steigt
##tados
##tain
##tal
##tio
##tri
##uche
##ulle
##uye
##vero
##willig
##zzo
ability
abundance
acerque
actuar
afflige
afgrond
afgunst
aimes
alltf
alter
amado
anagni
angustia
apenas
arrivee
asombro
aurora
ayant
beato
befriedigen
begeerte
beundra
bidden
bouge
braccio
breath
broder
carga
cheeks
chien
cicero
cklichen
ckta
cloud
comienza
conclusion
condannati
condotto
conseguenza
couleurs
creation
cumplir
deal
deeply
degno
derer
differents
dolci
dritte
droevige
ejercito
eleva
empfang
entered
epaules
ergew
ersch
erzeugt
escuche
evident
exprime
faits
farmi
fattiga
faut
fedele
fermo
fidele
finale
firmamento
flyger
freuen
frio
fully
gaeta
gallura
gas
gefangen
gegaan
gehe
geur
gewoon
gigante
glanz
glise
golpeado
gorge
guld
halo
handelt
hara
haven
hechos
hief
higkeiten
hijos
hof
hoger
holding
hombros
honderd
houd
ice
inneh
inre
instinct
inv
kerhet
kleuren
kroppar
kurz
laut
lebte
leggen
leiter
libero
linken
lj
locura
lsning
luni
medveten
meet
mejillas
metgezellen
mmande
montaperti
mortales
multitud
mura
nacio
nato
ngel
ngest
ngivenhet
ngnis
nnt
oever
opportunity
ov
ovan
overweldigd
parlato
parli
peau
peccatore
perso
primavera
procede
promesa
puedas
rdest
reconna
redden
refuge
renar
reser
rico
rlich
rnuft
roche
rule
sagst
sappi
schouders
schultern
seien
seras
serene
serviteur
shoulders
skakade
skapar
skin
sorgf
sort
spent
spinse
spreche
spring
standing
stared
starrte
stick
stolthet
stonden
store
stream
strijd
suite
superieur
tages
tasche
tendra
tenzij
thy
tient
tit
tombes
toon
tuve
understanding
unless
unrecht
vagevuur
vals
varias
vecu
vengono
verandert
verdomde
verh
verlichting
verre
verstehe
vicenza
villano
virtues
voegde
volume
voordeel
vriendelijk
weinte
wenden
##agd
##allen
##ari
##azioni
##bas
##bito
##cano
##colo
##dato
##egd
##else
##ene
##enne
##erse
##eur
##evo
##ezza
##full
##gaat
##ghi
##gingen
##gra
##hield
##hr
##iare
##ib
##idas
##kam
##lato
##lita
##losen
##mini
##mming
##nat
##ndere
##nz
##of
##pite
##raient
##reut
##rlos
##rp
##sare
##sure
##tante
##tude
##uld
##urato
##ys
##zzata
achille
afferro
afhankelijk
agarro
aimait
ajoute
altura
anblick
angoisse
annees
ansah
appears
ascoltando
avermi
avra
ay
bag
beaux
befreit
begaan
begging
beginnt
beispiel
bekr
bellincione
bello
below
benaderde
beroende
bienheureux
birth
black
boue
branch
brenta
brillaba
buone
burned
cambia
capocchio
casentino
chanter
chiedere
choisi
cierto
cinquieme
closed
comence
comprends
coro
corta
cortese
croyez
darin
descended
descrivere
dessous
devota
dientes
diro
doorgang
drink
dritten
dulces
dunkel
eclaire
effetti
eifer
emme
enthousiasme
entrare
escuchando
evitare
expliquer
faenza
farben
faster
fecero
ferne
fialte
fifth
fisso
folge
follows
forntida
galen
gebeuren
gedrag
geliefde
general
geschieht
gesegnete
giove
gola
grant
greep
grootste
guance
haken
hearts
hei
height
helped
hierheen
hingabe
humilde
importante
impression
jeunes
kallade
kaum
kehrte
keiner
kijkend
kra
kurs
lake
legte
liepen
lijn
lit
lysa
magnificence
matiere
meestal
meraviglia
mijne
miras
mortali
nauwelijks
niebla
ntade
nuovi
omringt
oud
oui
parnaso
passiert
paul
pelle
pensar
permis
pf
pfad
pianto
plain
praat
precedenza
preuve
primi
ps
quanti
quest
rama
ramo
rang
rauch
receive
regn
rempli
richtigen
righteous
riket
rldens
ruota
sare
sauvage
schlecht
senses
sensi
sentivo
sichtbar
sicurezza
siguiendo
siguiente
sinners
sitter
slag
snarare
sombras
somos
stelde
stemmen
stimmen
suave
supr
swamp
taking
tantas
test
thebans
thema
torna
underbara
unterdr
vedendo
vendetta
verdadera
vervolgens
vestido
viennent
vijfde
visual
volare
volere
vus
wassers
william
write
wut
yours
ytterligare
zand
ziehen
zijde
zong
##ala
##amos
##ance
##cita
##cos
##dar
##eder
##ehren
##einander
##eras
##ess
##ffen
##get
##gono
##gro
##ical
##ifie
##igde
##ijft
##iken
##ines
##int
##ires
##issen
##iste
##itto
##lde
##mb
##ming
##mmar
##ola
##ord
##racion
##reso
##rge
##rra
##sato
##scono
##tera
##ttare
##uale
##ug
##ugen
##ured
##vere
##we
##weg
##wo
##zig
accent
accept
ack
anguish
appel
ardent
ardour
argumenten
armas
armes
assure
attendre
attesa
aufgeh
avevamo
beloved
bewijzen
bewusst
bezit
bit
blommor
borsa
brightness
brillait
buenos
bulicame
cantar
celebre
certa
chiamato
chosen
colline
cometido
compagno
concede
condamnes
conoscere
conseil
corazones
corde
couche
coup
courtoisie
couvert
crier
cuan
debes
debo
deeds
defense
demandez
dense
denti
dents
devocion
devono
devozione
dionysius
disait
disciples
dispuesto
diversa
doden
drew
dude
ejemplo
element
elements
emisfero
envuelto
erscheinung
escudo
espere
etant
exemple
expressed
extendio
extent
faccio
falsa
fattigdom
feed
ffar
figures
fini
firm
flydde
foresta
freddo
furent
gebeurd
gehst
genere
gescheiden
giunto
gledning
gloed
gonblicket
graffiacane
grenarna
gruppo
hablado
haft
heat
heavy
hemisferio
hercules
heridas
herinneren
hogere
holds
hoofden
hunting
illumine
ilska
important
influences
inspire
jalousie
jlighet
journee
judge
keel
kindly
komme
kwaadaardige
larga
least
lenguaje
levende
lichamen
lichts
llanura
llskap
lugn
magnifico
manieren
marquis
mauvaises
merit
mo
moln
morire
morto
mostrare
mountains
mu
muerto
nahmen
nglarna
none
nord
notes
nuevos
oggetto
oorlog
opposto
passes
passing
pastor
pecadores
peccatori
pecheurs
penetra
perro
piensas
plaine
pochi
polo
prende
produziert
profondamente
pronuncio
rbi
rbli
rdet
rdigen
reine
reside
risplende
rondom
roos
rsvinner
rules
sauver
schreeuwde
schw
sentidos
sentiments
separate
seraphim
siente
situationen
skapades
slagen
smeekte
soddisfare
soddisfatto
soltanto
sonrio
stade
sterke
sternen
stroom
surrounding
surrounds
tante
teeth
telling
temp
tenido
terugkeren
testamento
tische
toegewijd
tomado
total
tranne
treden
triumph
tromper
uccello
umani
unm
uppfylla
upplyst
uschen
uscire
utile
vengo
verhaal
verka
verkeerd
verkligheten
verlaat
verloor
versteckt
vienen
vine
vlakte
voices
volvieron
vorfahren
vuestra
vurigheid
wandten
weitere
wen
zondaars
zorgvuldig
##aat
##achen
##aine
##ame
##ani
##arlo
##bilmente
##bringt
##cias
##cieron
##culo
##digde
##digen
##dire
##ehrt
##eht
##ella
##eso
##eto
##eux
##form
##geschlossen
##geven
##gnant
##hlen
##hlt
##ierten
##ify
##illes
##ined
##inkt
##ip
##jero
##lingen
##lles
##nder
##ny
##ones
##oro
##ppo
##ral
##ringen
##sante
##tan
##uille
##ulo
##ulto
##uwde
##vola
##weise
##wind
##yant
##yo
##zed
absolute
acceso
accomplir
acheron
addressed
adler
altrettanto
amare
angekommen
angoscia
apollo
arche
arg
ascension
assicurati
atmosf
atmosph
ausdr
behold
beim
beinen
bek
betrachtet
beweisen
bewijs
bolagia
brazo
brief
brigade
caballero
cane
cato
chiaro
clothes
cocytus
colors
complete
concesso
condamne
conocer
conseils
contr
creado
crede
cri
cris
curso
daad
declaro
detail
determine
deugden
dices
dichiaro
diras
double
drinken
droeg
drukken
dur
ebenso
emerge
enlightened
entiendo
erinnert
erschienen
ervaren
evento
excessive
existe
existens
extraordinary
facil
faible
faisait
falling
famoso
faux
femte
fera
ffnet
firme
fled
florentine
formen
fourth
frutti
fulla
garganta
gelegenheit
geloofde
genoemd
getoond
getting
gevoelens
girare
girighet
glas
glorious
glow
greatest
guardavo
guitton
hauteur
herself
hond
hoort
hundert
illuminated
illuminazione
iluminacion
individual
inferior
iniziato
inspired
intelligenza
intento
iv
jemandem
jong
judecca
kaiser
kleiner
krieg
kvinnorna
lack
laid
lancelot
leren
letizia
ley
libertad
litar
llamada
logica
loi
lucrezia
luoghi
maakten
machten
magnificent
malebranches
malvagia
marzia
mauern
mechant
minerva
miserere
moments
mpfen
muertos
muestra
nebel
nectar
niente
ning
nlighet
nostalgia
nostalgie
noto
obtener
odeur
offense
olor
onvermijdelijk
opening
opuesto
oscurita
ottenere
papal
paradieses
parnasus
perder
pfeil
pianeta
pianura
pijl
pijnlijk
pit
planeet
planeta
planete
platser
podian
portare
prachtig
premiers
presenti
priva
proposito
prostituee
provide
puni
pura
qualita
quatrieme
quede
rdige
reda
regina
resplandor
reveal
richezza
riesen
righteousness
rik
rising
ruido
ruisseau
rutom
salvaje
sat
schaduwen
schreckliche
segunda
seligen
seme
sentimientos
separa
sevilla
shadows
siege
simili
sjunger
skepp
smeek
soberano
sogno
souffert
speaks
spegeln
sposa
staarde
standen
statt
steek
steigt
steil
sternbild
stilte
stralende
stretched
stupore
sucede
suolo
suprema
tanti
tardi
temple
tendras
terremoto
tf
throat
tiere
tigen
tras
tried
umile
unga
unique
uscht
utg
uvre
vaut
venuto
verbergt
verdwenen
verklaarde
verliet
verurteilt
verw
vierde
vin
vivante
vlucht
voces
voci
voeren
vole
volti
wahren
whatever
wolk
##aagt
##ane
##anno
##antes
##arme
##art
##ased
##ations
##bla
##cial
##cie
##cios
##cks
##cta
##dito
##ea
##ees
##ega
##eilen
##eit
##eke
##emente
##esta
##fde
##ff
##fi
##gato
##haft
##ibili
##icas
##ichen
##igo
##ijf
##ime
##ioni
##ister
##ivi
##ktion
##lante
##mp
##ntas
##nten
##oden
##ogen
##olo
##oren
##ped
##plaats
##pone
##rais
##ree
##rg
##sait
##sis
##tata
##tter
##ueux
##uk
##ulate
##unden
##usa
##uze
##vamo
##vant
##vato
##visa
##xe
abgrund
access
actie
acto
advantage
advice
advies
alexander
alt
altezza
amablemente
ancestors
animale
anl
antwoorden
armarna
attila
aveugle
avvicino
ayez
bedeutung
bellaccoglienza
benditos
benediction
bevredigen
biada
bittere
blessing
blessures
bleven
boire
bonifacio
briareus
brunnen
built
cachee
calm
calma
cambiar
camminare
canta
centrale
certaines
chst
chtnis
cirklar
colori
colpo
continuer
correcta
cupidite
daaruit
damals
darunter
debemos
decision
deuxieme
dichtbij
dichte
distante
diventato
divinita
draagt
draaiden
drawn
dricka
droom
easily
echte
egalement
einfallsreichtum
einfluss
entgegengesetzte
erbj
ern
esempio
esprimere
essenz
established
estara
etonne
example
expresar
facilement
famous
feelings
fegefeuer
ferma
fiducia
fight
flow
foule
frankrijk
frase
freiheit
fullt
gaben
gebruik
gedacht
genera
gesellschaft
gesetz
gestellt
getr
gevaar
gevolgen
gevuld
gier
godelar
grab
guard
guardia
habilidades
halfrond
hannibal
heavens
helling
hinzu
hitze
hurt
hus
hyperion
imagine
imposible
impossibile
influencia
ing
inganno
ingenio
ingeniosite
ingenuity
instant
intelligentie
invloed
irdische
italiens
jordan
jours
juge
jure
kleren
leuchten
leuchtete
libere
liberta
liberte
linie
list
llamo
lover
malheur
mantuvo
masse
message
midst
molesto
montrez
mori
munnen
murio
nachts
natuurlijke
ndrade
negli
noise
notai
nskligheten
objet
objeto
observed
observing
ontmoeten
oosten
ovidio
paid
papst
parts
pedir
pene
periode
permesso
piccola
pijlen
preguntas
presentes
previously
profondeur
promessa
providencia
provvidenza
prueba
psalm
rahmens
recepcion
religious
respeto
retour
retten
riches
rivage
rlighet
rlora
rmen
roberto
rtighet
ruego
ruf
rustig
saco
sappia
satz
scale
scheinen
schuldig
schwierigkeiten
securite
semblent
sentia
sentimiento
sesto
sinnet
slope
sollen
soudain
starkt
stein
stel
stille
straal
sumpf
terreur
thinks
tiefer
tijdje
tio
tourmente
traverse
tremble
trennen
trinken
ttlicher
tumba
tuscany
tycker
united
utseendet
vea
veld
verdoemde
verenigd
vergeleken
vergeten
verra
verschwand
verspreid
viendo
vinna
visat
voorzienigheid
vorsehung
vostre
weerspiegeld
woher
wolke
wreed
zegen
##aban
##ap
##atie
##cciato
##ceau
##ched
##cite
##coli
##cts
##dd
##dde
##dr
##dy
##eden
##ele
##elli
##enden
##ep
##erta
##ey
##fier
##fst
##fullt
##hed
##hung
##icia
##igung
##izia
##kend
##lande
##lasse
##laten
##lden
##line
##lk
##lls
##mando
##ndolo
##ngono
##nie
##ntos
##omen
##orta
##perte
##pes
##pita
##posto
##riendo
##rung
##sel
##sent
##sf
##ssez
##sts
##tait
##tert
##tile
##tivi
##tria
##trice
##usta
##vado
##ved
##vel
##vita
##vra
##wingen
##wollen
##ya
##zada
abandonado
abbondanza
abt
acte
admiration
ago
aimez
alcanzar
alcmeone
amant
ambas
anciana
anciens
angenehm
annars
anstatt
anstr
antepasados
appare
apparire
arrivati
arrow
ascolto
assisi
attento
attorno
attractive
aufgabe
avh
bambino
bataille
batalla
battaglia
battle
beber
bedrogen
begins
bendicion
benedizione
benie
bes
bet
bienaventurados
blixt
blows
bolognese
bolsa
bourgeois
branche
break
brutus
cabezas
cabo
cacher
calcabrina
caminamos
cantare
case
cassius
catalano
ceased
cera
changer
chiama
chiusi
chtig
circonda
colpe
compiuto
conduce
confie
converti
costa
cria
crime
dallo
dchen
decia
demonstration
dependiendo
depending
depression
depth
deriva
desole
destruction
dias
dier
directamente
directement
directions
divenne
doubts
dudas
dunkle
dura
east
edad
effect
efforts
egenskaper
embrasse
encontrado
endure
enkel
enseignant
entspricht
epoque
erlangen
erm
ertragen
essaye
eta
faute
finna
flecha
fleche
flight
fog
forth
frate
freccia
freedom
fruktar
fuga
galna
gaven
gebruikt
gebunden
gedood
gehalten
geworfen
glace
gleich
gradualmente
granted
greve
grymma
gsna
gte
gyllene
habitants
helligkeit
herinnert
herren
herrscher
hill
hitte
hiver
hors
huid
importance
improvviso
ingegno
inhabitants
inneren
inteligencia
invierno
jaren
kampf
kans
koningin
kreise
lac
lachte
lager
laget
lamb
lamberti
lancia
lebenden
leggi
liebst
liegen
listened
livre
longue
loving
lucano
lucky
lueur
maggior
magnifica
maldad
malefique
malvada
manifeste
marais
matelda
maybe
medicina
mettez
minnaar
minore
mnd
mogelijkheid
montagnes
moral
mortels
motivation
narrow
natt
navarra
ndsr
nebbia
ngare
ngsamma
ngte
nigin
njuta
ns
nskade
nytta
offenbaren
onmogelijk
opinione
oppervlak
ordnung
oriente
oso
ossa
osservato
osten
ours
padres
pakte
palude
parecer
passera
perceived
permitio
pfer
piante
piece
pitie
plato
portes
poveri
pozo
pratade
presa
priester
prime
profundidad
pronta
propri
prostituta
provided
qua
realize
regnet
rendere
reputation
respecto
reue
reveille
richtige
ricordare
rifeo
riktade
ringen
rocciosa
romagnoli
ronde
roten
roues
ruedas
sacra
sacro
schrien
schweigen
segen
seguridad
seht
serai
sf
shook
showing
sienese
sitzen
skrika
snelle
soin
soldanieri
sowie
spectacle
staring
steep
steken
stolt
substance
successo
suckar
syndare
tenere
terf
tesoro
tige
toegang
toestand
touch
touche
traurige
trento
treu
tronco
tutt
untersuchen
urteil
usando
utilise
vada
vai
valet
vanished
vantaggio
verdadero
verlichten
verlo
vermijden
vernachl
verschiedene
verurteilten
vervullen
vete
vicini
vikt
vindingrijkheid
virtudes
vise
volentieri
volg
voorbeeld
voorouders
vorbereitet
vouloir
wahre
warf
wateren
weisen
welkom
wheels
wonderful
works
written
zakken
zetten
zintuigen
zukunft
zweige
##aagde
##aald
##aam
##alten
##amen
##aro
##ary
##aux
##bado
##bed
##bilidad
##cent
##colare
##cter
##ctive
##ctor
##cule
##dendo
##dico
##die
##du
##eel
##ered
##erent
##ette
##euse
##fect
##gan
##gande
##hnte
##iante
##ibt
##ict
##iding
##ika
##ilen
##ils
##iosa
##iz
##kers
##let
##lst
##mare
##mbo
##mie
##mis
##nada
##nent
##ngo
##ori
##ple
##plica
##ppato
##rados
##resse
##riamente
##rm
##samhet
##sman
##tai
##tida
##tori
##ttato
##ub
##uele
##vol
##vollen
##yder
##yed
##zame
##zet
##zuf
abitanti
abri
accompli
achten
adem
age
ailleurs
aliento
almeno
andarna
antica
apparut
aracne
army
arrepentimiento
ascend
astinenza
autorite
avarizia
barbagia
bastone
belt
benevolent
bere
bergets
bevisa
bianca
blinde
blond
blossoming
bond
bot
bound
brillar
bror
brouillard
buio
caccia
caminando
capacites
castigado
centaur
cento
cercando
cha
climbed
cloak
colina
considerazione
contento
conversion
corriendo
cover
crainte
creee
cristiano
croit
cruelle
cubierto
dando
debout
deception
decided
defend
degna
denaro
derselben
desaparecio
devoir
dica
dieci
dienst
dieron
diez
difficolta
dirigido
dirigio
disposition
dix
dja
douloureux
doutes
dov
draai
dress
dringt
dslan
dubbi
ebbero
ecoutant
einzigen
enemy
entkommen
entrada
envoie
envoye
ervaring
essendo
excellence
exclame
experiencia
falska
fango
fault
felicite
ferait
florentiner
forever
foudre
freed
freundlichkeit
fri
friends
fronde
fulfill
fulmine
gano
gardes
garras
gebonden
ged
genaamd
geteilt
getragen
gevormd
gezelschap
ghiaccio
gib
glaubte
glichkeit
griffes
gritos
gryningen
haare
habitantes
hable
harmony
hemelen
herkende
heureuse
heuvel
hielo
hinauf
hirten
hmt
hoeft
home
huilde
iba
illa
ilumina
impulso
infinite
intensely
interrupted
inverno
istante
jean
jung
knappt
kommst
krig
kudde
kung
kwade
lamenti
laws
lay
lesquels
leuchtkraft
lieten
limit
ljuva
llega
llevaron
llsamhet
loup
luisterde
lunga
maggiormente
malabocha
malas
manifestiert
marches
maximum
means
menigte
michol
migliore
misslyckas
mmerung
mnat
moglie
mostrando
movian
movido
mud
nasce
ndigen
neige
ngrar
nimm
noggrant
nuevas
nuove
nytt
obstacle
offen
offert
ois
oorzaak
opere
opfer
oreste
orgoglio
orgueil
orolig
outer
ouvrit
overvloed
palazzo
panna
papalardia
parade
parecen
parlant
phrase
piacevole
pleasing
polidoro
poner
pratar
prends
principes
prit
prive
privo
prodotto
profesor
psalmen
puertas
punito
quantita
quick
quinto
rapida
recibido
reconnu
recordar
reflexion
regardes
regeln
rejoice
relief
rent
repent
replico
rja
rmar
rocosa
rsk
ruder
ruine
sabbia
sagrada
sagrado
sangen
sapeva
schrei
schudde
scorsi
secret
semence
sentimenti
sheep
sicherheit
siguio
sitta
sitzt
skan
sket
skiner
skrev
soffrire
sopla
soportar
sorry
spegel
spred
starting
stijgt
stopten
story
straffen
straffet
strahl
suchen
sud
supera
superbo
superieure
surpassed
svansen
tanz
tarea
temor
tenebres
tengas
tercer
tern
threw
tien
tiro
toekomst
toont
tormented
torno
toskana
tournai
traum
trovato
trovo
tugenden
twijfels
udii
uni
upset
vacio
valse
various
vde
vela
verdammt
verdes
verdient
verdoemd
vergelijking
verleden
verlor
vermogen
vertelt
visas
vitt
voto
voulu
vriendelijke
vrienden
vruchten
wartet
watch
wielen
wonden
worth
wretched
xten
zehn
zieht
zijt
zuzuh
##ager
##ain
##arono
##ating
##bliche
##bro
##bst
##car
##cento
##cere
##chait
##cina
##ckte
##cte
##culos
##curi
##curo
##cusa
##dent
##diendo
##digt
##edd
##eelt
##eis
##eta
##eter
##eth
##ever
##fel
##fici
##gados
##gegeven
##genommen
##gestellt
##gga
##gr
##hrt
##iada
##ibile
##iegt
##ijd
##ijken
##illig
##inden
##iner
##inga
##ingt
##iro
##ium
##lage
##lan
##lat
##lata
##liches
##lina
##lingar
##lique
##md
##mmer
##nbar
##ndola
##oben
##ocht
##ode
##ota
##oto
##ow
##pie
##pp
##radas
##rated
##rita
##rite
##rso
##saient
##sione
##tente
##tido
##tigt
##tlich
##uchte
##ucion
##uel
##uelle
##uite
##ulation
##umen
##uni
##uras
##urgo
##uring
##usion
##vt
##wed
##weren
##xen
##ziehen
##zieren
##zte
##zzare
##zzato
abbandonato
abilities
abondance
abstinencia
allontano
amargo
amaro
amer
amigos
ammirare
anciano
anden
angelegenheit
angelica
antworten
appariva
approaching
aragon
argomento
artista
aspiration
attendez
attraente
audace
ausgestattet
auszudr
autoridad
avendo
avenir
avg
avrebbero
avvolto
barriere
barro
bedoeling
begged
begraven
bekommen
benevolente
beschouwd
bevrijd
bienveillance
bildar
blanche
brott
bruto
buoni
cantidad
celles
chiamata
chten
comer
compagnon
completo
conosciuto
contesto
convierte
cordero
costretto
courant
creando
custom
daalt
damiani
davvero
days
deceived
desert
discover
djupet
domando
donnez
doucement
douceur
duren
eclair
effort
eigene
eisen
elders
emmene
empinada
enlever
ensamma
erheben
erhob
erkannt
ernaar
ernstige
essaie
eterne
eternelles
evenals
evening
falschen
falsk
farti
fausse
fen
fer
ffa
fiery
fila
finally
fisico
fixes
flows
flucht
fossa
francisco
gain
gastheer
gefolgt
gehouden
gekozen
gem
gentillesse
germano
geschikt
getrokken
gewikkeld
gorgo
gradini
gradino
grausamen
grida
grube
guy
habitual
hemska
hermosos
hesitation
hielten
hoffen
humanity
ilio
illuminato
imprisoned
incandescente
increased
inevitabile
informativa
inmitten
inner
intelligenz
intensement
jenen
jord
juan
juda
kallar
kannte
kehrt
keken
kenne
klara
klaren
klauwen
knuffade
korsade
koude
kreeg
krijgt
kungen
landet
learn
libicocco
lilla
limited
linkerkant
lista
llanto
lobo
loco
lombard
loud
loves
lper
lpte
luminosidad
luminosity
mache
magnifique
malheureusement
manger
mantova
mattino
meilleure
mena
menar
mod
mose
muro
naci
nascosto
ndnis
news
ngar
nido
niemals
normalerweise
notwendigkeit
nutzen
objekt
oculta
odio
onderscheiden
onthullen
oppure
orribile
orsakade
osservando
overwinning
pan
pase
pazzi
penalty
perceive
pflicht
philippi
physical
piccolo
pilgrim
plantas
pleurs
pluto
poema
possession
presents
prezioso
probeerde
procession
propos
protection
punis
quegli
quitter
raide
rarna
reflect
reflekteras
regle
regresar
remaining
returns
rifugio
ritter
rlig
rochers
romans
rotsen
rpers
ruote
sacrifice
saisi
sali
santas
satan
savais
schlagen
schm
schreiben
schrijven
scream
seconde
seis
seligkeit
serez
setzen
shed
siate
siguen
sikt
skapare
solitario
sombres
sortit
souffrances
sourit
ss
stanco
stegen
stilla
stock
stopt
stupito
task
teme
tercero
tevergeefs
tjocka
toscano
toten
tournes
triomphe
troost
trovavo
ttar
tur
turm
tzung
ursache
urspr
ursprungliga
usar
uschung
vanligt
vapor
vegetation
veil
verbrand
verdienst
vergangenheit
vergessen
verraad
vert
vertrok
vertus
verzameld
view
vile
vingarna
violent
virtuoso
volar
voldoende
vooruit
vrijheid
vuelo
vuestro
waardige
warst
weiterhin
west
willing
willkommen
wohl
worry
wounds
wrote
wunden
yes
##all
##alte
##ancia
##anden
##aus
##beeld
##blich
##bras
##cando
##cente
##chado
##chant
##chte
##ciado
##cifica
##cious
##ckel
##cro
##dare
##dite
##doen
##eet
##eine
##eken
##ela
##erad
##erende
##fall
##fico
##fort
##ften
##gate
##ggiato
##gnato
##gor
##hmen
##hn
##hnung
##hst
##iar
##ides
##ieten
##ijnen
##inato
##iosi
##isen
##ises
##isten
##iter
##iver
##izo
##jen
##kan
##kta
##lait
##lassen
##lee
##lu
##mal
##mato
##mel
##mn
##nati
##ndre
##nkt
##nst
##ong
##ort
##ost
##pera
##poli
##rades
##rdo
##rgt
##rijk
##rios
##sal
##samente
##shes
##shing
##siert
##stro
##teerd
##tino
##tita
##tjes
##uden
##uella
##uert
##uisce
##ums
##urg
##uss
##usse
##vallen
##where
##zustellen
aangename
abisso
acces
accesso
accordo
adams
adel
ademas
admirar
adresse
affrontare
agree
aie
allebei
allerhoogste
allons
amis
angeboten
angefangen
anno
ansia
aperto
apostoli
arroyo
ascenso
auraient
author
authority
autore
autorita
aviez
backs
bagliore
bef
belva
bendita
benefit
beso
bevis
bewohner
bezug
bj
blass
braut
bride
broeders
bruid
bryr
bryta
cansado
capito
cesare
chantait
chante
chiavi
choice
choix
chtigen
cities
citizens
ciudades
ckliga
claire
clara
cles
climbing
coast
command
companion
comprehension
compreso
condanna
conduite
confidence
confused
connais
consecuencias
conseguenze
content
conti
contraire
convertido
costanza
couronnes
courteous
creata
create
criant
cries
date
dati
deines
derna
dicen
diepte
disappeared
disposizione
dolcemente
dolorosa
duty
easy
eclat
edlen
eloigne
enig
entdecken
entendido
enth
enthalten
epais
eraan
erlitten
escaleras
escucho
esperienza
etabli
exile
facevano
fail
fakta
fanden
fasta
ferro
ffnen
fijos
fixe
flowing
foolish
former
fragment
frankreich
freuden
fuhr
fummo
ganado
geblieben
gebrek
gebrochen
gekleed
geliebt
geliebten
gerechten
geschreven
gevangenis
geweten
gewoonlijk
gezogen
gillade
girone
giving
glans
gleichzeitig
gloriosa
golpea
grenar
griff
grupp
guardi
habra
hang
harde
heerser
helgon
helse
heures
hindrar
huilt
identico
ijs
inflytande
innocent
inse
instrument
invito
inwoners
iron
irrtum
jahren
joyeuse
junge
kamrater
keeping
keerden
kehle
kiss
knowing
koers
kristna
kurzer
laag
legde
legen
letto
levend
leyes
liebt
liedes
lien
liggen
lois
loopt
lsignad
lskare
lumineuse
luminositet
maravilla
marias
materi
mento
mercato
meridian
metal
metgezel
mission
modder
momenten
mortel
morti
mpa
mpade
mucha
nachkommen
naked
namens
ndelse
ndra
ndrar
nederig
nligt
nniskorna
nobili
noir
noticias
nourrir
nsklig
nuage
ombres
omdraaide
omgav
onde
onderzoeken
onthouding
opstaan
orange
ordonne
organ
ose
overal
padua
pallido
particular
partout
pasaje
passagen
passione
penne
pensavo
peor
perce
percorrere
perde
perdida
perfecta
perfetta
permette
pflanzen
pierced
pijnlijke
pil
pilar
pire
planten
plantes
plants
plata
pleinement
plicht
poesie
poetic
poetica
potesse
powerful
pozzo
presenta
probeert
produces
proportion
provo
pulled
querer
rabbia
rchte
reaktion
recevoir
recibir
redding
refuse
regola
remove
ressens
revient
rimasto
risk
rispondere
riuscii
rocas
roue
rueda
ruin
rusten
safe
sanden
sardinien
schlechten
scorre
seger
seguii
send
setzte
shows
sicura
sienne
sixth
sloten
smal
smeken
socrates
solcher
solide
solltest
sons
spanien
spektakel
spiritual
springer
starken
steden
steget
stellt
stete
stie
styr
sudden
suivent
suivez
symbole
tande
tels
termino
terrena
terribile
tete
throughout
tied
tourments
traces
traf
trovai
trying
unterscheiden
unterscheidet
uppfinningsrikedom
uttered
uvres
vale
varie
varor
venido
verbrannt
verdragen
vergeblich
verger
versen
verspreiden
verspreidt
versteht
vertes
verwijderd
verwirrt
victoire
victoria
victory
vittoria
voglia
volant
voluto
vrees
vuoto
wachen
wahl
wann
warte
weiser
wetten
wheel
year
ytan
zodiac
zover
zuchten
##aars
##achtig
##aller
##arte
##arten
##bian
##bij
##boog
##bow
##by
##cee
##cito
##cles
##ctions
##denken
##det
##deva
##dizioni
##dle
##ece
##eek
##eien
##eigt
##engd
##ennt
##erten
##essa
##gada
##gee
##gekommen
##gewezen
##ght
##giato
##gina
##gni
##heen
##ibles
##icare
##icos
##ieben
##ieke
##iff
##ild
##illo
##inen
##ivet
##iving
##izzo
##jden
##juter
##jver
##karna
##kels
##kter
##kwam
##late
##leidet
##lti
##maakt
##mado
##mante
##mber
##mia
##mon
##nche
##ndome
##nger
##nimmt
##nir
##nisse
##oce
##ocles
##oon
##osita
##oti
##pare
##perti
##pf
##ph
##por
##pris
##prochen
##pten
##punt
##raken
##rca
##remo
##sez
##slos
##sy
##tad
##teit
##tere
##tient
##tje
##ube
##ubre
##uce
##uda
##udo
##uis
##uita
##ular
##uria
##ush
##uter
##uts
##var
##vas
##vez
##viendo
##voll
##wenden
##woren
##yer
##zata
##zigen
##zukommen
aangekomen
aantrekkelijk
abbagliato
abbot
abundancia
ada
add
affliction
aggiunse
agneau
agnello
alls
ancienne
angesicht
animali
apennins
apparue
apprecie
appris
aquellas
armi
arrivammo
ascent
attende
attente
augustus
ausgel
ausl
avantage
banken
barbilla
barely
baumes
believing
berall
bieten
blommorna
boek
botschaft
brist
buried
campi
capa
carico
causo
ceci
cercano
changes
chin
christian
claras
co
comando
comforted
compasion
compiere
comprenez
concept
conciencia
conforto
consapevole
conserva
continuando
continued
cortes
costumbre
crowns
cursed
custodia
darle
deber
dedo
deje
delade
descendu
deviennent
dichters
difference
direttamente
dissero
divini
dmjukhet
dolcezza
dormir
dovere
dragon
driven
dromen
druk
dulzura
eager
eclipse
ecoutez
eingesperrt
eis
elegante
elend
ellas
embraced
emotion
encontro
entendis
entiende
erbjuda
erbjuder
erhalb
ernstig
erwartet
estabas
estes
estuvieran
etendit
eternas
etonnement
euno
ewig
excellent
explained
extraordinaire
fasse
feels
ferite
feroz
finished
flash
fleches
fliehen
flyter
followers
fortaleza
forteresse
forze
fraile
frames
friar
fur
fysieke
gang
gebaar
gebleven
gebogen
geboorte
gehad
geneve
gentil
geschmack
gesetzt
gesture
geval
gevallen
gewend
gifts
girar
gladly
glorioso
gner
google
greci
gruppen
guillaume
guillermo
heilen
hermanos
hierro
hittade
hittar
horribles
hubieras
humildad
humilite
humility
igenom
impact
inclino
infinito
informatie
inoltre
inspiriert
intelligens
intensidad
intensita
jaga
jda
jerion
jubel
juwelen
karel
keeps
kent
keys
kin
korta
krona
kurzem
kurzen
langen
lati
leader
lebendig
legt
leidenschaft
lenti
lernen
levendige
lido
lieux
lift
liguria
llaves
lls
lucifero
luminous
magno
malapena
mannes
mantello
mantenere
maudit
melancholie
menor
mentes
menton
meridiano
minds
misura
miteinander
mmar
moeilijke
molta
monstruo
morgend
morgon
mostri
multitude
muoversi
naderde
naturale
negativa
negative
neve
nieve
nn
nniska
norman
normandie
notice
novia
nser
ocasiones
ochtend
oevers
offers
ok
onderwerp
ontdekken
opprime
ordet
ore
ormen
orsakar
ouest
ovejas
overtuigd
overwinnen
panorama
parfaite
partida
passerade
passerar
pasto
peligro
penser
perdono
petits
pheton
physique
piazza
piram
pleurant
plikt
poche
poesia
porti
possano
potrebbero
povero
prayed
preguntar
premieres
problemen
propios
protected
proviene
provoque
puisqu
quita
reasoning
rebellion
reflejo
regione
regla
religieux
reno
repose
reserve
respiro
riepen
rimanere
riuscivo
room
rop
roterar
rotsachtige
rovina
ruhigen
rund
rva
sanft
scelta
scelto
scham
schapen
scheiden
schlechte
schleier
search
seek
seguidores
seguono
sentenza
sereno
serious
sex
shape
skapa
sleutels
sluier
soli
sollst
spear
spel
spoedig
sprachen
statue
stayed
sturm
stuurt
suavemente
subi
subio
submerge
sufrido
sweetness
taak
tegenstelling
tempels
thrown
tiennent
tight
tillbringade
tip
toegestaan
tomas
tone
torments
toro
tort
totale
trabajar
tradimento
trajan
transformed
translate
trees
trekt
tresor
treue
trifft
trogen
ttrade
tumbas
tzte
uitleggen
unieron
unita
utm
vangen
vapeur
venivano
verbazing
verbunden
verdi
verlangt
verliefd
vernietigd
veroordeeld
vertrouwde
veste
vestiti
vieja
villes
vinieron
vint
virgile
vogels
voiles
volgden
voorbestemd
vorst
vuelven
weile
werke
wide
wijzen
win
winds
wollten
worse
worship
zilver
zozeer
zware
##aken
##aking
##almente
##aning
##ario
##atte
##bara
##bes
##camente
##ccato
##cciare
##chlie
##cibe
##cide
##cluded
##col
##crates
##crito
##cupa
##degno
##dero
##dible
##dieron
##domen
##dro
##dus
##ebbe
##eer
##eide
##eil
##eling
##ellen
##encia
##ennen
##enza
##erden
##esa
##fera
##fia
##fica
##fte
##fully
##gden
##geboren
##gegangen
##gekomen
##gido
##giert
##gliata
##ground
##halen
##halten
##here
##ickelt
##ife
##ifs
##ila
##ily
##inata
##inta
##inte
##ischt
##iskt
##issant
##jarse
##jenigen
##js
##keek
##lad
##laient
##lation
##lien
##lor
##lten
##met
##mine
##moedig
##nal
##nation
##nds
##neemt
##nitt
##ntemente
##ntino
##oci
##oi
##ole
##ome
##ona
##onder
##onge
##onia
##oor
##oque
##ora
##osti
##passen
##past
##perto
##rano
##rara
##razione
##remmo
##rgen
##rier
##rist
##rons
##ruzione
##sieren
##siva
##sivo
##sses
##staat
##tava
##tendo
##tina
##tlichen
##trare
##trate
##trekt
##tud
##uee
##uesta
##uft
##uio
##ulte
##una
##unto
##upire
##utare
##vait
##vers
##versa
##vis
##wellen
##xis
##zelf
abierto
abre
absoluto
accoglienza
achtergelaten
adamo
adorned
agile
agit
alberi
allait
allm
altos
altrui
amar
amas
andato
angemessen
animales
animals
animaux
antal
antiguos
anxiete
aparece
apertura
apoyo
approach
approcher
arboles
arbres
arduo
arrogance
arrows
ascender
asombrado
assise
assurer
ast
attrape
aurez
axlarna
ba
badly
befehl
begrip
behalten
behov
beperkt
berge
berhaupt
beruhigt
bescheiden
bestemming
bestraffing
betete
bieden
blanca
blieben
blow
bomen
book
bouger
brandende
brant
breast
brydde
bryter
buitengewone
burn
busca
cabello
cadde
carlos
cease
certamente
cherche
chiamo
chiedo
christen
ckten
clouds
comenzaron
common
compare
compito
compresi
conditions
conozco
consideration
console
conversation
coronas
corone
correctamente
corrio
coscienza
cour
creada
crowd
cruzar
cuori
dageraad
dam
dama
debil
decouvrir
delay
dens
deprived
desgracia
desiderava
detiene
detuvo
devait
dici
dient
dimora
disperse
disposto
distinguish
divenni
division
dold
domandare
dreimal
drempel
dry
eat
eigenschaften
einfach
eingang
embrace
encontramos
encourage
enden
enemies
enemigo
enemigos
ennemi
ennemis
enojado
entrance
entrusted
envio
erden
erfahrung
erleuchtung
eronder
espaldas
espresso
evangelie
evangelio
exakt
exist
exito
fabbro
fadern
faktiskt
fangen
fantasi
fatica
feind
felices
festung
fianchi
finito
fiumi
flich
florentines
flytta
folla
follia
formando
fortress
fossato
fouten
frecce
freudig
freunde
frightened
frutos
fullst
fun
fyller
gedicht
gefahr
gekweld
geleerd
generous
genre
gequ
geruch
gescheurd
geschickt
geschm
geschrieben
gesten
gewoonte
gioco
giorni
giovani
giunse
gjord
gladde
gobernante
gobierna
golpe
gooide
gospel
graben
grandeur
grausam
gritar
gros
gryphon
gsen
guardava
gunst
gustaba
hacerle
hakan
helle
herkennen
hermana
herten
himmlische
himno
hoffe
hoor
hopen
hungry
huvuden
incontro
induce
inferiore
informe
ingang
innerhalb
inno
intensity
intensiver
invano
invite
jordens
jovenes
kasta
keuze
kinn
kleidung
knie
korset
kusten
latin
lehre
lents
leon
leuchtenden
levantar
levantarse
libra
lidit
lig
likes
liknar
lita
ljt
llande
llelse
llevaba
lleve
llte
longing
luck
lyckades
lyda
mage
magen
malicia
malvagi
manifest
materiella
medborgare
mei
mettere
mijl
millier
misere
mixed
mnas
molesta
monstre
mont
mostrar
mostrato
muhammad
nachfolger
naturliga
natuurlijk
ndras
necesita
nemici
nennen
nez
nften
ngade
nning
nnten
noten
nscht
nsynsl
observeer
observerar
obstacles
obtain
offenbarte
offrir
oiseaux
onderbroken
onderworpen
onderzoek
openen
ordeno
oren
originale
oundvikligt
ouvrir
oyeron
oyo
palais
palo
pasion
passande
pastore
pen
pensato
perdio
perdue
period
persino
persiste
pocos
poets
points
possessions
potevano
precioso
prepara
prevent
principal
prochain
producerar
profession
profondi
prudent
puerto
puse
puts
quantite
quelles
questione
rage
rchten
rdigt
rechterhand
recompense
refugio
regne
regrette
relacion
relation
rennen
responder
rettung
richiesta
richte
riddare
riefen
riesci
riflette
rios
riquezas
risposto
riusci
rivers
rivieren
rivolta
rklarar
rksam
rma
roer
royal
rsiktig
rsiktigt
ruler
rvandlade
rygg
sacrificio
samlades
sanno
saro
scattered
scese
schau
schreef
schritten
schwach
schwere
schwester
scoprire
scura
segura
semplice
sends
sentimento
serian
servitore
seuil
severa
sharp
shirt
siede
sincera
sister
sit
skriver
skuggorna
slott
slutat
smell
sneeuw
soglia
soir
solch
solitaire
solitaria
sorella
sostiene
souvenez
spiel
spinto
stairs
stattdessen
stormen
streckte
suche
supuesto
suver
svaret
tantos
tanzen
telse
temo
tempesta
tenant
teneva
terminar
terrore
terst
testaments
thin
threshold
throw
timon
timone
titus
tonnerre
trahison
traicion
travaille
traverser
trennt
treppe
tystnad
udire
umane
umbral
umilta
unterbrochen
upward
usci
uts
uttrycker
vacante
vana
vanliga
vapore
velen
venti
verantwortlich
verbannen
verbindung
verboden
vermogens
veroorzaken
verrast
verrat
vertraut
vertygad
verursachte
vijand
vijanden
vinci
virtuous
vluchtte
volevo
volgelingen
volontiers
vorrei
vorteil
vraagt
vroeger
vuestros
warme
waste
watching
ways
wear
wearing
weep
welcher
wenst
winnen
xer
xt
zahl
zampe
zaten
zeige
zingend
zonsopgang
zus
zwaar
zwak
##abile
##agligt
##aneamente
##ank
##ann
##anos
##anz
##aria
##aste
##ather
##atta
##band
##blement
##ceso
##chung
##cidas
##cimento
##cka
##clamando
##crita
##cting
##cular
##dant
##diction
##ebt
##ecer
##eda
##edde
##eglar
##ehe
##eint
##elo
##ense
##estra
##fd
##forma
##gence
##gerar
##geren
##gezet
##gier
##gnait
##gues
##hin
##hre
##ics
##iers
##ifier
##ight
##iled
##illen
##immen
##inent
##into
##isant
##ishes
##ista
##ition
##ivna
##jor
##keren
##kkelijk
##kliga
##lacion
##lak
##lazione
##licht
##lied
##llas
##lose
##menda
##mmt
##nale
##nsen
##olen
##onte
##oop
##oppen
##osso
##our
##ov
##pel
##pere
##pio
##plorare
##porna
##pping
##rarlo
##reeuw
##ress
##reten
##rige
##rno
##rsa
##ru
##sants
##sci
##sme
##ssion
##stal
##stel
##stijgt
##tand
##tate
##tete
##ther
##tic
##tieve
##tionen
##tle
##toe
##traal
##ttre
##udas
##ulated
##ullen
##unciando
##undo
##unge
##unta
##uono
##urant
##urare
##urer
##urre
##vader
##vaient
##veerd
##vera
##wacht
##xes
##xion
##ye
##zco
##zel
##zocht
aalmoezen
abiti
accepteren
accolto
accroche
acquire
acquis
afdaalt
afdalen
affirme
afflicted
aimais
aktion
allontana
allvarlig
almosen
alti
amici
amoureux
angelique
ansiedad
anxiety
anziana
appreciated
appropriee
argento
aristoteles
armed
asegurese
atado
attentive
augmente
auquel
avbr
ave
avresti
bambini
banks
barmhartigheid
battre
bedriegen
benche
beraubt
berliegenden
berm
berzeugt
beschermd
betrug
beval
bevara
bezittingen
bid
birds
blancs
blinden
boer
borgo
brand
breite
brothers
bu
buch
buigen
buitenste
buscando
cadeau
caina
caldo
cast
causado
celi
cenno
centauro
challenge
chen
ckkehrt
cleopatra
coin
cominciai
commit
comparable
comportamiento
comprensione
comun
conforme
conio
considero
contained
continuar
costretta
count
credendo
criaient
cunning
dagar
damen
danni
dauern
deberias
dechire
dedicated
defendre
dejame
dejaron
demut
deny
depths
dergelijke
desolate
despierta
destinado
destroyed
diamant
diepten
diferencia
discovered
dispara
disposicion
distant
divinos
divins
dmjuka
domenico
donate
donder
dovessi
doveva
draag
drau
duidelijker
duistere
ears
ebro
eder
eenzame
einst
eleccion
elenden
eloigner
elsewhere
emana
embrasser
empty
empuja
endowed
energi
energy
enorm
entfernung
envia
equally
erbe
erd
erfahren
erfarenhet
erhebt
erinnerte
erreichte
escaliers
esce
europe
event
examinez
experienced
exultation
faite
familias
familien
familles
fels
felsens
felsigen
ferais
fiender
fierce
fill
filles
filosofo
fissi
flechas
fliegt
flies
folie
fous
frankrike
frappa
frihet
fuerzas
furia
gebe
gebeurde
gebildet
geburt
gegenteil
gekke
gele
gelegd
geleidelijk
genauso
gener
genhet
gereflecteerd
geschah
geschlagen
gesti
gestopt
gesunden
gevolgd
glanzend
glaubst
glorieuze
goldenen
gonting
gouverne
gradually
greedy
greeted
gren
grens
gridavano
grifone
grow
guerir
guided
guiscardo
gung
hadn
hail
hamnen
handla
hannah
harsh
hector
herde
hielp
hierarchie
hindra
hindrade
hinzuf
hlich
hnliche
hubo
huesos
hunde
hung
ideas
illustrious
illvilja
images
impidio
imprime
impuls
india
indico
indique
informacion
ingresso
insignificante
intenser
intensite
intent
invisible
isn
ispirazione
jamas
jden
jesu
join
juego
kallades
kastar
kende
kissed
klor
knochen
kou
kraften
kreuz
kus
kylan
lacht
lam
lands
langsamen
laster
laugh
lder
ldste
leal
learned
leo
leone
leuten
levenden
libres
lille
linguaggio
ljusen
llegada
llenos
llit
lovade
lskad
lura
machst
malebolges
mancanza
manda
mangiare
mato
melancholy
menti
meriti
michael
miel
milit
minosse
mn
moeite
montrant
mortals
mottagning
movimientos
mpft
ms
naren
naso
ndare
necessita
nederige
nederigheid
neus
ngande
ngivna
niccolo
nige
niveau
notizie
ntan
nubes
numerose
ocean
oceano
offenbart
offrire
oit
omgiven
omv
oneindige
opgelegd
opportunita
oreilles
orsaka
oscuros
osservai
ourselves
ouvre
overwegen
paese
parles
penis
penna
pensare
percepire
perros
piedad
planen
pleins
plenamente
poetas
poetes
poeti
poetique
pointed
population
pote
potei
presta
prier
primeras
privilege
privilegio
proches
profundidades
promised
promises
proprie
quaggiu
quanta
quiera
raad
raakt
raakte
rchtete
rdade
reaching
realiteit
receptie
rechte
regeert
regles
rejoint
renas
reprises
request
resi
resonemang
responsible
retourna
retrouve
reussi
revenge
rflutna
ricevere
ricevuto
richesses
ricorda
ripida
ro
rocks
rodeado
rotta
rtroende
rtsamma
rubicante
saben
sacree
sagradas
saliva
sar
satisfaccion
sauve
schafe
schlamm
schmerzhaft
school
schwelle
schweren
scipion
scirocco
sechs
sembient
senbiante
sentado
sentencia
separo
serre
servir
share
sicheo
sienta
siervo
sighs
significa
sinon
sixieme
skola
skynda
slaat
smaak
sogleich
soldano
sorgente
sorprendas
sorrise
sospiri
soumis
soutenir
sph
sphere
sprida
sprider
ssigt
stackars
stands
starkare
stavano
steile
stellte
steniga
sterut
stervelingen
stieg
stier
stig
stok
stops
straffar
stromen
stufen
stund
subimos
sucedio
suficientemente
suggestion
supporter
suscite
svek
symbool
synden
taille
tampoco
tegghiaio
teile
temere
terugkeer
terza
teste
tez
thank
themes
thunder
tminstone
tombee
tome
tondo
tornato
tornet
tranquilo
tristi
triunfo
tromperie
troostte
troubled
troy
ttare
ttelte
turbato
tvingade
ucciso
uiteindelijk
ulysses
umarmte
umgab
unable
unio
unisce
upplysta
uppst
upwards
usare
usch
utiliser
utl
vagues
vandrade
vederlo
veloci
venger
verbonden
verbrechen
verdedigen
vergav
vergeven
veroorzaakte
verschenen
verschwinden
verspreidde
verstandig
verstecken
vertical
verticale
verwijderen
verz
veulent
vice
vilse
volesse
voortdurend
vorne
voro
waves
wegging
welcomed
werkelijkheid
werkt
zeiten
zes
zesde
zette
zoet
zoetheid
zwarte
##agna
##aid
##akes
##ander
##anken
##arable
##asse
##baarheid
##berg
##bida
##bit
##bita
##brar
##brengt
##cchio
##cera
##cero
##certain
##chas
##chio
##ciation
##ciato
##ciente
##ciera
##cieuse
##ciso
##cited
##cklar
##cole
##come
##cultad
##cura
##curato
##dade
##dados
##dens
##dera
##dica
##digo
##dizione
##dligt
##due
##duto
##eck
##eckt
##ellas
##enis
##erat
##esimo
##eut
##fatto
##fer
##finden
##gegaan
##gehouden
##gesetzt
##gewandt
##ggiante
##gie
##glie
##hren
##huis
##ices
##icher
##idita
##iegen
##ified
##ilja
##ill
##inde
##inderd
##ios
##ipped
##irai
##ism
##itazione
##its
##ivas
##ivit
##ivt
##ized
##izione
##izzare
##kelen
##komma
##ktioner
##larna
##leven
##lgono
##liere
##lin
##lit
##lm
##lon
##lus
##maron
##mble
##mbro
##mens
##miendo
##mige
##mio
##mune
##mutable
##nahm
##nam
##nazione
##nces
##ncias
##nischen
##onen
##orto
##osas
##osto
##ostro
##out
##ouw
##over
##pace
##pero
##pro
##racht
##reken
##rende
##rese
##reven
##rir
##rnas
##ruire
##sade
##sera
##side
##sin
##sons
##stans
##sucht
##tati
##tation
##tegen
##terna
##tigen
##ton
##tua
##ualmente
##uches
##udence
##udio
##uela
##ueuse
##uge
##ugt
##ules
##uli
##ulla
##uosa
##urt
##urus
##used
##utto
##vive
##vlucht
##volta
##volto
##weeg
##ydde
##ying
##yn
##yr
abandonner
abbiano
abend
abito
abrumado
absence
absoluta
absoluut
abstinenz
accepte
accepter
adecuado
affaires
afterwards
agite
agito
akt
albert
alcanzado
algun
alimenta
alimentos
alliance
allvarligt
altrimenti
altrove
alza
andai
andava
anvertraut
anzuschauen
appropriato
aprender
arbeiten
arca
archiano
arrogante
asesinado
aspirations
attendant
attends
aum
autrefois
avance
avis
bacio
bedoel
beesten
befindet
befreien
begannen
begick
begraben
behavior
belang
bem
beneficial
benevolence
benevolencia
benevolenza
bepaalde
bereikte
bereitet
beroemd
beside
besitz
besitzen
bestemd
betere
bewegingen
blek
blixten
blomma
bolgien
bones
bood
bouclier
brabant
brake
brauchen
brechen
breken
brillava
brood
caballeros
cacciaguida
cambiado
cambiare
cantava
capisco
capture
castigados
cattiva
cattivo
cavallo
caza
chacune
charme
chiens
cieco
circular
ckkehr
ckning
claires
claws
coat
cometer
comprende
confronto
conscient
considerado
consolo
conte
contemplate
contiene
contrary
convertirse
correspond
courte
criait
cuarto
cure
daarvoor
daraus
debole
dejando
demenage
deplacer
destine
destro
devoue
dieren
dignite
dijiste
dilemma
dimostrare
divento
domande
douces
dovresti
dreams
dritta
duidelijke
dwaas
dygder
dying
dynastie
dyrbara
early
effet
eindelijk
einfl
elegido
elementen
eltern
emerged
emerveillement
ended
endroits
engagement
enlightenment
enorma
entt
epoca
erst
esamina
escalar
esferas
esilio
esperaba
eternamente
etincelle
evenement
exilio
experte
faced
facts
famiglie
feiten
fellow
feurigen
ffad
forbidden
fosco
foso
fratelli
fru
fuggire
funken
furies
fysiska
garda
gde
gedragen
gegenw
geheilt
gehorchen
gekr
gelezen
geopend
geschlossen
gestes
gewissen
gezond
giant
godly
golf
gottgef
gracht
gradito
gregory
groen
grym
guardian
guards
guider
haaren
habilidad
hafen
hago
hangen
harmoni
harpies
healed
helas
helpt
herab
herkules
hermosas
hielden
hjul
hnlichen
hochm
hoek
honorable
horas
hostile
hot
hours
hoyo
huilend
ida
ihop
illumina
illuminate
iluminado
imaginacion
impenetrable
imperio
impresa
increase
indispensable
individuen
inert
inferieure
inneb
intact
intelligent
intensit
intensiteit
intero
italiano
ivrig
ivriga
izquierdo
jacob
jahr
jenem
jligheten
job
joint
kamrat
karakt
kings
kleid
koningen
kosten
kreises
kreuzes
kring
kyss
labbra
labios
lame
lampo
langzamer
lasse
lauf
ldigad
leeuw
lege
lektion
lentos
letters
leuchtende
levres
libera
lichtern
liever
lips
litet
lof
loop
lsade
lsignelse
luchar
lugnt
managed
manifestation
manna
martelaarschap
martyrdom
martyre
mass
meaning
meerdere
meningen
merken
mien
mince
minnas
mitglieder
moat
mode
morgonen
morse
mostra
motion
moviendose
muovere
nakna
nariz
narna
ndliga
neanche
necesaria
nemico
ngsammare
nheten
nieuw
nnande
nniskans
norte
nose
nschen
numerosi
nuvarande
nyheter
nyligen
obeir
obey
obligado
observa
observado
observando
occasions
occidente
occupe
oeste
offerte
ofrecer
ohren
olas
onderdrukt
ongeluk
osservavo
overwonnen
parfaitement
partire
party
pecheur
peleo
perception
pericolo
permanecer
permanecio
peschiera
piaccia
pierres
pilger
platziert
pleases
poetico
politica
portant
pot
potessi
potra
ppar
precise
preparado
pressa
prevented
privi
problem
producido
profiter
profondeurs
profonds
project
prominente
provai
provoca
purche
pyrrhus
qualen
qualit
querida
quieren
raken
rammarico
rara
razonamiento
rechterkant
reconforte
reconoci
reflechir
reflection
regels
religioso
reluctant
remembered
removed
remplit
rendant
repas
represente
rerna
resplandeciente
resten
restez
revenu
reyes
richtte
ricordati
ride
riesco
rimasi
rligt
rocce
rois
romains
romanos
roms
rotate
rotswand
rter
runs
rykte
salomo
sann
sapiente
saved
scheidt
schnee
schwarzen
scintilla
secoue
seguia
sentier
servizio
sfuggire
shepherd
shield
shut
signes
signo
signs
silber
sinone
sits
skapat
skapats
skickar
skrik
slaan
sluttningen
smala
snow
sodom
solid
sorrowful
sosteniendo
soweit
speed
sste
stijgen
stralend
stunden
stung
stupefait
syster
table
tacere
tage
takt
teaux
tekenen
tenendo
terminado
terrenales
terrestres
tierras
tigt
tillg
tillh
todes
toegewijde
torens
tradition
trampa
tranquille
travailler
tremblement
trionfo
trono
troosten
trueno
trumpet
ttvist
turno
uft
uitgesproken
uppfattning
urlo
using
vagn
valiente
vangelo
vangile
vaso
vechten
velocita
venait
venite
vents
verbeelding
verbrachte
verdwijnt
verheugen
verm
verna
verschijnen
verschijnt
versierd
vertrek
vervinner
vientos
vierten
vilar
vilda
villa
villig
vintern
violento
vishet
visite
vissuto
viste
visuelle
vlar
vliegt
voorkomen
voorwaar
vorbei
vorw
vrije
vullen
waargenomen
wanhoop
wartete
weak
weinend
weint
welk
wellen
welwillende
wende
wiel
xter
zak
zaken
zeilen
zogen
zondaar
zone
zucht
zugang
zugef
zweeg
zweig
zwijgen
##afft
##agade
##alidad
##andeld
##ands
##anger
##anten
##arf
##aring
##arm
##armt
##arsi
##att
##avano
##ay
##bei
##bite
##bon
##bot
##boven
##breken
##bten
##bung
##cable
##cava
##ccata
##cche
##cciata
##cimiento
##city
##cked
##correre
##corse
##cuencia
##cupado
##dda
##dit
##ditie
##drar
##dringen
##druck
##efd
##eifen
##eks
##elde
##ellt
##enta
##ept
##erig
##ermi
##etti
##euchten
##ev
##ew
##fetto
##fido
##geben
##gelen
##geschlagen
##gezogen
##gge
##ghe
##giare
##glar
##gnata
##guendo
##hang
##her
##hip
##hnten
##houdt
##iata
##icato
##icion
##ider
##ieres
##ieuze
##ifico
##igend
##ijden
##ijkt
##ijst
##ijven
##ilado
##ili
##insi
##iosos
##isent
##iser
##itage
##ites
##itta
##jl
##kent
##kled
##kom
##ktionen
##lava
##leden
##lid
##lijken
##ller
##lve
##mage
##mido
##nante
##nava
##ndra
##nellement
##nerna
##nero
##nke
##nkelijk
##nni
##nses
##nso
##ntado
##ntar
##nted
##ntura
##nture
##nuis
##oeiende
##oir
##oking
##okt
##ommt
##oopt
##oper
##ordelen
##posti
##pra
##pri
##pto
##pus
##rain
##rante
##reiche
##rend
##reta
##rime
##rpen
##rts
##rupt
##seguir
##serna
##setzen
##setzt
##setzte
##sfulla
##ship
##sicht
##site
##tch
##tel
##temi
##teur
##tige
##tono
##ttet
##uable
##uera
##ukar
##uncio
##unti
##urait
##urra
##usement
##utet
##uwt
##valle
##valt
##vat
##veille
##vete
##vite
##voudige
##ward
##wicht
##wing
##woord
##yllt
##ysning
##yta
##zados
##zer
##zug
##zugeben
##zusehen
abandonar
abbandonare
abbondante
abido
abrazo
accompany
accorso
achieve
acquacheta
acquasparta
acted
acts
adan
adio
adornado
afferma
affermi
afflitto
agera
agnus
aguglione
aimable
aimerais
alagia
alardo
aldobrandeschi
alessio
aletto
alighieri
allegria
almi
alms
alpe
altavilla
amaba
amato
amomo
ampiezza
anastasio
ancianos
anselmuccio
antandro
anwesend
anwesenheit
aprire
ardentemente
aretusa
argia
argumentos
argus
ark
arles
arnaut
arouse
arrigucci
arrival
artigli
arunte
assolutamente
astri
atamante
attent
augenblick
auriez
ausciano
aussah
autorit
averroe
avgrunden
ayudo
bagnacavallo
bagnoregio
balance
banco
barga
bari
barucci
bassa
beda
bedekken
begehen
begiftigd
beklimmen
belacqua
belief
belisario
belles
beloof
belzebu
benefique
benevolo
berengario
bergamaschi
berger
bernardino
berta
berti
beschermen
besitzt
besluit
bestie
betekenis
betet
betteln
bevel
bevrijden
bewahrt
bewakers
beweis
beweise
bilder
bindi
bismantova
biss
bite
bliva
bok
bolge
bolso
bonatti
bonconte
bonturo
borea
borsiere
branda
branden
brebis
brescia
bresciani
brillando
brindisi
broke
brosse
buggea
buglione
buondelmonte
buondelmonti
burgers
buscar
cacume
cagnano
calcante
calliope
callisto
camaldoli
camina
campaldino
cani
canzone
caorsini
capaneo
capeto
caponsacchi
capraia
caprona
caras
cargo
cariddi
carlino
carpegna
carraresi
casale
casse
cassino
castrocaro
catellini
catona
catria
caught
cavaliere
cecina
cerbero
cercare
certaldo
cervia
ceuta
charlemagne
chevalier
chiavari
chirone
chispa
chlich
cianghella
cicognino
ciego
cimabue
cirra
citoyens
cittadini
ciudadanos
cklig
ckzukehren
cle
clio
coins
colpisce
comienzo
commande
compassione
comprend
concern
conclusione
confia
confini
confusion
considerato
constant
consuelo
contempler
continuare
convinced
convirtieron
corradino
corruption
cos
cosenza
costretti
country
coups
creacion
creating
credevo
creusa
creyendo
cristianos
crossing
croyant
cualidades
cuerdas
cunizza
cuyas
daarboven
dags
dahin
damietta
damm
dampf
dancing
danser
darts
data
davor
deci
decreto
degre
degree
deianira
delo
delse
demeure
demone
descanso
descender
described
descubrir
deseaba
desesperacion
desespoir
desiderare
destinazione
determined
detourne
devenus
devint
dieux
dignes
dignidad
dignita
diletto
dimensione
dimma
discendente
discorsi
disfrutar
dispose
divisee
dogs
doigt
doodde
douai
dovesse
doy
dragged
draw
drehten
drev
duera
dun
durata
durazzo
durchbohrt
durchgang
durfde
duur
dygden
ecce
ecuba
eftertr
egidio
elba
elder
elena
elettra
eli
elia
eliodoro
eminente
empujo
encuentre
enfin
entendue
entiendes
entire
entwickelt
eolo
erben
ergeben
ergebnis
erhielt
eri
erinni
ertoe
esclamai
esfuerzo
estremo
etape
etendue
euripilo
exceso
excess
exhausted
exhorte
explore
expose
extraordinaria
extrema
ezzelino
fabi
fabrizio
falterona
fantolini
farsalo
fatta
feared
federigo
feiern
fermi
feuers
fierte
fieschi
fifanti
figline
filippo
fillide
finding
fiora
fitting
flegetonte
flegra
flock
florins
flykt
flyr
folco
folgten
fortezza
fossati
fotino
fought
fragile
francesca
francesi
franco
fuertes
fuiste
gagner
galeotto
galluzzo
game
ganar
garisenda
garza
gaville
geant
gebaren
gebiet
gebouwd
gecre
gegenseitig
geistern
gelebt
gelernt
gelesen
generosa
genoux
gepast
gerusalemme
gester
gestorben
gestos
gestures
getuige
gewaardeerd
ghino
gielosia
giotto
giulia
glaubens
gnista
goden
goffredo
golven
gorgona
gorgone
governa
governolo
grandeza
gratitude
grav
gridando
gridare
griffolino
gualandi
gualdo
gualterotti
guardias
guardie
guaschi
guasco
guilty
guinizelli
habituellement
hacerme
hagas
handlar
handlungen
hautefort
heal
helst
hern
herstellen
hiding
himmelsk
hinab
honden
hoppet
hostel
hre
huidige
hurry
hustru
hymn
illustere
imbarazzo
imperial
implacable
incline
indica
indusse
initial
inizia
inmiddels
innerlijke
inspiracion
inspiratie
instinkt
intensitet
inter
interest
intraprendere
inviato
inzwischen
iole
ippolito
isere
isidoro
jade
jerusalen
jesucristo
jeu
joue
joyas
juventud
kejsaren
key
kinderna
klooster
knight
konstellation
korrekt
korsa
krallen
kreatur
kurze
kyrkans
ladron
laissant
lambertazzi
lamone
lanfranchi
langsamer
langzame
lano
lapi
lapo
largheza
latini
laurel
ldigade
ldsamma
lebendige
lebendigen
leed
leg
legame
lemno
leran
lesquelles
liberato
liebhaber
liedje
liefen
lieto
lijdt
listos
livio
lizio
ljusstr
load
lob
lobos
loderingo
logudoro
lonely
longa
ltesten
lucio
lucis
luid
luigi
luminose
luscinio
lvilja
macario
madera
maganza
mago
malabossa
malaspina
malizia
manfredi
mangiadore
manifesta
manifested
marcabo
marcello
marcia
mari
mariage
mario
marmor
marsia
martino
mascheroni
materielle
mauro
meal
medk
megera
mehrere
meleagro
melodies
menalippo
merze
minachting
mincio
miracles
misleid
misleiden
mitad
moderne
moesten
monaldi
montefeltro
montemurlo
monviso
moro
moronto
mortelle
mosca
mostrado
mouvements
moverse
mplig
mrs
mucio
muddy
musica
naakt
nace
nackt
naderen
nascere
nascosta
nase
nehme
nemmeno
nerli
niobe
niso
nlig
nocera
noemt
noli
novello
nsen
nspireerd
nstra
nuages
nubi
observant
oderisi
odjuret
olycka
olyckliga
omberto
omfamnade
omtrek
onthoud
opposition
orazi
ordning
orecchie
organen
organo
oriago
orillas
oroa
orvieto
osservi
overwint
paard
pachino
paduans
pais
palladio
pania
papale
pari
parve
paulus
pause
pavese
pecador
pech
pecore
pekade
pendiente
penelope
penetrates
pensant
pentesilea
peoples
pera
permission
persio
peuples
pft
pia
piaceva
pido
piede
pienamente
pietole
pieve
pila
plotselinge
poeten
poetiska
polenta
polimnia
polissena
ponthieu
popoli
poser
pp
praised
pratomagno
precies
preocupacion
pretend
prijs
prisciano
problemas
procedeva
procedi
produceert
progress
proserpina
prostitute
protege
prouver
provato
provenzan
puccio
puissant
puits
puniti
purifie
puro
pushes
qualcos
qualites
qualities
quarto
quintavalle
quinzio
quisiera
rabano
ragionamento
raisons
rana
raphel
rchtet
rdar
rdas
rea
reale
realiser
recherche
reflektierte
refter
regardaient
regenbogen
reglas
reicht
renewed
reposer
ressemblait
restant
reward
rgen
rialto
riccardo
richeza
richter
riconobbi
ridder
rieti
rika
rimini
rings
rinoardo
risorgi
riss
rivolti
rlorar
rmast
rnbilden
robes
roccioso
rogue
romeinen
romualdo
rossa
rouges
rsvara
rtel
rubaconte
rude
rufen
ruht
rum
saken
salieron
salue
salvani
sanleo
santerno
sapia
sassolo
savena
savio
scarmiglione
scevola
scheidde
scherpe
schicchi
schlossen
schwierig
sciancato
scotto
scritto
scudo
seat
selten
semifonte
seneca
senigallia
servicio
sestri
seufzer
sguardi
shouldn
sieges
sigh
sighier
signa
significado
significato
sile
simoenta
sinner
sintio
sipa
sismondi
sizi
skaran
skeln
skriva
slangen
slet
sluiten
slutar
smart
smiling
snelheid
soddisfazione
soigneusement
soratte
sorga
sorprende
soupirs
spa
spark
speciale
specie
spjut
sponda
spreads
stabilito
starka
steam
stolta
stoom
storhet
strekte
streven
stricca
strid
strom
stroomde
stuk
style
successivo
sugli
suitable
summit
superbia
supero
supported
surprise
suspiro
suspiros
swabia
tadino
tafani
tagliacozzo
tagliagola
tagliamento
taide
talamone
tama
tambura
tamiri
tanken
tarquinio
tebaldello
tegelijkertijd
tegenover
telles
tempie
tenminste
tercera
terenzio
tesauro
tignoso
timeo
timmen
tiresia
titone
toestemming
tommaso
toonhoogte
tore
torres
torri
totalement
toucher
tourment
towers
trace
trage
traido
traits
tramontana
trappan
tratando
travel
traversaro
trennte
trespiano
trevigiana
tristan
tronto
tropo
trovava
ttat
tthet
tust
tvekan
typheus
tyv
ubaldini
ubaldino
ubaldo
uberti
uccellatoio
ughi
uguccione
uhi
umarmen
umbra
union
unisono
unseres
unver
unvermeidlich
uppenbart
uticense
valcamonica
valdarno
valde
valdichiana
valpadana
varrone
vasten
vat
veilig
velas
verachten
vercelli
verdienen
verdwijnen
verfolgen
vergewissern
verhogen
verhuisde
verlossing
vernaccia
veronica
verpakt
versammelt
verschwindet
verschwunden
verstehst
verstoken
versuchte
verteidigen
vertrouwt
vervinna
verwacht
verwerven
verwondering
vetta
vicina
vienes
vienne
vierte
vigoroso
villanova
vinto
visibles
voedt
vollkommen
vonk
voorbereid
vreesde
vreugdevol
vreugdevolle
vurig
waarnemen
waffen
wandering
wapens
weinten
wel
wickedness
wirft
wissant
woeste
wollt
woods
yttrade
zabi
zambrasi
zara
zeno
zita
zorgde
zustimmung
##aad
##aard
##ader
##agne
##aire
##ally
##appe
##ativa
##ative
##bilita
##blemente
##boom
##brachte
##bria
##carus
##cati
##cchino
##cciava
##ccoglie
##cence
##centi
##chants
##chap
##chera
##chs
##chter
##chuldig
##chuldigen
##cile
##ciuto
##clude
##ctivo
##culaire
##curata
##cuter
##dado
##daigne
##dano
##detti
##dicare
##dici
##dicion
##diti
##dora
##drag
##drang
##duit
##ecke
##eefd
##elte
##emen
##endose
##enser
##enti
##erente
##eres
##erken
##erre
##esino
##esis
##estigt
##etten
##eus
##ficar
##ficare
##fice
##fies
##fini
##forming
##fus
##geber
##gedacht
##ggetti
##gine
##gitto
##guire
##gungen
##gustin
##hafte
##handel
##hensible
##htening
##iando
##icio
##ieden
##iego
##iek
##igenia
##igia
##ijke
##ijo
##ikte
##iller
##indest
##ionen
##irent
##irse
##itare
##izar
##ize
##ked
##ko
##kor
##lable
##lace
##lats
##legt
##lici
##lico
##lity
##llente
##mann
##mant
##menso
##meren
##messo
##mitted
##mpe
##mpensa
##nados
##ndering
##ndi
##nding
##nel
##nga
##ngs
##nita
##nons
##nungen
##nzado
##ock
##ocked
##oid
##ojo
##okar
##olved
##onken
##oord
##orn
##oste
##otta
##otte
##ou
##ously
##owed
##pant
##pas
##phen
##pitare
##plique
##pose
##posing
##pped
##prese
##proken
##ption
##punkten
##quiere
##ragen
##range
##rats
##raum
##reckt
##reht
##reich
##rian
##rias
##ribili
##richt
##rijke
##riore
##riori
##riormente
##rms
##roepen
##sation
##seerd
##set
##sima
##sions
##skapet
##sma
##spiegelt
##spirando
##spraak
##spunkt
##ssible
##stehen
##steigen
##taan
##tabile
##takt
##tano
##tezza
##tience
##tieren
##tif
##tire
##tiska
##trie
##tum
##uato
##uchs
##uchst
##ucir
##udet
##uels
##uerte
##uffe
##uida
##uik
##uilla
##uja
##uler
##ulos
##umma
##unda
##uous
##upe
##urno
##urri
##ury
##utable
##utato
##utit
##utzt
##vig
##volezza
##vor
##waar
##ximo
##yendo
##yeron
##ysa
##yser
##zan
##zang
##zuhalten
aangeboden
abbandono
abilita
absolument
absolutely
abstinenza
abundant
abundante
accade
accompagnato
accorsi
accueilli
aceptar
achterliet
acquerir
acute
adlers
adquirir
advance
afkomstig
agradables
alegre
ales
aliments
allmosor
allontanarsi
allting
alo
alturas
amata
ampio
ancor
anda
andliga
angezogen
angolo
anhelo
anledningen
annee
ansiehst
antenati
antiche
antichi
antigone
antipurgatory
anziano
apporter
apprendre
arbia
arch
argenti
argomenti
arrache
artig
ascended
astro
atractiva
atrae
attache
attenti
aufgeben
aufgegeben
augustinus
aumento
ausbreitet
ausgedr
austro
aveugles
avond
avvicina
axlar
baard
bach
baile
baje
barbarossa
barbe
bathed
battu
beantworten
beard
beasts
beat
beating
bedauern
bedekte
befann
begeleidt
bernardone
beroep
berqueren
berwinden
beschr
besl
besteht
besten
bestias
betrekking
bevroren
bewaakt
bewaffnet
bewegungen
bezahlt
bijoux
blade
blame
blich
blinda
blonde
bo
bolsena
bonaventura
bout
brabante
brama
bread
breedte
breitete
brennenden
brillants
brillare
brot
bud
budb
caballo
calaruega
calboli
calls
campagnatico
canavese
cantavano
capace
capii
carignano
carved
casalodi
cassero
castelli
castiga
castillos
castles
causato
causing
cavalieri
cecilio
ceprano
chercher
cheval
chiana
chiare
chiarore
chiascio
chor
cirklarna
ckgelassen
ckliche
cks
claim
climene
closely
cloth
clothed
collapsed
compagna
complain
completa
comportamento
comportement
comprension
comunque
confine
considerez
contadino
contemplare
continuing
controle
corno
correctly
corrisponde
coucher
counsel
coupe
courtois
craint
creados
creazione
creen
cristiani
cru
cuantos
cuerda
cumbre
curiazi
daro
dazzling
decrit
deden
deifile
demonen
denkend
denne
densa
dep
depasse
dern
descansar
descendientes
deserto
desierto
destinato
deuren
devais
devoid
devriez
dicevano
dichtst
dicken
diera
dignity
dimman
dioses
dirent
dirty
disent
disperazione
ditches
dito
diventano
dividido
domandai
dommages
donare
doni
donnee
donnera
doors
douves
dovra
drag
dressed
droegen
dug
dung
duwen
dwaling
echange
eed
eenheid
eenmaal
efectos
egale
egendom
ehrw
einklang
eins
ejemplos
elementi
elementos
ellende
encuentran
enseigne
entends
entz
epouse
equilibrio
erb
eredi
erer
eritone
erstaunen
escondido
esempi
esercito
esperan
essayer
establecido
establecio
estrecho
eurialo
evidence
examples
exces
excuse
exemples
existerar
explicar
exploits
extremo
facesse
facing
facolta
famosa
feltre
fermes
festen
field
fiera
figuras
fil
finsternis
fisica
flee
floh
focus
folo
forget
formano
fosses
fraud
frozen
frukten
ft
ftigt
gabe
gaddo
gained
galet
galigai
gana
gardien
gardingo
gebadet
gebaut
gebeurtenis
gebruikte
gedanke
gefixeerd
gegooid
geheim
gehoorzaam
gehoorzamen
gelegenheid
gelegt
geliefden
gelijke
generando
generated
genti
geopenbaard
geproduceerd
geraakt
gesloten
gevoed
geweldig
gewidmet
gezet
ghibelline
ghisolabella
gioielli
giudice
giungere
giurato
glowing
gna
goddelijk
godk
gradvis
grandezza
gravarna
grimpe
grimper
guardato
guelphs
haast
haastte
haat
habrias
hagel
halcon
handle
hath
headed
healthy
henden
herbes
herder
herrschaft
hervor
hid
hierbas
hiervan
hinzugef
hoeveelheid
hoja
honn
horse
hud
hueste
humaines
hunden
hungrig
huyo
identical
identificeren
iemands
igualmente
ilerda
ill
impegno
impermeable
impide
improvvisamente
increible
indice
individ
infelice
inferieur
infinita
inflige
influenza
informationen
informations
informative
informed
inser
inspirerade
instruments
intendo
intensiva
intentie
interdit
interes
intresse
invisibles
iride
ismene
israel
jeruzalem
jette
jeugd
jongeman
juden
jugend
jurk
justinian
juwel
kade
kar
kastelen
kenntnis
klagar
klinge
kloster
koninklijke
koos
korruption
korsf
krachtig
kwaliteiten
kwestie
ladrones
lama
landen
landes
langia
laps
laurier
lde
ledare
leeg
lenta
lezen
lis
ljeslagare
lk
lker
lode
lojal
loudly
loups
lu
luisterend
lume
lupo
luzifer
lyft
maaltijd
mainardi
major
maravillosa
maravilloso
marca
marchant
martyr
martyrium
masa
massimo
materiales
mauer
measure
mechancete
medelijden
medlemmarna
meilleur
meisje
merites
merveilleuse
merveilleux
middelen
militaire
mitgef
mmert
mois
monteriggioni
morada
morgens
mostrara
motsvarar
mynt
nasconde
nasidio
nch
ndande
nderte
ndning
neiging
nerf
neu
neues
nglich
nglig
niemandem
noemen
noodzaak
nourrit
nskligt
nsyn
nuance
numerous
nuovamente
nus
offri
ogenomtr
omfamna
onrecht
onthouden
oorspronkelijke
opstond
orbisaglia
ordered
orm
ormanni
orsakat
orte
orten
osanna
ostiense
otillr
oye
padrone
painted
palido
pane
pannan
paradisets
parar
parezca
parlez
patto
pegasea
percevoir
percibir
perdere
perfectamente
perfection
personer
peticion
pettinaio
pfeilen
physischen
piacque
piave
piccoli
pieces
pieni
pinamonte
pirro
plage
pluma
poderoso
podrian
portava
potresti
poured
prendi
preserve
pressade
prijzen
printemps
probeer
procedendo
procedevano
produire
profumo
progressivement
promis
prononce
pronunciare
provocato
prudents
purpose
qualcun
quienquiera
quizas
raising
raisonnement
rassemble
ravignani
razones
reactie
reasons
recently
rechter
rechtvaardig
recien
recompensa
reduce
reflekterade
reg
regardai
regeren
regering
regieren
reihe
reizen
relatie
relative
religiosa
remordimiento
rencontrer
rendi
repentir
reprimande
resan
resonne
responsabile
response
ressemblaient
restare
reus
reveler
revienne
rfen
ricca
ricerca
ricomincio
rid
riesce
riferire
riflessa
righeter
rimorso
rire
rklaring
rlichen
rlorad
rocoso
rodeaba
rodret
roepen
romani
rosen
rste
rsten
rtar
rtsamt
ru
ruggieri
rummet
ruotare
ruse
ruthless
rutsatt
rzt
sabello
sacerdote
sails
saknar
sakta
salendo
samlas
samman
sanctions
sbagliato
schepping
scherp
schlacht
schlag
schurk
schwieg
scintille
sehnsucht
self
semblant
sembrano
sennaar
sepa
serchio
serpents
serpientes
seuls
sfere
sicht
sick
siecles
sieg
sinistro
sint
size
skilja
skrattar
skydda
skyldig
smalle
smarrito
soeverein
sofferto
soffio
soldaten
sollevo
songs
soplo
sopportare
sorrow
sottostante
souffre
sparks
spend
splendida
spot
sterker
steun
stiegen
stningen
straft
stronger
stuur
styrkan
subiendo
sufficient
suggere
suivit
superato
suscita
svarta
synlig
tacco
tarpea
tats
taught
tela
templos
tende
tenebre
tg
threatening
tilde
tillade
tillk
tma
tocar
toekomstige
topino
toppo
touched
transforma
trembler
trente
tries
trieste
triomf
tristemente
tropfen
troupeau
trovi
trunk
tuono
tuttora
tydligare
tysta
uguale
uiten
uitleg
uitstraalt
umst
underneath
unge
unhappy
unite
uppfatta
uppfyllas
uppgift
uppl
upplyste
urbino
urlare
utica
vado
vaincu
vaio
vaknade
vakterna
vapen
varelsen
varios
varma
vasto
veas
venia
ventaja
verantwoordelijk
verdiensten
verens
vergeben
vergeet
vergezeld
verhindert
verhuisden
verkliga
verlichtte
verliebt
verneigte
veroordeelde
veroordeelden
verrucchio
verschwenden
vertrekken
verward
verzoek
verzweiflung
videro
viendra
vinculo
vinger
visuele
viven
vivid
vivida
vloog
vluchten
voleur
voorbeelden
voort
vorhanden
vs
vuela
vunnit
waardigheid
wagon
walks
wege
welwillendheid
wensen
weren
werfen
wichtig
woke
wolven
wolves
working
xa
zachtjes
zama
zanjas
zingt
zittern
zodiaco
zongen
##acity
##aco
##aglig
##ami
##andet
##aran
##arfen
##ates
##aufen
##av
##biendo
##bod
##bonden
##bor
##brado
##canza
##cchia
##cedido
##celle
##cendo
##censo
##cessarily
##changed
##chia
##chuldige
##ciar
##cifico
##cir
##cit
##cker
##claim
##con
##corde
##corsi
##crivere
##culte
##cute
##danig
##data
##derar
##dini
##drez
##durch
##edt
##eglas
##ehrte
##eisen
##eiten
##eme
##erare
##erige
##esca
##essen
##esso
##etto
##etzen
##eurs
##evi
##fezione
##forms
##geeft
##gegeben
##genden
##genza
##gera
##gesloten
##gg
##ggen
##ggeri
##gheid
##giata
##givande
##gkeit
##gles
##gliato
##greifen
##gua
##habited
##honderd
##hood
##hte
##hy
##iale
##iate
##ication
##icious
##idung
##iechen
##iede
##iento
##iest
##iete
##ieven
##iffen
##ija
##ilo
##imi
##immer
##inger
##iniert
##iono
##ippe
##irbt
##irra
##isci
##isme
##ius
##ivement
##izzato
##jando
##jeron
##kanten
##kas
##kelijke
##kenbaar
##kenen
##kingen
##ktad
##ktar
##lagar
##lamo
##lende
##lent
##lga
##liques
##lito
##lke
##llan
##llelse
##lling
##llos
##lsen
##maakte
##mee
##mensa
##minare
##mmarna
##mpt
##nahme
##naje
##nande
##ncio
##ncy
##ndig
##ndro
##nee
##nere
##nfa
##nged
##ngt
##nische
##nnata
##nor
##nterna
##nui
##oces
##och
##ocken
##oeiend
##offer
##oien
##oked
##olt
##orden
##orpen
##osite
##osos
##ouder
##ouwen
##oze
##pan
##peau
##pels
##perta
##pet
##pete
##pida
##pido
##pira
##posizione
##poten
##ppa
##pressa
##presso
##pts
##puesto
##raaid
##rains
##raron
##rates
##rdi
##rdia
##redig
##riage
##rice
##riez
##rium
##rnacht
##rni
##rouw
##rrido
##sais
##sano
##slagen
##ssement
##ssus
##tag
##tains
##tande
##tee
##tenido
##tenza
##teren
##terte
##teurs
##tiche
##tiendo
##tning
##tog
##trar
##trat
##trera
##tur
##uant
##uar
##uario
##uata
##uben
##ucie
##udre
##uelve
##uid
##uldigd
##ulieren
##ull
##ullo
##umi
##ummer
##unced
##undet
##unse
##uppen
##uset
##uzione
##verd
##vern
##viene
##vious
##visar
##vons
##voque
##wendet
##werk
##ycker
##yckt
##zag
##zionale
##ziosa
##zorgd
##zos
##zung
aardbeving
abbi
abel
abh
abraham
absolutamente
accompagna
acone
acre
across
adapte
adore
ados
affermando
afgeleid
afirma
afirmo
afterward
agatones
aldobrandi
alegremente
alivio
allows
alpen
alpes
alstublieft
altas
amica
amiclate
amorosa
ananias
anassagoras
angeliques
angenommen
angio
angiolello
ankunft
annanstans
antaeus
antalet
antigua
antiguas
antipurgatorio
aosta
apennines
appreciate
ara
arga
argumentation
arrivera
artighet
artimon
asche
ascoltato
asiento
asopus
aspettare
assieme
assoluta
assume
astrale
attendait
attityd
audaz
aufl
aufzusteigen
auktoritet
aulide
auserw
ausgesprochen
autentica
averlo
avgrund
avvicinai
avvicinarsi
baan
bajando
baksidan
bapt
bde
beccheria
bedecken
bedrar
bedrog
beefde
beelden
befahl
befinner
behagar
behoefte
beleefdheid
beleidigt
bend
bepaald
bereich
bertraf
berwindet
bescheidenen
bestaat
bestimmten
besuchen
betekent
betrayal
bett
bevindt
bied
bisanti
bisogna
bloody
bodde
bold
bordo
bother
brachten
braucht
breaking
breaks
brinner
brud
bruges
bugade
buono
burden
byta
cadmos
cain
camminando
camminavo
canciones
cappelletti
caron
carries
carrying
celebrate
certaine
changing
chaos
chere
ches
chiarezza
chiave
chiedi
china
chispas
chretiens
cht
circondato
circonferenza
clouded
coderon
colchis
colour
commanded
commitment
comparison
completed
comprendi
condamnation
condannato
condemnation
confession
confiar
connaissez
conocia
consent
consigo
construit
consume
contenuto
continuamente
controllo
convaincu
convencido
convento
conviction
convinzione
cordes
corretto
corriente
corse
costoro
couches
couru
creencia
crimes
critures
cuerno
cupido
curiosidad
dansa
dared
darf
darrade
decirle
decirme
decise
decouvert
dedans
dego
delicate
demandant
demora
descendiente
descendio
descendit
description
despair
desperate
destinata
devoti
dicha
dichten
diedi
dimostro
dinos
diogenes
diomedes
dioscorides
direcciones
dirmi
distinct
distinguer
dividida
divisa
djupare
dmjuk
dmjukt
doble
doctrina
dolda
donau
donnant
donnent
doorboord
dotato
dottrina
douloureuse
dovrebbero
downstairs
droefheid
droog
drottning
dte
duft
dwong
earthquake
eccesso
ecrire
education
efecto
effects
effets
effondre
ehren
eifrig
einsamen
elegant
elemente
elever
emu
ends
eng
england
ensure
entdeckt
entendi
entendit
entere
entfernen
entfernte
enthusiasm
entusiasm
eras
erfgenamen
erlangt
erlauben
erlebt
err
esau
esconde
escrituras
espa
especie
espectaculo
esperta
espiritual
essersi
estende
estremita
eteint
etincelles
etna
etranger
eunoe
euripides
evangeliet
evangelium
eve
evenements
events
ewiges
existieren
explanation
expresa
expressing
extends
facciamo
failed
farai
fardeau
fasten
faveur
fedelta
feinde
fermarsi
feroces
fertig
ffat
fideles
fielen
finde
firmemente
florentijnen
florentinos
flug
flyttat
fonction
forcee
forgive
forman
formar
frambringar
framg
framsteg
franciscan
french
freundliche
frik
fritt
froh
frukta
fruktade
ftar
fuggi
fulgore
gange
garantie
gebeurtenissen
geduldig
geduwd
geestelijke
geholpen
generation
genomborrade
gentille
gentilmente
gently
gentucca
gerecht
gered
geroepen
gespr
gesteld
gestuurd
gewapend
gewinnen
giace
gigkeit
gigli
giordano
giornata
giuochi
glar
gleder
golpeada
gouvernail
gouverner
grain
grausame
greek
grifo
groeien
grootte
grosse
gru
gualdrada
gubbio
gudomligt
guidare
guiscard
habrian
hades
halvklotet
harp
haughty
hauteurs
hauts
heading
heet
heights
heiliger
heirs
hemels
herederos
herinnerde
heritiers
herkend
hermitage
hesitant
hette
hig
homo
hoorn
horizontal
hoss
humiliation
hypothese
ide
identify
ignorance
illuminates
iluminados
immaginazione
immagini
immerse
impitoyable
including
incontrato
indignacion
indruk
inexorable
inflicted
influencias
informazioni
ingannare
iniziale
injustement
insatiable
intellektet
intera
interieure
interna
interprete
inutile
invitation
invloeden
iris
irritation
isifile
isott
italian
jagade
jakob
jaloers
jews
joden
joins
jordb
joshua
josue
joyeusement
juba
judios
juez
juifs
juweel
kalten
kamer
kante
kenmerken
kennt
kindern
klap
klarg
klonk
knees
krachten
kreaturen
krijg
kronan
lagar
lagt
lamenta
largeur
lasciava
lateran
lealtad
leaning
learcus
leefden
leeftijd
leerde
leere
legno
lelies
lesen
lesser
lettres
levai
levantado
liebte
lilien
lilies
limiti
limits
limousin
linje
lirios
ljare
ljd
ljusstyrka
llave
llenas
llevando
lograr
lojalitet
lombardia
loss
lova
lovar
lucha
lvilliga
mach
madness
magnificencia
magnificenza
magnifika
majestic
makten
malebronches
malo
malvados
mange
manieres
manifiesta
marchions
margaret
marzucco
materiale
materiali
mechants
mededogen
medel
mediterraneo
medusa
menace
mensaje
mention
messaggio
messe
midas
migliori
milan
mild
miran
miraron
mittel
modena
modern
modet
mogen
montague
morale
mostrava
moto
motor
mpfe
muda
muovevano
murmure
museau
muso
mutig
mysteries
nacimiento
nadenkt
nadert
names
naples
nascita
naturligtvis
navarrese
neighbor
nektar
nfte
ngiven
ngrade
ngtar
nieder
nigreiches
nilo
nniskors
noe
nombres
nomi
noms
normalmente
normandia
notas
novaras
novo
nten
nutrimento
nzte
obedecer
objetivo
observez
offenen
offensichtlich
offerto
ofrece
ofrecio
omhelsde
omst
ondergedompeld
onderwerpen
ongelukkige
ontmoet
ontstaan
operare
oprechte
ordenes
orne
osservo
oudere
ouders
pagan
palace
palacio
paladin
palats
palermo
palestrina
pallas
palm
papier
pardonne
pare
parlarmi
particolare
passeren
pastores
pelerin
pelgrim
penetrated
penses
peregrino
perfectly
perfettamente
permitido
pertanto
piange
piangeva
pieux
pikes
pisa
piume
pleegde
pleurait
pnade
poignee
pointe
polyclete
pongas
portaient
portait
portugal
posee
posesiones
potete
potrai
ppet
preferable
prenda
presenter
presi
principle
prise
prision
probar
produjo
profetie
profit
promets
proof
property
propias
proprieta
proteger
protegido
provare
provenza
prudenza
pueblos
puedan
pula
purifica
purified
push
quassu
quieras
quieto
quito
rahab
raices
raise
raseri
rbar
rdhet
rebuke
recemment
reconocer
redenen
redenering
reeds
reflechi
reflecteren
reflejada
reflektieren
regalos
regio
regna
regnb
regole
religione
reparieren
report
repos
resist
respire
responsabilita
rests
retire
reunieron
revelado
revelo
reverence
richiamo
riflettere
rifletti
rimanga
rinner
riprese
rivolge
rliche
rneka
rnuftet
robert
robusto
rodano
rodillas
roja
romena
rompe
ron
ror
ros
rotation
rote
rsvunnit
rsynen
rtig
rtr
rudder
ruina
rumore
runden
sages
saggia
sail
salmo
salomon
salt
saludo
saluto
samlade
samuel
sardonapalo
saresti
satire
scenes
schaffen
schat
schenkt
scheur
schreeuwend
scintillante
scoprirai
scriptures
scritture
sculpture
scylla
sechsten
seduta
seguaci
seguido
sembri
sensacion
sentais
separado
separer
servo
seville
sforzo
sicheus
sicilia
sientes
sighing
similaire
simonides
sir
skala
skickade
skinande
skriker
skydd
skyndade
slaagde
sleutel
slim
sloot
smicker
snakes
soggetto
sogni
soil
sokrates
solia
solve
sorgsna
sosta
soudainement
souhaite
souri
souriant
soutien
speise
spelen
spero
spettacolo
spirituale
spraken
stadera
stained
staio
stal
stamm
stat
stavamo
stazius
stege
stelt
straalde
strenge
stretti
stuck
stuurde
sube
succes
successivamente
sujeto
sultan
sunlight
surely
surpasse
surse
suyo
svag
svani
svarar
swear
symbolen
tagen
tana
tear
temia
templo
tenaient
tendria
terres
terribles
territorio
theban
throne
tieni
tilltalande
tint
tips
tira
tisbe
tobias
toegevoegd
toestaat
togs
toloma
toorn
tor
torto
totally
toulouse
tragische
traidor
traite
trasformo
trat
traveled
trillen
troja
trost
trouvent
trouvez
trusted
ttarna
ttas
ttnad
tts
tvinga
tvingades
twenty
twisted
tycks
uccise
uitdrukken
umen
umfang
unghie
unh
unido
unknown
unpleasant
unteren
unterschied
unterworfen
uppleva
uppmanade
urania
utpl
utsidan
vackert
vague
vande
varus
vayas
vederla
vens
verblind
verboten
verdammter
verdeelde
verglichen
verkrijgen
verliert
verlies
verliest
vern
verontwaardiging
veroordeling
versammelten
versch
verslagen
verspillen
verteidigung
vertrieben
verwachting
verzweifelt
vicenda
vigore
vingt
visionen
vital
vitesse
vivent
vivido
vleierij
voeding
voegden
vonden
vonken
vooruitgang
vorrebbe
voudrais
voulons
voyons
vreemd
vues
vul
waait
wache
wachtte
wagens
wahnsinn
wanhopig
warmte
wax
weapons
weggenomen
weigeren
welzijn
wenigen
wider
wijn
winde
winden
wirkung
wonderen
wunsches
wurzeln
youth
zeigten
zerrissen
zonlicht
zoppo
zuf
zuk
zweigen
##aaien
##aalt
##ador
##ago
##aker
##aling
##amento
##ammelt
##andling
##andlung
##andten
##anke
##antie
##aps
##aries
##arnas
##auen
##bation
##bbing
##bet
##bieron
##bieten
##bil
##bilite
##bing
##bituel
##blo
##bond
##brengen
##brochen
##bute
##buted
##cacion
##cciones
##cciono
##ccorse
##ced
##cendio
##ceva
##chie
##chlossen
##ciai
##ciano
##ciata
##ciende
##cies
##cieuses
##cine
##cionar
##ckeln
##ckor
##corpion
##cqui
##crete
##cri
##critto
##crive
##cteerd
##ctes
##ctie
##cties
##cultades
##cultura
##dante
##degna
##delijke
##dencia
##dente
##dheid
##dibile
##dicate
##dien
##dola
##durre
##eche
##ecio
##eds
##egio
##elare
##elles
##eloos
##elten
##ena
##ender
##ennent
##erenze
##erire
##ett
##ettet
##eue
##ezzo
##faite
##falls
##fatte
##feccion
##felijk
##ferencia
##ferma
##ffre
##firo
##fizieren
##fle
##fre
##gano
##gata
##gene
##gente
##gers
##geschrieben
##getaucht
##gevallen
##ggiando
##gil
##gliere
##gnare
##graben
##grado
##grond
##grund
##gst
##halt
##heiten
##hundert
##ial
##icando
##icar
##idades
##ielt
##iendose
##iep
##ierde
##iesen
##ieuse
##igare
##igata
##iges
##ijt
##iles
##ilmente
##imenti
##imiento
##indert
##inee
##iness
##ingade
##inna
##ippa
##irement
##isca
##ischer
##ischio
##issance
##issez
##issing
##itung
##izado
##jet
##jour
##juk
##juta
##kat
##kehrt
##keln
##kennen
##kerna
##ket
##kommst
##komsten
##laag
##laar
##lai
##lati
##lben
##lekt
##lera
##lerera
##lgo
##liato
##lice
##lida
##lini
##llar
##llieren
##lossen
##lyse
##made
##mals
##mano
##matige
##meter
##mica
##min
##mise
##mite
##mmeln
##mord
##nacion
##nali
##nano
##nction
##ndido
##neming
##nera
##ngere
##ngst
##ningarna
##nnato
##ntine
##occo
##ogs
##ohlen
##oie
##oms
##ondo
##oond
##ops
##orata
##orte
##ossen
##osta
##ots
##pado
##pato
##phe
##pil
##pir
##pirant
##pit
##plico
##pore
##porto
##prach
##prime
##ptie
##py
##quent
##quia
##rabile
##rables
##rage
##rahlen
##rati
##rava
##rbe
##rcia
##rda
##reichen
##remos
##rete
##riera
##rin
##roeg
##rri
##ruito
##rummet
##rure
##rva
##sava
##schlie
##seau
##seite
##servo
##sia
##ske
##sp
##ssa
##ssait
##sst
##stante
##stato
##stelling
##stocht
##stra
##sw
##tat
##tavo
##tend
##tenu
##tevi
##tial
##tid
##tiere
##tische
##titudine
##tivos
##tocht
##treten
##trof
##ttiva
##tuto
##uada
##ubrio
##uchter
##udine
##ueel
##uell
##uero
##ugie
##ugte
##uhen
##uia
##uiera
##uilli
##uise
##uiten
##ulacion
##ulations
##ultivated
##uma
##ummen
##unce
##unciar
##unds
##urar
##urro
##usly
##utte
##uven
##vento
##venuta
##verk
##verted
##vet
##vida
##vil
##vin
##voerd
##vres
##waalde
##wachte
##waken
##walen
##wart
##wege
##werfen
##yait
##yance
##yck
##yfta
##zaron
##zato
##zeichnet
##zetten
##zie
##ziet
##zige
##zij
##zijn
##zoeken
##zoso
##zzano
##zzate
aanbidden
aanbieden
aangetrokken
aankwam
abad
abate
abbatte
abbe
abgeschnitten
abrir
abstieg
accaduto
accettare
achte
achtste
acquired
acquisito
actes
actua
adas
adir
admired
affaire
afrika
aggiungere
agissait
aigu
aimant
aiment
alabanza
allah
allee
allontanati
allontanato
ambrosia
amoroso
amphiaraus
andarono
andas
andata
andatura
annehmen
annoying
anschlie
ansehen
anser
antun
anyway
anzahl
apart
aperta
appelait
appetit
appointed
approchait
arcos
arcs
arnia
arose
arten
ascenderen
ascesa
ascolti
aside
aspetta
aspettando
asseoir
astonishment
astucia
astuzia
asuntos
atormenta
attack
attira
attraper
augmenter
augustine
aumenta
ausreichend
ausstrahlt
avancer
avantages
avicenna
avvicinava
avviker
awaits
axel
baiser
bana
baptism
baptiste
bart
battesimo
bauer
bautismo
beantwoorden
becoming
bedeutet
bediende
beenden
beet
befand
befleckt
befria
behagen
behandelt
bekymmer
believes
belohnt
beloning
benaco
benessere
beobachte
bergers
berlegen
bern
beroofd
beschaamd
beschlossen
beschreven
beschrieben
besefte
besloot
besloten
bestimmte
betaald
beundran
beute
bewahren
bewondering
bewunderung
bezitten
bienaventuranza
bienestar
bilancia
bitteren
blancas
bologne
bonden
boodschap
brak
breekt
bremse
brisa
brutal
brutale
cadeaux
cadiz
caido
cambiando
cambiato
caminos
camminavamo
cancellato
candore
cantaba
captured
cari
caronte
causer
cayendo
ceinture
centaurs
centuries
chaud
cheat
chevaliers
chiara
christenen
christians
chtlich
cielare
cils
circonference
circumference
circunferencia
cire
claimed
clin
coeur
commettere
competence
compie
complexe
condena
condenacion
condusse
confuse
conosco
conseille
consideracion
consideres
constante
contemplar
contingent
contrairement
coraje
corda
corne
corresponde
corrupt
coupable
coutume
covers
crack
creati
creduto
croient
crowned
cumplido
curiosity
dansade
dansar
dapprima
daring
darte
ddade
debba
defensa
delivered
demanda
departure
desagradable
desaparecido
descente
despertar
despised
dessutom
detourner
detruit
detuvieron
deviendra
dief
dieselbe
diffonde
digas
dignified
diminue
directe
directly
directo
diretto
diriges
dirigida
discesa
discursos
disdain
disprezzo
dissipated
dissipe
diventata
diversamente
divinite
djen
dlig
dock
dolente
dolt
donatus
doorgaan
dote
douleurs
draws
drop
duquel
duramente
eating
eccellenza
eerbied
eerbiedwaardige
eerlijk
eeuwen
eigenes
eighth
eingeh
either
elevato
eliminera
ellendig
endured
enferme
engels
entendant
entendimiento
entero
entourent
entres
equivocado
erased
erduldet
ereignis
erhoben
erkenntnis
erneuert
erwartung
erzengel
esaminare
escribir
esiste
espece
essens
esser
estilo
eurem
evangelist
exactamente
exactement
exactly
excelencia
expect
expectation
explicacion
explication
extraordin
extrem
fahren
falen
fallet
familiar
familjer
farebbe
fascinated
fattig
faucon
felici
female
fetonte
fiende
fier
fills
filthy
fingen
fiorentini
fissare
fissure
flaming
flammande
flattery
flehte
flits
flog
focused
footsteps
forment
fortuin
framtiden
franziskus
frein
freudigen
frisons
frondas
fuite
fureur
fylld
gather
gebruikelijk
gedreven
geeignet
gegensatz
gegner
gegraven
gehabt
geheel
geholfen
gehorsam
gelaten
gelitten
generosidad
generosita
genitori
gerechte
gereinigt
gerufen
geschilderd
geschwindigkeit
gesetze
gewinnt
gewist
ggar
ggarna
gigantes
giganti
giriga
giunti
glass
glatt
glorieuse
godere
golpes
grano
graziano
greatness
grecs
gregorio
griegos
grieved
gritaba
gritaron
grop
gropen
gudfruktiga
habeis
habitacion
hablarme
hablas
halve
handel
hava
heben
heerscharen
helm
herauskam
herbs
herders
himlavalvet
hing
hinten
hjulen
hling
hug
huitieme
humanas
humbles
hundar
hunt
husband
identique
illuminata
iluminada
immersed
importancia
impostor
impronta
incarico
index
individuals
individui
infeliz
injustamente
inklusive
inmediato
innata
inquiete
insignificant
instante
insufficient
inteligente
intelligences
intentions
invited
invocando
irriterande
italiener
jenes
jeunesse
joyeux
judith
jungfrau
kallt
keert
kiefer
kloof
knights
komst
konsten
konstn
kontrolle
kontrollera
koud
krafter
kraftfull
kreten
kretsar
kronor
kruiden
kta
kullen
kuss
kwelt
lait
lamentos
lant
lasciando
latter
lazy
lden
ldsamt
lealta
lebe
leccion
leegte
legato
lente
lesson
lets
leugens
lezione
liberare
liberi
lichtstrahl
lid
linjen
livres
lkommen
lld
llevaban
lligen
loben
locos
lontana
lontananza
louange
loue
loyaal
lter
ltigen
lupi
lurad
lyckas
lyckligt
maagd
mad
maladie
malditas
maledetto
malvagie
mamma
manifesteert
manifesto
mantuve
marido
marins
marito
marked
married
mata
maten
matrimonio
medf
medlemmar
meedogenloze
meeres
meilen
mejores
mene
mensajero
meravigliosa
meritos
merits
mezcla
miembro
miglia
millas
minska
misdaad
misero
mmen
mochte
modest
modi
modos
momentos
moneda
montes
monti
mordio
mordu
mossi
mosso
mostrarle
muestras
mueven
munnar
nacque
nakomelingen
ndete
ndige
ndighet
necessaria
neds
neglected
neigt
ngig
ngliga
ngningar
njutning
nliga
notado
notare
notato
nourishment
nudi
nudo
nutre
nuttig
nze
obbedire
observation
occhiata
oculto
offerta
offesa
omstandigheden
onderscheid
ontmoetten
ontrouw
ontstoken
opgewonden
ordino
organe
organes
organs
orgulloso
orient
ostacolo
outrage
overtroffen
ovunque
pains
paleis
paren
parfum
partenza
pasiphae
passie
passieren
pastoral
pastori
patriarch
pedi
peggiore
pellegrino
pendio
pennine
pentimento
perduto
permanecido
personal
pesa
pesta
peste
pfeile
ph
pidiendo
pidio
piege
pierde
plaatste
placeres
plaisirs
plateau
platone
play
podamos
poem
poeme
posibilidad
positive
possede
possess
possibilite
poursuivre
preciosa
precision
preda
preoccupazione
preoccupazioni
preocupaciones
previamente
preziosa
principale
problema
proceeding
produceren
profundos
promesas
promesses
prophetie
prosegui
pursue
quante
quels
queremos
questioni
quite
rafra
raktade
rango
rapportera
rasande
rdelar
rder
reba
recientemente
recommande
reddish
redete
redondo
reduit
reed
rega
regionen
regresen
rejouir
rekening
relazione
religie
remos
repair
repareren
repondis
reputacion
reputatie
reputazione
rested
revenez
reverencia
rgert
rhythm
rhythmus
ricchezze
ricco
richtete
ricordi
ridders
rijke
rimasta
riposa
rit
ritengo
ritme
ritorna
ritornare
ritrovai
riuscire
rives
rivieres
rjer
rksamma
rmt
rning
robo
roep
roman
romulus
royale
rpern
rslag
rstammar
rsvar
rtrodde
ruilhandel
ruled
rusade
rushed
ruta
rvandla
rvandlas
sabor
sack
saison
sake
salia
salterello
salto
sana
sannerligen
sano
scena
scendendo
schaue
schaust
scheitern
schickt
schlafen
schlangen
schmeichelei
schnauze
schrieb
schutz
scoperto
scritta
seca
secoli
security
sede
segnale
segni
seins
selvaggio
sensible
separata
separato
septieme
serena
serment
served
seventh
severamente
sexto
shepherds
sidorna
siglos
siguieron
sii
silencieuse
singt
sinnena
sken
skyddade
slapen
snabba
socrate
soffia
sohnes
solida
solitamente
sollievo
solos
solstr
somliga
sopraffatto
sospiro
sostanza
sostener
sottile
soudaine
souhait
soulagement
sounded
sources
southern
spiegato
spiegazione
spirituelle
sporen
sprich
stab
steh
steigen
sterns
stigit
stimmt
stopping
storlek
strafen
strak
straordinaria
straw
streben
stretch
stretta
strike
stupirti
substanz
suceder
sucht
suck
suicide
suivis
summer
superare
surmonte
suscitare
sustancia
suya
svart
syfte
tacque
taureau
taurus
taverne
tegenstanders
tells
tempio
tenne
terigen
termina
terreni
thief
tigung
tjock
tolto
tonh
topp
tornerai
toscan
touw
traditore
traitor
tranquillement
transparent
trascorso
tratar
trattenere
treasure
tricks
troppa
trotzdem
trou
trouvee
trouwe
trugen
ttert
ttonde
tuvieron
tuyo
twice
tze
uccelli
ufern
uiterlijke
uitgeput
umdrehte
umh
uppeh
urged
ursprunget
usciva
utrymme
ux
vacant
vaknar
varen
varg
vaters
vaya
veda
vedova
vedra
velocidad
vemos
venaient
vennero
verachtelijk
verachtung
veranderden
verano
verantwortung
verbijsterd
verdediging
vereis
vergebung
vergehen
vergezellen
vergossen
verklaring
verla
verletzt
vermoeidheid
verrader
verschillend
versteckten
vertraute
vertrouw
verurteilung
verwandeln
verzamelden
verzamelen
verzette
vesti
vieler
vieren
vigile
vil
viniendo
violenta
visiva
viss
viuda
vlarna
vocht
void
volete
voleurs
voltee
volviendo
volviendose
voorzien
vorausgesetzt
vorgehen
vorschlag
vreest
vrezen
waage
waanzin
waaraan
waarover
wachs
waldes
wedding
weduwe
weggenommen
wein
welches
wept
wine
wonen
worked
woud
wrath
xte
zevende
ziekte
zodanige
zuflucht
##aaide
##aardig
##aben
##aca
##achsen
##acidad
##aciones
##acite
##adora
##ague
##aler
##ali
##alita
##alle
##amp
##anar
##anas
##andlar
##annt
##appen
##arden
##ardo
##ards
##arla
##armd
##armi
##artige
##ases
##ath
##attre
##aue
##aved
##avel
##aving
##aze
##barkeit
##barrasse
##benen
##bert
##biert
##bility
##binden
##blaadjes
##bled
##blie
##brach
##caba
##cante
##carono
##celado
##cende
##change
##chere
##chst
##ciable
##ciando
##ciava
##cibio
##cknet
##clara
##cognizable
##cony
##cribe
##crite
##cteur
##ctos
##cuta
##dador
##dal
##ddel
##denen
##denza
##dette
##dida
##diga
##dige
##dole
##dolo
##drade
##dran
##dreven
##duizend
##echi
##echt
##edigt
##eding
##eeld
##effen
##egeld
##egte
##eibe
##eiden
##eign
##eiht
##eille
##eka
##eker
##elar
##emo
##enant
##enhet
##enido
##eran
##erico
##eros
##erra
##eses
##esperadamente
##eutend
##ews
##fahren
##fait
##ferna
##ffa
##fiant
##ficando
##ficato
##fik
##fino
##fique
##firmation
##fo
##fortable
##frontation
##gara
##gedaan
##geh
##gekeerd
##gelassen
##gelaten
##gelijke
##gem
##gemaakt
##gens
##gerade
##geteilt
##gez
##ggono
##ghero
##gieron
##giska
##gore
##grade
##gressions
##gs
##gusto
##haften
##hielden
##houd
##hout
##huld
##iable
##iamos
##ibility
##icano
##ichi
##ichten
##icklighet
##idelity
##idio
##iedad
##iegare
##iens
##ienza
##ierta
##iffs
##iforme
##igione
##ijving
##ilar
##illiga
##imale
##iment
##inas
##ince
##ingungen
##inidad
##inken
##iose
##irrade
##isa
##isee
##iso
##issa
##issable
##issaient
##itime
##itt
##ived
##ively
##ivos
##ject
##jg
##juder
##juka
##kamen
##kelijk
##kig
##kind
##kna
##ktig
##landse
##lange
##lated
##lavos
##leben
##leept
##lem
##leno
##lenti
##lere
##lf
##liseerd
##litus
##lken
##llare
##llement
##loten
##lv
##lvere
##matig
##mava
##mbe
##mde
##mede
##melo
##mere
##mete
##mettere
##mfen
##mico
##mila
##mina
##miner
##mmung
##modiga
##mpelde
##mphe
##mst
##mus
##nages
##naio
##naire
##ndade
##nderlijke
##ndoci
##ndria
##ndt
##nement
##neo
##nete
##ngden
##nire
##nsi
##ntare
##oca
##odi
##oed
##oeit
##oire
##ojada
##oke
##old
##ologie
##omed
##oning
##oofd
##ooi
##ookt
##ores
##orm
##ormt
##osamente
##osch
##oses
##ouille
##ousness
##pade
##pados
##pande
##pasado
##passt
##pelen
##pher
##phie
##pine
##pire
##plaatste
##polazione
##position
##prechen
##prendre
##prension
##preso
##pressed
##prise
##pta
##ptes
##qua
##rable
##rak
##rarna
##raved
##rden
##rdial
##rees
##reis
##reiten
##resion
##reute
##ric
##rica
##rich
##rief
##rifie
##rijft
##rimento
##ringar
##ritt
##rnato
##rness
##rtet
##sage
##sando
##sat
##scher
##scht
##sciuta
##see
##sible
##siness
##sliga
##slose
##sna
##ssed
##ssimi
##ssing
##ssons
##staan
##stad
##stare
##stiska
##stle
##suade
##sura
##table
##tals
##tanz
##teht
##tenuto
##tero
##tifs
##tir
##tirse
##titi
##tiv
##tory
##tragen
##trale
##trated
##treden
##treffen
##truzione
##ttar
##ttava
##tted
##ttura
##tuiging
##tung
##tzte
##uary
##uci
##uck
##udente
##ueva
##ugnen
##uien
##uine
##uished
##uist
##ujo
##ukommen
##uldigen
##umes
##umo
##unate
##unes
##uola
##upes
##upid
##urende
##uri
##urred
##usione
##ustre
##utes
##utna
##utzen
##utzte
##uv
##uvliga
##uvre
##uya
##uyen
##vada
##vamente
##vata
##verai
##verno
##vertimento
##vient
##villigt
##vine
##vinna
##vinto
##visning
##vliga
##vning
##volge
##volmente
##vraagd
##waald
##wahre
##wand
##wanzig
##waren
##wassen
##wegen
##werden
##wintig
##worfen
##ycke
##ycket
##yra
##yrka
##zare
##zati
##zeer
##zeugen
##ziale
##zionato
##zone
##zul
##zzando
aankomst
aardige
abandona
abandono
abbandonata
abierta
absalom
absolue
accadere
acceder
acceptera
accompanies
accorder
accueil
accueillir
acercamos
achteren
actuelle
addition
admiracion
adversaires
aegina
aeneid
affanno
afgesneden
afligido
agisce
agitation
aguda
ahead
aimee
akkoord
alce
alegres
aleja
alejo
alert
ammirazione
ancestor
anch
andate
andavano
andes
angstaanjagende
anillo
anillos
ank
ankam
anne
anneaux
anselm
ansvarig
antiques
apeninos
apennijnen
approcha
aquiles
arbeta
arbetet
arbusto
arde
argini
arius
arthur
artiga
artist
artiste
asalto
aspetti
asse
assigned
assistance
assured
atentamente
atmosfeer
atrevi
attacked
atti
attract
attraversare
attriste
audacieux
aufgenommen
aufgrund
aufstehen
aufsteigen
auront
ausma
aussieht
avanzando
avenged
avf
avides
avro
avversari
backwards
balans
bande
banner
banque
barons
barter
based
beata
bedenkt
beeinflusst
beendet
befriedigt
begleiten
begroette
behagliga
behaupten
belo
benedetta
beneficios
beordrade
berichten
berwunden
bescherming
beschloss
beseffen
besittning
beskriver
bestrafung
bete
beteende
betrokken
bevarar
bevat
bevolen
bevond
beweerde
beweert
biadas
bianche
bienveillant
bietet
bilda
blancos
blatt
bleka
blesseds
blixtar
blodet
blue
blutes
bocas
boiling
bolonia
boodschapper
borsten
bota
boten
brandt
brann
bravo
breeze
brillaban
brillent
bringe
bris
brute
bte
bunden
burgen
buurman
byggde
caderas
caduta
cagnazzo
caida
calistus
camarada
camarade
caminaba
camine
cammina
candelabri
cantante
capaces
caractere
castigos
catch
cautela
cayeron
cendres
chandeliers
chasm
cherubim
chiesto
chinato
choisis
chretien
chtige
chute
ciegos
circondano
circumstances
ciriatto
ckhalten
cktes
ckw
clinged
college
colocados
colpita
comete
comparaison
compi
completar
comprendrez
compromiso
comrade
comte
conceda
conde
condiciones
condotta
conduct
conducta
conduits
confio
conmovio
connaissait
connue
consacre
considering
consigli
constantine
consumed
contemplation
contener
contenido
contenu
continuez
convoitise
coperto
corner
correctement
correndo
cosce
cosmos
cost
costas
costo
coupee
courir
coutez
couvre
crear
creda
credono
crescere
creuse
crimen
crocifisso
crucified
cuarta
cubiertos
cuestion
cuisses
culpable
custodisco
cyrus
daedalus
dale
damnation
deberian
decidio
deference
dejes
delvis
demselben
densidad
densita
densite
density
denso
depend
desagreable
desaparece
descansa
descending
desgracias
desideroso
desnudos
desperat
desprecio
destello
destinee
destruccion
destruido
detaljer
detalles
determinar
determination
devaient
devotamente
devote
devout
devraient
dichterbij
dichtheid
dieb
difesa
differenti
differenza
diga
dijen
diken
dimostra
dimostrato
dinastia
discuss
disgusto
diskutera
disposed
distinction
distinguere
distinguir
distracted
distrait
diventando
divines
diviso
dlichen
dligas
doelen
doft
dolores
dolorosamente
domen
dominio
donato
donnerai
doordringt
doorheen
dop
dovrai
dovrei
dragit
drang
drarna
drove
dubitare
durchdringt
durft
duwt
echoue
eclairant
ecriai
effecten
effetto
effraye
egypte
ehe
eher
eigentum
einfachen
einigen
einstellung
elevata
eleves
eloignes
emane
embarrassment
emblem
emise
empf
emprisonne
enast
encuentro
enfermedad
enflamme
enfuit
enkelt
enkla
entend
entgegengesetzten
entierement
epaisse
ephemeral
ephemeres
epuise
erdbeben
ereignisse
ergens
erger
erlaubte
erleichterung
erleiden
erleuchtete
ermee
errores
erweisen
erzeugen
esattamente
escalon
escalones
escena
escondida
escondio
escribio
escucharme
esfuerzos
espadas
espagne
espejos
esperto
estacion
esten
estremamente
estuvo
eternellement
eternite
etiopia
etroit
ettore
eurent
exception
experimentado
experto
explica
fairy
falcon
falcone
fallit
farsi
fascine
fastst
fasziniert
fatiga
favorable
fed
felswand
fenomeno
fermarono
festa
feste
ffnung
fidelidad
fidelite
figliolo
fijamente
finalement
fleurit
flew
florentijnse
florentins
flowed
flujo
forgiveness
formare
formas
formes
formo
fortes
fortunate
fotsp
frailes
framst
frappee
frati
frederic
frederik
fresh
freute
friars
friedens
frig
frode
fromm
frondes
fronds
fury
fylla
gaia
ganchos
gast
geants
geantwortet
geb
gebaseerd
geblendet
gebruikelijke
geglaubt
gehandelt
gelo
geloften
gelopen
gemma
generates
genereert
generosite
generosity
generoso
geniet
gerione
geschenken
geschnitzt
gesneden
gesungen
gewelddadige
giacomo
giants
gioie
gioiosa
giri
girl
giuda
giuramento
giva
gjorda
glanzende
glaucus
gleda
globus
goldene
gooien
gota
governare
graaf
grade
gradevole
graine
gravi
gregge
gridava
grieta
groeit
grootheid
guardar
gudarna
guidato
gunstige
gutem
habiendo
habille
hablaban
hanches
hautes
hav
heerschappij
heette
heftig
heil
heimat
hemispheres
heresies
herhaaldelijk
hers
hert
heupen
hieruit
hindernis
hinterlassen
hips
hnheit
hocico
hoeven
hoher
hole
holofernes
homer
honorius
hoods
hooks
hosts
hte
huge
huir
huset
hut
identifiera
ige
ijzer
illuminating
ilumino
imposed
incapable
incertidumbre
incertitude
incite
inclination
incroyable
indispensabile
indus
influsso
inganni
inicial
iniziarono
inlindad
innere
innocenti
inocentes
insegna
inspireerde
insvept
intelligente
intensiven
interiore
interrompu
intervention
inutiles
irradia
issue
istinto
ivrigt
jahrhunderte
januari
joies
jongen
jouer
joys
jt
juramento
kameraad
kehrten
keinem
klagos
klammerte
klamrade
klarer
kleider
klim
klopt
konstantin
koor
kostbaar
kostbarer
kreisen
kreta
kunstenaar
kvarner
kwaadaardigheid
kwaliteit
lading
laisses
lande
landschaft
lasciai
latinus
lbefinnande
ldsam
leaf
leale
leddes
lee
leef
leggera
lehren
leib
leichter
lejon
lens
lessi
lettere
leugenaar
levez
levi
levo
lfe
lfte
liar
liberer
liefdevolle
lieta
ligera
lik
limiet
ljande
llegara
llevan
llora
loca
lodi
logic
logro
loire
louanges
lourd
lovs
loyalty
loyaute
lsa
ltst
lugnade
luminosi
lutade
lvt
maagden
maccabeus
maestros
maggiori
magie
majestueuze
malheurs
maligna
malvagita
mando
manquer
mantengo
mantovano
mantovanus
marchais
matteo
matters
matthias
medios
melden
melodin
melse
mental
menteur
mentir
meprise
messager
messenger
messi
metall
metta
mile
militante
minister
minner
minskar
mirarme
misfortune
misfortunes
misst
mnet
modeste
modesto
moindre
moises
moneta
morgengrauen
morii
mossa
mostraron
mouths
movements
movimenti
moyens
mozes
munk
murar
muslos
muto
nachrichten
nagels
nah
nails
nascondere
nasute
nations
naturel
nazareth
neapel
nearest
necessaires
neptune
nergens
ngelset
ngern
ngsam
ngslad
nid
niemanden
nigs
nil
nkta
nnern
nns
nobility
nobilta
noblesse
nobleza
noemde
nonne
noorden
normaal
normal
north
nozze
nsad
nsade
ntat
nummer
nvloed
nycklarna
nzen
oath
oavsett
obscurci
observaba
obtained
occasioni
odjur
odore
offering
oidos
okay
oltraggio
olycklig
omaggio
omarmen
onlangs
onrechtvaardig
ontdekt
onzekerheid
opgesloten
opgevoed
ophief
oppressed
opvolger
organi
organos
ormar
orto
osa
oskyldiga
otherwise
ouverture
overcomes
ovest
parcouru
pardon
parent
pareti
paro
particuliere
pasando
passant
passt
pastorale
pauselijke
penetro
penitenti
penitents
pensait
percepito
perdon
permanecieron
permettere
persons
perte
pesado
pesanti
petites
pfung
piano
pico
piedras
pitiful
plaatst
plans
pleasures
pnad
pocas
podrias
political
ponga
popa
poppa
possessed
possibility
potente
potro
pourtant
powers
ppen
pratique
preciso
prestige
princes
prinzip
probleme
procedevamo
product
profecia
profeta
profezia
projekt
promesso
pronon
prononcer
prophecy
prophet
prosterne
prostituierte
proteccion
protetto
proteus
proveniente
punishments
punitions
punti
purete
pureza
purezza
purse
pygmalion
qualite
quality
quant
quedaron
quietly
quiso
race
racines
radici
rappelle
raptor
rational
rberedde
rbereder
rblivit
rdare
rdsl
reaches
recompenses
reference
refined
refletait
refuser
regions
regretter
regular
reigns
reinheit
reinigen
reisen
relativa
religieus
relser
remi
remords
rendono
reparer
repeatedly
repentina
repond
resiste
reslog
resonated
responde
responsabilidad
responsabilite
ressentir
restee
resti
retenir
retta
returning
reuzen
rev
revelation
reviens
revoir
rhundraden
ricchi
riconoscere
ricos
riempie
rifiuto
rigido
rikedomar
riktad
rimasero
ringar
risiede
risponde
riuscito
rivelato
rmer
robuste
rocheuse
romarna
romper
rompio
roots
ropar
rope
rran
rsiktighet
rtvivlan
rubicon
ruil
rundran
runter
ruscello
rvandlar
sabellius
sabiamente
sabine
sal
saladin
salen
salvar
sanhedrin
saprai
savent
scent
schelen
schen
schiavonia
schlimmer
schmerzhafte
schrecken
schung
schweigend
schwierigen
sciolta
sconfitta
scuro
secreto
seduisante
seduto
segeln
seguiva
seguramente
semblables
semele
semiramide
semplicemente
separates
serons
servants
serviteurs
setzt
seufzen
sewicht
shet
siegel
sienten
silvio
similares
sirene
sirviente
sitz
sixtus
sjunde
skatt
skeppet
skild
skill
skillnad
skrattade
smutsiga
snuit
solches
sommo
sonen
sonnenlicht
sorprendio
sorridendo
sortait
sortez
sostegno
sostenere
sostuvo
souhaitez
souvient
sova
sovrasta
sowieso
spade
spagna
spain
spanje
sparta
spaventato
species
sphinx
spiegeln
spike
spinsero
splendenti
spoor
sposo
spur
spuren
stabilire
stagione
stank
starend
starke
steilen
stemma
stemming
sterft
stes
steunen
stevige
stigen
stof
stones
strange
strettamente
strijdwagen
strikes
strings
strinse
structure
styra
successeur
successor
successore
sucesor
sufrio
suggested
supplica
surround
svor
synligt
synon
szene
taufe
tebe
tegenhouden
tement
temer
temeva
temperament
tempi
tenacia
tenderar
terent
terughoudend
tesg
thebald
thighs
thirty
tider
tiembla
tiempos
tiende
tieres
tigris
tillflykt
tillm
tirer
titre
titt
tolerate
tombeau
tombs
tormenti
tournent
tournerent
trafen
tragica
tranquillo
transformee
trapped
trasformato
trattiene
treinta
trembled
trembling
treuer
tristano
triumf
troad
troc
troia
troie
trojaner
trojans
tromba
trovammo
trovano
trueque
trusts
tsas
tth
ttrar
ttvis
ttvisan
tung
tuscan
tusentals
tvivlade
tvivlar
twijfelde
tydlig
uitgedrukt
uitgelegd
uitgevoerd
uitmuntendheid
uitstrekt
uitzicht
umili
unas
uncertainty
uncini
underl
unen
ungewissheit
unida
unidos
unis
unit
uniti
unlike
unterschiedlichen
uppfattar
uppriktighet
uppskattade
uppstigning
urbanus
uren
utforska
utilisant
vaardigheid
vallgraven
vandrar
varar
vargar
vari
variable
variation
variations
vdes
vedete
vediamo
vedono
veia
veiled
vencido
veracht
verachtet
verborg
verbreiten
verdict
verdreht
vergine
vergiven
verkregen
verlasse
verlegenheit
vermoeide
vernietiging
verranno
versa
vertueux
verwendet
verworven
verzacht
vicine
vidas
vieil
vierge
viktigt
vilade
villain
vince
vindar
ving
visit
vissen
vistazo
vitale
vlighet
voegen
voient
voldoening
volvera
volverse
voordelen
voortgebracht
voragine
vorstellungskraft
votos
vows
vueltas
vuelva
vult
waardeert
wachsen
wagte
wahrnehmung
wandelen
wanhopige
wapen
warmed
warmth
wecken
weegschaal
weerstaan
wegnahm
wegnam
weite
wekken
wem
wenige
werelden
wimpern
wishes
wisst
wohlwollende
woonde
woont
wore
wortels
wundern
wurdest
xerxes
younger
yttersta
zachte
zegeningen
zeigst
zijne
zonen
zufriedenheit
zwaarden
zwang
zweck
##!
##'
##,
##.
##?
##q
