start_of_sequence_id
end_of_segment_id
padding_id
mask_id
!
'
,
.
?
a
b
c
d
e
f
g
h
i
j
k
l
m
n
o
p
q
r
s
t
u
v
w
x
y
z
de
la
que
the
##s
und
in
die
en
to
and
me
le
il
et
el
der
of
un
se
ich
che
that
si
qui
##e
zu
les
you
du
so
no
es
sie
je
er
con
des
tu
di
he
mi
da
los
ne
was
den
##n
est
una
it
pas
##r
nicht
das
lo
del
por
non
von
as
with
mit
une
is
su
qu
dans
te
como
ist
my
ce
las
##a
al
wie
pour
an
his
who
for
sich
on
ai
auf
dem
avec
wenn
als
not
ma
para
from
##t
##o
comme
mich
##i
vous
dass
plus
##en
per
if
war
mas
##es
nous
ein
##te
son
lui
be
will
par
mir
##d
au
him
come
by
ou
this
your
eine
all
tre
have
um
had
elle
they
io
##re
sur
which
but
##nt
mon
mais
ha
one
are
esta
ils
##to
when
wird
yo
at
aus
wir
etait
aber
##ing
hat
cuando
her
moi
we
tan
##do
mes
pero
what
era
sa
##ta
bien
cosi
them
were
sein
quand
porque
sus
oh
seine
then
ihn
said
piu
ti
cette
dit
hatte
has
ihr
##l
meine
uns
their
there
re
##er
einen
denn
autre
like
##da
or
ihm
beatrice
man
im
would
asi
entre
ete
##no
other
noch
tanto
##z
avait
dich
ses
ni
ber
because
werden
tout
##ed
vers
sin
##ly
nach
suis
hacia
##mente
##ra
sind
can
more
do
us
habia
grande
##se
cielo
##ndo
point
##ti
##le
see
este
gro
perche
those
wurde
mein
sono
am
sont
einem
aqui
vi
##ment
gli
diese
durch
fait
sah
mehr
mio
here
where
habe
dir
ont
alle
dann
##lo
kann
anderen
sagte
donde
quando
dijo
ella
autres
mis
solo
parce
##ne
entonces
ces
uno
oder
god
dios
leur
now
##ia
up
zur
dieu
alla
love
vor
punto
alors
celui
della
nos
maestro
fue
hier
she
##va
estaba
ya
einer
haben
how
waren
todo
loro
before
hasta
ahora
modo
questo
saw
divine
gr
ihre
liebe
car
out
cui
suo
gran
sans
##ba
ici
its
terre
##me
##ro
don
great
mia
##it
##mos
ser
deux
ci
than
encore
wo
amor
dio
##la
rde
sua
much
antes
##ce
##is
amour
ciel
##us
tres
cada
into
sobre
quel
ese
poco
##as
down
weg
dos
mientras
otro
sch
way
tal
tes
tous
also
ohne
ton
virgilio
##de
tierra
jamais
bin
monde
peut
sehen
ihnen
without
yeux
##st
fu
andere
todos
dieser
our
such
toi
nel
eyes
dire
##y
maintenant
seinen
hast
avant
faire
sprach
light
gott
still
away
vu
know
##on
been
luz
dal
zum
augen
good
bis
ver
go
auch
himmel
quien
wer
place
ren
weil
words
quella
poi
apres
palabras
puis
sol
vision
despues
time
ojos
jetzt
ainsi
lumiere
etaient
immer
avoir
nunca
jusqu
long
lugar
sera
deine
##ble
could
votre
about
came
ceux
disse
make
puede
erde
made
sehr
after
dei
mundo
turned
##ge
euch
ogni
heaven
mal
even
first
earth
##m
did
##ait
##nte
never
bist
ora
parte
these
##tion
alli
esa
unter
dove
two
sei
meinen
prima
souls
##cion
hrend
nur
want
every
estas
licht
almas
os
##ung
pourquoi
##so
altro
ellos
vez
##ent
cause
chi
mai
seelen
##in
otra
ho
nie
allora
##io
aux
people
desde
gl
luego
diesem
voir
fa
alma
seele
##ten
esprit
soleil
soul
tiempo
air
notre
st
##na
dell
only
pendant
welt
look
li
aussi
cio
keine
cela
quelle
seiner
world
avais
camino
face
ta
##ant
werde
nella
quello
lei
##si
divina
sagen
ancora
hace
menschen
any
jeder
essere
esto
etais
peu
fut
manera
sia
soit
##ar
##za
deja
nature
damit
leben
worte
amore
##an
nosotros
alto
diesen
seinem
verso
##f
paroles
leurs
sun
alles
sea
wirst
beaucoup
bolgia
say
eux
back
hecho
homme
toute
tutto
cosa
desire
well
##os
##ur
ob
##ca
##das
tell
wei
went
while
each
temps
ve
##g
ging
moment
terra
mucho
dalla
donne
otros
va
virgil
femme
gef
grand
vom
another
mismo
vie
##que
dentro
##u
pronto
sonne
haut
konnte
meister
saint
hizo
sido
comment
mente
rte
##ient
christ
ck
tutti
##h
noi
others
senza
through
deseo
take
todas
why
##co
woman
many
poiche
zeit
nachdem
questa
does
##mo
quanto
visto
##vo
chose
regarde
##che
dis
frau
viel
hay
momento
toda
dont
hacer
hombre
little
tte
##li
eso
ihren
soon
gehen
indem
toujours
gegen
give
tr
just
vida
vidi
##ie
##ri
looked
seemed
toutes
get
kam
sous
teacher
fui
fois
##ado
##ns
quale
tenia
##den
around
mujer
tun
siempre
etwas
mirada
sorte
wurden
tiene
veux
bene
elles
parole
tua
warum
zwischen
gente
meinem
tra
##sa
desir
right
rt
think
tus
##mi
gibt
padre
altra
fosse
let
ur
already
between
didn
life
too
bas
due
may
wieder
##cia
hrt
left
visage
began
name
venus
altri
gut
same
tant
##les
br
ort
##al
##ni
##sse
lado
ll
very
##lich
cual
estan
occhi
todavia
##dos
han
nada
regard
aun
blick
dije
force
nnen
pr
selbst
parler
tuo
##ste
##vano
##ve
dieses
llt
seite
holy
##nce
corps
himself
justice
tale
dort
personne
##ure
aveva
ben
eines
fin
corazon
guide
nen
rien
side
##ci
##ire
deinen
fuera
quelqu
under
##zione
commence
monte
sue
virgile
both
heart
lieu
##ng
##tes
hand
heard
molto
schnell
nombre
serait
donc
dopo
freude
chaque
peur
trop
attention
dein
bei
muy
being
celle
meiner
mind
##ty
high
voix
##ai
parecia
anime
beiden
lle
part
put
vista
voi
##c
##rse
##ue
demas
weise
bevor
brillante
lie
nichts
since
cristo
decir
estoy
mondo
possible
took
until
##ch
##ma
autour
bajo
luce
nor
aquel
nom
zwei
##w
anche
devant
gottes
macht
myself
viele
alrededor
denen
hai
##ion
eau
sino
sulla
always
gab
gel
noble
sondern
direction
gens
##are
arr
beautiful
delle
demasiado
donna
speak
triste
##ness
aucun
hablar
person
sage
should
sommes
chemin
fatto
gesicht
peux
seria
tambien
tandis
volonte
voluntad
##aient
aunque
cabeza
cuenta
cuerpo
different
must
trois
anima
body
cet
hell
understand
unsere
##go
##ido
##ria
##ting
antwortete
contre
gia
misma
nde
pain
puo
three
agua
colui
gesehen
oben
pense
sp
water
eres
heiligen
menos
sguardo
aller
far
gave
kommen
##ux
afin
everyone
moins
mort
soy
tempo
wissen
##ir
##ite
##rsi
##ter
affection
angst
joie
mann
reden
rio
things
causa
hatten
kannst
montagne
porte
situation
voz
chacun
contra
fils
gaze
stimme
ter
told
##ada
##ons
cosas
day
fear
gen
loin
nuestra
sara
##k
##ts
anything
dia
head
infatti
maria
santo
wegen
weit
##ron
among
arrive
human
kommt
river
wandte
##ato
choses
evil
otras
seen
sole
suoi
against
alguien
avons
dar
hijo
ihrer
master
pere
siehst
traves
veces
##di
art
fing
flamme
ihrem
miedo
moved
ningun
tourne
whom
##el
##rent
##rs
dall
dolor
intense
miei
mountain
sweet
willen
avez
infierno
sollte
voice
##los
drei
ersten
hubiera
joy
nuestro
nun
parle
schien
again
damned
erano
estos
jemand
stand
uomo
wasser
##gen
##heit
##rono
image
quiero
worden
##ut
ad
algo
blessed
father
gesagt
kopf
quelque
san
##p
enfer
estaban
fl
geben
gingen
persona
santa
telle
ttliche
wenig
##ful
##lle
##tto
demande
fare
keinen
mira
sang
sarebbe
##chen
aucune
kein
laquelle
naturaleza
##ga
cannot
cuore
senti
thou
behind
bon
cerca
mentre
question
tienes
wind
##res
ait
alta
canto
dulce
verstand
vertu
wollte
##ert
arriba
desiderio
keep
new
nnte
ttlichen
##lichen
raison
schon
stato
##ban
##rn
avaient
full
hren
land
mano
own
semblait
verdad
##cht
##llo
##use
born
ch
doesn
douleur
espiritu
fr
front
heilige
monta
sempre
some
vita
vue
##ig
##ura
ask
cara
eran
ge
grave
guido
maniere
most
namen
natur
nell
return
##ine
along
ed
fece
kraft
men
spirit
virtue
##dad
##ls
##x
abajo
boden
derriere
end
premier
saying
something
virtud
##gt
##ras
##rte
dark
geist
glauben
observe
parece
puedes
reason
respondio
seul
sotto
travers
weiter
##be
##nza
##ry
##tte
alas
asked
delante
eu
fire
guia
herz
jour
makes
nden
tellement
thought
wunsch
##cio
##ren
durante
ever
fuerza
grandes
machen
punkt
troppo
vis
wanted
aime
aire
else
eternal
gnade
rapido
repondit
sen
sure
##lt
ero
geh
largo
longer
podia
show
sohn
##ando
##zza
detras
fe
haber
kamen
path
vater
##ate
##nos
creo
erf
everything
pena
podria
someone
vois
##rt
essa
feu
last
mejor
mer
obwohl
parmi
pies
puedo
questi
reste
sky
##kt
##vi
alegria
believe
bonne
guten
ninguna
quell
source
##est
##igen
##rio
##ted
darum
fuego
fueron
razon
together
##ais
altre
answered
immediately
turn
vedere
##ino
##mmo
deiner
esas
gute
nadie
puisse
sicher
tugend
better
ckt
fact
fais
glich
help
lange
paso
present
quickly
##b
##ben
##ze
able
allen
chte
gracia
hinter
jesus
partie
rapidamente
semble
tengo
truth
usted
geht
gemacht
grace
kind
less
lt
luft
personas
ssen
##rai
egli
ende
find
forma
hope
interieur
lehrer
sola
tag
therefore
trouve
verite
##liche
bitte
estar
fast
fondo
found
rose
unten
wahrheit
##ies
##ive
##ner
become
divino
enga
ground
hanno
machte
proprio
rispose
stesso
angel
deep
juste
old
over
rostro
times
viene
##nes
##rlo
appena
aurait
col
lassen
luogo
muerte
sobald
tener
via
vos
##ja
##pe
bl
creature
erste
form
madre
mayor
pieds
poder
sul
toward
veut
##des
##ida
cercle
death
degli
dissi
eterna
feel
gracias
jede
nahm
noche
saber
sag
suelo
ufer
##able
##zo
cke
dante
dessen
endroit
engel
entendu
felt
itself
looking
position
premiere
queste
seulement
similar
sois
yet
##der
##ita
##lla
answer
circulo
cruel
erkl
figure
habian
lost
sofort
##ct
belle
bereit
buen
donner
lejos
lungo
peine
strafe
tanta
tutta
##ata
##ischen
atencion
contro
cualquier
llama
montre
nothing
pousse
savoir
ten
themselves
vais
##ez
##keit
##ses
circle
comes
gt
jupiter
male
primer
tel
tienen
true
weder
weniger
##era
##ncia
depuis
florence
foi
mille
parlare
presente
pris
tue
tutte
willst
##ere
##urs
color
comenzo
compa
embargo
night
once
pueda
schl
##ente
berg
ciudad
dachte
follow
horizon
laisse
primero
sais
towards
zusammen
##tta
buena
city
coming
dolce
fuerte
halten
mots
pres
presence
schatten
stadt
vas
ville
##osa
##tti
bras
celestial
davon
deinem
fit
flor
gesch
hear
led
mar
mensch
nuevo
passe
peche
tears
ves
vivo
##idad
became
brought
cuanto
error
faith
feet
feuer
fleur
ganze
geboren
glaube
oro
teil
though
verstehen
whose
##ee
appearance
aspetto
beide
bereits
bringen
called
distance
erz
ii
jeden
lete
malabocia
muchas
pecado
quelli
remember
seule
stars
virtu
vite
##at
##et
##gli
##ke
bald
furono
gekommen
greater
grund
manos
nuit
ombre
primera
rapidement
scheint
wings
yourself
##aba
##nti
##ono
##ques
##sten
ab
anderes
carro
change
combien
essence
gew
guarda
hands
hommes
need
pierre
posible
power
rper
sembrava
song
venir
##he
##je
##less
##tions
##ungen
ailes
bright
cher
cken
destino
dinge
fiel
fiore
fort
fragte
hombres
kreis
mains
move
piedi
second
sight
tombe
volte
##cha
##or
##rmi
dazu
diejenigen
dietro
favor
fille
flower
justicia
meno
nome
pesar
quieres
siete
vedi
verdammten
verr
##bile
##ement
##las
##rme
above
created
finche
folgen
followed
giorno
mie
ormai
primo
stazio
visible
zuvor
aspecto
blume
corpo
debe
dice
gonna
hielt
lagrimas
leave
main
muss
nulla
ognuno
passage
possa
pu
rome
sehe
##endo
##fen
##gna
##nen
##ran
aide
arno
daran
dolore
fino
honor
longtemps
mieux
niemand
order
percio
pouvoir
rden
subir
suffering
##ige
##ito
##nd
##th
afecto
anyone
appeared
arco
bienheureux
bring
final
fine
gedanken
intelligence
llegar
muchos
necessary
nessuno
reino
sangre
seid
tat
terrible
tod
wise
##chi
##ciones
##cken
aspect
aurais
bolgie
comprendre
doux
emp
gerechtigkeit
hrer
hrte
ira
natura
quiere
rief
rock
rten
sagesse
seems
vent
vosotros
work
##gne
##pa
aussehen
besser
blood
celeste
culpa
existence
fleuve
hl
ins
junto
po
puesto
queria
royaume
seines
worten
zuerst
allein
buon
chant
clear
colere
cose
creatures
expression
finden
fuori
got
haute
himmels
hlte
larmes
marco
monter
nheit
oft
sombra
upon
volvi
##ction
##gi
##ice
alive
arms
autant
begann
esso
estrellas
fest
fruit
habria
hlen
intorno
leute
nacht
paura
sad
seem
tarde
voglio
voici
volonta
##bre
##eron
##oso
##sen
affetto
alone
arte
beyond
bondad
cree
doit
etoiles
faut
forte
inside
near
nouveau
opinion
porta
repondu
schaute
schmerz
sembra
##ation
##ds
##ken
##ssi
acqua
couldn
court
debajo
fall
forme
ganzen
going
hle
hoffnung
inizio
intellect
kingdom
pueden
punishment
roca
vielleicht
viento
voce
weisheit
young
##age
##ern
##ian
##ico
##iert
##po
certo
christus
damnes
dela
entfernt
horrible
ir
lord
mire
ragione
ready
region
sabiduria
showed
sieht
stood
wants
##ck
##ero
##ers
##ss
##tro
ambos
aquellos
avere
cima
crois
darauf
dessus
esperanza
esprits
eterno
fell
garde
having
herzen
heureux
jardin
leiden
listen
personnes
puerta
reached
resistance
richtung
sainte
singing
verg
wall
##ity
action
andern
betr
bient
bridge
compte
desires
estado
fama
fond
fragen
idea
maldito
memoria
mere
mutter
paradis
pecho
peuvent
pont
route
sens
sterne
used
wert
##cer
##rti
ay
bella
besoin
castigo
debido
detto
difficile
droite
dunque
fiume
flame
haya
insieme
meines
necesario
nostra
prendre
puente
puisque
roma
souvent
star
steps
unser
valle
verlassen
wesen
white
##au
##ging
##ise
##led
##mento
##schen
ausdruck
branches
brust
compris
condition
essi
frame
getan
humaine
humana
incluso
inmediatamente
limite
memory
mortal
partir
schuld
stelle
wisdom
##ide
##ous
alten
arme
bleiben
blut
continue
faccia
figlio
gewesen
intention
justo
leve
lights
live
melodie
paraiso
poitrine
regarder
respect
respuesta
sentir
shining
sieh
sopra
started
talk
won
##hen
##ments
##ute
##zioni
ancient
arrives
dado
davanti
ensemble
enza
estuviera
gauche
gioia
guida
morte
nei
paradise
pouvait
principio
shadow
ungl
vient
volver
##bar
##ieren
##ina
##sion
descend
diferente
dois
douce
envie
eut
furent
genau
happy
hnlich
however
imagen
lequel
lleno
luces
lumieres
mercy
neither
reponse
serpent
sordello
strength
unto
vuelve
zeigen
##tre
afraid
antwort
bewegt
bild
carefully
caused
diciendo
dies
door
gold
heavenly
honte
llen
llevo
meer
mother
please
puso
rocher
seigneur
signe
within
##cido
##tado
##tet
##um
##vio
acompa
ante
cadre
constellation
dannati
disant
fame
gerichtet
given
inferno
jeune
knowledge
peace
poor
seeing
sigue
sprechen
struck
thanks
thousand
tuttavia
verita
voller
vuole
zeigte
##ces
##lte
##uto
##ver
alte
beaute
beauty
belleza
brazos
dare
daughter
digo
envers
espiritus
eure
frappe
grito
hermosa
mil
oscuro
paix
paz
spirito
stern
sufrimiento
superior
top
tut
valor
vio
wort
##ile
##rado
##rla
animal
attitude
bonte
cambio
cependant
certain
einige
enough
erreur
fehler
felsen
forse
llegado
llegamos
malabocca
mostro
mujeres
open
opposite
pared
qualcuno
rest
seront
spirits
ustedes
volta
ward
years
zuneigung
##ins
##ions
##ll
adelante
basso
courage
erreichen
esos
ewigen
femmes
figura
folgte
hohen
impression
llena
misericordia
nehmen
nessun
off
pace
pasar
plusieurs
red
sabio
sinn
sound
spoke
stopped
taken
tiefen
verloren
volto
weinen
women
##nto
##rar
##sti
arm
attraverso
aver
chsten
desirs
divin
doubt
dr
earthly
encuentra
grazia
himmlischen
hin
marche
mouth
nostro
pasos
pensees
profonde
semblable
stessa
tard
thee
understood
worthy
##ante
##nant
##sch
anderer
ayuda
casa
confiance
dalle
derecha
frage
free
fuoco
goodness
grandi
hen
hija
igual
immediatement
known
peque
rendu
saints
schrie
soient
sommet
surface
veo
viso
voie
voyez
walked
wusste
##iendo
##iere
##ont
##sche
angeles
anges
caridad
despite
direccion
dirige
done
erkannte
erschien
eternelle
etoile
frere
ganz
hlt
knew
lage
materia
matter
note
passer
plaisir
rede
remained
shame
solche
step
tree
universo
vino
voit
vuelta
##cted
##glia
##rada
##rait
##red
angels
ans
aria
arrived
auparavant
bleibt
casi
condenados
crees
erh
fuente
further
inevitable
libre
minos
mur
necessario
palabra
pl
questions
quindi
reach
riviere
seligen
stay
stop
strong
testa
teufel
tochter
turning
ultimo
viens
voyage
wollen
##ara
##bles
##ger
##gio
##glio
##ier
##imo
##jo
apparence
bestimmt
blieb
centro
cklich
cried
decia
deren
diferentes
dime
entender
fede
fra
jedes
kept
legs
llamas
marie
mars
miraba
pourrait
presto
short
souffrance
stata
subito
suite
thoughts
viaje
voulait
voy
whole
##bt
##dia
##gue
##ique
##uta
act
aquella
bienaventurados
biens
bord
buona
cache
chance
charite
commen
cortesia
discours
empezo
except
falsenbiante
ger
humble
intelecto
jemals
nuestros
pla
produce
rayo
reflected
replied
seguro
selon
silent
splendeur
taten
terrestre
thing
third
tig
violence
##ete
##ias
##il
##lar
##ned
##sce
abord
according
alguna
ali
bestraft
church
citta
credo
dejo
dicho
digne
duda
estrella
felicidad
forest
four
fronte
goes
hidden
hui
jedem
journey
joven
lichter
mala
medio
often
opened
piensa
realized
sagt
stark
unos
vide
##acion
##bbe
##kommen
##nis
##tiva
##tra
##ust
actions
almost
arc
atteindre
bell
bestia
bouche
brachte
brother
cammino
chariot
charity
ciascuno
course
demander
describe
deseos
dites
doute
entendre
esplendor
frauen
geister
hacen
held
herr
hilfe
iglesia
izquierda
menudo
miro
pensamientos
perdu
pregunta
rayons
rechten
redete
richtig
rouge
seguir
soll
talking
unserer
vive
volvio
welche
##ados
##amo
##ded
##pi
ami
amigo
aujourd
bellacoglienza
boca
bocca
bringt
clearly
corona
dame
drehte
einmal
ensuite
erleuchtet
etions
faisait
fallen
food
gebracht
gegeben
habitude
komm
lumineux
malgre
molte
peccato
pleasure
posso
pouvais
pouvez
quatre
rayos
rays
recuerdo
sale
ste
suivre
tour
##em
##gar
##ges
##ible
##lmente
##tive
##uch
alcun
avevo
bad
brillantes
cerchio
char
close
deve
dificil
disait
distancia
ecoute
eigenen
erreicht
flammes
guerra
langsam
lucifer
luna
pass
sign
sins
tzt
word
zeichen
##aban
##bi
##bo
##ille
##ries
##ront
##ves
bottom
colpa
conmigo
erkennen
feliz
frente
grado
heure
langue
levanto
lieben
listening
lleva
manchmal
mary
menschliche
mitte
molti
nelle
notte
nouvelle
orilla
oscura
puoi
rahmen
reise
remarque
rst
segun
situacion
solchen
sonido
spiegel
splendor
tiefe
tzen
use
valley
zog
zweifel
##eren
##ht
##lta
##sta
##tas
##ud
anders
approached
approche
arriere
chacune
cieux
cuales
dank
dannato
deberia
droit
during
following
hierher
hold
instead
intensa
klar
making
musst
nder
observer
pelo
placer
quoi
silence
simile
sollst
sollten
troisieme
voyais
##adas
##chte
##ckt
##ish
##isse
##ler
##ose
##sas
##sos
ange
arriver
atras
attentivement
attenzione
avrebbe
barco
base
bewegen
carne
dead
denken
descendre
dico
entra
examine
flames
forced
friend
gusta
hair
hermano
heute
importe
italia
large
mirando
mobile
moving
ndert
neuen
ngt
noticed
nourriture
oido
oracion
pasado
persone
peso
peuple
rapport
sache
sahen
schicksal
seran
set
shall
sst
strada
sujet
tormento
ultima
uomini
value
ventre
vrai
wand
##am
##cs
##ding
##ft
##irent
##ische
##lie
##via
angesicht
aufmerksamkeit
berges
cielos
conna
couleur
daf
desea
devotion
encontrar
ense
experience
faites
fluss
habt
higher
kirche
konnten
kr
llig
mouvement
necessaire
neue
ones
paradies
prayer
priere
profunda
profundo
quienes
sabes
sand
schaden
selva
sombre
stehen
umgeben
vain
valeur
veia
venere
venu
vuoi
wagen
##ale
##amente
##cco
##dor
##ein
##fe
##gte
##ien
##lio
##men
##menti
##nait
##nta
##ppe
##rer
##vole
abandonne
amico
aufh
aura
best
borde
conocimiento
considere
died
difficult
ecco
famille
figlia
florencia
forese
genug
geworden
gleichen
gloria
hemisphere
hoch
juntos
king
leaves
leid
living
llegue
mesure
met
might
miroir
oltre
presque
propre
quei
rapide
real
regardant
rend
sacred
seras
signore
smile
state
tomo
torre
trouver
tter
unico
viva
wille
##ccion
##dio
##gno
##if
##land
##ling
##lli
##mas
##nde
##ntes
##nts
##zzo
acuerdo
ando
anymore
arbre
beni
bruder
clairement
covered
cuatro
dirigio
dunklen
eleve
eloigne
empece
erlaubt
ewige
express
ffnete
flammen
florenz
font
forza
gottesf
idee
impossible
influence
joined
lass
letzten
mani
mare
memoire
milieu
papa
parecian
partes
perhaps
pracht
produit
pure
rey
roi
sabe
sangue
siento
sometimes
souvenir
speaking
spread
steht
stellen
suficiente
verursacht
vicino
vostro
wish
wrong
##ano
##ard
##ave
##cca
##len
##nces
##one
##ssait
##v
##zi
ado
aparecio
ar
beati
bienes
breve
cantando
care
cesar
cross
darkness
denkst
dimmi
encontre
geln
habla
horizonte
invece
movimiento
nes
next
nger
ombra
oscuridad
passed
presencia
proceed
realidad
rendre
stolz
vallee
vedo
vero
vit
##ana
##aron
##cado
##gehen
##ica
##iez
##igkeit
##lado
##miento
##mment
##nata
##nung
##tore
##tura
##uer
##ues
##ule
agreable
ah
andare
anjou
arbol
argent
avesse
bonheur
cas
celestes
celestiales
chest
conduit
dai
dejar
dicendo
differentes
effet
ehre
espejo
fortuna
forward
frieden
haga
hoy
inspiration
malditos
menschlichen
merito
mirror
moves
nner
oir
outside
parfois
peter
pie
poeta
punished
rain
rather
regardais
regret
sabia
salire
sapere
schm
schritt
schritte
souviens
tausend
tier
tuviera
vede
veras
verdammte
vostra
voulez
wouldn
##ber
##bio
##bra
##cato
##gare
##gro
##ln
##nehmen
##ps
##ros
##ture
amo
bekannt
beobachten
beschreiben
big
chez
crying
devil
devrait
edge
ellas
erw
eternel
exclaimed
family
fand
fossi
france
garden
gift
green
hacerlo
hicieron
honneur
jambes
lifted
looks
na
nobles
oraciones
ordre
pedro
piacere
pier
places
prayers
providence
quali
rdest
religion
sourire
surprised
tzlich
##can
##ei
##gado
##ives
##man
##mt
##nda
##nge
##tant
##zar
adesso
affinche
alcuna
amable
apariencia
beau
bel
blanco
bow
completely
connaissance
couronne
debut
deshalb
desideri
ebbe
ern
esencia
espera
fleurs
freund
ged
genommen
gerade
giustizia
goods
hablando
happiness
hob
leuchtet
liegt
mueve
notwendig
nueva
origine
perdido
piernas
plante
pleurer
precious
pregunto
prieres
quelques
raised
rencontre
revenir
rosa
seit
shines
siano
silencio
speech
tend
today
voll
winter
zustand
##cto
##ened
##ivo
##lare
##lto
##pt
##rie
##tus
##un
anger
animo
armen
atteint
avrei
bajar
beast
besch
capable
cheln
cold
completement
criatura
cuidado
dato
denkt
depla
differente
entrar
explain
faisant
feeling
few
fliegen
foot
frei
glanz
gleich
hablaba
hard
hellen
hundred
hunger
ihres
interior
later
lebens
levante
mirar
mise
miserable
nsche
parecio
petto
piace
pietro
purgatorio
returned
rise
road
schlug
schreien
schwer
serais
shine
single
slow
suerte
suffer
suivant
tenemos
tomar
tourner
trotz
vergogna
vier
volk
wait
wundersch
##chten
##det
##id
##iera
##ires
##mal
##rei
##sant
##sed
##ual
##une
##uro
##zado
##zio
abbia
agradable
algunos
allem
allow
ana
begr
blitz
caer
castello
cinq
coloro
demon
dernier
fai
faute
flores
flowers
gebet
gipfel
giusto
grazie
gusto
herrn
hice
hora
iba
jahre
jalousie
jugement
lady
lead
lluvia
loved
maggiore
meglio
membres
mine
moon
mu
mund
numero
observar
orden
parlait
piedra
pluie
plut
ponte
pray
promise
ruhm
saranno
secondo
sentido
sort
surrounded
tuoi
univers
universe
unterst
ven
verk
vieille
vielen
walk
##ggio
##ich
##ld
##ssant
##tamente
aguas
alberto
ancien
bitten
capaz
carita
celles
centre
christi
chtnis
coi
conviene
diener
discurso
divided
einzige
ello
enfants
entrambi
envy
espada
estabamos
expresion
five
gesang
geschehen
guilt
handeln
hrten
knows
leicht
lento
natural
offer
oi
pecados
pfe
plant
planta
porto
profond
regno
remains
sait
satisfied
ship
solange
sorgen
sowohl
speranza
thomas
tomber
tourna
try
tuvo
vergleich
verschiedenen
verwandelte
##ens
##ic
##iva
##nate
##rate
##rta
##rten
##uit
##zt
abrio
adam
admire
asegurate
avete
aware
barmherzigkeit
becomes
brille
children
completamente
condemned
connu
consider
contigo
criaturas
cry
dear
decrire
desto
devenu
eaux
ehe
em
escape
espalda
euer
excepto
existencia
exterieur
faces
falsch
false
fruits
grands
haces
happened
helfen
humano
jason
kunst
llego
melodia
mistake
nigreich
pensamiento
pied
pieta
pitch
posicion
possibile
prend
produced
propia
pueblo
rayon
richesse
schlange
seiten
sent
sentii
shalt
sonrisa
souffle
tenga
veranla
voler
wahr
waiting
walls
warten
ziel
##cada
##cchi
##dre
##eben
##lant
##ms
##nato
##rant
##sero
##tica
##uir
##und
##zia
adresse
aigle
algunas
appear
ardiente
bt
call
caso
ciertamente
cola
courtesy
descends
desidera
desidero
dichter
eagle
envidia
erinnerung
errore
ersch
eye
francia
fruto
future
garten
gives
hermoso
intenso
irdischen
jealousy
jener
leva
links
lower
lugares
material
neben
ojo
oportunidad
pflanze
pitie
praise
prie
quiconque
rat
rispetto
salut
satisfy
sept
seven
siehe
siena
simple
sleep
small
sterblichen
subject
superficie
takes
tenian
timore
traurig
venne
vento
verst
vuestra
whoever
wrapped
##and
##ckte
##cy
##emos
##erte
##gia
##gie
##hes
##iant
##nden
##per
##pte
##rd
##rre
##ser
##tare
##zen
amante
ant
apenas
apparut
ardor
arrivee
aufmerksam
bat
bewegung
bitter
brea
brise
calor
castillo
castle
celos
changed
charge
circles
claramente
consequences
crazy
dance
destin
devient
eren
erschaffen
escuchar
espoir
extiende
familia
farbe
fasse
gelosia
guardare
hojas
horizont
indietro
klang
legte
leib
lengua
lentamente
llorar
lot
mauvais
ndern
painful
parla
passi
passion
penses
pourrais
pregunte
realite
reich
rempli
resistenza
rojo
sac
schlie
sed
serpiente
sides
six
splendore
sprache
strahlen
teau
tements
tire
trabajo
watched
waters
wolf
##ated
##bia
##cal
##cing
##cre
##die
##eur
##hrt
##ira
##isch
##lles
##ot
##rra
##tique
##tung
##ua
##ude
abstinence
ach
aguila
amanecer
antiguo
avessi
avevano
beginning
bosque
carry
certaines
chaleur
cklichen
comparacion
comprends
cornice
coup
dique
doing
duro
echo
eifersucht
enea
entoure
falso
fanno
fate
fatigue
ferme
fiamma
garder
gathered
gleiche
helligkeit
infernal
intencion
jerusalem
killed
kommst
letzte
lived
lune
matiere
nahe
nave
nuestras
paris
peches
pensee
petit
pudiera
qualcosa
resistencia
resplandor
rester
rive
sadness
satisfait
siamo
sieben
siendo
singen
slowly
sortir
sten
str
terrenal
thinking
tief
travail
tristesse
tristeza
ttest
val
van
verde
verlie
verras
vivir
vivre
wealth
weight
widerstand
zufrieden
##dy
##eri
##eth
##gato
##illa
##nno
##olo
##ring
##tar
##tico
##vent
agarro
agli
aie
amene
anfang
arbeit
bateau
bear
belly
beobachtete
berge
berw
bewegte
blanc
blind
blumen
bogen
burning
cae
carried
cercles
charles
circulos
committed
compared
cours
crown
cualquiera
cut
demonio
derniere
devoto
diablo
dovrebbe
dunkelheit
echelle
energie
enter
epee
evidente
exterior
falls
feuilles
finger
forces
fortune
fueran
gern
glise
gozo
gutes
heller
host
ht
humain
intelletto
kurz
law
leaving
lightning
limbo
limites
llevar
lose
luci
maison
malheureux
miembros
morgen
morning
nessuna
obra
pantano
parti
pensa
petrus
pieno
placed
pleasant
qual
queue
rand
ray
read
rocky
satisfaire
sauf
schiff
schloss
seed
segundo
seien
seraient
severe
siquiera
soif
sorge
stare
suffered
sword
tenido
thick
torment
treppe
tristes
umana
unseren
vengeance
weeping
wicked
wonder
wunder
##ad
##anza
##ati
##ava
##ccia
##cher
##elle
##hl
##hlen
##ks
##nee
##nia
##pito
##tato
##uses
accord
alimento
angry
assez
assis
certains
cesse
comida
contrario
correcto
cosicche
cuello
cuyo
danza
darin
derjenige
destiny
dimension
dite
ebene
ecouter
enveloppe
esperance
exprimer
fixed
futuro
gestalt
gloire
grass
hablo
haciendo
harmonie
helas
herbe
herum
hide
higkeit
hne
hnen
immagine
judgment
kinder
lentement
liebt
llorando
lontano
luminosite
medida
montrer
neck
nig
nombreuses
number
nuovo
paradiso
pensando
piccarda
prese
quasi
quedo
rdig
reflektiert
regardez
regreso
rende
riqueza
roccia
sagst
santos
schande
schiera
schmerzen
sembro
separated
souverain
straight
tornare
tragen
trust
usually
verborgen
verstanden
vivant
vuelto
walking
##alten
##ame
##cas
##dere
##eln
##enne
##geben
##hnt
##iche
##ierte
##mme
##ny
##om
##pia
##tri
allowed
augenblick
avoid
beine
bemerkte
brilla
brings
cinco
claro
cometido
comincio
compassion
costui
cou
creer
croix
danger
danno
derer
diable
diceva
dispuesto
donati
edle
etat
exclame
faim
falta
faro
francheza
frucht
gehe
gehst
geste
glaubst
graves
habiamos
hals
hearing
jemanden
jene
komme
krone
lato
leuchtete
mag
melody
menge
mentor
merite
money
motivo
ndet
nino
oiseau
original
overwhelmed
pensais
pensieri
piedad
planet
plein
poix
posto
prison
proche
puissance
punition
pushed
queda
recognized
rom
ruhe
sarei
sean
sees
sentiment
serre
shore
siguiendo
thirst
thus
tongue
trova
uvre
vedrai
venire
verse
vorsichtig
wild
zeigt
##ach
##bili
##cho
##cite
##cle
##einander
##ged
##hed
##hi
##icht
##icia
##iga
##ioso
##ious
##mes
##ufen
##usa
##uste
##yait
abandoned
acciones
acerco
although
ardeur
armee
autor
baja
believed
bellezza
bouge
bowed
braccia
cent
certainly
ckte
colore
conscience
constelacion
creador
destination
devoted
diras
enth
entier
erinnere
erinnern
escucha
espacio
esperar
espere
estaria
evident
familie
filled
geld
getroffen
gezwungen
giardino
girar
giu
grabbed
guides
hei
hemos
hierba
immense
italie
italy
lich
lingua
lying
mechant
meinung
mettre
misericorde
movement
ndig
necesidad
nouvelles
nube
pape
parola
piena
port
prego
pude
reality
received
remain
respecto
sai
schlecht
schwert
seguito
separe
seres
serve
spesso
spiriti
starb
sull
sulle
surpris
symbol
tail
tendras
terror
thy
tournant
ugolino
verses
voulais
voyant
wald
zorn
##ain
##cce
##cida
##cina
##cke
##dite
##eta
##geht
##glie
##iosa
##kel
##sait
##sent
##sh
##ssent
##tivo
##ures
##uso
##ving
accion
agir
ahi
alter
ama
anc
anni
appele
appelle
aquellas
atmosphere
auge
bank
boat
brighter
chiunque
cien
corrado
createur
danach
decide
demonios
deplace
direkt
efecto
enfant
erfahren
erscheint
escalera
flichkeit
flie
fran
froid
gebete
getrennt
gets
giovane
glory
grupo
hambre
hinaus
hymne
juicio
kindness
kleinen
lacrime
language
lecteur
lector
leser
lte
lucia
neid
nobile
offered
pale
pasa
passo
past
permite
pleine
poids
pone
pose
potrebbe
precieux
pride
propio
quiet
rchtete
recuerda
regen
reina
reputation
ressens
rich
robe
round
sagten
saintes
salvacion
salvation
schw
schwanz
seas
segui
segura
semblaient
sentence
shone
shown
stirn
tower
trouble
trug
unica
urteil
velo
venga
visages
vraiment
wandten
zuh
##ccio
##cere
##ende
##erta
##gas
##halten
##igt
##iques
##iste
##kam
##lly
##lung
##pr
##rno
##sses
##ttes
##uelle
##uille
##ume
##yo
##zze
accueil
actitud
admirer
aient
aiuto
anteo
appara
appropriate
area
asking
avanti
bauch
bedeckt
bird
blickte
capire
center
chelte
cocito
colores
commis
consejo
considered
control
crea
croire
cruz
danse
deceive
destined
destra
dinero
dira
distingue
doch
dubbio
ebenso
ejercito
entrer
erscheinen
escuchando
faceva
facile
federico
finds
fleisch
forehead
gabriel
gefallen
gegenwart
genie
gewalt
gezeigt
glichkeit
gone
hare
hart
heads
herrscher
hombros
hte
imagination
immediatamente
instant
jungen
lascia
lied
line
luminosidad
machst
manque
maremma
matin
mauern
meisten
members
monster
nat
ninguno
overcome
parete
pauvre
pech
permis
platz
plumes
pobre
precede
prepare
prove
querido
result
retour
rises
ropa
saggio
salir
salvo
schaut
scht
sehnsucht
servant
sse
suddenly
suono
teilen
tema
tigen
tours
traurigkeit
trovare
turns
understanding
vergn
verlangen
vientre
vivos
vont
vuestro
whether
zweite
##aux
##bly
##dido
##enden
##ening
##entes
##ggia
##issant
##kte
##ore
##rais
##rci
##rst
##rvi
##schaft
##shed
##tt
##ui
##vre
abandon
aider
aimes
amazed
anblick
arrigo
bewundern
bonnes
capacidad
capacite
cheveux
chste
climb
compagnie
condicion
conocido
continua
creator
crudele
damne
declared
devi
digna
dirai
discorso
dream
dunkel
emperador
empereur
emperor
ere
erinnert
eros
essen
explique
facilmente
fiesole
firmament
grenze
gritando
happens
haz
heraus
herte
highest
hijos
house
hrung
humains
ia
italien
lago
lieber
lion
lives
loyal
lucca
materie
mean
mut
nahrung
nf
ouvrit
pauvres
pistoia
plumas
poet
poete
procede
proceder
pudo
puedas
pur
ramas
reader
really
recht
recognize
regiert
reichtum
renommee
revealed
richten
satisfacer
satisfaction
sense
service
sincere
smiled
souffrir
soyez
space
spoken
temples
tipo
tired
tormenta
tuve
valore
vano
vecchia
versos
verwandelt
visione
voulu
wasn
weinte
##aco
##ari
##ats
##cen
##cent
##ctor
##dire
##eva
##form
##iamo
##idos
##ima
##ines
##king
##lando
##mant
##mina
##nas
##pone
##rnos
##rto
##unden
absicht
accompagne
accompanied
arena
armes
armut
arriva
assurez
aube
avions
begierde
berrascht
bilden
bodies
buenas
causes
chiesa
cierto
ckkehren
colei
comfort
company
condizione
conoscenza
considera
corre
coule
creation
cria
cura
cuya
dehors
demanda
depart
descendant
devils
devint
ebbi
embankment
embrasse
empire
enjoy
enorme
epaules
eravamo
evitar
exclamo
exprime
extr
faithful
feathers
feroce
fidele
flesh
fossero
fratello
frio
gras
grido
group
guidance
harm
hit
hohe
humanite
impulso
individuo
intensamente
ja
joyful
kehrte
late
lever
libro
llega
llevado
locura
luminoso
marte
michele
middle
mourir
nouveaux
observa
obtenir
osservare
passa
pauvrete
pay
perfect
pleurs
pobreza
porter
potere
raum
rechts
richtigen
run
running
sarai
savait
schienen
schultern
screaming
seconda
shouted
sitting
smoke
sofferenza
sommeil
stone
sufrir
suit
support
tales
tasche
tige
totalmente
troupe
ung
utile
verdadera
verw
vieja
viejo
violencia
volar
wirklich
zunge
##ance
##cos
##idas
##igo
##lait
##late
##lato
##mit
##nado
##ning
##nst
##perto
##pre
##rung
##sca
##schi
##sing
##ssero
##ties
##tos
##ug
##ulto
##ved
##zugehen
ability
added
aimer
altura
angeli
anzi
argine
armonia
auras
autrefois
ave
begangen
beobachtet
bereuen
bois
branche
breath
broken
bueno
burned
campo
capo
careful
chair
chiron
closer
companions
conclusion
conforme
contesto
crie
crossed
cuerpos
damage
dawn
deines
directed
doloroso
ecoutant
entered
espace
feci
flying
fumee
furcht
gefunden
geschichte
glaubt
guerre
halte
happen
hinab
historia
hour
humanidad
humo
important
invidia
juge
jure
laut
lebt
lent
liegen
lit
llamada
low
mach
magnifique
malebolge
mechants
menschheit
montra
muse
oggi
oriente
origen
pajaro
passare
pensiero
pente
permet
petite
pleased
pobres
pope
possono
poverty
prends
proceeded
profondement
promesse
purgatoire
purgatory
raggi
ran
regardes
reine
ressemblait
retourne
rostros
rule
rzte
schlaf
schrecklichen
schrieen
securite
several
shoulders
signora
siguiente
solito
sollen
spheres
standing
stella
suivi
temor
transforme
umgibt
uscht
usual
vecchio
vera
verh
verschwand
verstehst
versuchen
versucht
vertrauen
vol
vorher
##ade
##ans
##ants
##auen
##bido
##bringen
##bst
##cked
##gle
##gni
##hlt
##ichen
##ieux
##ime
##ione
##ker
##lassen
##lice
##lidad
##lino
##mita
##nare
##quer
##rable
##rare
##rda
##rso
##sis
##sso
##taba
##table
##tan
##tir
##tito
##uee
##uf
##yant
angelic
angustia
arezzo
arguments
asombro
assai
barba
barbariccia
beato
begging
bernardo
beten
betrachten
boot
bruit
calme
certainement
chantant
child
compagnons
crainte
deben
declare
describir
desired
detuvo
deutlich
devota
diede
dirigido
edad
eden
elements
emmene
estamos
farben
farlo
faster
felice
figur
firme
genannt
general
ges
gesellschaft
greatest
greed
gte
half
herrlichkeit
hinauf
histoire
hlich
holding
ice
illumination
influences
inneren
kaum
kennen
kreise
laissez
liked
marches
messo
mot
naissance
nee
notes
obscurite
opportunity
oppose
ordine
origin
oyo
poca
podemos
pouvons
preguntas
presentes
prit
punta
qualunque
quede
raconte
rauch
receive
reflete
resto
rivolsi
rodea
saco
santi
says
schneller
segunda
serviteur
sinistra
sonst
spada
sta
stream
strom
toscano
trouvais
vernunft
voile
warm
warst
werk
wider
wife
write
zieht
##acht
##agt
##amos
##ang
##ange
##arse
##car
##ciano
##eht
##ese
##ew
##fa
##ffen
##fs
##gang
##gef
##hnen
##ius
##izia
##jas
##kommt
##lia
##mmen
##nie
##ol
##ped
##rando
##ranno
##rli
##stand
##sto
##tal
##tando
##tic
##tr
##tude
##uen
##ya
abyss
acerque
actuar
afflige
albero
angoisse
anstatt
apri
assure
baron
beatitude
begleitet
behold
beings
bem
bereitet
birth
bliss
bologna
brunetto
buoso
cambia
cantar
caro
chasse
cheeks
chef
cloud
condamnes
creado
cumplir
daselbst
deeply
denke
dents
desciende
details
determine
devocion
devrais
dijeron
directamente
doivent
durst
encima
entro
estes
eviter
exil
extra
faits
fano
flusses
fly
folle
fretta
fulfilled
gefangen
grant
guardo
guter
hara
helped
hemisph
hosanna
hubieran
immobile
kindly
lados
lance
lavinia
linken
llevaba
magra
malice
mechante
meet
mond
moyen
murs
nahmen
nembrod
opposee
orgueil
parents
passing
pf
pfer
piel
plain
poteva
prepared
proches
reconna
refleja
regardait
repente
repondre
responsable
resta
riche
ricordo
ruf
rung
sable
save
scendere
semilla
sicherheit
sing
skin
sovereign
spent
spitze
stared
stein
stunde
sublime
tages
taking
tantas
tatsache
tenebres
termino
terreno
toma
toskana
ume
unserem
urs
vedevo
venerable
verbunden
vieni
vieux
vii
visual
vogel
volando
welcome
wen
woher
zona
##ales
##cino
##cita
##cks
##coli
##cule
##eno
##esta
##fied
##gegeben
##gst
##iano
##iger
##illo
##int
##isce
##ites
##jes
##lada
##lier
##lite
##mbre
##ndose
##net
##pen
##quant
##rdo
##rite
##sita
##tten
##tter
##ult
##ution
##vamo
##vious
##zando
abismo
accept
accorde
alba
alcanzar
allo
angelo
ansah
apporte
ardour
attend
attendre
befindet
beg
below
blanche
bouger
bound
branch
chanter
chosen
cinquieme
conduite
consideration
contraire
correct
couleurs
credi
dara
deal
deeds
dejado
devons
digno
divide
divise
dorthin
dritte
dritten
dudas
eclair
eloigner
energia
entrambe
entree
equal
ergew
erheben
expliquer
expressed
fifth
findet
firenze
follows
formed
freuden
fully
gardes
garganta
gentillesse
gerne
gesichter
gesprochen
girando
glieder
globe
golden
gorge
grab
groupe
gruppe
haus
hearts
heat
height
hinzu
humanos
jenseits
johannes
joues
ladder
lanza
lassu
lavoro
levanta
ley
lies
llanto
loi
lumineuse
maldad
maravilla
marcher
masse
mejillas
merit
mezzo
miteinander
movido
movio
muestra
none
nostri
occasion
olor
orlo
osten
ouvert
parlo
parties
popolo
potrei
preghiere
primeros
profundamente
proud
quinta
rache
raggio
rama
rchte
realmente
refuge
regrette
rgert
riches
righteous
risposi
rivolse
rivolto
sacre
santas
satisfecho
schreckliche
seguire
seguridad
senses
soberano
specchio
ssel
stretched
sumpf
supreme
surrounds
swamp
termine
tet
timent
trompe
tten
unless
unm
valet
vecu
verlo
verurteilt
verwirrt
viaggio
vivants
voices
volle
vorfahren
wangen
yours
zeige
zerst
zweiten
##ace
##ah
##ceda
##cie
##cute
##dent
##dore
##eo
##eten
##ff
##ini
##lante
##mando
##mma
##nelle
##od
##ow
##pie
##prendre
##sco
##sio
##tain
##ton
##tum
##ucht
##uel
##vita
##weise
##ye
##zeit
##zuf
acto
adler
agi
allait
anguish
antepasados
antworten
appears
argo
arriv
avrai
ayant
bag
baronia
baum
beendet
beinen
betrachtet
brillant
caballero
celebre
chten
chtig
cibo
closed
clothes
complete
confianza
conseil
convirtio
couche
crier
curso
daher
decision
dense
descendants
devenir
dientes
disparu
double
entlang
envoie
envuelto
erhalten
escuche
escudo
escudri
esperando
espero
eurer
existenz
expresar
extraordinary
feed
fen
figures
firm
fleche
fou
freiheit
freres
freundlichkeit
gehalten
geliebt
gentil
gesto
heavy
hemisferio
higkeiten
hmt
hnt
holds
hors
imagine
indispensable
inferior
john
juan
judge
laisser
lake
lascio
least
libertad
liberte
llanura
longue
ltigt
magnificence
magnificent
malebranches
mantener
mantiene
manto
mantua
martirio
miles
mortales
muerto
multitud
nimmt
oberfl
ognuna
onore
opera
opuesta
ordonne
osserva
parcouru
parecer
parts
pays
peau
pecadores
pecheurs
pensar
plaine
pleurant
portes
potenza
premiers
preuve
pronon
quattro
queen
quiso
reside
retourner
righteousness
rising
rme
roberto
rocheux
rot
sante
schauen
sentidos
setzte
siege
siguen
simbolo
sinners
solltest
stava
stra
taste
teeth
temp
tengas
tenir
thema
tot
tournes
traurigen
treu
ttern
ursprung
verbirgt
verstehe
vivi
vollst
wahren
ziehen
zweig
##ab
##ations
##aus
##blich
##ches
##culo
##dra
##ene
##euse
##fl
##gegangen
##gere
##ghi
##gos
##gre
##gung
##haft
##ichten
##icion
##ify
##ila
##ined
##ingt
##izado
##jado
##laba
##ndi
##ntura
##nze
##ote
##rera
##rian
##rle
##rus
##ssa
##ssaient
##tent
##ulo
##uno
##viso
##vola
##ws
##xe
##zed
accanto
acte
ademas
advice
amoureux
annees
apparve
ardent
argue
atmosph
attente
ausgestattet
bedr
befreit
bewegten
blessing
bons
brach
brazo
brightness
buenos
calm
capacites
carga
cayo
central
chercher
chien
choisi
chstenliebe
cieli
colors
creatura
descended
devoir
dias
differents
dingen
doctrine
dog
douloureux
dulces
eclaire
egal
einst
einzigen
ejemplo
empfangen
enleve
enlightened
entz
erkenntnis
erschienen
esposa
esse
established
example
existe
facilement
falling
fautes
federn
fled
flow
flu
folgt
folgten
forth
fourth
francisco
frost
ften
fuimos
fus
gelegt
gem
gira
giro
glorious
glow
golpeado
haltung
hauteur
heer
herself
heureuse
hirten
hitze
hiver
iluminacion
imposible
individual
information
ingenio
inspired
inteligencia
jean
judas
jung
lack
laggiu
leads
lebte
ler
lesquels
llamo
lombardo
lorsqu
lust
madonna
mauvaise
message
midst
miseria
morir
morts
ndigen
nombreux
nschen
nschte
nuevos
objeto
ois
orgullo
papst
perceived
perro
pfeil
piangere
pit
planeta
planete
profondeur
profundidad
propres
provide
prueba
quiera
reception
recorrido
repent
repentance
respeto
revient
ritmo
rker
romeo
rond
rules
sanft
sat
sauvage
schaue
schmerzhaft
segue
selige
sichtbar
sicuro
silver
somos
spalle
sprich
steigen
stufen
surrounding
temple
tenait
tendra
throat
tiere
tono
toscana
triumph
uschung
uso
venido
verf
vernachl
vivante
vivere
vorsehung
vorteil
weitere
welchem
werdet
whatever
zukunft
##ades
##anno
##antes
##anti
##ase
##cano
##cian
##ciendo
##dice
##dino
##dono
##druck
##ede
##ehen
##endra
##ento
##esa
##gan
##gues
##hnte
##hs
##ichtet
##iers
##isa
##lge
##minado
##osco
##pida
##pite
##plica
##ppo
##rro
##tada
##tement
##ueux
##ula
##ular
##usement
##usion
##vra
access
ahime
alejo
alichino
ardente
attire
audacia
ausgel
begins
bellaccoglienza
beloved
beneficio
beruhigt
beweisen
black
bosheit
boue
braut
breast
cade
cancion
canta
ciascuna
ckliche
colline
collo
conocer
continuo
contr
creee
cru
cuidadosamente
culpabilite
dagli
daniel
debes
defense
dello
demons
depth
derecho
desormais
dessous
diavolo
diro
dispara
diversi
doutes
drawn
drew
drink
dura
dure
easily
eifer
eingesperrt
entendido
erm
erzeugt
estuve
euren
excessive
exemple
extent
extreme
facil
faible
famous
fegefeuer
fera
fiori
fixe
flight
forever
freedom
freno
gebeten
gerecht
geschaffen
gesetz
gib
glaubte
golpeo
granted
grausam
grenzen
griffes
grube
guard
gustaria
hielo
hingabe
humilde
hundert
hurt
illuminated
importance
importante
ingeniosite
ingenuity
inspiriert
kaiser
kehrt
keiner
kleid
lamentations
larga
llamado
lover
lueur
luminosa
malvada
manifeste
mannes
means
medea
menor
mismos
mountains
movimento
muove
navire
nebel
nesso
niebla
nigin
noise
nota
nuevas
object
objet
observed
offense
opportuno
ordnung
pece
pene
perceive
perder
perdre
pianta
piensas
planeten
preghiera
promesa
proposito
propria
providencia
puni
realit
regalo
religious
retenir
retten
reveal
risposta
ruhig
sagrado
schweigen
seconde
secret
sentiments
sentire
separate
shadows
signal
sinon
slope
souleve
spring
staring
start
stieg
sube
supplie
supr
tali
telling
terrestres
terzo
tete
tiefer
tomba
tourment
tras
tremble
trennen
tried
triomphe
tronco
ts
turm
tze
unique
united
vanished
vanno
venganza
verdadero
vermeiden
verschwindet
versi
voces
vouloir
wretched
wut
##anz
##arlo
##arono
##bed
##bl
##care
##cata
##chlie
##dera
##dita
##dores
##ebbe
##ees
##ehrt
##eitet
##ena
##ette
##formo
##fst
##gada
##genommen
##ggi
##her
##ifie
##igung
##im
##inden
##ished
##ist
##lated
##losen
##ming
##monte
##mpi
##nar
##ncias
##ndosi
##oh
##pido
##plico
##ration
##rebbe
##riamente
##rice
##steigen
##ster
##sumed
##tados
##tee
##tigen
##tira
##upe
##uti
##valle
##vere
##verse
##voll
##yed
##zieren
acceso
acerca
admiration
advantage
age
allez
ancestors
ardore
arrow
avarice
avuto
battle
beispiel
bendicion
benediction
beugte
bolsa
bonta
built
cachee
cadere
cansado
cantidad
carlo
cast
ceased
celesti
cha
chante
chiaramente
clair
climbed
climbing
colina
colpi
comienza
compagno
compasion
consciente
coraggio
cortese
credere
cri
decided
declaro
depending
detourne
devait
dienen
domanda
doubts
douceur
dur
eclat
ecrit
eglise
entiendo
entrada
erl
ertragen
escapar
etend
eurent
expert
falsa
fangen
farinata
fault
feelings
ferne
flecha
folie
foule
francesco
fte
gambe
geistes
gezogen
giovanni
glace
glaubens
gn
golpea
habitants
harmony
heavens
hechos
hill
horn
influencia
inhabitants
intenzione
interno
invierno
jemandem
jeunes
kurzem
laid
lay
lichts
linea
listened
listo
lorsque
ltig
lucky
montagnes
morire
morto
narrow
neppure
ngen
nnten
oblige
observing
obstacle
occhio
odeur
oui
outer
paid
pase
percorso
perfecta
pioggia
plantas
plato
platon
podian
pouvaient
preguntar
puertas
pues
quisiera
quitte
realize
recordar
regards
regle
rejoice
relampago
reprises
ruedas
sagrada
salia
salio
salvaje
sapienza
sauver
scala
scende
schrift
sentia
sentimientos
sepas
showing
sienta
siente
siguio
sitzt
sogar
soi
sonrio
spectacle
sprachen
spricht
steep
sterben
stet
storm
substance
suchen
supremo
talvolta
thinks
tormented
touche
treffen
trifft
tromper
ttelte
tumba
umsonst
universum
verhalten
verte
vete
view
voleva
vollkommen
wahre
wassers
weisen
wheels
wohl
wolke
wonderful
works
written
##alen
##ane
##ank
##ardo
##ates
##ating
##azione
##cate
##ccare
##cta
##cure
##dle
##dung
##ehren
##elt
##erse
##ess
##eux
##eve
##evo
##fall
##gando
##gekommen
##gel
##gingen
##gono
##icos
##igne
##ip
##jan
##kamen
##kommst
##ktion
##lata
##lten
##mb
##mer
##mia
##mine
##mis
##mung
##ndre
##nio
##nnt
##ntos
##ode
##posto
##qu
##qua
##raba
##rados
##rir
##rita
##rito
##rium
##rne
##sive
##tente
##tia
##tin
##ucci
##ul
##usta
##usto
##vu
##zca
aba
abbiamo
abondance
addressed
admirar
adressa
agree
aimait
alejado
alt
antico
ascend
ascolta
attends
atto
attractive
avantage
avaricia
aveugle
band
batalla
befriedigen
blieben
blows
bride
brillaba
briller
brouillard
cacher
caminar
case
castigado
chiama
cielar
compagni
condenado
connais
consiglio
constance
conto
conversion
converti
convertido
corte
costumbre
crede
criait
crime
cris
daba
debo
deception
defend
demeure
descendit
destruction
dica
dices
direct
directement
disciples
diventa
doucement
dreht
dress
eins
emerveillement
enemy
entspricht
erlangen
etant
excellence
fatti
fedele
ferai
fiery
finalmente
fixes
fliehen
flows
fog
fonte
foso
francis
fraude
friends
frondas
frutos
fuerzas
fulfill
fur
gaben
gelegenheit
gentille
gentleman
gerion
geschenk
geschrieben
gesegnet
getting
giudizio
giusta
gleichwie
globo
gola
haar
habitantes
hago
haria
helle
hnlichen
home
humanity
iii
infinite
iniziai
intensely
interrupted
jete
konstellation
lang
laws
lebenden
legge
lehre
leuchten
lido
livre
llte
loves
loving
machten
malvagio
mantel
maudit
meilleure
mette
mission
mortale
mosse
moverse
murio
nest
nimm
nzend
obligado
oculta
osanna
padres
papal
paradieses
parecen
pastor
penalty
pensant
pensez
pfad
pfen
plantes
possession
prato
prendere
preso
presso
previously
profit
prostituta
provided
quanti
quatrieme
quick
rachel
ravenna
reflect
regel
remaining
rendit
rends
restes
revele
rger
riguardo
rlich
rocosa
roues
rueda
sacree
sacrifice
saggezza
samen
sappi
scene
scham
schlag
schlechten
scream
seguia
semejante
sentimiento
sentito
separa
sette
shows
soir
solia
sorry
spinge
steigt
stick
stimmen
story
sufrido
sui
tanz
tarea
testament
tourmente
trace
trae
trata
traum
traurige
tugenden
tuscany
ursache
vapor
vergangenheit
verl
verlor
viennent
vieron
vint
violent
virtues
vole
vostri
vraie
vuestros
warf
wheel
worth
yes
zerrissen
##ania
##arte
##ary
##baren
##bes
##ched
##cial
##cura
##dico
##duto
##elli
##ello
##esse
##eto
##geschlossen
##gge
##gkeit
##gliare
##gnano
##hnung
##ilt
##issent
##ition
##ivamente
##ized
##lee
##legen
##lity
##mar
##mble
##mmer
##my
##rdi
##ree
##rons
##sino
##son
##stante
##tait
##tere
##tigt
##tor
##unt
##unto
##uo
##uve
##vez
##zas
##ziehen
abgrund
abilities
abstinencia
abundance
acces
achilles
affirme
ago
aimez
alcanzado
algun
approaching
approcher
approprie
ascension
assise
atentamente
aufgenommen
aussit
auteur
avance
avenir
bach
balance
beaux
beber
befreien
berzeugt
betete
blanca
boire
borsa
cambiar
caronte
chin
cities
ciudades
cks
cloak
coda
colle
comer
comprende
conciencia
condena
confused
consequence
consequent
considero
consuelo
courant
courte
damals
dan
days
deceived
deje
derselben
desert
devo
diables
diez
dile
disposition
divinite
divinos
dix
dono
drehen
duty
east
ecria
efforts
egard
entendit
erden
estara
eternelles
evening
extremo
faccio
fail
falschen
fecero
ffnet
fight
finally
folge
fraile
fronde
fun
gagne
gain
garras
geblieben
gekr
gest
gestorben
gherardo
gier
giungemmo
giving
griff
gritos
guillermo
habeis
habitual
habra
heren
importa
imprisoned
inner
inspire
intelligenz
jahren
jours
junge
kampf
kehle
klagen
knowing
krieg
lac
lag
langen
learn
lettore
libere
limit
limited
lista
llenos
lleve
loco
luminosity
majest
marcha
membra
metal
miras
mo
mori
mortel
mud
muertos
nace
nacio
neige
news
ngnis
notice
nuova
obras
offen
offenbart
offre
offrir
orient
passaggio
passes
pensi
penso
perdue
pflanzen
pflicht
physical
piece
pleure
premieres
profonda
provoque
puerto
qua
qualche
quantite
quelles
raconter
raide
rchtigen
rebellion
recibido
reconnu
regarda
repose
resplandeciente
resplendit
respondi
richtige
rinieri
rocas
romagna
roue
ruido
sapeva
schleier
segen
sehkraft
sente
sheep
sinne
sombras
soudain
speaks
splendente
sste
starrte
stati
stayed
sternen
stete
stige
stretto
superieure
task
teme
tercero
tone
torn
touch
trajo
traverse
trinken
tromperie
trugen
trying
umano
universums
upset
varias
various
veil
venez
verdammt
verhei
verra
versprechen
victoria
villes
virtudes
volere
wartete
watch
willing
wounds
wrote
zahl
zehn
zeigst
##assen
##atte
##bing
##bliche
##cchio
##cci
##cedio
##cieron
##cis
##con
##cono
##cts
##dante
##dem
##dero
##eidet
##eis
##ense
##enta
##fine
##fique
##gados
##ggiare
##gique
##hst
##ical
##iente
##ieron
##ijo
##ili
##innen
##isi
##its
##jar
##jero
##licher
##lichkeit
##lide
##lini
##lique
##llen
##mante
##mbro
##met
##mmt
##nal
##nir
##nne
##nse
##oir
##ok
##ole
##osi
##ossen
##ph
##ple
##plique
##ponde
##pten
##rage
##reso
##rungen
##sare
##slos
##sm
##sume
##tel
##ther
##tido
##tie
##tlich
##tral
##tud
##uge
##uilles
##uite
##ules
##ums
##ush
##vais
##where
##xes
##zig
##zusteigen
abundancia
accroche
affronter
amen
amis
anchise
anf
angoscia
anhelo
antigua
apollos
appel
approcha
aquila
argument
army
aroma
arrepentimiento
ascoltare
assicurati
astro
attraente
audace
aufgabe
aufstieg
auquel
aussah
author
authority
autoridad
autorite
backs
barro
beatitudine
begged
bemerkt
benefit
benevolent
besiegt
break
brillait
brota
caesar
cantaba
causado
cherche
choice
choix
citizens
ckkehrt
claire
comienzo
command
compagnia
companion
completo
concede
condamne
confia
confie
consecuencias
consigo
corazones
couronnes
cover
dchen
deber
deberias
declara
depasse
desvanecio
directions
discover
dolci
dragon
drau
easy
edlen
effort
eigene
einander
elsa
emotion
entrance
envia
epoque
erleuchtung
escalon
escalones
eternamente
eternas
etincelle
europe
experiencia
extraordinaire
famiglia
fara
faux
fer
fermo
fern
festen
festung
ffnen
fiamme
fila
finsternis
fisso
fluye
followers
fonction
foolish
foudre
frankreich
frutto
geliebten
gentile
gentiment
gerechten
gesu
gewicht
gigante
glad
gladly
gritar
guardia
haare
hable
hesitation
himmlische
huir
hund
hungry
iacopo
ideas
ido
illustre
increased
individu
ingegno
instante
instinct
intensite
intenta
iron
joyeux
kiss
lame
lasciare
latona
lentos
levai
leyes
lief
lois
loud
luminous
malo
malvado
manger
maravillosa
marchait
maybe
mena
menton
merkte
minore
montres
moral
mortels
mount
mucha
naci
ndnis
nez
nge
niemals
nscht
observado
obtener
opfer
ouvrir
pa
parlando
parlava
parli
parnaso
pasion
passiert
pedir
peligro
perfection
periodo
plan
plants
pleasing
poetic
pointe
possibilite
poverta
powerful
pozo
prayed
presenta
priva
produces
producido
promessa
prononce
protege
puisses
puits
punis
pura
quito
rad
rchten
rchtet
rchtig
recompense
recto
redeten
refuse
replico
rese
returns
reveille
ricchezza
riesen
rochers
room
ruder
ruego
ruota
rythme
savais
schwere
schwester
search
send
sentencia
serpente
servi
shape
sharp
shook
silencieux
sitzen
sonno
sortit
spiritual
stamm
sucede
sudden
suivent
superiore
symbole
tercera
terminar
testamento
throughout
tratto
tutt
umile
unit
upward
usar
uvres
varios
verbindung
verdes
verona
verurteilten
victoire
victory
villano
voltai
voto
west
westen
wide
worry
worship
wunden
year
zerstreut
##ache
##acia
##af
##ager
##aking
##allen
##alt
##aro
##ased
##bnis
##bow
##cee
##cepcion
##chado
##chait
##chas
##city
##ciuto
##cles
##cting
##diction
##dieron
##file
##fini
##fo
##gate
##gebracht
##ght
##gr
##icher
##iff
##ils
##immer
##ios
##isant
##lben
##lida
##liegenden
##llos
##lm
##mado
##med
##nati
##ncio
##nds
##nent
##neo
##nken
##nnte
##oni
##par
##pond
##puesto
##rato
##rca
##rce
##rde
##reut
##rieren
##rire
##riva
##sci
##sez
##ssimo
##stieg
##stro
##tation
##tida
##tino
##tori
##trate
##ualdo
##uche
##udio
##udo
##uido
##ulate
##uler
##urant
##uren
##uts
##veille
##vero
##voir
##vor
##wand
##xion
##zos
##zzi
abstinenz
accepter
acogida
acque
add
adio
affaires
affirma
afligido
agit
agneau
ailleurs
aimable
alcune
alcuni
amare
anagni
ancienne
anh
animales
animaux
apropiado
atmosfera
attache
ausdr
autorit
avermi
avra
azzo
banks
baratto
bastone
baumes
believing
bendita
bereut
bertran
beweis
bienaventuranza
bisogno
blessures
blich
blow
branca
brennenden
brenta
brigade
brillo
brunnen
bu
buried
caco
camilla
caminando
camminare
carlos
casentino
cera
cerchi
changer
changes
cinque
circe
clara
colpo
comforted
commit
common
comparable
cordero
cornelia
coro
cortes
costellazione
courteous
courtoisie
criaient
cries
crowns
cruelle
cursed
custodia
dahin
dando
darle
david
degna
deidamia
dejame
deseas
detail
deum
devais
devenue
deviennent
diana
diavoli
disappeared
discovered
distinguish
diventare
diverse
divins
dobbiamo
doria
drehten
dreimal
dulzura
eager
eclipse
eigenschaften
einfach
eingang
eloigna
embraced
encontramos
endure
enemigos
energy
enflamme
engagement
ennemis
enseigne
erba
erhebt
erhob
erkannt
erst
erstaunen
erstaunt
essenza
esten
estuvieran
eternellement
etiez
europa
exile
explained
facendo
faenza
ferais
feroz
fierce
fingen
finished
firent
floh
flowing
foglie
forli
fous
franziskus
freed
frightened
frondes
fucci
fuite
funken
gaeta
gebe
gefahr
gegenseitig
gesture
getragen
gifts
goldenen
gritaba
guillaume
gustaba
hablado
haupt
heilig
herrliche
hervorbringt
hierro
hubieras
hubo
humildad
humilite
humility
hunting
ig
iluminado
infernale
innocent
intensidad
intensity
intensiv
inter
jedoch
journee
keeping
keeps
keys
kurzen
lachen
lamb
laudamus
lebendigen
libero
liebst
lien
lieux
likes
lker
llaves
luni
malacoda
manda
maniera
marais
marquis
merveilleux
mets
molesto
moments
monstre
monstruo
montrant
moses
mostrar
movimientos
mpfen
musa
nachkommen
naked
nasce
nase
necesita
nello
nieve
nostalgia
nutzen
odio
orlando
orsu
outre
ouvre
papalardia
parfaite
partida
peloro
penser
permanecer
piangendo
pianto
pierced
pleinement
pluto
prende
prevent
prive
procedere
protected
protection
prova
provence
proviene
pulled
quest
quizas
rdigen
reasoning
regieren
religi
remove
resplandece
retrouve
reue
revenu
reyes
rodolfo
rpers
ruine
rusticucci
saisit
salvezza
schau
schild
schrecken
schwierigkeiten
sede
segno
seht
seis
selig
seligkeit
semblables
semblent
sembrare
sembravano
senso
sereno
serious
sete
seuil
shed
simon
solitaire
sorgf
sortait
soutenir
sovrano
spazio
spear
spinse
spreche
stanno
starting
sto
strahl
sturm
subimos
supera
surpassed
tante
temas
tement
tercer
terremoto
terres
threshold
thrown
tierras
tombes
tore
torments
torna
torno
tort
total
trahison
traicion
transformed
trees
tumbas
tzung
ugo
umbral
unio
uschen
uttered
vamos
vanni
vantaggio
venait
vendetta
veniva
verdienst
vestido
visibles
voiles
volentieri
wartet
wohin
wollt
zanche
##abile
##aire
##ake
##andro
##arme
##bare
##bilidad
##brar
##bte
##bung
##cente
##cera
##chio
##chung
##cias
##cieux
##coge
##cogido
##colo
##conte
##corsi
##cque
##dente
##dert
##dini
##dito
##dringen
##ece
##ecido
##eit
##eiten
##els
##encia
##ennt
##erst
##erung
##etti
##fully
##gelassen
##gra
##gten
##hang
##hmen
##ib
##icio
##ieres
##ift
##iled
##imento
##imiento
##ingen
##ings
##inn
##inte
##ioni
##isait
##ises
##iti
##izo
##kes
##laient
##lazione
##ldino
##lieren
##lit
##llement
##mbs
##mie
##miendo
##mon
##nacion
##nada
##nche
##ndolo
##nga
##nged
##nger
##nischen
##nisse
##nita
##nn
##nnen
##ntado
##ntana
##onte
##ors
##ously
##pire
##pita
##prouve
##radas
##rates
##rch
##reuen
##rez
##rga
##rier
##rin
##rm
##rni
##ronto
##rve
##sal
##servo
##sin
##steht
##steigt
##sts
##tante
##tely
##teur
##tile
##tio
##tivos
##trare
##tua
##uire
##uis
##umo
##urado
##urier
##vas
##vel
##vidio
##vollen
##ward
##wert
##yendo
##ys
##zada
##zer
##zigen
##zustellen
absence
accepte
acercarse
afirmo
aimee
altas
alza
amablemente
amar
ambas
amer
animals
anziana
apoyo
appare
appreciated
approach
arboles
arbres
armi
armseligen
arrogance
arrows
ascent
attento
aurora
azioni
badly
barbilla
barely
bataille
bde
bed
bedeutung
bekommen
belt
benevolo
blond
book
brillar
buone
cabo
cane
capa
capacita
chantait
chispa
christian
ckten
clouds
co
codicia
comprend
conduce
conduits
confidence
contained
content
conviction
corde
corneto
coronas
corpi
corresponde
costretta
coucher
create
creyendo
criant
croit
crowd
croyais
culpas
defendre
delay
demonstration
denaro
deplacer
depression
deprived
depths
descubrir
desespoir
deuxieme
dieselbe
dignes
dignite
disfrutar
distanza
domina
dry
eat
echapper
eifers
eleva
embrace
empf
enemies
enfuit
engendre
entrusted
entwickelt
enviado
erfahrung
erhalb
establecido
experienced
familias
feels
feind
fialte
figli
figuren
fini
firmamento
flechas
fleches
flegias
flehte
fortaleza
fortress
franchezza
frappa
freuen
fumo
ganges
gano
geburt
gegangen
gentilezza
gerettet
gericht
geschm
gestellt
gestos
gesunden
gewohnt
geworfen
gianni
golpe
gospel
gouvernail
gouverne
grandeur
greeted
guardando
gung
habilidad
haken
harsh
hauts
heridas
hermana
heures
hielten
hierarchie
himno
hinunter
hinzuf
horribles
illumine
indignation
inganno
inmitten
intelligent
irdische
iris
job
join
jordan
jovenes
kannte
kinn
kreuz
kronen
laugh
leuten
levantado
liebte
lift
ligne
liri
llamaba
llegada
longing
ltst
mache
malebranche
marchaient
marchions
melancholy
minds
mixed
monferrato
mont
montaperti
mortals
mouvements
mura
muros
nachfolger
nariz
nido
nimmst
nkt
nord
nostre
nuage
observaba
observant
ombres
opere
orillas
orizzonte
ours
oye
pan
parcourir
patas
pattes
paul
perdida
permitio
phrase
physique
pierres
pocos
poetique
pointed
points
poner
potesse
primavera
principe
promised
puse
puts
querer
quinto
quitter
rdige
reaching
realise
redet
reflejo
refugio
regeln
regla
responder
ressenti
revenge
rives
rois
roten
royal
ruin
ruler
saben
sangen
sappia
sar
sarebbero
satt
scattered
schar
schlagen
seek
sendero
sends
sento
shut
siate
siervo
signes
sister
sit
sixth
smell
soberbia
sorriso
sorti
soudainement
souffert
sphere
stairs
statue
suave
suavemente
subiendo
sung
superieur
suspiros
sweetness
table
testaments
thin
tiber
tient
tight
timon
tira
toscane
tournait
traces
trauer
tribunal
trouvai
tzte
ubertino
umarmte
umher
unrecht
unterbrochen
unvermeidlich
urspr
vacio
vada
vapeur
vaut
vea
vegetation
venant
vengo
venia
venue
verbannt
verderben
verliebt
versuchte
vertraut
vertus
viendo
vienen
volontiers
volume
vorn
vuelven
vus
wann
ways
wearing
weep
wende
wildnis
winds
worse
zone
zuzuh
##afft
##ak
##ama
##annt
##ap
##asse
##ather
##aufen
##bado
##brechen
##cated
##ccesso
##ciar
##cidas
##cious
##cision
##cluded
##cris
##cte
##dendo
##dern
##dible
##digt
##eckt
##egen
##egra
##eiden
##ejas
##ered
##este
##eti
##etto
##fi
##forma
##fort
##gaba
##gnant
##gner
##grund
##guire
##hip
##iada
##iante
##iar
##icchi
##ides
##ieben
##ife
##inde
##inent
##ink
##into
##iro
##ishes
##izar
##lga
##lse
##lti
##lve
##lvio
##mber
##mido
##mini
##mise
##mpio
##nero
##nimmt
##nso
##nz
##ola
##ones
##op
##otta
##ows
##pel
##pide
##pina
##pio
##pos
##prach
##prime
##pro
##punkt
##raient
##ral
##rante
##remos
##rgt
##rina
##rit
##rona
##sais
##see
##sehen
##ssen
##sure
##tenido
##tience
##tient
##uada
##uben
##uce
##ucion
##uels
##uie
##una
##urait
##usch
##uye
##velo
##versa
##vit
##wards
##zing
abandonner
accoglienza
accomplit
accueilli
achille
achte
acquire
acquis
acted
adige
adorned
afflicted
ajouta
almeno
altos
amada
amargo
amaro
amigos
anciana
anciano
anxiety
aparece
apollo
appelee
appris
arche
armas
armed
ascended
asombrado
aspiration
attrape
attraper
auberge
ausbreitet
autrui
ayudo
baje
beginnt
beim
bello
benevolencia
besitz
beste
besten
betracht
bewegungen
bieten
birds
bisenzio
blossoming
bouclier
brothers
caballeros
calcabrina
caminaba
capelli
cease
certa
certaine
chanson
chiedere
chiese
cincinnato
circular
claires
claras
coin
colera
compiuto
comprehension
comprender
comprension
concesso
conditions
condotto
conduire
console
continued
contrary
convierte
count
coups
croyez
cuantos
cuestion
damiani
dauern
debia
debil
dechire
decouvert
decouvrir
dedicated
degno
dejaba
demut
dependiendo
deriva
descrivere
destine
destinee
destroyed
determined
devez
devoue
devriez
diera
difference
direzione
disposicion
dissero
distant
diverso
divinita
doors
early
ears
eis
elsewhere
embrasser
emmener
empinada
empty
encontro
encourage
enden
endowed
entendis
entfernung
entrare
entusiasmo
erlebt
escaleras
esfuerzo
esterno
etabli
eva
event
evidence
excellent
exception
exist
explore
facevano
falsenbiant
families
familles
farfarello
fausse
faveur
felices
felicita
felsigen
fidelite
fill
filles
finalement
flich
florentines
former
frase
freddo
friar
gebaut
gefiel
geholfen
gelangen
gelesen
geschlagen
gestes
gesungen
getr
gewonnen
giunto
gloriosa
gouffre
gradually
graffiacane
grausamen
griffon
grifo
gritaban
gros
grow
guards
guided
habituellement
hadn
hagas
halo
hercules
hermanos
hervorgebracht
hesitant
hurry
illustrious
images
imperatore
improvviso
incandescente
inclino
increase
inspiracion
intent
interesse
invisible
italiens
jenes
jeu
juego
karl
klaren
kleidung
klettern
kurzer
labios
lancelot
lancia
lands
learned
lebendige
leidenschaft
len
lenguaje
lents
leon
levantaba
levantar
levres
libera
libres
lippen
lips
luck
magnifica
malvagia
manifiesta
martyre
matelda
mechancete
medicina
meilleur
meridiano
meta
miel
migliore
minerva
mme
morada
mortali
motion
multitude
nectar
negative
nieder
notwendigkeit
nourrir
nubes
nuovi
nzen
obeir
obscure
occasions
ocean
offert
oit
opposta
orange
ourselves
ovejas
palido
parlant
partout
penetre
permanece
perugia
plage
plata
poetas
poetes
poets
polo
population
portato
potuto
presents
prime
primeras
privilege
profondo
profonds
promis
promises
propos
puissiez
push
quegli
rami
ramo
rapida
recevoir
recien
recorrer
redondo
reflection
regina
relacion
relief
remorse
reserve
reso
responsible
restant
restee
rettung
richezza
rings
rios
ritorno
riva
rivers
rocks
rosso
rzt
safe
saisi
sali
sanfte
scale
schlamm
schwelle
scipion
segel
semblant
seme
semence
senbiante
serene
servir
share
sighs
silenzio
sirvio
sixieme
soin
sombres
sons
soupirs
souver
spa
speed
speer
sph
statt
stille
stock
stops
suggestion
tage
tanti
tanzen
teile
temia
temo
tendria
tez
thank
threw
tied
toro
trat
tresor
treue
trocken
troubled
umen
unable
uni
union
unterdr
unterscheiden
unterschiedliche
unver
uscire
utilise
vacante
vedendo
vela
veloce
velocemente
ventaja
venuto
verbrechen
vereint
verla
verrat
versen
versteht
verteidigen
vertes
vicenza
vile
vine
violenza
volant
volare
volo
vorbei
vuelo
wahl
waste
watching
waves
wear
wenigen
wolken
wunderbare
wundern
zerrei
zitterte
zugang
##ables
##aine
##ally
##alte
##andelt
##ands
##anos
##anten
##ario
##aten
##auft
##bida
##cello
##certain
##ceso
##chaft
##char
##ciado
##cinato
##ciso
##ckten
##colare
##ctions
##culaire
##cular
##culos
##cultad
##cupa
##curi
##curo
##dait
##ddi
##deo
##ders
##dringt
##dura
##durch
##eco
##eille
##ela
##etzt
##fer
##fera
##fico
##fie
##fio
##fle
##forms
##gation
##gee
##gestellt
##gestiegen
##gnato
##greifen
##halt
##icca
##ici
##ick
##iden
##iesta
##iet
##ified
##inen
##inge
##iora
##irse
##isation
##isme
##issait
##itt
##iv
##iving
##izzo
##kten
##lacion
##lied
##lin
##llant
##llas
##mann
##mpt
##mutable
##nai
##nation
##ndome
##nement
##nna
##nten
##ogo
##oja
##onde
##ova
##paro
##pero
##pfer
##pier
##pira
##poli
##pper
##prendido
##presion
##prochen
##ption
##quert
##rano
##recido
##reta
##rido
##rios
##roso
##saient
##sam
##sante
##scher
##side
##ssement
##tadas
##tador
##tanto
##teilt
##tenti
##tif
##tige
##trice
##ttare
##tudine
##ualmente
##ub
##uba
##uega
##ulte
##untos
##urgo
##vant
##vento
##vera
##vide
##viendo
##vis
##vons
##wed
##willig
##yaient
##zunehmen
abandonado
abandonnee
abandono
abend
abre
abri
abrir
achieve
actes
adan
adlers
advance
affermo
afferro
aggiunse
agile
aimerais
ajoute
alabanza
allume
alzai
amado
anciens
angelica
angelique
apparire
arrogant
arroyo
artista
aspirations
assurer
astinenza
attentamente
aum
auraient
aussieht
avanzar
baisse
bande
barbe
barca
baston
befahl
begraben
behavior
bellincione
belva
beneficial
benevento
benevolence
beobachte
bernard
besitzen
beso
bev
bewahre
bewahrt
bewohner
bewusst
bezug
bianco
bienaventurado
bienveillance
bienvenida
blicke
bond
bones
bonifacio
braccio
brief
burn
busca
caballo
cabello
cabezas
calma
cambiado
castigados
causing
caza
cerberus
challenge
cheval
chiamato
chiens
chst
ciacco
claridad
claws
coat
colpito
comando
commesso
comportamiento
comun
confiar
conscient
conseguir
conserva
contemplate
contento
conteste
convient
convinced
correspond
corrio
corso
corta
corto
costa
creada
cristiano
croce
crossing
cruzar
cuarto
debout
decirme
dejaron
demora
demostrar
denk
deny
descendu
desolee
dichiaro
dici
diferencia
dioses
dirent
dispose
diventato
division
dlichen
domandare
dommages
donnant
dovuto
doy
draghignazzo
draw
dreams
dubbi
duracion
einfl
eisen
eleccion
eloignes
empfand
empujo
encuentran
enlightenment
entiende
entire
envoye
epais
epaisse
equally
eras
erer
esferas
esperaba
essaye
estabas
etonne
eurem
evangelio
evitare
ewig
exilio
extendio
faced
faisaient
faisais
falsenbian
familien
famoso
fellow
ferma
fertig
fetonte
fisico
flegeton
flies
flucht
follia
forbidden
frapper
frate
frederic
freudig
freundlich
ft
fummo
gar
gebiet
gebrochen
genera
geredet
gerione
geschah
geschnitzt
geteilt
girare
godly
gozosa
greedy
guance
hablas
hafen
hanches
healed
herausfinden
herrlichen
hervor
hinterlie
hoja
horse
hostile
hours
humanas
hunde
impenetrable
impulsa
infinito
informacion
informationen
informative
inmediato
inverno
isn
jesucristo
joyeuse
juno
kerl
kissed
kleine
kreises
lait
lamm
langage
leader
lebendig
leer
lesquelles
levait
liberer
logica
loudly
loup
lucano
lunga
malabocha
manifesta
marchais
marchant
martyrdom
mass
maximum
meaning
mien
mile
miradas
misere
mitad
montagna
montait
montes
mostrando
mte
mten
nch
negli
ner
niente
nnt
nose
noticias
novia
nuages
obey
obscur
obstacles
obtain
ofrecer
oiseaux
olas
opening
orte
osa
oscuros
ossa
parar
parlato
particular
pazzi
pecador
pelle
penetra
peor
perception
perde
permette
permission
piaccia
pilger
podrian
poser
pourraient
preciosa
presa
prier
primi
privo
pronta
prostituee
prostitute
pueblos
puesta
qualen
quedado
rapides
recibir
reflechir
reflet
regalos
relation
reluctant
remembered
removed
remplit
repondis
request
respekt
resultado
reward
richter
ring
riquezas
riss
roche
rocoso
romanos
romans
rovina
ruisseau
sagradas
satisfaccion
saved
schafe
schreiben
schweren
seat
sechs
selten
sepa
serai
serian
servicio
shield
shouldn
sicura
sieg
sigh
signs
singt
sits
size
snow
soddisfatto
solitario
sonnenlicht
spark
spend
stands
stufe
subi
subio
sucedido
suche
summit
supporter
suprema
surge
suyo
taire
tampoco
tantos
tardi
teaux
tern
terribles
tesoro
throw
thunder
tiro
tomas
tome
tourments
trabajar
tradition
tranquille
tranquilo
transforma
tratando
tremblement
tristan
triunfo
trompeta
trunk
udito
umt
unhappy
unida
unieron
upwards
vai
vaya
venian
verb
verlasse
verlieren
verliert
verschwunden
versteckt
vice
vienne
vierten
vinculo
virtuous
volvera
vorhin
voulut
wachen
wagte
weint
weinten
weiser
weiterhin
welcomed
wellen
wept
werke
wichtig
winde
wirklichkeit
##ag
##amed
##anken
##ann
##atti
##avo
##azzo
##bas
##blo
##br
##brachte
##bro
##bs
##caba
##camente
##cario
##ccolto
##ceau
##cento
##cesa
##cesion
##ceva
##chant
##chlossen
##cide
##cidos
##cieuse
##cine
##cit
##cito
##clamo
##corde
##crita
##ctiva
##cupado
##damente
##dano
##diendo
##dings
##dique
##dit
##eca
##ecer
##eck
##eiht
##eilen
##end
##eni
##essa
##esti
##eter
##eugen
##evole
##ey
##faite
##fica
##fier
##formato
##glione
##gnee
##gui
##hensible
##hieu
##hing
##hnten
##hung
##iait
##ickt
##ifier
##iges
##igir
##ignent
##ilen
##illes
##ily
##inta
##ional
##iosi
##issen
##ize
##jarse
##lage
##lasse
##lement
##liches
##lina
##lita
##llante
##llon
##lu
##lz
##mmina
##mpa
##mpe
##nados
##ngo
##ntar
##nted
##og
##pados
##perte
##pes
##phe
##pille
##ping
##piracion
##ppa
##ppen
##quait
##ramento
##rdia
##remo
##resa
##ress
##rge
##riente
##rigo
##rinkled
##rraneo
##rupt
##sicht
##sieren
##simo
##stehen
##sus
##tata
##ternal
##the
##timento
##tivamente
##tle
##traba
##tract
##truire
##tuve
##uable
##uci
##ucia
##udi
##uellement
##ueuse
##uito
##ulado
##uni
##urato
##urg
##ury
##vido
##viera
##vieron
##vive
##volved
##wing
##yer
##zato
##zco
##ziert
##zzare
abandonar
abrumado
absolute
abundante
accompany
accomplir
accordo
achten
affliction
agire
aigu
albert
aleja
alguno
aliento
allais
allm
alms
alo
angeboten
ansia
antica
anwesenden
aracne
aragon
arbeiten
archiano
arrival
arrivare
arrivato
ascoltando
astres
atractivo
atteggiamento
attentive
aufsteigen
aveugles
bacchus
beh
belief
benedetto
berzeugung
beside
besteht
besuchen
betrug
bewies
bienveillant
bijoux
blame
bolognese
boten
brake
brebis
breitet
bringe
brutus
buch
bulicame
buoni
caccia
caches
cadeau
callo
calls
caminamos
cape
capture
cento
chagrin
chevalier
chiaro
chretiens
cht
chtige
ciego
circonda
ciudadanos
colpe
comence
cometer
compagne
comparaison
concern
confession
conoce
conoci
contempler
continuer
conversation
correcta
corriendo
corruption
counsel
country
coupe
creacion
creating
cristianos
critures
cualidades
cubierto
cunning
dancing
daraus
davantage
davvero
degree
dejando
demselben
dennoch
described
desesperacion
devono
dichte
dichten
dicken
dieux
dignidad
dijiste
direttamente
divenni
divento
dogs
dov
dragged
dude
dug
dunkle
dying
echange
eco
ecoutez
elementos
elevee
eloignee
emerge
emerged
emisfero
empfinden
empuja
endroits
enemigo
enferme
ennemi
enseguida
entend
entfernte
enthousiasme
entiendes
entreprise
entt
epouse
ereignis
ergriff
erkenne
ermahnte
erwarten
erwartet
erweisen
escaliers
especie
esperan
essayer
evento
ewigkeit
exceso
expose
expresa
facts
feared
ferait
feroces
fideles
field
fijamente
fijos
fitting
florins
forget
formar
forteresse
fought
frein
frutti
gabe
gained
game
gedacht
gedicht
generous
genre
gequ
gesandt
gesangs
geschenke
geschenkt
gesetzt
gestank
gesten
gestures
giant
glowing
gobierna
gods
gradito
gratitude
guardavo
guardias
guardie
guilty
guiscardo
guste
habgier
handelt
heal
heilen
hende
henden
hermosas
hermosos
hervorging
hiding
hinten
hnliche
hoffen
horas
hueso
huyo
iban
identico
ignorance
ilumina
imperial
impidio
induce
indusse
inevitabile
inflicted
informations
informativa
initial
iniziato
intensement
intento
interest
invisibles
invite
izquierdo
jagen
jefe
jeglicher
jerusalen
jette
joyas
key
kings
klammerte
knight
krallen
lamberti
legen
leidens
letizia
libra
lichtern
liebhaber
list
llevaban
lloraba
load
lonely
ltesten
lu
lucrezia
lumineuses
luzifer
maggior
managed
manifested
mato
mec
melodies
menace
meridian
merites
messer
miracles
miserables
moat
mortelle
morti
mostrara
nacimiento
namens
nett
nette
numerous
obedecer
obligo
occidente
offensichtlich
ohren
ordenes
ordered
oreilles
orribile
orten
ose
outrage
paar
painted
palais
palazzo
panorama
parade
parles
party
pastoral
peccati
peccatore
pecheur
penetrates
perd
period
periode
permanecio
permettre
perros
peuples
pft
pierde
pietra
pire
pirro
pleases
plenamente
poema
poesia
posizione
possessions
pote
potessi
potevo
poured
poursuivit
poveri
povero
praised
prenda
prevented
principal
prix
procession
prodotto
profession
profundos
progress
propios
purifie
qualites
qualities
quanta
quienquiera
quitado
quite
rahmens
raisonnement
razonamiento
reasons
recently
regardai
reicht
reihe
repand
responde
ressemblaient
resuena
reussit
reviens
risk
rlichen
romains
ruhigen
ruina
runs
rzen
sacrificio
sages
satz
savez
schie
schiena
schnee
schritten
schwarzen
sechsten
seguendo
seguidores
seguono
self
separer
seraphim
serpents
seufzen
seuls
shepherd
sicurezza
sienne
silvestro
sinner
situazione
smiling
sogno
sonnenaufgang
soplo
soportar
sorprendas
souriant
spenden
spiel
sposa
spreads
sprichst
stab
stanco
standen
stavo
stellt
streckte
stromes
subia
submerge
sufficient
suficientemente
suitable
supiera
suplica
suscite
tait
terent
terreur
tiens
torres
toten
tournaient
tournent
towers
train
travel
traverser
tristezza
tronc
trost
trouvait
ttert
unterscheidet
untersuchen
urged
using
util
vagues
vale
valiente
vast
venger
vents
verbrachte
verdunkelt
vergessen
veridique
verrez
verschiedene
versets
vertical
vientos
virgen
virtuoso
voci
voraus
vorbereitet
voyait
warte
weak
wenden
widerstehen
wilden
win
woods
wrath
zufriedenheit
##agen
##aio
##anden
##aneamente
##az
##cable
##caro
##cciato
##cel
##cence
##changed
##cibe
##cienza
##cimiento
##cionado
##cir
##claim
##cogio
##crire
##ctive
##culte
##cusa
##dan
##dare
##dele
##denti
##deva
##dica
##diente
##dua
##dwo
##eche
##ecia
##eds
##ella
##eras
##essen
##ets
##eurs
##feccion
##fere
##fert
##gab
##gegen
##geh
##gent
##geva
##gieri
##gliata
##gros
##guer
##gungen
##guro
##haufen
##hel
##hie
##hme
##ho
##hy
##ict
##idung
##ied
##iede
##ienza
##ierten
##ification
##ifs
##imm
##inente
##insi
##iope
##iser
##ism
##iten
##itto
##jaba
##ked
##lace
##lea
##legt
##lei
##leo
##lfe
##lgar
##lgo
##lici
##lien
##like
##line
##llt
##lvo
##magno
##mene
##mous
##mpensa
##mpu
##mut
##naient
##nando
##nante
##ndras
##nern
##nez
##nian
##nus
##obe
##oche
##onia
##onne
##ora
##oss
##osse
##osti
##ovo
##owed
##oy
##para
##pcion
##pende
##plorar
##posicion
##pped
##ppt
##pra
##preso
##pressed
##pu
##pulse
##quent
##queren
##rated
##rche
##reckt
##rees
##rente
##resti
##rete
##rias
##ribo
##riendo
##rlich
##rlos
##rrone
##rtes
##sions
##smo
##sort
##ssez
##tacion
##tains
##taucht
##tch
##tendo
##tenu
##tern
##tionen
##tirse
##tite
##trag
##trated
##trato
##tu
##tuto
##uchen
##udent
##udente
##udenza
##udes
##uissent
##umi
##unen
##unst
##urdes
##urre
##usee
##usse
##uziert
##val
##viato
##vions
##wacht
##wel
##wie
##xis
##zeugt
##zte
##zten
##zuhalten
##zukommen
abbondanza
abierto
abiti
acceder
accent
acercaba
acts
actua
ada
alejarse
alimentos
almosen
altrettanto
amoureuse
andato
angebracht
angenehm
angezogen
ansiedad
appelait
apprecie
arch
arouse
arrivent
asesinado
astros
asustado
atado
attendez
attila
attraktiv
aufgeh
augmente
ausstrahlte
avarizia
ayez
bart
basse
battaglia
bautismo
beard
beasts
beat
beating
benie
berall
beschrieben
bestias
bewaffnet
bit
bite
blade
blass
bolge
botschaft
braucht
bread
breitete
broke
brot
bruto
buscando
caderas
campi
capocchio
cari
carved
castillos
castles
caught
ceinture
changing
charlemagne
chasser
chen
chter
citoyens
ckkehrst
claim
clarte
closely
clothed
collapsed
cominciai
commanded
commitment
complain
completa
comprendi
compromiso
condamnation
connue
conseguenza
conserve
considerado
contemplar
continues
convertirse
correctly
couru
creando
creant
creatore
credendo
croient
crucifie
cuerno
custom
damnation
dazzling
dedo
dejes
delivered
denti
derniers
desiderava
desierto
desireux
despair
despierta
devotos
devraient
dido
diente
dignity
ding
dionysius
diriges
dirigida
discursos
disposto
distante
ditches
divines
doigt
dolorosa
donare
donato
donnee
donnent
dormir
doveva
dresse
dressed
driven
dte
duree
ebbero
eclaires
efectos
eid
either
ejemplos
elder
elegante
elend
encontrado
ended
ends
eng
engels
entdecken
entf
entgegengesetzte
erben
escuchaba
escucho
essaie
estaras
eta
eternite
etonner
eus
evenement
examples
excuse
exemples
exhausted
exige
existieren
exito
extraordinaria
exultation
fallait
familiar
famosa
fantasie
fels
feuers
fidelidad
filosofo
finale
finding
flash
flee
flehe
fliegt
focus
focused
forman
formando
forment
fosses
freunde
freundin
frozen
fuga
fuir
gagner
gallura
gebunden
geeignet
gegenteil
gegenw
geheilt
gehorchen
geistern
gek
generated
generosa
gently
gerechte
gesegneten
gestern
gewissen
gibst
gioco
giove
giraba
giraban
gleichzeitig
glorioso
goal
grandeza
greek
greif
guardian
guerir
hacerle
halcon
handle
haughty
healthy
herde
hert
herten
hid
hinterlassen
hlst
hoffe
huesos
hymn
identical
iluminada
imaginacion
impact
impide
inclination
indico
infeliz
influencias
informed
inquiete
instruments
intensit
jahr
jeunesse
joue
juez
justes
kleider
kleiner
klinge
kostbare
kreuzes
kummer
laissa
laissant
lamenti
langsamen
largeur
lasciato
laurel
lealtad
leibe
leibes
leider
leiter
lenti
liberta
liefen
lieto
limits
llegaron
lob
lobo
lys
madera
magnificencia
magnifiques
mando
mangel
manifest
marcos
mari
mariage
mariee
marzia
masa
materielle
mattino
maudits
maximo
meal
meraviglia
merveilleuse
mettere
mitleid
mittel
mmert
mmerung
mois
mostri
motivation
movian
movil
muoversi
murailles
murallas
nascosto
nato
nche
ndete
necesito
nemici
nemico
neues
nften
ngliche
ngte
nigreiches
nigs
norte
nt
nzende
objetivo
offenbaren
oggetto
oia
oportuno
opposto
organe
oyeron
parcours
paredes
parezca
parfaitement
pasados
passieren
patria
peccatori
penitents
penne
perfume
personen
petits
pfeile
piacque
pleurait
pochi
podamos
poetica
poetico
poil
portaient
portait
portare
posa
posee
positive
poussa
precise
preferable
prepara
presenza
pronuncio
proteger
puissant
punito
purpose
pushes
raise
raisons
rare
regne
reichen
reiter
relative
religieux
religioso
renewed
repas
repentir
report
reprimande
resplandecia
response
retournai
reussi
reveler
rh
richte
richtet
ricordare
rimase
risplende
roja
rotate
rouges
rudder
rund
runde
sacerdote
sail
sails
salieron
sanften
sanno
sauve
schaust
scheinen
schenkt
schlechte
schrieb
schuldig
schwach
sentais
sentier
sentiero
separado
servitore
setzen
sick
siede
sientes
signo
sigues
silber
soddisfare
soffrire
sogleich
soldanieri
solide
solos
solve
songs
sorrow
sortis
sostenia
souhaite
souvient
sparks
ssigt
stained
steam
stellte
stiegen
sucia
sufficiente
sufre
superbo
supported
taille
taught
tels
tenant
teneis
tenere
teneva
test
threatening
throne
timents
tip
tomado
tonnerre
torto
touched
tradimento
transformee
travailler
trente
tries
trou
trovai
trovato
trueno
tuttora
uccello
uft
umilta
unie
unknown
usci
utiliser
vaincu
vangile
velas
velocidad
verbergen
verbindet
verbrannt
verdienen
verstandes
verstecken
vert
vertraute
verzweiflung
vestiti
viste
visuelle
volevo
volvieron
vostre
vues
waage
wachsam
waffen
walks
wandering
weile
wein
weinend
weitermachen
welchen
wendet
wet
wickedness
wohlgef
wolves
working
wunderbar
zeigten
zittern
zornig
zweige
##ago
##ahren
##anco
##anke
##arsi
##arten
##ases
##atz
##avi
##bagliato
##bel
##bild
##brach
##cava
##cciones
##celli
##cendio
##cero
##chada
##chieden
##chlagen
##chtet
##ciaba
##cifica
##cile
##cilia
##cini
##cise
##cited
##cline
##cone
##dada
##dado
##daigne
##degno
##del
##dens
##dida
##dro
##dus
##ea
##eciendo
##ef
##eist
##elo
##ence
##endome
##endose
##engel
##ennent
##entos
##erent
##erme
##erve
##etta
##euf
##eut
##ever
##fallen
##fect
##ffe
##fia
##fin
##fines
##forming
##frau
##fte
##ftigen
##gara
##giare
##gibt
##gina
##gn
##gnait
##gnante
##gua
##gura
##gustin
##habited
##haften
##hit
##hood
##hr
##iado
##ial
##iare
##iato
##ices
##icks
##ieuse
##igi
##igia
##immen
##inas
##ippe
##ismo
##ison
##issons
##isto
##itage
##iver
##ivi
##iza
##kraft
##ladin
##laire
##lance
##lava
##lf
##lito
##llido
##llte
##lose
##lue
##lungen
##lva
##lves
##mede
##mete
##mettre
##minar
##mitir
##mitted
##mn
##mne
##mone
##mpie
##nadas
##nahm
##nahme
##ndomi
##nest
##nons
##ntemente
##nzado
##obar
##occo
##ocle
##ogen
##ojado
##onen
##onge
##onto
##osas
##osos
##osten
##otte
##otto
##pare
##pense
##pere
##piano
##piente
##pion
##pirar
##prache
##presso
##pta
##pto
##quee
##racion
##rance
##rata
##rene
##rgen
##riage
##rimento
##ringen
##rions
##rum
##ruta
##sato
##satz
##scono
##ssions
##stere
##tate
##tees
##tehen
##tend
##teten
##tez
##tiendo
##tienne
##til
##tire
##tista
##tone
##trale
##trando
##tria
##tted
##ube
##ubio
##uchs
##uctive
##uda
##udre
##uencia
##ufe
##ugen
##unce
##undert
##undo
##unta
##uosa
##uoso
##ured
##urish
##used
##uss
##uten
##vaient
##van
##vare
##ven
##vern
##versario
##vidad
##vimos
##vite
##vos
##weg
##wingen
##yeron
##zaba
##zan
##zeichnet
##zug
##zugeben
abbandonato
absoluta
absolutely
accesso
across
adecuado
adore
afterward
ahead
alcmeon
ales
alimenta
allons
alpes
altezza
alzo
amant
amie
amiga
angekommen
angeliques
annee
anno
ansioso
antiguas
antiguos
anwesenheit
apaise
apart
aper
appreciate
approchait
appropriee
ara
arca
arde
arrache
arrogante
assistance
atormenta
attende
aval
avevamo
avrebbero
ayer
azione
bacio
bajando
banner
basis
bathed
battre
bauer
beatrices
bedecken
begehen
begierden
begleitete
behandelt
belohnt
benedictions
benutzen
bereich
bergers
beruhigen
besa
bestrafen
betrayal
bewahren
blancs
blesser
bloody
bold
bologne
bother
bourgeois
brachten
breaking
breite
bringst
brisa
brutal
burden
ca
cadeaux
caminos
campanas
capacidades
capito
carrying
castiga
cattiva
cenno
centauro
cerbero
cessa
chiamata
chispas
chor
christen
chtest
cicero
ciceron
circonference
circunferencia
ckgelegt
cle
cles
clouded
colour
compare
comparison
completed
concentre
condemnation
conduisit
consecuencia
conseils
consideres
consolation
continuar
continuing
convirtieron
coraje
cordes
corne
cos
couvre
crei
crimes
cro
crowned
croyant
cubierta
cuerda
cuerdas
cure
curiosidad
cuyas
dallo
dama
dampf
dared
darunter
dasselbe
date
decian
decidio
degre
demandes
demandez
demi
densa
desagradable
descendiente
description
deseaba
desean
desirait
desolate
desole
desperate
destinado
detiene
detuvieron
devoid
devoues
devozione
dicen
dieci
dieron
difficulte
digale
digas
diletto
directly
disais
disent
disperse
dispute
dissipated
distinct
dividida
doctrina
douloureuse
downstairs
dritta
drove
earthquake
ebro
effect
effects
effetti
effraye
ehren
eifrig
einflu
einsamen
elegido
eloignait
eltern
emana
emerveille
encuentro
entfernen
enthusiasm
entierement
epoca
epuise
erdbeben
erinnerte
erlitten
escondida
escrituras
espa
espaldas
espectaculo
espiritual
eternidad
etincelles
eunoe
evenements
events
exactement
examiner
exces
excess
exhorto
experta
explanation
explicare
expresado
expressing
extends
facing
failed
faite
farti
fatica
favorable
favore
feiern
feinde
female
ferro
feste
fianco
figuras
filthy
firma
flei
flog
florentine
flowed
forgive
formas
frames
fraud
frederick
freut
fuhr
furia
gardez
geant
gefesselt
gegensatz
geglaubt
gehorsam
gelebt
genere
genoux
geschieht
gesegnete
ghiaccio
giovani
girl
glorieux
goldene
grad
greatness
gridando
gridavano
griegos
grieta
griffin
grundlage
guardi
guider
guittone
hacerme
hath
hayas
headed
heading
heiden
heights
heirs
herbes
herederos
herzens
hiciera
hiciste
hierbas
honn
honorable
horizontal
hoyo
huitieme
humaines
humbles
humiliation
hung
identify
ill
illuminates
immerse
impitoyable
implacable
imprime
inaccessible
india
indica
individuos
inflige
informe
inicuo
inoltre
insatiable
insignificant
intellekt
intelligences
interieure
invano
invitation
invited
irrtum
italian
jacob
jenen
joies
joins
josue
jouir
joyau
juda
jugend
juventud
kiefer
kindern
knees
knights
kontrolle
kreatur
laisses
lant
lasse
lauf
leaning
lee
leere
leggi
lehren
leichten
leichter
lernen
lesser
levantate
libicocco
lilies
linie
lino
lirios
llegando
lobos
locos
louer
loups
loyalit
lteste
lume
luoghi
mad
madness
magnifico
majestic
malade
malapena
malheur
mantello
maravilloso
mark
materiales
measure
mehrere
mejores
mensaje
menti
merde
messenger
mmigkeit
mode
molta
montrez
mostrare
mueven
museau
nacer
nachdenkst
names
nannte
naples
nascere
necesaria
necessite
nees
neighbor
nfte
nglichen
nige
nil
nombres
noms
normalerweise
normandie
noto
nuove
nus
objekt
obscurci
observando
ocasiones
offrire
ofrece
okay
ongles
opinione
opposition
opprime
oppure
opuesto
ordeno
oreste
organs
ottenere
ouest
packte
palace
palo
parfum
partner
passait
pastores
peines
penetrated
penis
peoples
perdono
perfectly
permitido
persiste
pesa
pesta
peticion
pfung
physischen
pianura
pidio
pido
pilgrim
piuttosto
podido
podrias
poem
poesie
ponga
portant
possede
possess
potei
potra
pourra
poursuivre
poussait
precieuse
precioso
preocupacion
presta
printemps
prisa
prise
privilegio
proceeding
produire
produjo
profondamente
profondita
progenie
promets
prononcer
proof
propias
provoca
provvidenza
psalm
puedan
puissent
purche
purifica
purified
quaggiu
quedaron
querida
quieras
quita
realiser
realta
reba
rebuke
reconforte
redest
reduce
reflects
refletee
reglas
regles
rejouit
remords
represente
reputacion
responsabilite
restait
retourna
reverence
rico
ricos
rid
riflette
rire
rispondere
ritter
rivage
rivolta
robusto
rocciosa
rocheuse
rodeado
rs
rubicante
rue
runden
ruote
ruthless
sachez
sagace
saison
sake
salian
saliva
salomon
salue
sapiente
saro
satan
sauras
scharfe
schauten
schlangen
schlossen
schlugen
schn
schrei
schutz
schwieg
schwierig
scriptures
sculpture
sehverm
sensi
sentada
sentado
served
seventh
seville
shepherds
sieges
significado
simili
sintio
sitz
socrates
soil
solid
solitaria
sommets
sorprende
sorprendio
sospiri
souffrances
soumis
sounded
sourit
soutien
special
spielen
spur
stai
sternbild
stessi
stil
stopping
stronger
stunden
stupefait
stupore
sud
suggere
sunlight
superado
tacere
temblando
templo
terrena
thebes
tiresia
tocar
tondo
tontos
totally
toucher
tournee
trage
traidor
traits
tranne
tranquilidad
tranquillite
traveled
treibt
trennt
trompee
trompette
troupeau
trusted
tuvieron
tuya
twenty
twisted
ucciso
umane
umarmen
umdrehte
umfang
umgedreht
unpleasant
unseres
untergeht
usando
ux
vado
vague
venaient
verantwortlich
verantwortung
verehrt
verfolgen
vergeblich
verletzt
vern
verschwinden
verurteilung
veste
veuve
vicini
vigilant
vigor
vigoroso
violento
visit
viuda
viven
vivent
vivid
vivido
volesse
voluto
vorr
vuelvas
vuestras
vuoto
wahrgenommen
weapons
wege
weh
weht
welches
weren
wirkung
witwe
wohlwollen
woke
yesterday
youth
##abbia
##abt
##aids
##aires
##anda
##aran
##ative
##att
##auch
##aute
##bato
##baum
##bei
##bit
##bla
##bon
##brochen
##cacion
##cando
##cante
##canza
##cation
##ccoglie
##ccorse
##ced
##censo
##cessarily
##chino
##chos
##chter
##cible
##cilio
##cios
##ckel
##clude
##corpion
##corre
##correre
##cqui
##cribe
##critas
##crite
##cution
##dato
##dicare
##dicate
##digo
##dios
##dir
##doli
##dri
##echen
##ecke
##edi
##ehung
##eine
##ek
##ele
##ellen
##elles
##enant
##erai
##eran
##erly
##erne
##ernen
##ertas
##erten
##erweise
##eses
##eso
##esperadamente
##eue
##fahren
##feo
##ferencia
##fesion
##fetta
##fetto
##fft
##ficar
##fici
##fies
##firma
##fluss
##fonce
##gano
##gence
##geschnitten
##gezogen
##ggiato
##gin
##gir
##gliato
##glich
##gliere
##gnare
##grado
##gusto
##hir
##hn
##hre
##hrte
##hundert
##iata
##ibles
##icas
##iccion
##icious
##idare
##iehst
##ieri
##ifica
##igio
##ign
##ility
##illi
##illos
##imes
##immt
##ingo
##iosos
##ips
##irrt
##irs
##isaient
##ischer
##isst
##itado
##itante
##itud
##iz
##izzare
##jando
##kennt
##ladas
##lan
##langen
##lation
##lde
##ldo
##lera
##lgono
##light
##lma
##loth
##lus
##mals
##mio
##mor
##mp
##mune
##mur
##ndola
##neau
##nien
##niendo
##nier
##nk
##ntic
##ntino
##nture
##nu
##ob
##oda
##ojo
##oked
##olle
##osed
##osta
##ovi
##pado
##pas
##petta
##pirazione
##plicar
##pose
##posizione
##ppi
##prende
##rains
##range
##rants
##rarlo
##rasse
##rds
##redo
##reichen
##rief
##rifie
##rischen
##rnen
##rufen
##sah
##sando
##sava
##scht
##sel
##setzen
##seur
##sia
##sible
##sivo
##spiel
##spiro
##ssion
##sson
##stre
##tadino
##tanden
##tard
##teau
##tello
##tenga
##tenia
##terna
##tero
##tial
##tidamente
##tien
##timo
##tiques
##tita
##tole
##tono
##tributed
##truccion
##ttamente
##ttent
##ttere
##ttet
##tungen
##turo
##tuta
##uai
##ubrio
##uden
##udencia
##udios
##udra
##uio
##uisant
##uja
##ulaciones
##ulation
##uldig
##uliere
##ultivated
##ultura
##unced
##unde
##ungere
##upes
##urar
##urd
##urent
##uron
##urred
##urt
##urus
##usehen
##user
##usi
##uting
##utre
##uvre
##vait
##vallo
##vamente
##vaux
##venuta
##verna
##visa
##vity
##voca
##voli
##volle
##vro
##wendet
##wicht
##wortet
##yen
##zul
##zy
##zzata
abad
abattre
abbot
abondante
abrazo
absolue
absolument
abt
abundant
accompanies
accompli
accorsi
accueille
aceptar
acquerir
actos
adapte
addition
adhere
admired
ados
affermi
afflitto
afirmando
afterwards
afuera
agitation
agnello
agradables
aille
ais
aktion
alegrias
alliance
allows
alti
amas
amica
amoroso
anciennes
andai
andava
anfing
angemessen
angenommen
ankam
ankamen
ankunft
annoying
anwesend
anz
aparta
apennin
apolo
appela
apretado
ardientes
arduo
argento
argomento
arrivera
asche
ascolto
aside
assigned
astonishment
astucia
atem
atrae
attesa
aufwachte
augmenter
aumenta
ausgesetzt
ausl
avidite
avvolto
awaits
bailar
bajaba
bajado
bajamos
bapt
baptism
barbagia
bedauern
befehle
befinden
begonnen
beleidigung
believes
bend
benutzt
beraubt
bere
berm
beschlossen
besitzt
betteln
beute
biada
bienestar
bisogna
biss
bisschen
bissen
blancas
bleib
blue
borrado
brauchen
briareo
caido
calle
calmed
calore
cantaban
cantare
capaces
captured
carries
catch
cattivo
causer
cavaliere
celebrate
cents
centuries
cheat
ches
christians
circumference
cire
ckkehr
ckzukehren
claimed
cleopatra
coast
commettre
compagnon
compito
comprendere
concedido
confirmation
conforto
connaissances
conocida
conoscere
conozco
consacre
consoler
construit
contar
conte
contiene
contrairement
convaincu
cortado
costoro
courtois
couvert
craint
creados
creen
cuan
curiosity
darte
debemos
decidido
defensa
dejan
demostro
departure
dern
desagreable
desaparecio
descanso
descendientes
descending
descente
desear
desgracia
desgracias
despised
determination
detriment
devouee
dig
dignified
digues
diminue
disdain
distinguer
distracted
divinas
divinidad
divisee
doble
dolcemente
dolcezza
donnait
donnees
dote
dovessi
draws
drop
duquel
eating
ecole
effets
effondre
eighth
eingepr
einverstanden
elegant
empfang
endormi
endured
eneas
enfermee
enlever
ensure
entendais
entends
enthalten
entourent
entsteht
envuelve
erased
erbe
ergibt
erhoben
erleuchten
erleuchtete
err
erreichte
erwischt
erworben
esce
escondido
escribio
escrito
escuela
esistenza
espece
esperer
esperta
espressione
esseri
estrecho
estuvo
eterne
eternity
exactly
excelencia
expect
expectation
experte
explorer
extrema
fair
fairy
fanden
fango
farai
farmi
fascinated
faucon
feurigen
fianchi
fija
fil
fills
fixer
flaming
flattery
florentiner
florentinos
florentins
flug
footsteps
fortezza
fossa
frecce
freccia
french
freundlicher
friedens
friedrich
fronds
fulgore
funke
fureur
ganado
gang
garda
gastfreundschaft
gather
gebeugt
gedanke
geheimnisse
gelassen
gelernt
geliebte
gelitten
gemalt
genauso
generates
generosidad
generosite
gerichts
germano
gesammelt
gesetze
gespr
getrieben
gewaltt
gewi
gewinnen
gewohnheit
gigantes
gigkeit
giurato
glorieuse
gner
golpes
gorgo
gouverner
graben
gradini
gradino
grecs
griechen
guardai
guardava
gutem
habitacion
hacian
hail
haine
hannibal
hause
heerscharen
herbs
heritiers
herrlich
hie
hosts
hrerin
huellas
huerto
huge
humildes
hungrig
hunt
hurled
husband
ida
idioma
ilio
illuminate
ilustre
impresa
inbr
incertidumbre
inclinado
including
individuals
individus
inexorable
injustamente
insignificante
insufficient
intact
intensiver
intentions
interes
intervention
invito
invoque
ismene
jaloux
jenem
jeta
jews
juntas
juramento
justa
kalten
kenne
knochen
lachte
ladron
ladrones
lagen
lamenta
latin
lauter
leger
lektion
lesson
lets
letters
levantarse
lichtstrahl
lilien
limitada
linguaggio
linke
lis
llegara
llenas
llevan
llora
located
loses
louange
lupo
malheurs
manieres
manteau
mantoue
marcia
marked
married
mauvaises
medios
meilen
melange
mepris
merits
mezcla
michael
minosse
misura
mitgef
modest
moine
mordu
morgend
mosca
mostraba
mostraron
mover
mpft
munde
mutig
nackt
naturale
naturel
navarra
ndige
ndlich
ndung
neglected
nein
nennen
neu
niedrig
niemanden
noblesse
normandia
notar
notas
nourrit
oath
obeissant
oberen
objectif
obligados
observes
occupe
oeste
offering
organes
orgullosa
oriental
oublie
paese
pains
palude
papale
pardonne
passato
pasto
peinlich
peleo
pelerin
pen
penas
percevoir
perdi
peregrino
perfectamente
pericolo
pfeilen
piaceva
piacevole
pidiendo
piedras
piege
pienamente
plans
play
pleins
pluma
poeme
poison
polidoro
politica
porti
posibilidad
possessed
possibility
pousser
preocupaciones
preparado
priester
princes
principle
produite
progressivement
proie
promesas
promesses
pronunciar
property
prouver
pursue
qualit
qualita
qualite
quieren
rang
razones
rchtige
reaches
rechte
recommande
recompensa
reconoci
reddish
reflexion
regardent
regola
reiches
religione
rendait
rendent
reno
repair
reparieren
repeatedly
resist
restez
results
retiene
retire
returning
revelation
reverencia
revienne
revint
rgern
rhythm
rhythmus
rica
richesses
riflesso
rimane
ripida
rit
rliche
rmen
robo
rodeaba
rodean
rodillas
rompe
rompio
rossa
rota
ruled
sabios
sabor
sack
sacro
saludo
sanctions
savent
scese
schaffen
schlafen
schleuderte
schnellen
schwierigen
scipione
scritto
scudo
secreto
secrets
security
segeln
sensacion
septieme
serment
serpientes
servizio
seufzte
sexto
shortly
siecles
sienes
sighing
siglos
sincera
snakes
socrate
soft
sohnes
solches
soli
sopla
sortaient
souri
southern
species
splendide
spot
starken
statius
steil
stets
stirbt
stones
strike
stuck
style
styx
suffisant
suffit
suivaient
suivit
sujeto
summer
suolo
supuesto
surprise
suspiro
sustancia
suyos
swear
talmente
taureau
tee
tells
tempel
theme
thief
tiefsten
tiempos
tieres
tigt
tinieblas
todes
tombait
tornato
torrente
totalement
traite
traitor
traje
trapped
tratar
treasure
trembler
trovo
trumpet
tzlichen
ue
umdrehen
umwickelt
uncertainty
ungerecht
unidos
unita
unterschied
unterschiedlichen
usche
utilisant
vacant
varie
vaters
veas
vengono
venti
verano
verband
verdammter
verdi
verdienste
vergebung
vergognia
verre
verschlossen
verschwenden
vertueux
verwandeln
verwandelten
verzweifelt
vestidos
veulent
vieil
viendra
vierte
vin
virent
vistazo
void
voient
voies
voleur
voran
vorhanden
vows
vuela
vueltas
wachs
wagens
wanderte
warmth
wax
wedding
wenige
werfen
willens
wine
wollten
worked
zeitpunkt
##accia
##achte
##aci
##act
##action
##aden
##ags
##ague
##aken
##akes
##all
##amiento
##ammelt
##andeln
##ankheit
##annte
##ardi
##arla
##aure
##aved
##ay
##baldo
##bation
##bbia
##bbro
##biendo
##bilita
##bten
##by
##ccede
##cche
##cchie
##ccorso
##cedi
##change
##chr
##chst
##chtung
##ciando
##cidad
##ciende
##cleto
##cognizable
##col
##come
##contro
##copo
##cordando
##courir
##cques
##cribir
##cripcion
##cume
##cun
##curato
##date
##dicion
##dien
##dinario
##dizione
##dom
##du
##due
##eaks
##ebe
##ebte
##ecken
##ega
##egio
##ehe
##ehre
##ehst
##eigt
##eil
##eme
##ennen
##enza
##erate
##erated
##erature
##ernt
##esi
##esso
##esto
##fait
##faits
##fangen
##fesa
##ffatto
##fiee
##finie
##fitta
##frio
##funde
##fung
##gali
##gata
##gelo
##gest
##gidas
##gire
##gischen
##git
##gola
##gore
##guen
##guir
##hesi
##het
##hne
##hrlichkeit
##hrten
##iaco
##iate
##iave
##ibility
##icial
##ics
##idi
##iegen
##iego
##ielt
##ierta
##iesgo
##ieure
##igkeiten
##igli
##ignait
##igte
##ii
##ilidad
##ill
##imate
##imos
##ind
##ining
##inted
##iose
##iosite
##ipped
##irement
##isan
##ischt
##iso
##issure
##istere
##ively
##ivos
##izada
##izio
##izza
##jera
##ka
##kehren
##kind
##kl
##krates
##kungen
##lain
##landa
##lang
##lave
##lcro
##lenta
##let
##lido
##liente
##lione
##lmo
##ltet
##ltro
##mage
##mare
##mate
##mbe
##meln
##mena
##meno
##mier
##min
##mincio
##mlich
##mond
##mpagna
##mpagne
##mus
##naio
##nees
##nella
##nestly
##niere
##nimo
##nni
##noso
##noten
##nsion
##ntano
##ntas
##oglia
##ogue
##oils
##omed
##osamente
##oses
##oster
##out
##parer
##passen
##passes
##pate
##pettare
##pher
##phie
##piada
##pides
##pies
##plicado
##plorare
##pore
##position
##pping
##pporta
##preciada
##preciar
##precio
##prender
##prendio
##prete
##ptado
##pulsion
##puso
##quia
##rages
##ragt
##rantes
##rcer
##reich
##reis
##reiten
##resse
##reten
##rhe
##riatto
##riba
##ric
##ridad
##riere
##rige
##ringt
##rior
##ris
##rition
##rity
##rna
##rns
##rol
##rrados
##ru
##rue
##rute
##rva
##sable
##sants
##sar
##schnitt
##sement
##sena
##setzt
##sine
##spirando
##spunkt
##ssed
##ssivo
##ssons
##stes
##stiegen
##sucht
##sue
##sy
##taban
##tad
##talle
##tauchen
##tava
##tches
##temi
##teso
##tete
##tieren
##tig
##toria
##tory
##trait
##tribue
##tribute
##tsch
##ttato
##ttering
##tume
##tz
##ubi
##uellen
##uente
##uesta
##uestra
##ueve
##uffe
##ught
##ugie
##uh
##uillee
##uiller
##uisce
##uissait
##uli
##ulter
##umbre
##unciando
##underte
##unds
##unge
##unken
##usly
##utais
##uzzo
##vada
##vani
##vater
##veillant
##venant
##verra
##verted
##veur
##vida
##viene
##viez
##villa
##wachen
##wanzig
##way
##weglich
##wenden
##wo
##xer
##ying
##zes
##zige
##zumachen
##zung
abandona
abandonada
abbandonare
abgelenkt
abreise
absolut
absolutamente
acabo
accepted
accorder
accuse
acepto
acercaron
acquired
admiracion
adquirir
adversaires
afferma
affermando
afligida
afrontar
agrada
agreables
agujero
akzeptieren
alexander
aliments
alivio
altrui
alturas
amenaza
amertume
amount
andavano
andra
anerkennung
anstarrte
anteriormente
antlitz
antworte
anxiete
anyway
anziehen
apaiser
apennines
appetit
appointed
aprire
aquiles
ardemment
argumente
argumentos
argus
armees
arose
arrepentido
artist
artiste
ascenso
ashes
aspects
asseoir
assisi
assured
astre
atreve
atrevido
attack
attacked
attentif
attirer
attorno
attracted
aufstand
aumentar
ausencia
auserw
avanza
avanzaban
ayude
bambino
barga
barons
barriere
barter
based
basilica
bassa
bebe
becoming
bedeutet
begeistert
behindert
bekommst
belier
bendiciones
bendito
benefique
benutzte
bereitete
bern
bertrifft
besondere
bestehen
bestie
bewiesen
bewunderung
bezahlt
bianca
bienfaits
bienheureuse
bietet
bildet
blesse
blesseds
blessure
blinde
boiling
bolonia
bonagiunta
borgo
bouleverse
brabant
breaks
breeze
bremse
breves
bricht
briefe
brisee
brises
brosse
bruges
buscar
busy
cadde
cadenas
cafeteria
caia
caina
caldo
cambiare
candelabros
capisco
cartas
cassius
castigos
cercano
certitude
cesare
chains
champ
chandeliers
chantaient
chere
chete
chiamo
chiavi
chiedo
chiesi
chtigen
chtigt
chute
circumstances
ckgekehrt
clinged
coderon
coins
colori
colpisce
comete
commencer
compresi
comrade
comte
concept
conde
conduct
confundido
confus
confuse
confusion
conio
consent
consideracion
constanza
contemplation
contente
contenu
continuamente
continuant
conveniente
conviccion
cordon
corner
corone
corse
coupable
cour
courageux
crack
creata
creato
creda
credevo
crochets
crucified
cubre
cuisses
cumbre
cumplido
danni
dapprima
dargestellt
darts
decirte
decreto
decrit
dedos
defeat
deference
demostrado
densidad
densite
density
descansa
descubriras
desnudos
despertar
desprecio
destinada
detalles
devout
dicevano
didon
dieb
difficolta
dificultades
diques
dirigimos
discuss
discuter
disposed
distinction
distinguir
diversa
dolente
dommage
donnera
dormido
dottrina
dovere
dudar
dung
dynastie
ecrase
education
efface
ehrw
einigen
einstellung
elemente
embarrassment
empireo
emprender
enclos
encouragement
endless
engeln
entgehen
entirely
entkommen
entres
epees
ephemeral
eredi
ereignisse
erforschen
erleichterung
errores
erschuf
escalader
escalar
escena
escucharme
esfuerzos
espagne
esprimere
estilo
eteint
etendu
etendue
etranger
evite
ewiglich
examinar
exclama
exhorte
experto
explication
extremadamente
extremely
facolta
fahren
falaise
falcon
fardeau
fasziniert
felsens
felsige
fermes
feststellen
fiere
fierte
flegetonte
fleuves
flock
foresta
forgiveness
formano
forms
fragile
fragment
frailes
fresh
fria
friars
fronda
fuggi
fury
gange
ganzes
garza
geants
geb
gebildet
gefolgt
gegend
gekleidet
gelegenheiten
gels
gema
gemeinsam
generalement
generando
generosity
gentle
gentlemen
geschmack
geschwindigkeit
geschworen
gesti
giants
gielosia
gig
gioielli
giran
giungere
giunse
glass
gobernante
goddamn
gridava
grieved
grimper
grosse
gru
gst
guerie
guglielmo
guy
haberme
habido
habiendo
habite
hablarme
hang
hautes
heiliger
helada
hellish
hemispheres
herd
herrschaft
hers
hig
hilft
hinder
hingehen
hling
hnheit
hochm
hole
holen
homenaje
hommage
hoods
hooks
hre
hrers
illuminating
iluminaba
immagini
immersed
implore
impose
imposed
impossibile
incline
informiert
ingannare
ingresso
inicuos
inizia
injustement
inmovil
innen
inno
inocentes
instinto
instrument
interessiert
israel
italiano
italianos
italiener
jaillit
joint
joys
keinem
kennenlernen
ketten
kl
klingt
klug
konstanz
konzentrieren
konzentriert
kreisen
kurs
kurze
lamentos
landes
lasst
latter
leaf
leal
leisten
letto
lettres
lezione
liar
liberi
lider
liebevoll
lieta
ligera
liguria
limitee
limosna
losing
loss
loyalty
ltigen
lujuria
maestros
maggiormente
magno
majeste
malabossa
maligna
malos
mange
manoir
mantuvo
matters
mauer
mement
mensajero
mentes
mention
mento
merci
meriti
meritos
merze
messager
messe
micol
milan
miraban
mirarme
misfortune
misfortunes
mist
mitten
moglie
moindre
moises
moitie
moneda
montant
montee
mostra
mostrarle
mostrato
mostrava
movements
movia
moyens
muere
muovere
murmure
murren
musas
musica
muslos
muso
nachdenken
nachkomme
nacido
nacieron
nasconde
nascosta
nations
nearest
necesitas
needs
neigung
nennt
neve
ngstigt
nid
niveau
nntest
nobility
nobleza
nod
noe
noir
norden
north
notizie
nourished
nourishment
nstig
nulle
nze
oars
obtained
oceano
offri
ofrecio
oltraggio
ons
operare
oppressed
organ
organo
organos
ortes
orvieto
oso
osservi
otherwise
oublier
ouverte
ouverture
pajaros
palacio
pardon
parlarmi
patient
patto
pause
pedi
peint
penetrer
penitentes
pensaba
pensado
pensavo
percibir
percorrere
perdon
permesso
peschiera
pferd
ph
piante
piccola
piccolo
pide
pieni
pitiful
placeres
plaisirs
planetas
planetes
planets
pleasures
pocas
podra
poetry
poils
political
ponerse
popa
posesiones
poter
practica
preguntale
preis
preisen
prezioso
proa
producir
profecia
profondeurs
profundidades
project
prophecy
prophetie
proteccion
protegido
prouve
provenza
proximite
prudence
punir
punishments
punit
puniti
puntos
purity
puro
purse
quality
quantita
quarto
quassu
quels
quietly
quiron
racines
ragionamento
raices
raising
rames
rammarico
rassasie
rastro
recepcion
recherche
reconfort
reconnaissance
refined
reflechi
reflejado
regretter
reinheit
relationship
remos
repliqua
reponds
requiere
resiste
resonated
respire
responsabilidad
rested
restent
retient
reviennent
richeza
ride
rigido
ripped
rivolti
rken
rm
rodar
roots
rope
rote
royale
rude
rufen
ruht
rumore
ruotare
rushed
rzten
sabbia
sabemos
sabras
sacar
saisir
saiten
sales
salido
saliendo
sano
satane
satisface
saturn
scent
schen
schickt
schmerzes
school
schreie
schreit
schubste
schule
science
seguaci
seguido
sehns
sejour
sembri
semplice
separates
separee
separo
serena
servants
servira
servo
sevilla
sichere
siegel
sighier
skill
smarrito
soeur
soglia
sonnenstrahl
sonriendo
sorprenderte
sorrise
sorrowful
sortent
sostiene
soupir
sources
souris
spain
spanien
speisen
sponda
sprang
steilen
stellung
stich
stimmt
strange
stretch
strikes
strings
structure
struggle
successeur
successor
sucesor
suggested
suicide
suivait
sultan
superbe
supplication
surely
surround
suscita
tacque
tauchte
teach
tear
temeva
tenendo
tengan
terza
thighs
thirty
tiennent
tolerate
torri
toscan
tragic
transformado
transparent
travaille
trembled
trembling
trennte
trento
trino
troie
trono
tropo
trouves
troya
trusts
ttlicher
tues
tust
twice
uguale
ultimos
umani
umg
umgab
unaufh
underground
underneath
unendlichen
ungewissheit
unite
unterwerfen
unterworfen
usciva
utilisee
vaincue
vapore
variations
vaste
vederlo
vedra
veloci
vemos
venite
verbot
verdient
verdreht
vereinen
verga
vergiss
verhindert
verlangt
verm
versammelten
versichert
verstorbenen
vertraue
vertrieben
verzweifelten
vicina
videro
vierge
vigueur
villa
villain
vinci
vingt
vinto
visibile
vital
vitesse
vivida
vivio
voleurs
vollkommenheit
volti
volumen
volvian
volviendose
vorschlag
vorstellen
vote
votos
voudrais
voudrait
voyons
vuelva
wahrer
waldes
wassern
weiber
wilde
wilhelm
wimpern
wishes
wohnen
wore
wurzeln
zeiten
zugef
zumindest
zustimmung
##!
##'
##,
##.
##?
##j
##q
